#version: 0.2
Ġ ì
Ġ ë
Ġì Ŀ
Ġ ê
Ġ í
Ġì Ĺ
Ġí ķ
ĠìĿ ´
Ġíķ ĺ
Ġ á
Ġá Ĩ
ĭ ¤
ĠáĨ «
Ġ .
ĸ ´
Ĭ Ķ
ĠìĹ Ĳ
Ġì ĸ´
Ġë ĬĶ
Ġê °
Ġë ĭ¤
Ġê ³
§ Ģ
ì Ŀ
Ġì ŀ
¡ ľ
ĠìĿ ĺ
ì Ħ
ĠìĿ Ħ
¼ ë
Ġê° Ģ
Ġì ł
ë ¦
Ġì ľ
¸ °
Ġê ²
ĠìĹ Ī
Ġ ,
Ġì ķ
ìĦ ľ
Ġë §
ı Ħ
ë¦ ¬
ì ŀ
ì ł
ìĿ ´
Ġê³ ł
Ġë ¥
Ĥ ĺ
Ġì §Ģ
Ġë¥ ¼
ĠìĿ Ģ
Ġë °
Ĥ ¬
Ġë ĵ
ë ĭ¤
í ķ
Ĭ ¤
ĭ ľ
Į Ģ
Ġìľ ¼ë
ê ³
ì §Ģ
Ġë ³
ê °
Ġì Ħ
Ġë ıĦ
ì ļ
Ġê ¸°
¸ ë
Ġìŀ Ī
Ħ ë
Ī ĺ
Ĳ ĺ
Ġë Ĳĺ
Ġë ¡ľ
Ġê ·
ë §
ì Ĭ¤
ĠáĨ« ëĭ¤
Ġë ©
Ġì ĺ
ĠìĹĲ ìĦľ
Ġ 1
Ġìľ¼ë ¡ľ
Ġë ª
ê ²
ê µ
ê ¸°
Ġì Ĥ¬
ĠáĨ ¯
Ŀ ¼
Ġë ¶
ì ķ
Į ë
Ġëĵ ¤
ĥ ģ
Ġ 2
Ġë³ ´
íķ ĺ
Ġë Ĥĺ
Ħ ì
Ġì ĭľ
Ġ )
Ġë į
Ġ (
ê³ ł
Ġë ĮĢ
Ġë ĭ
Ġì Īĺ
ë ¥
Ġì Ļ
£ ¼
ë ł
Ġìŀ Ĳ
Ġê² Į
ë ĭ
Ġë ¬
ë ĵ
ì ¹
ì Ĺ
Ġë ²
í Ĭ
Ġë Ĥ
Ġê µ
Ġê² ĥ
ì ĭ
Ġë ħ
ì ĭľ
ê° Ģ
± °
ľ ë
Ġê³ ¼
ë Ĥĺ
Ġë© ´
í ĥ
Ġê· ¸
Ġìł ģ
ë ıĦ
ìŀ ¥
ì Ĥ¬
ë¥ ´
ì ĺ
Ġí Ļ
Ġìĺ ¤
Ġì Ľ
ë§ Į
ı Ļ
Ġì Ĩ
ìļ °
Ī ë
ìŀ Ĳ
Ġì ļ
Ġì §
¤ ĳ
Ġì £¼
Ġì ĭ
íĬ ¸
Ġì °
Ġë ¹
Ġí Į
ë į
Ġë¶ Ģ
Ġí ĺ
ĠìĻ Ģ
Ġì ¹
ŀ Ī
Ħ °
ìĿ ¸
Ġìł ķ
Ġì ĥģ
Ġë ķ
¯ ¸
Ġë Ŀ¼
í Ļ
Ġì ²
ë ¡ľ
Ġ '
Ġëª ¨
ì ľ
ë ŀ
Ġì Ĭ¤
Ġê ±°
Ġí ĥ
ìł ķ
Ġìĸ´ ìĦľ
Ġê· ¸ë
ë ¶
¡ °
ëĵ ľ
í Ħ°
ë Ł
ĠìĿ ¼
ì ĸ´
Ġë§ Ī
ì Ľ
Ġìķ Ħë
Ġê³ µ
ë °
ì Ĩ
ì ²
ì¹ ĺ
Ġê ¹
Ŀ ¼ë
Ġê² ½
ģ ¬
ì Īĺ
Ġí Ķ
Ġ 3
Ġìł Ħ
Ġëħ Ħ
í ĺ
ĠìĹ Ĩ
Ġí ı
ìł Ħ
Ġì ¤ĳ
Ġë§ Į
ĥ Ŀ
Ĥ ¤
Ġ2 0
í Ķ
ìļ ©
ì ĥģ
ëį °
Ġìľ ł
Ġì ¶
ì §
ê² Į
Ġì§Ģ ë§Į
Ġ -
Ĭ ¹
ìĺ ¤
ë ĮĢ
êµ Ń
ĭ Ī
¬ ¸
ìĭ ł
Ġíķ ľ
© ´
Ġëĵ ±
ĠìĦ ±
ë ³
Ľ Ħ
ìł ľ
ë ª
Ġë¬ ´
Ġìķ Ĭ
ë Ŀ¼
ê ·
êµ ¬
ĠìĿ ¸
ĠìĹĲ ê²Į
Ġëį ĺ
ë ²
Ĥ ´
ìĦ ±
ê² ©
Ġì ĸ
ê ¸
í Ĥ¤
ëł ¥
Ġìł ľ
´ Ģ
Ġë Ŀ¼ë
ì ¦
Ġë© °
Ġì ¢
Ġ :
í Ĩ
ì °
í Į
ĠìĹ ¬
Ġì ¡°
Ġë ł
ĠëĤ ´
Ġ "
Ġí ŀĪ
Ġìľ Ħ
Ġë Ķ
ļ Į
ë ĬĶ
Ġë ıĻ
íĥ Ģ
Ġë Ħ
Ġë° Ķ
ĸ ī
ìĽ Ĳ
ĳ Ĳ
Ġìŀ ¥
Ġìķ Ħ
Ġë§ Ĳ
£ ¨
Ĭ ¥
Ġ 4
Ġë° ©
íĻ Ķ
½ Ķ
ĠìĽ Ķ
ìķ ¼
ê° Ħ
¦ ¬
Ġëķ Į
ĠìĦ ł
Ġì ´
Ġì° ¨
Ġì £
ë ¯¸
Ġêµ ¬
Ġì ĥĿ
Ġí İ
ĠìĨ Į
ĠìĹ °
Ġëĭ ¹
Ġìĺ ģ
Ġìĭ ł
Ġ20 1
í ĭ
ë¶ Ģ
Įë ¬¸
Ġíĥ Ģ
ŀ ĺ
Ġìķ Ī
ĠíĻ Ķ
ì ĸ
í ģ¬
Ġê¹ Į
Ġë ı
ë ¹
Ġëķ Įë¬¸
ĠëĬĶ ëį°
Ġí Ĩ
ĠìĦ ¸
¬ ´
ëĭ Ī
Ġê ¸
ë ¡
ìŀ ĳ
Ġ 5
Ġê° ľ
Ġ ã
í ŀĪ
ì £¼
Ġëį Ķ
ìĿ ĺ
ìķ Ħ
Ġë² Ħ
ë ©´
ë§ Ī
0 0
Ġê¹Į ì§Ģ
ì Ĭ
Ł ¬
ĠìĽ Ĳ
ĠìķĦë ĭĪ
Ġê° ķ
Ġë ¯¸
ì² ´
ìŀ ¬
Ġì¹ ´
ĠìĿ ¼ë
© °
Ġì ĭ¤
Ġë° ľ
Ġë Ĩ
ĠëĿ¼ ê³ł
ì¹ ´
ĠëĿ¼ë ĬĶ
ë ıĻ
Ġì µ
Ġê° Ļ
Ġë° Ľ
ìĿ ¼
Ĥ °
í ĽĦ
± ´
ì Ļ
ĠëĤĺ ìĺ¤
ê³ Ħ
Ġë ¦¬
Ġëª ħ
ìĨ Į
Ī ìĿ´
Ġëį °
ìĭ Ŀ
í ħ
Ġíķ ´
Ġ â
Ġëĭ¤ ê³ł
Ġëĭ ¨
Ġë§ İ
ê ±°
Ġìļ °
Ġë¹ Ħ
í ı
í ĸī
Ġê² °
Ġë¬ ¸
Ī ¬
Ġë² Ī
Ġí ģ¬
ì¦ Ī
Ġ. .
Ġë° ĺ
Ġì ĵ
ëĭ ¹
ë Ĭ¥
Ġíı ¬
Ġê ´Ģ
ëŀ Į
ìŀ Ħ
ì ĭ¤
Ġë³´ ìĿ´
¬ ¼
Ġë ¯
ì ¶
ë Ħ
ìĿ Į
ĠìĦ ľ
ê³ µ
Ġë©´ ìĦľ
Ġí Ĭ¹
Ġìĵ °
Ġìŀ ĳ
ëŁ ¬
Ġ /
êµ Ĳ
ìĦ ł
íĶ Ħ
ìľ ł
íķ Ļ
Ġê²½ ìļ°
Ġì² ĺ
ĠíĮ Į
ĠìĹ Ń
Ġìķ Į
Ġë¶ Ī
ì Ī
íĭ °
íĨ ł
ĠëĤ ¨
Ġìµ ľ
Ġë° °
ĵ ľ
Ġë§ Įë
ë ħ
Ġì¹ ĺ
Ġ 6
ìł Ĳ
Ġ.. .
Ġìľ¼ë ©°
ìľ Ħ
ĳ ľ
ê° ģ
Ġëĭ¤ ëĬĶ
ìĹ Ń
ĠìĤ¬ ìļ©
Ġ S
Ġí ĽĦ
ë¶ Ħ
Ġ1 9
íķ ľ
ë¹ Ħ
ë £¨
ì ħ
ëĭ ¨
ê³ ¼
Ġí ļĮ
ëª ħ
Ġë ĳĲ
Ġë ¨
ĠìŀĲ ìĭł
Ġëª »
Ġìļ Ķ
ì ¡°
ìł Ģ
Ġì¶ Ķ
Ġì Ī
ìļ Ķ
Ġìķ Ħì
Ġíİ ¸
Ġë ģ
Ġë ĺ
¤ Ģ
ĠìĿ´ íĽĦ
Ķ Ķ
ì ĥĿ
Ġìł Ĳ
ì ¤ĳ
Ġëĭ ¬
Ġí Ľ
Ġì º
ìĹ °
í İ
Ġê·¸ ë¦¬
Ġì¢ ĭ
ë ¸
ì ¡
Ġê³µ ê²©
Ġìł Ħì
Ġí Ŀ
Ġ 7
Ġìłķ ëıĦ
Ġë§ ¤
ĠìĤ¬ ëŀĮ
ĠëĶ °
ì Ĥ°
Ġì ½Ķ
íĥ ľ
Įë ł
Ġìĸ´ ë
Ġê ¶
Ġ !
Ġìł Ģ
Ġí Ĺ
Ġìĸ´ ìķ¼
ê ´Ģ
Ġìŀ ¬
Ġêµ Ń
ĠíĨ µ
Ġíķ Ļ
Ġì ĥ
Ġì Ĭ
Ġ 8
Ġì¶ ľ
Ġê° Ĳ
ë Ĥ´
Ġêµ Ĳ
ë¡ Ŀ
í ļĮ
ĠíĮ ¨
Ġì ¦
ĠáĨ ·
ìķ Ī
Ġì ±
ê¸ ī
íĺ ¸
Ġëĺ Ĳ
ê¸ Ī
ã ģ
ì§ Ħ
ì ½Ķ
Ġìŀ ħ
ìĹ Ĳ
Ġ A
íķ ´
ĠíĶ ¼
¸ ë¦¬
Ġ1 0
ìĬ µ
ìĦ ¸
° ĺ
ĠìľĦ íķĺ
Ġê°Ģ ëĬ¥
ìł ģ
ĠíĶ Ħë
ë¥ ¸
Ġìł Ħë
ì ¢
ê² ½
Ġíĺ ķ
Ġ M
ìĺ ģ
Ġì´ Ī
ëŀ ĺ
Ġ 0
Ġë¶Ģ íĦ°
Ġë ¸
ì ¸
Ġíķ ¨
êµ °
Ġë Ī
Ġêµ °
ë³ ´
Ġ 9
Īë ²
ĠìĨ į
ĠëĮĢ íķĺ
Ġì »
Ġì° ¸
Ġì§ Ħ
Ġë²Ħ ë¦¬
Ġê°Ģ ì§Ģ
ĠìĦ ¤
Ġë³´ ëĭ¤
ë¦ Ħ
Ġê¹ Ģ
Ġíı ī
Ġí Ĭ
Ġì£ ¼ë
Ġì Ĥ´
ìĨ į
ê ¹
Ġìĭľ íĤ¤
Ġë Ĭ
Ġìĺ Ī
Ġì£ ½
Ġ C
ì° ¨
ë ĳĲ
¿ ł
ì¢ ħ
¯ ¼
íĨ µ
ê· ¸
íĶ ¼
Ġëĵ± ìŀ¥
Ġì ¡
Ġìĸ´ ëıĦ
Ġí ļ
í Ĵ
Ġ ~
ìĹ ħ
Ġ %
Ġê ´
ì ¤Ģ
ĠìĿ Į
Ġë© Ķ
¶ Ģ
Ġëĭ Ī
ë ¬¼
Ġìº Ĳ
ĠëĬĶ ëĭ¤
ìħ ĺ
Ġë Ĵ
ë Ĥ
í Ī¬
ĸ ¥
Ġëı Į
ê ±´
Ġìľ¼ë Ĥĺ
Ġ B
ìĬ¤ íĬ¸
ìĸ ĳ
íı ¬
Ġì§ ģ
Ġì¢ ħ
í Ĺ
ë ¬´
Ġê·¸ë¦¬ ê³ł
ĠìĿ´ ëĤĺ
Ġ T
Ġê²Į ìŀĦ
Ġíĺ ¸
Ġìĭ ¬
ë ı
ã ĥ
ĠíĮ Ĳ
ì »
Ġìŀ ĺ
ĠìĤ¬ ìĭ¤
Ġì Ĭ¹
Ġë§ ŀ
ë² Ħ
ĠìķĦ ìĿ´
ë £
íĮ Į
Ġë ŀ
ìŀ ħ
Ġëĵ ¯
Ġëĭ¤ ë¥¸
Ġí ĮĢ
Ġìļ ©
ìĪ ł
Ġíĺ Ħ
e r
Ġëĵ ľë
ë¦ Ń
ģ ´
Ġê¶ Į
Ġë³ ¸
ìĭ ¬
ĠíĻ ķ
Ġì² ´
ì ´
ĵ ¤
Ġë³ Ģ
Ġë° ķ
ĠëĴ ¤
ª ½
íĮ Ĳ
ì Ĭ¹
Ġê ±´
Ġëĭ¤ ê°Ģ
ì ĥ
Ġí ĸī
Ġ D
Ġìķ ł
íĻ ©
Ġ +
ëª ¨
ë¸ Į
Ġëª¨ ìĬµ
ê »
ìķ ½
ê° ľ
Ġê³ Ħ
Ġë ĸ
ìļ ´
Ġ ?
ģ ¼
ì¸ ł
Ġì Ĥ
Ġì§ ĳ
§ Ī
ì¡ ±
© Ķ
Ł °
Ġê²½ ê¸°
Ġëħ ¸
Ġê·¸ë Ł¬
Ġê·¸ë ł
Ġìķ ¼
Ġë¶ Ħ
Ġìķ ½
íĬ ¸ë
¡ ł
Ġìļ ´
í ĳľ
Ġë¹ Ħì
ĠëĨ Ĵ
Ġí ħ
¼ Ģ
Ġíķĺ ëĤĺ
ì§Ģ ë§Į
ĠíĨ ł
ĠìĻ ¸
ìĦ Ŀ
Ġê ±
Ġëł ¤
¸ë ĭĪ
Ġ P
Ġëª ©
ìĦ ¤
ê» ĺ
³ ¸
ë° Ķ
ã Ĥ
ĠìĿ´ ìĥģ
Ġìĸ ĳ
Įëł ĪìĿ´
Ġ L
íħ Į
ëł Ī
Ġê±° ëĤĺ
ë ¬¸
ë§ ¤
Ġë¬¸ ìłľ
ìĻ ¸
íĴ Ī
ĠìĤ¬ ìĿ´
Ġëł Ī
i n
Ġìĭľ ê°Ħ
ìł Ī
Ġë¨ ¹
ĠëĶ° ë¥´
ĠëĤ ł
Ġìĭľ ìŀĳ
Ġìĥģ ëĮĢ
Ġí Ī¬
ëł ¹
Ġìľ¼ë ©´
Ġíķ¨ ê»ĺ
Ġë³ ĳ
Ġâ Ģ
Ġ20 0
Ġìŀ ¡
í ĸ¥
íĺ ķ
Ġê° ģ
Ġíķĺ ì§Ģë§Į
Ġë¬ ¼ë
ê ´
Ġì¡ ´
Ġ F
ĠìĥĿ ê°ģ
Ġã Ģ
ë° ©
ĠìĻ ķ
Ġìł ľë
Ġ1 2
ĠìĨ Ĳ
Ġí Ĥ¤
Ġí ŀĺ
Ġê·¸ëł ĩ
Ġë Ĭ¥
ëł ¤
íķ ©
ë£ Į
ĠìĿ´ ë¦Ħ
Ġê² ł
Ġíķľ êµŃ
ìĸ ¸
Ġã ģ
ĠìĨ Įë
ĠìĹ ´
ëŁ ¼
ĠìĿ ¸ë
ĠìĦ ľë
Ġì ¸
Ġëĭ¤ ìĭľ
ì§ ģ
ĠìĿ¼ë ³¸
ĠëĶ Ķ
Ġë§ ī
Ġëĭ¹ íķĺ
Ġ å
¥ ´
Ŀ ½
ê² ĥ
ëĵ ł
a n
Ġí Ĵ
Ġí ĳľ
Ġëģ Ŀ
Ġíı Ń
ĠìĪ ľ
Ġëħ ¸ë
Ġ I
ĠìºĲ ë¦Ń
Ġìĭ Ŀ
ëł ¨
ë ĶĶ
Ġëı ħ
Ġë £¨
ì¦ Į
íĻ ĺ
Ġìĺ ¬
Ġì´ Ŀ
ìĬ¤ íĦ°
o n
Ġë² ł
į ¼
Ġ G
Ġê³ Ħì
ĠëĦ ¤
ĠíĶ ĮëłĪìĿ´
ĠìºĲë¦Ń íĦ°
ë§ Ŀ
Ġí ģ´
Ġì²ĺ ëŁ¼
ë° ľ
ĠáĨ« ì§Ģ
Ġë³ µ
Ġëĭ¹ ìĭľ
ĠáĨ« ëį°
Ġë¯ ¸ë
íĹ ĺ
ë ¨
Ġì¦ Ŀ
ë ¯¼
ĠëĺĲ íķľ
Ġìĥģ íĻ©
Ġë§Įë ĵ¤
ëĦ Ī
Ġ1 1
í Ŀ
Ġê° Ħ
Ġê°Ģ ìŀ¥
ĠëĬ¥ ëł¥
ëŁ °
Ġ K
Ġë¬ ¼
Ġí Ħ°
Ġ E
ĠìĬ¤ í
Ġíķ Ń
Ġìľ Ħì
Ġê²° êµŃ
Ġìĭľ ì¦Į
ì¶ ľ
Ġë¹ ł
Ġ R
ëĵ ¤
ħ Ģ
Ġë ¿
Ġëª» íķĺ
ê° Ĳ
Ġê² Ģ
Ġë ľ
· ¨
Ġìĥģ íĥľ
ëį Ķ
íĺ Ħ
ĠíĶĦë ¡ľ
Ġíļ ¨
ì ¿ł
ëŁ ī
ª ħ
Ġì Ķ
ëħ ¸
Ġëª¨ ëĳĲ
Ġë¹ Ħë
ì¶ Ķ
ìĨ ¡
ĠëĦ ĺ
ĠëĬ Ĳ
Ġë ĥ
ê· ¸ë
Ģ ë¡ľ
ĮĢ ë¡ľ
ë§ ī
Ġê´ ĳ
Ġì§ Ħì
Ġìĺ¤ ë¥´
Ġì¶ ©
ľë ıĻ
Ġëĭ¤ ë§Į
ë³ ¸
Ġì² ľ
ìĿ´ íĬ¸
ª ¨
ëı ħ
ë¦ ½
Ġëĭ¤ ë¥´
Ġ H
ìļ ¸
ĠáĨ«ëĭ¤ ëĬĶ
Ġìķ ŀ
Ġì¶Ķ ê°Ģ
ł ¥
ì² ľ
Ġë° ±
Ġë¸ Ķ
Ġìĭ ¸
ĠíĽ Ħë
ë¥ ĺ
Ġê° ľë
ê² °
Ġìĸ ¸
Ġëĭ¬ ë¦¬
ë Ŀ¼ë
Ġìķ ħ
Ġ1 5
Ġëª¨ ëĵł
ĥ ¥
o r
Ġíķ Ħ
Ħë ĮĢ
Ġê¸ ī
ê ¶
ìĥ ī
ëŁ ½
Ġì ½
ìĹ ¬
Ł ģ
ĠìĹ ħ
Ġ N
ê· ¼
Ġíİ ĺ
íİ ĺ
ìķ ħ
a r
ë¦ ¼
ĠìłĦ íĪ¬
a t
ĠìĤ ¼
ì´ Ī
ëŀ ĳ
Ġì¡´ ìŀ¬
Ġíķ ©
ì² Ń
Ġì¹ ľ
ì Ĥ´
ë¦ °
Ġ t
ìĻ Ģ
Ġë ¡
Ġìĭľ ë¦¬
Ġê³ ¡
Ġ æ
ĠíĺĦ ìŀ¬
ĠìĹ¬ ê¸°
Ġíĥ ľ
Ġì ī
ëĦ ¤
Ġë§¤ ìļ°
ĠìĦł ìĪĺ
ĠìĦ ¸ë
Ġë¬¼ë ¡ł
Ġê¸ ¸
² Ħ
ë° °
ĠìĦ¸ ê³Ħ
Ġê·¸ëŁ¬ ëĤĺ
Ġìĥģ ëĭ¹
ë³ ĳ
ĠëĨ ĵ
ĠíĬ ¸ë
ìł ĳ
Ġì¹´ ëĵľ
Ģ ë¦¬
Ħ ´
Ġí ĭ
íĥ Ŀ
´ ī
ë³ µ
ëĵ ±
Ġê·¸ë Ł°
Ġì± Ħ
Ĩ į
ĠíĨµ íķĺ
ĠíĮ ¬
ì» ¤
Ġë° ı
Ġì» ¤
Ġ m
ê¹ Į
ĠìĻ Ħ
¤ Ħ
Ġë² ķ
ëĭ ´
ìĿ Ģ
Ġì ·¨
ĠìĬ¤í Ĥ¬
Ġì Ĥ°
Ġì° ¾
Ġëĵ £
ĠìŀĲ ì²´
íİ ¸
Īë² ķ
ì² ĺ
Ġìĭľë¦¬ ì¦Ī
ë¯¸ ì§Ģ
Ġê¸ Ī
Ġì° ½
Ġìĭ¤ ìłľ
ë² ķ
ĠìĹ Ķ
ì¡ ´
í į¼
ĠìĿ´ ìľł
ë ©Ķ
Ġê· ¹
e n
³ ´
Ġìĸ »
Ġëĭ¤ ë©´
ĠëĿ¼ ìĿ´
Ġë¿ Ĳ
íķ ¨
ĠìĿ´ ëŁ°
Ġê³ ¨
ĠëĤĺ ê°Ģ
Ġë¶Ģ ë¥´
ì ª½
¹ Ħ
Ġëĸ ¨
¹ ĺ
Į ë¦¬
Ġê³ ³
Ġëł Īë²
ê² ¬
Ġë¬´ ê¸°
Ġë§ Īë
íķĻ êµĲ
ĠíĻ ©
ë§ Ĳ
ĠíĻ ľ
íĮ ¨
ĠáĨ«ëĭ¤ ê³ł
Ġì² «
íħ ľ
Ġíļ¨ ê³¼
ë Ŀ½
Ġìĸ´ë ĸ
ì§ Ī
ê° ķ
ĠìĿ´ ìļ©
Ġê·¸ë ŀĺ
Ġë§Įë ĵľ
íķ Ń
Ġâ Ĩ
Ġ W
Ġë Ł¬
Ġë¶Ģ ë¶Ħ
Ġê· ¼
Ġì£¼ ìĿ¸
Ġë¶ Ļ
Ġ #
ĠìĬ µ
ĠìĹŃ ìĭľ
Ġê¸° ìĪł
ì £
ê¸ Ģ
Ġë°Ķ ë¡ľ
Ġì² Ń
ĠëłĪë² ¨
Ġëª¨ ë¥´
ŀ Ģ
Ġê ½
a l
Ġì²ĺ ìĿĮ
Ġê±° ìĿĺ
Ġë ĳ
Ġë³ Ħ
Ġì§Ģ ìĹŃ
Ġë§ Īë²ķ
° ľ
Ġë¯ ¼
Ĭ Ĳ
íĥ Ħ
h e
Ġ O
í ļ
ĠìĿ´ ë²
íĭ Ģ
Ġì´ Īë
Ġì ¤Ħ
ì ¼Ģ
ìĻ ķ
Ġê¸° ë¡Ŀ
Ġ1 8
ĠìĿ´ ìķ¼
ìĿ ¼ë
íĥ Ī
ĠíĬ¹ íŀĪ
ĠíķĦ ìļĶ
í ģ¼
Ġì² ł
ĠìĿ¸ íķĺ
s t
ĭ ¨
ĠìĬ¤ íĥĢ
ëł µ
Ġìĺ¬ ë¦¬
ĠìĹ¬ ëŁ¬
ĠìķĦë ¬´
Ġëł ĪìĿ´
ĠìĤ¬ ê±´
Ġëĥ Ĳ
Ġ1 6
ìĽ Ģ
Ġë² Į
ìĿ´ ìĬ¤
Ġìŀ ł
ĠëĤ ľ
ë Ķ
ì§ ĳ
Ġí ŀ
Ġë³¸ ìĿ¸
Ġíķ´ ëĭ¹
Ġë¶ Ħë
ĠëĪ Ī
ë ģ
Ġëĭ¤ ìĿĮ
Ġì ª½
ĠìĿ´ìķ¼ ê¸°
ĠíĻ ĺ
ĠëıĻ ìķĪ
ë° ĺ
Ġ3 0
ë ¯
ìķ Ħë
Ġìĺģ íĻĶ
ĠëĬĶ ì§Ģ
Ġê² ©
Ġë¶ ģ
ì ±
ĠìĬ Ī
ìĿ´ ì§Ģ
Ġì¢ Ģ
Ġí ľ
Ġë°© ìĨ¡
Ġë° ĸ
Ġë² Ķ
Ġì§ ¸
Ġê· Ģ
Ġ19 9
ĠìĿ¼ë °ĺ
Ġì¦ ī
ì§Ģ ë§ī
Ġê°Ļ ìĿ´
ĠëĦ Ī
Ġ201 7
Ġë¯¸ êµŃ
2 0
ĠìĿ¸ ê°Ħ
¨ ë¦¬
ê´ ´
Ġ1 00
ëĵ Ŀ
Ġê ¼
Ġì§Ħ íĸī
Ġ1 3
ĠìŀĲ ê¸°
ĠìĥĿ ê¸°
ĠìĿ¸ë ¬¼
¾ ¸
§ ģ
ì ½
Ġë° Ŀ
ĠìĿĺ íķĺ
Ġëĭ ´
ëª ©
ħ ¸
ĠëĿ¼ë ©´
Ġëĭ¤ ëĭĪ
Ġ V
Ġê¸° ë³¸
Ġì ¿ł
ĠáĨ ¸ëĭĪ
ë² Ķ
Ġê´Ģ ëł¨
ìľ ¼
Ġëį ķ
ë¨ ¸
Ġì°¸ ê³ł
Ġë§Ī ì§Ģë§ī
Ġìŀ ĩ
ë¡ ł
ë¦¬ ìķĦ
ĠíĹ Ī
ì° ©
Ġì£¼ìĿ¸ ê³µ
Īë ¬´
Ġìĭ ¶
ì° ¬
ìľ ¡
ĠáĨ« ê°Ģ
Ġê·¸ë ĥ¥
Ġìŀĳ íĴĪ
Ĭ ·
Ġìľ¼ë ĭĪ
Ľ °
Ġì ħ
ìĨ Įë
ĠìĪĺ ì¤Ģ
Ġìī ½
Ġ U
ĩ ´
ê³ ¡
Ġ1 4
ĠíĮ Ķ
Ġëŀ Ģ
ĠáĨ¸ëĭĪ ëĭ¤
Ġë¸ Įë
ĠìĿ´ ê²ĥ
ĠëĦ £
ĠáĨ º
Ġë¹Ħì Ĭ·
Ġë§Į íģ¼
ĠëĤ´ ìļ©
Ġíħ Į
ëŀ Ģ
Ġëĵ ľ
Ġëª ĩ
Ġê³Ħì Ĩį
ì° °
Ġ s
Ġë°© ìĸ´
Ġë Ń
Ġê¸° ìĹĲ
Ġìķ Ķ
Ġëĳ ĺ
Ġì ¼Ģ
ĠìĿ¼ë ¶Ģ
Ġê± ¸
Ġì§Ģ ëĤĺ
ê¶ Į
ł Ī
Ġìĥ Īë
o u
Ġìĸ ¼
r e
íĻ ľ
Ħ ë¦¬
ë° ķ
íĿ ¬
Ġìĸ´ë ĬĲ
ĠëĮĢ íĳľ
ĠëĤ´ ë¦¬
ĠìķĮ ë¦¬
ì Ķ
ì ¼
ī ´
Ġ1 7
ì¹ Ń
ĠíĹ ¤
¼ë §Ī
ê±° ë¦¬
Ġë°Ŀ íŀĪ
íĺ ¼
Ġëª °
Ġëª ¸
ĠíĶ¼ íķ´
Ġì ¤Ģ
Ħì ²
i t
Ġë§Įë Ĥĺ
ë¦¬ ìĬ¤
ĠâĨ Ĵ
l e
ìĪ ľ
Ł ī
ìĿ Ħ
ĠìĹ ĺ
Ġë§ ¡
ĠëĮĢ ìĭł
Ġìłľ ìŀĳ
ë ģ¼
Ĥ ¨
ê´ ĳ
íĨł ë¦¬
Ġì£½ ìĿ´
Ġìĸ´ ëłµ
Ġ ç
ìĽ Į
ê· ¹
Ġê·¸ë ĮĢë¡ľ
ë¶Ģ ë¶Ħ
ìĿ ĳ
ìķ ł
Ġê¸° ìĤ¬
Ġíĺ Ħì
ëħ Ħ
ĠíĻ ľëıĻ
° ©
Ġë Ľ°
ëĭ ¬
ì§ ķ
Ġì§Ģ ê¸Ī
Ġë³´ ëĤ´
Ġê¸ Ģ
ëĵ ľë
Ġê´Ģ ê³Ħ
Ġë¦¬ ê·¸
ĠìĦ± ê³µ
Ġíıī ê°Ģ
Ġíĭ °
Ġê¸° ì¤Ģ
ĠëĤ ®
í Ħ´
ĠëĬ ĺ
ĠíĶ Įë
ë¸ Ķ
Ġìł ĳ
Ġìłľ ìĻ¸
Ġê±° ë¦¬
ĠëĮĢ ë¶Ģë¶Ħ
Ġíĥ Ī
Ġìµ ľë
į °
Ġì¶ ķ
ìĬ ¨
Ġì§ ĵ
Ġìĸ¸ ê¸ī
ĠìĬ ¬
ŀ ĳ
Ġ201 8
ĠìľĦì ¹ĺ
ĠìĨį ëıĦ
ĠëĦ Īë¬´
ĠêµŃ ê°Ģ
ĠìłĦì ²
Ġë§ Ŀ
ĠìĿ´ ìłĦ
00 0
Ġìĭľ ìłĪ
ë³ Ħ
ĠíĥĢ ìĿ´
Ġ201 6
ë ·
Ġìĺ ¨
²Ħ ì§Ģ
ëł ĩ
Ġë§Ī ëĭ¤
Ġë¹ł ë¥´
Ġë¯ Ģë¡ľ
ĠíķĻ êµĲ
ĠëĪ Ħ
Ġìľł ëĭ
Ġë ¦
íĶ Ħë
Ġ2 5
Ġê°Ĳ ëıħ
Ġìļ° ë¦¬
ìĽ Ķ
Ġê·¸ë ħĢ
Ġë³´ ìĬ¤
Ġì§ģ ìłĳ
Ġ X
Ġê´ ´
Ĥ ¹
ĠìłĦì Łģ
Ġë¹Ħ íķĺ
ì° ½
Ŀ¼ ìĿ´
ĠìĿ´ ë¯¸
ĠìŀĲ ë¦¬
Ġìĺģ ìĥģ
Ġìĭ¸ ìļ°
ĠíĻ į
ê· Ģ
° Ķ
Ġë¶ Ħì
Ġê°ķ íķĺ
ĠìĦ¤ ìłķ
Ġì¦Ŀ ê°Ģ
Ġë§ ¨
ĠáĨ«ëĭ¤ ë©´
Ġì§ Ī
ĠìĽĲ ëŀĺ
Ġë¨ ¸ë¦¬
ëł ĪìĿ´
ìĬ ¬
Ġ Â
ĠìĿĺ ë¯¸
ì¦ Ŀ
í Ľ
ĠëŃ Ĳ
Ġë°Ķ ëŀĮ
Ġíĺ ¼
Ġ J
ê°Ģ ì§Ģ
ľ ëĵľ
Ġì¸ ¡
Ġë© ¤
Ġ201 9
Ġìľł ìłĢ
ĠìĿ´ ëıĻ
ëĭ¤ ê°Ģ
ëı Į
Ġ é
Ħì² Ń
Ġ c
i c
Ġë°Ķ ë
ĠëıĦ ë¡Ŀ
ĠíĿ ¬
ë ©°
ĠíĶĮëłĪìĿ´ ìĸ´
ĠìĻĦ ìłĦ
êµ ´
Ľ Ĳ
ê ¾¸
Ġëĭ µ
Ġìµľë ĮĢ
Ġìŀ¥ ë©´
Ġëľ ¨
Ġë©¤ ë²Ħ
Ġìľłëĭ Ľ
íķ ł
Ġí Ģ
Ġëĭ ĺ
Ġíĥ ĳ
Ġê° Ī
Ġëª ¬
Ġê·¸ ê²ĥ
ĠíĴ Ģ
ĠìĬ¹ ë¦¬
ë² ł
ĠëĤĺ íĥĢ
Ġëĵ ł
Ġì§Ģ ìĽĲ
Ġë ´ī
Ġ k
ł ĪìĿ´
ĠìĹ Ħì²Ń
ģ ĺ
Ġê¹ ¨
Ġìľ ¡
ĠíĽ Ħì
ëĤ ¨
ë¡ Ģ
Ġë° Ģ
Ġê³¼ ê±°
ëĤ ľ
ëĦ Ĳ
Ġë°° ìļ°
Ġë¬ ĺ
Ġë¹ł ì§Ģ
ķ Į
ĠìłĦì² ´
ĠìĦł íĥĿ
ê¹ Ŀ
ĠëĮĢ ë¡ľ
ìĺ Ī
ĠìĿ´ ë£¨
Ġíŀĺ ëĵ¤
í ģ´
ê· ľ
ª ©
ĠìĨĮ ë¦¬
Ġíĺ ¹
ìĺ ¨
Ġì²´ ëł¥
ĠìĬ¤ ëŁ½
Ġíĥ Ħ
Ġê²° ê³¼
ĠëģĿ ëĤĺ
Ġíĺ ĳ
ĠâĢ ¦
Ġì¤ĳ êµŃ
Ġëı Ī
ĠìĿ´ ëłĩ
ë¥ ł
Ģ Į
Ġëį° ë¯¸ì§Ģ
ìĿ´ ëĵľ
ë Ĭ
ëª ¬
ĠìĶ ©
Ġì¹ľ êµ¬
ë ©
Ġê° ĳ
Ġì ĩ
Ġê½ ¤
ĠìķĦì ĺ
íĮ ħ
Ġì°¨ ìĿ´
Ġ5 0
ĠÂ ·
Ġë°ĸ ìĹĲ
íĶ Į
Ġë²Ħ ìĬ¤
ĠìĦľ ìļ¸
ĠëıĦ ìĭľ
¼ë ¦¬
ì² ł
Ġì´Īë °ĺ
Ħë ĵľ
ë° ±
i s
ĠíĮ Įë
³ µ
Ġí ĸ¥
Ġì± ħ
Ġë³ Ħë
íļ į
Ġ2 1
Ġì¸ µ
Ġì ¿
Ġìľł ëªħ
Ġë°© ë²ķ
Ġë¡ľ ìĦľ
Ġë§Ī ìĿĮ
ĠìķĦë ²Ħì§Ģ
Ġ è
ìļ´ ëĵľ
ìĿ´ ìħĺ
ĠìĹ¬ ìŀĲ
Ġíŀ Īë
Ġì» ¨
Ġëł¤ ê³ł
Ġê° ĸ
Ġë°Ķë ĢĮ
Ġíĺ ¸ë
Ġ ]
ì¼ ĵ
ë¦¬ ìĸ´
ìļ ±
Ġã Ĥ
Ġíķ ľë
Ġ201 5
Ġìķ ķ
ì ģĺ
in g
Ġì¹ ¨
ĠìĬµ ëĭĪ
ë² Į
Ġìł Ī
ĠëĨ Ģ
ĠìĦ± ìļ°
ĠíķĻ ìĥĿ
¤ íĬ¸
Ġë²Ħ ìłĦ
Ġìļ ¸
ì¶ ķ
Ġë³ ¸ë
Ġíļ Įë
Ġê°ľë °ľ
Ġìłľë ĮĢë¡ľ
ìķ Ļ
ĠìĦ Ŀ
Ġì¡° ê¸Ī
Ġê³µê²© ëł¥
Ġë¬¸ ìĦľ
Ġì° į
Ġë¶Ī ë¦¬
Ġ ï
ì± ħ
ĠìĦ¤ ëªħ
Ġì ı
ĠìłĦë ¶Ģ
Ġì¶ľ ìĹ°
ĠíĬ ¸
ĠìŀĲ ì£¼
Ġê± ¸ë¦¬
Ġì Į
Ġ &
ĠìĹ¬ ìĦ±
ĠìķĦìĿ´ íħľ
Ġëĭ¹ ìĹ°
ĠëĤ¨ ìŀĲ
ĠëĪĦ êµ¬
ĠìĹ° êµ¬
¥ ĺ
Ġë ī´
1 1
ĠíĶ Ħë¦¬
ìļ° ìĬ¤
¡ Ń
ë¯ ¸ë
Ġíı¬ íķ¨
ĠìĨĮ ìĨį
ë Ī
ĠìĤ¬ìļ© ìŀĲ
í ľ
Ġëª¨ ëĵľ
ĠìĬµëĭĪ ëĭ¤
ë§ ģ
Ġ ä
ĠìĤ¬ ëĿ¼
Ġì°¨ ëĭ¨
Ġìĥ ī
Ġìłķ ë³´
Ġê·¸ëŁ° ëį°
ìĹ Ī
Ġë ½
ĠëĮĢ ìĤ¬
Ġë¬ »
ĠëĿ¼ë ıĦ
Ġ d
Ġ [
ĠìĬ¤ íĨłë¦¬
ĠìĹĪ ìĹĪ
Ġì° ©
ĠëĮĢ íķĻ
ĠíĽĦë °ĺ
® ¤
ëĤ ł
e s
ĠìķĦì §ģ
Ġëĸ ł
ë¶ Ī
Ġìĥ Ī
Ġê³µ ìĭĿ
Ġê¶ ģ
ìĽ ħ
ëĶ ©
Ġìłķ ë§Ĳ
ĠìĿ¸ íĦ°
Ġìµľ ê³ł
ìĿ´ ëıĦ
Ġ19 8
Ġê°ķ íĻĶ
e l
ì´ Ŀ
íı ī
ì ĩ
Ġì£¼ë ¡ľ
ĠëĤĺíĥĢ ëĤĺ
Ġì§Ģ íĤ¤
ĠëĨ į
ìĭľ ìķĦ
ĠëıĻ ìĭľ
Ġìļ° ìĬ¹
Ġí ĳ
Ġìĺ¤ íŀĪ
ĠíĮĮ ê´´
Ġìĺ¤íŀĪ ëł¤
ì°¬ ê°Ģì§Ģ
ĠìĦľë ¡ľ
ì ©
Ġë§Ī ì°¬ê°Ģì§Ģ
ìķ Ħì
a m
ĠíĮĮ ìĿ´
Ġë°ľ ìĥĿ
Ġìł Īë
ĠìĿ´ ê±°
Ġìĵ° ìĿ´
Ġê²° ìłķ
ì» ¬
ĠìĦ ¼
ë¶Ģ íĦ°
ĠìĤ¬ ëŀĳ
ĠìĤ¬ ë§Ŀ
ĠìĶ ¨
ĠëĬĲ ëģ¼
Ġ o
ģ Ĳ
Ġìļ´ ìĺģ
ĠìĿ¸ ê¸°
Ġ2 2
ĠìĨ ¡
Ġë°ľ ë§¤
Ġ2 4
ìŀ ¡
Ġì¶ľ ìĭł
Ġìµľ ì¢ħ
Ġê²Į ëĭ¤ê°Ģ
ìĿ ¸ë
Ġìĸ´ëĸ »
Ġê°ķ ëł¥
ĠìĿ´ë² ¤íĬ¸
į ¨
Ġê°Ģ ê¹Ŀ
Ġë°© ìĭĿ
Ġìĸ µ
Ġìĺģ íĸ¥
Ġìłķ ìĭł
Ġëª¬ ìĬ¤íĦ°
Ġê³µ ê°ľ
Ġìľł ì§Ģ
íĻ ķ
ĠìĪ ł
Ġëľ »
Īë ©Ķ
Ġë°Ķ ê¾¸
ĠìĹŃ íķł
Ġìŀ Ķ
Ġì£¼ ìŀ¥
Ġë¹Ħ êµĲ
ĠëĤĺ ìĿ´
Ġë© Ģ
Ġê³¼ ìłķ
ĠëĮĢ ìĥģ
ê° ĳ
Ġë°ĺ ëĮĢ
ì§Ģ ìĸ´
ĠìķĦìĺ Ī
ê³ ¤
Ġë§Ī ë¦¬
ì ī
ìĹ ´
Ġëħ¸ë ŀĺ
Ġë§Ī ìĿ´
ĠìĦ± ê²©
Ġë§ ģ
ĠìĿ´ ê¸°
Ġë¨ ¼
Ġìŀ Ħ
Ġê¸° ì¡´
Ġë³´ íĨµ
ëĿ¼ë ıĦ
ĠìĤ¬ëĿ¼ ì§Ģ
a s
Ġëª¨ ìĸĳ
Ġíĸī ëıĻ
Ġã ĥ
ĠìĿ¼ë ĭ¨
ĠìĿ´ ëŁ¬
Ġìĭ¬ ì§Ģìĸ´
ĠìĦ± ëĬ¥
ìĸ ¼
Ġì¤ĳ ìļĶ
³ Ģ
Ġë³Ģ ê²½
a c
ì º
Ġâ ĺ
Ġìŀħ ìŀ¥
ĠìĨĮ íĻĺ
Ġíĺķ íĥľ
Ġ4 0
ĠìĻ ľ
ĠíĬ¹ ìĦ±
r o
Ġêµ¬ íķĺ
Ġ201 4
Ġëįĺ ì§Ģ
Ġ b
ĠíĻľ ìķ½
ìĸ µ
Ġê· ¼ë
ĠëĶ ľ
Ġë¹ ¼
Ġíķ ł
íķ ľë
¸ Į
ĠìĽ Į
Ġë¥ ĺ
Ġê ¿
ëĿ¼ ìĿ´
ĠíļĮë ³µ
Ġë¶Ģ ì¡±
ĠìĦ ¬
ê° Ŀ
ĠëĪ Ħë
ëŀ µ
ĠíĻķ ìĿ¸
ëĬ ĺ
Ġìľ Ħë
i on
ī ìŀ¥
Ġê±° ê¸°
Ġë £
Ġí į¼
ĠìĹŃ ìĤ¬
Įëł Ī
Ġëĵ¤ ìĿ´
ĭ ¹
ĠíĿ ĳ
ë ľ
Ġìĸ´ëĸ ¤
ë¶ ģ
Ġëħ ĦëĮĢ
ĠëĿ¼ ìĿ¸
íľ ĺ
Ġ2 3
í ĩ´
Ġì°¨ ëŁī
ëħ Ģ
Ġë½ ĳ
Ġëĵľë ŀĺ
ì¸ ¡
Ġìĭľ ìĬ¤
i l
Ġì¢ Į
Ġë§Ī ìĿĦ
Ġëħ¸ ìĦł
Ġëĵľë Ł¬
Ġíı Ĳ
Ġìĸ´ ë¦¬
ìľ ¨
ĠìĿ´ë² Ī
Ġíķ Ħì
Ġë¹Ħë ¡
Ġëª¨ ëį
Ġë§ŀ ì¶Ķ
ĠìĬ¤ íħĮ
ĠëĤĺ ëĿ¼
íĺ Ģ
ĠëĿ¼ë ©°
ĠìķĦë ŀĺ
Ġìľł ìĿ¼
Ġìŀ¥ ë¹Ħ
ĠíĴ į
¼ë §
ĠíĻķ ë¥ł
ĠìĪ ¨
ëĦĪ ì§Ģ
ħ Ħ
ìĹ ¼
Ġìłķ ë¶Ģ
ĠìĥĪë ¡Ń
ĠìĻ ¸ë
Ġìŀĳ ì¤ĳ
ĠìĽ Ģ
Ġë¨¼ ìłĢ
o l
ĠíĬ¹ ìĪĺ
ĠíĶ ¼ë
ĠëĤľ ìĿ´ëıĦ
Ġëįķ ë¶Ħ
íĶĦ íĬ¸
Ġìľ ¤
ĠìķĦë ĵ¤
ĠëĮĢ íļĮ
Ġíĺ¹ ìĿĢ
ĠìłĦ íĺĢ
ĠìĤ¬ íļĮ
Ĺ ´
Ġê´Ģ ë¦¬
ĠìŀĲ ìĦ¸
Ġ f
Ġ p
Ġìĭľ ëĮĢ
¼ë ŀĢ
Ġê·¸ëŀĺ ìĦľ
ĠíĿ Ķ
íĽ Ī
ìĪ Ļ
ìĨĮë ĵľ
ĠìĨ Ķ
íĴ į
Ġìŀ ĥ
Ġíľ ´
Ġ3 2
į Ķ
ĠìĿ´ ìłľ
Ġì½ ĺ
ĠêµĲ ìľ¡
Ġìĩ ¼
Ĥĺ ë§Ī
ĠëĤł ë¦¬
Ġ w
Ġì¡° ì°¨
Ġêµ¬ ìĦ±
ëĪ Ħ
Ġíħ Įë
e d
Ġëģ Į
Ġë³ ¼
Ġêµ īìŀ¥
ëĵ± íķĻêµĲ
Ġìĥ ¤
Ġìłķ ì¹ĺ
Ġì£¼ë ³Ģ
Ġëıħ ìĿ¼
ĠìĿĮ ìķħ
Ġëĸł ëĤĺ
e t
¢ °
Ġê·¸ëŀĺ ëıĦ
Ġìĭ¤ ëł¥
ë§ ¨
ëĭ Ŀ
Ġì§Ģ êµ¬
Ġìµľ ì´Ī
¨ ¸ëĭĪ
Ġt he
ĠíĮ¨ ë°°
Ġìĭ¤ íĮ¨
ĠìĤ¬ ì§Ħ
ìĬ¤ íĥĢ
1 9
Ġìĸ´ë ĶĶ
ĠíĶĦë ŀĳ
ìĺ ¥
ĠëįĶ ëĿ¼ëıĦ
Ġê²½ ì°°
Ġìĸ¼ êµ´
ĠìĭľìĬ¤ íħľ
ĠìĥĿ ìĤ°
Ġì°¨ ì§Ģ
1 0
Ġë§Į íĻĶ
Ġìĭľ ìłĲ
Ġê·¸ë Ĥĺë§Ī
i g
ì ¿
Ġìĸ ¼ë§Ī
Ġì¡° ê±´
ĠìĽĲ ìŀĳ
Ġì£¼ ìĿĺ
ĠìĦ¸ íĬ¸
Ġìĺģ ìĽħ
Ġìķ ¨
Ġë°ľ ê²¬
B S
Ġ =
Ġìŀĳ ê°Ģ
ĠìĽĶ ëĵľ
Ġë¹ Ľ
Ġ201 3
Ħ ¤
Ġì°¸ ì¡°
Ġíķĺ ìĿ´
Ġï ¼
íı Ń
ìĹ ĺ
Ġë§ µ
íĬ ¼
Ġëĭ¤ ë©°
ĠíļĮ ìĤ¬
Ġê¸° ëĬ¥
Ġìłķ íĻķ
Ġë° ľëıĻ
Ġë°ĺ ìĿĳ
Ġë° Ģë¦¬
í ĥģ
Ġì²ĺ ë¦¬
ĠìĹĲ íĶ¼
Ġë¶Ģ ëĮĢ
ë Ĩ
ĠíĻ Ī
ê³ ¨
Ġê°ľ ìĿ¸
ì į¨
ĠëĮĢ ìłĦ
Ġìķł ëĭ
ĠìŀĲ ìľł
Ġ n
Ġ v
í Ĥ¹
ê² Ģ
§ Į
ĠíĽ Ī
Ġëħ ¹
ì¹ ¨
Ġë¶ Īë
Ġë§ ¥
ìĬ¤ íģ¬
íķľë ¯¼
Ġìļ° ì£¼
Ġ l
ĠëıĦ ìĽĢ
Ġê³Ħ íļį
o m
ì Łģ
a d
Ġëª¨ ìľ¼
íķľë¯¼ êµŃ
ĠìĻ Ħë
ìĿ¸ íĬ¸
Ġëĭ¤ ìĿ´
Ġíķĺ ë£¨
ĠëıĻ ìĿ¼
Ġìĺģ êµŃ
ĠìĿ ĳ
´ ĩ
Ġë¬ĺ ìĤ¬
Ġìķ ¡
Ġìłľ êµŃ
Ġìłģ ìļ©
Ġëł ¥
ĠìĹĲíĶ¼ ìĨĮëĵľ
ĠáĨ¯ ì§Ģ
Ġê² ¬
ĠìĽĢ ì§ģ
ľ Ħ
Ġíķľ íħĮ
Ġê±´ ë¬¼
Ŀ¼ë §Ī
ĠìĿ¸ ìłķ
Ġìľ ¨
Ġ h
ìĿ µ
ĠìĪľ ê°Ħ
Ġëĭ´ ëĭ¹
Ġí Ħ
Ġìĸ ¸ë
Ġê¸° ìĸµ
Ġê· ľ
ĠëĶ ±
ĠìķĦì ¹
Ġë¥ ł
Ġo f
ìĬ Ī
ŀ ¨
Ġê·¸ ë¦¼
ìĶ ¨
Ġìķłëĭ Īë©Ķ
Ġìľ¼ë ¯
Ġ Y
ĠëĿ¼ ìĦľ
Ġë©Ķ ìĿ´
Ġíĳľ íĺĦ
Ġìľ¼ë¯ Ģë¡ľ
Ġ _
Ġëª¨ëį ¸
ìī ¬
ĠêµŃ ëĤ´
Ġíĺ ĦëĮĢ
ĠìĿ´ ë
ĠìĿ µ
ì£¼ ìĿĺ
£ ¹
Ġìĭ¸ ìĽĢ
Ġë§ Ľ
Ġìĭľ ê¸°
íı °
Ġì ¼
ĠíĮĲ ë§¤
Ġëł¤ ëĬĶ
Ġë°Ķ ìĿ´
íĨµ ëł¹
Ġíľ ĺ
Ġë¡ Ń
ĠìĨį ìĦ±
ëģ Ķ
Ġê º
Ġí ĩ´
ĠëĺĲ ëĬĶ
ë¦¬ ì¹´
ĠíĬ ¸ë¦¬
ĠìĪĺ ë¡Ŀ
ĠìŀĲ ëıĻ
Ġìľ¼ë¡ľ ìĦľ
Ġ201 2
Ġëģ ¼
ĠíĿ Ĳ
ĠìĹ¬ ìłĦ
íħ Įë
ĠT V
Ġìĺ¤ ë¸Į
ĠíĻķ ìĭ¤
ĠìĤ¬ ê³ł
ìĨ Ĳ
Ġëĵ Ŀ
ł ¤
ĠíĮ¨ íĦ´
íĶ ½
ëª »
Ġë »
§ ľ
Ġë Į
Ġë¬¼ë ¦¬
ìķ ķ
íħ Ĳ
Ġê³ ¤
ĠíķŃ ëª©
ĠëĤ¨ ê¸°
Ġ6 0
ĠìĽ ĥ
íĺ ¹
Ġì´Ī ê¸°
íĶ ¼ë
ĠëĶ ¸
Ġì£¼ ìĨĮ
ĠìłĪë ĮĢ
ë· °
ë ĳ
ìļ ķ
Ġì± Ķ
Ġëĵľëŀĺ ê³¤
Ġê°Ģ ê²©
Ġì¶ľ ìĭľ
Ġì§Ħì §ľ
Ġë¶Ļ ìĿ´
Ġëķ ħ
ĠìĹ° ê¸°
Ġ2 6
Ġìķ¨ ë²Ķ
ĠëĮĢ íĨµëł¹
ë³ Ģ
ĠìķłëĭĪë©Ķ ìĿ´ìħĺ
ĠìļĶ êµ¬
Ġ2 8
Ġìŀ Ħë
Ġìĸ´ë ¨¸ëĭĪ
¶ ľ
ĠëĮĢ ì²´
Ġë°© íĸ¥
ĠìĹ¬ ëĭ´
Ġìĺ¤ ëŀĺ
Ġíķľ ìłķ
Ġê¸° ê°Ħ
į ¼ë
ĠìĪ Ļ
ĠìĿ´ë ķĮ
ĠI P
Ġìĺ¤ ë¦¬
ĠíĶ¼ íķĺ
ĠíĺĦì ĭ¤
Ġëĵ¯ ìĿ´
ì¶ ©
Ġëį° ìĿ´
¸ë §
íķ Ħ
ìĨĮ ë¦¬
Ġë Łī
ì£ ¼ë
Ġíĺ¼ ìŀĲ
Ġê° Ħë
Ġëĵľë Ŀ¼ë§Ī
ë£ ¡
an d
ĠëĤĺ ìģĺ
ãĥ ¼
Ġì§Ģ ìĨį
Ġê² ¨
Ġ2 7
5 0
ĠìĬĪ íį¼
ìĦ Ń
Ġ! !
u n
Ġì» ´
Ġìĥģ ìĬ¹
Ġì¤ĳ ìĭ¬
ĠìĥĿ íĻľ
Ġëĭ¨ ìĪľ
Ġë¬´ ìĭľ
o w
Ġëħ ¸ë¦¬
Ġíļ į
Ġë¯ ¿
Ġíĥ Ĳ
Ġìłľ íķľ
ĠëįĶ ìļ±
íĬ¸ ë¦¬
ĠìĦł ê±°
ĠíĹ ¬
Ġê²½ íĹĺ
Ġë¯¸ ì¹ĺ
Ġìľ¼ë©´ ìĦľ
Ġìĭ ±
Ġë¶Ħì ľĦ
ĠíĬ¹ ì§ķ
Ġì¡ ¸
Ġ201 0
ê· ł
ĠëıĮ ë¦¬
íĬ¸ë Ŀ¼
ĶĶ ìĺ¤
Ġìĸ ĺ
ëŀ Ļ
ê¶ ģ
Ġ }
Ġë° ¤
Ġìĺ Ĩ
Ġë¶ĦìľĦ ê¸°
ìĶ ¬
² ķ
Ġíķ µ
Ġìļ´ ëıĻ
ĠíĶĦëŀĳ ìĬ¤
Ġì§ ľ
íĥ ķ
ì£ Ħ
ĠìĦł ë°ľ
ĠìĽĢì§ģ ìĿ´
Ġìĺģ ìĸ´
ĠìĦ¸ë ĮĢ
Ġëŀ Ń
Ġê¸° ê´Ģ
o t
ê·¸ë ŀ¨
ĠëıĻ ë£Į
ì° ®
ĠìĿ´ ë¯¸ì§Ģ
ŀ ľëĵľ
Ġìķ½ íķĺ
ĠìĿ¼ íĸī
ìĥ Ī
ĠëĶĶ ìŀĲ
Ġíģ´ ë¦¬ìĸ´
Ġìĭľ ì²Ń
1 2
Ġìĸ´ ëĿ¼
Ġëĭ¤ ë£¨
Ġí Ħ´
Ġ a
ĥ Ĳ
Ġíı ´
ĠëĿ¼ ìļ´ëĵľ
Ġê³Ħ ìķ½
Ġì·¨ ê¸ī
Ġë¶Ģ ìĥģ
° Ģ
ĠìľĦ íĹĺ
ĠìķĦë §Ī
Ġë¹Ħ íĮĲ
Ġ19 7
Ġì¹ ¼
Ġì¤ĳ ìķĻ
Ġì ¥
ëĭ µ
ĩ Į
Ġë¶Ī êµ¬
Ġëı ķ
ĠíĻľ ìļ©
ĠìķĪ íĥĢ
ë· Ķ
ë¨¸ ì§Ģ
ĠëĮĢ íķľë¯¼êµŃ
Ġì§Ģ ëĭĪ
Ħ Ĳ
ĠìķĦì £¼
ĠíĿ ¡
ĠëĤĺ ë¨¸ì§Ģ
ĠìķĦ êµ°
Ġìķ½ ê°Ħ
ìĸ´ ëĤĺ
ĠìĦ¤ ì¹ĺ
Ġì°¸ ìĹ¬
ĠìĿ¼ ìľ¼
ìĬ¤ ë¡ľ
ĠëĤ Ļ
ĠìĿ¼ìľ¼ íĤ¤
Ġìķ¼ êµ¬
ĠìĬ¤ íİĺ
a y
Ġê²° íĺ¼
ìĽ ¨
Ġë¬¸ íĻĶ
Ġì§Ħì ¶ľ
ĠìĬ¤ íĥ
Ġë°ľ ìĤ¬
Ġë²Ķ ìľĦ
íĺ ĳ
Ġìľł ë¦¬
ëħ Ĳ
Ġë² ¨
Ġë¬´ ìŀ¥
Ġê°Ģ ì¡±
Ġê°Ĳ ìĨĮ
ĠìĹĶ ëĶ©
ë ¬
ĠìŀĲ ë©´
ë ĥ¥
Ġì¤Ģ ë¹Ħ
ê° Ī
Ġì¡° ìĦł
ĠìĿ ½
ĠíĽ ¨
Ġì¡ ±
Ġëĭ¤ ìĸĳ
ìĦ ¼
ĠíĽĦë ³´
ĠìĹ´ ë¦¬
Ġì¤ĳ ê°Ħ
Ġìı ĺ
Ġìĸ´ ì©
Ġê ¾
ë¹ Ħì
ĠíĦ° ì§Ģ
Ġëį° ë·Ķ
Ġëĭ¨ ê³Ħ
Ġíı¬ ìĿ¸íĬ¸
Ġë§Ī ìĬ¤íĦ°
íļ ¨
ë ¢°
Ġëĺ ĳ
ĠT he
Įë ĵľ
ĠáĨ¯ ë¡ľ
ĠìĿ´ íķ´
ĠíĢ ĺ
Ġê³Ħì Ĺ´
ì Ĥ
Ġë ļ
ë¡ Ń
Ġë ®¤
Ġíĥ ĵ
Ġêµ¬ ê°Ħ
ĠíıŃ ë°ľ
v e
Ġ ^
ĠíĽ¨ ìĶ¬
Ħ Ī
ìĿ´ íģ¬
ĠìĿ´ ëģ
ĠìĦ¸ ìļ°
ĠìĿĺ ê²¬
ĠìķĦë ¥´
ë§ Īë
Ġíļį ëĵĿ
Ġìĭ «
ĠìĬ¤íħĮ ìĿ´ì§Ģ
ĠìĿ¼ ìłķ
Ġê³ł ëł¤
Ġêµ¬ ì¡°
Ġê· ľë
ĠíĮĮ ìĽĮ
c h
ĠìĽ ¨
Ġìķ Īë
ĠìĦ± ìŀ¥
Ġìļ ķ
Ġê¸° ëĮĢ
ĭ ł
íħ Ķ
Ġë² ½
ĠíŀĪë ¡ľ
Ġê´ ľ
u s
íĺ ľ
Ġë° ¥
Ġìŀ Ħì
ë ´ĩ
ĠãĢ ĭ
Ġì¹ ¸
ĠíĥĢ ìŀħ
Ġìŀĺ ëª»
Ġì§ Ħë
Ġë°ľ íĳľ
Ġëª© ìłģ
Ġ2 9
Ġì¡° íķ©
i d
Ġë³Ģ íķĺ
Ġë¸Ķ ëŀĻ
° ¨
Ġíķ´ ê²°
Ġíģ¬ ë¡ľ
e m
ê³ ³
Ġêµ ´
Ġì¸ ł
ĠëıĦ ë§Ŀ
ĠìľĦì ĽĲ
ĠíĿ ¥
Ġë¯¸ ìħĺ
ĠëĮĢ íĻĶ
ĠíķĻ ëħĦ
Ġê¼ ¬
ĠìĦ¸ë ł¥
Ġ201 1
Ġê¿ Ī
Ġìĭľ ëıĦ
ĠìĹ ĳ
ëł Į
Ġë¬ ¸ë
ĠãĢ Ĭ
ĠìĺĪ ìłķ
Ġëħ ¼ëŀĢ
Ġëŀ ĳ
Ġê°ģ ê°ģ
íĭ ´
ëĭĪ ìķĦ
Ġì¡° ìĤ¬
Ġê·¸ ê±°
Ġëĵ Ģ
ĠìĿ´ëģ Į
Ġì «
ĠíĮ¨ ì¹ĺ
ĠëĤĺ ì¤ĳ
Ġì¡° ì§ģ
Ġë¦ °
Ġëį° ë¦¬
Ġì§Ģ íķĺ
ĠíĪ¬ ìĪĺ
Ġëģ Ĭ
Ġë§Ī ìłĢ
łĪìĿ´ ëĵľ
ĠëıĦ ì¤ĳ
ĠëĤĺ ë¬´
ĠíĶĦë¡ľ ê·¸ëŀ¨
ĭ Ŀ
ëĤ Į
ĠëĶĶìŀĲ ìĿ¸
ë° į
Ġë² Ĺ
ĠìĥĿ ëªħ
Ġë²Ī ìĹŃ
³ ĳ
i m
ĠìłĦ ìļ©
ĠìĨĮë ª¨
Ġì¶Ķ ìłķ
Ġì§Ģ ë°©
ëŀ ľ
í ģĲ
Ġê±° ëĮĢ
ë§ ¹
Ġìĵ° ëŁ¬
Ġë°° íĭĢ
© ¸
ëį ĺ
Ľ ĥ
ë ´ī
Ġì°¸ ê°Ģ
ĠìĬ¤ íı¬
Ġìĭľ ìŀ¥
ĠëĤ «
Ġì¿ ¨
ĠS t
r a
Ġë¶Ģ ìĤ°
ĠëĬĲ ëĤĮ
ê° Ļ
¤ ëŁ¬
ì§ Ŀ
ĠìĦ¸ ìĿ´
Ġê³¼ íķĻ
Ġê·¸ë £¹
íĶ¼ ìĸ¸
ĠìĹ° ìĨį
Ġë ¡ł
ĠìĬ¤ ìĬ¤ë¡ľ
ì° Į
ëĭ ¥
Ġíı¬ ì¼ĵ
Ġì¦ Ĳ
ìŀĲ ê¸°
ĠáĨ¯ ê¹Į
3 0
ĠìĪĺ ìłķ
Ġì§ §
Ġë²Į ìĿ´
Ġ Z
ì¹ Ļ
Ġê·ľë ª¨
Ġì¶© ë¶Ħ
Ġë°Ķ ëĿ¼
Ġ20 00
Ġë° ´
Ġêµ ³
ĠìłĢ ì§Ģ
Ġì¶ķ êµ¬
ĠìłĦì Ĥ¬
ìł Ħì
Ġìĺ Īë
ĠëĶ° ëĿ¼
ĠíĥĢ ìŀĦ
ìº Ĳ
Ġë Ŀ
ĠìĤ Ń
Ġíģ¬ ë¦¬ìĬ¤
ĠíĢĺ ìĬ¤íĬ¸
Ġëªħ ì¹Ń
Ġë°© ìĺģ
Ĳ ë¡ľ
Ġë§Ī ì¹ĺ
Ġì±Ķ íĶ¼ìĸ¸
ì§ ¸
Ġìłķ ìĥģ
Ġíĸ¥ íķĺ
Ġì¶ľ ìłĦ
íĭ° ë¸Į
ĠìĨĮ ìĦ¤
Ġìĺ ¥
Ġëį ¤
Ġë¶Ģ íĻľ
Ġìķ Įë
Ġìħ Ī
Ġìĸĺ ê¸°
Ġê³ §
ĠìŀĲ ìĹ°
ĠL v
1 5
Ġìłľ ê³µ
Ġì£½ ìĿĮ
Ġìµľ ê·¼
Ġì§ ķ
ĠìľĦ ê¸°
Ġë¬´ ë¦¬
Ġë¯¸ ìĤ¬
ëĭ¤ ë¦¬
ĠìĦ± ìłģ
Ġìłķ ì²´
ìĹ ĩ
Ġë° ľë
Ġê°Ģ ë¥´
¸ Ķ
Ħ ìĬ¤
ĠëĦĺ ê¸°
ëį ķ
Ġëį ±
íĮĮ ìĿ´
B C
Ġë¹Ħ íĸī
Ġì¶© ê²©
en t
ĠìłĦ ìŀĳ
ì² Ļ
Ġ8 0
ĠíĴ Ī
íĬ ľë
ë² Ī
Ġì£ ł
ìĪĺ ë¡Ŀ
ìĥ ¤
Ġì² Ļ
Ġê²½ ìłľ
ĠìłĦë ¬¸
1 8
ĠíĬ¹ ë³Ħ
íĺ ģ
Ġë¡ľ ë¶ĢíĦ°
ĠìķĦ íĶĦ
ĠìļĶ ìĨĮ
Ġìĸ´ë ĳ
Ġìĭľ íĹĺ
ĠìĤ¼ ìĦ±
Ġ e
Ġê°Ģ ëģĶ
Ġë°° ê²½
Ġë¹ Ī
Ł ¼
Ġê´Ģ ìĭ¬
1 6
ĠìĦ¸ ìĥģ
Ġìľ¼ë ł¤
ĠìĨĮë ħĢ
íĨ ¤
ĠìķĪ ìłķ
Įë Ĥ
Īë Ł°
Ġë¹ ħ
¨ ¸
Ġëĵ± ê¸ī
ê² ģ
Ġìº ł
ĵ ¨
Ġ^ ^
Ġì¢ħ ë£Į
ĠìĬ¤ íĬ¸ë
ĠìĿ¸íĦ° ë·°
ĠâĢ Ļ
Ġëĺĳ ê°Ļ
ĠíĽĪ ëł¨
Ġë§Į ìķ½
ë¦ ¿
Ġìŀĳ ìłĦ
Ġë°ĺ ë©´
Ġë³´ ìĥģ
Ġìĥģ ìľĦ
ĠíĻ ĪëŁ°
E R
Ġìĭł ê²½
ì° ¸
Ġëª© ìĨĮë¦¬
ĠëĤĺ ëĪĦ
ëĨ ĵ
Ī ł
ìķ ¡
Ġ g
Ġë¶Ħë ħ¸
ĠìļĶ ë¦¬
ë¥ Ļ
Įë ¥´
ħ Ĳ
Ġí Ĥ¹
ĠìĤ¬ ìĹħ
ĠëĨ Ī
Ġìķł ì´Ī
Ġë³Ģ íĻĶ
ĠíĬ¹ ìłķ
Ġê°Ģ ë¦¬
¸ë ĵľ
£ Į
ĠìĥĿ ì¡´
Ġìĸ´ì© Į
Ġë¹Ħë¡ ¯
Ġëħ Ģ
Ġì§ģ ìĹħ
Ġíĳľ ê¸°
Ġë ±
ĠëįĶ ë¶Ī
. .
i r
ĠìŀĲ ëŀĳ
Ġë°° ì¹ĺ
íĺ Ī
ĠìĿ´ ë¥´
ĠëĤ´ ë¶Ģ
Ġê·¸ë §Į
ĠëĶ°ëĿ¼ ìĦľ
ĭ ¬
í Ģ
Ġê³µ ì¤ĳ
Ġ >
ë¦¬ ìĺ¤
ĠìĹ° ê²°
Ġë¯¸ë ŀĺ
ĠìĮ į
Īë Ŀ½
ì½ ĺ
ĠìĹĶ ì§Ħ
Ġìľł ëŁ½
Ġìłķ ìŀĳ
Ġíķľ íİ¸
Ġíĺ Ī
¼ ì¹ĺ
Ġê·¼ ìłĳ
Ġëĭ¤ íģ¬
ĠíĥĢ ê²©
ĠëıĦ ë¡ľ
Ġë©Ķ ìĿ¸
ĠëĤ¨ ìĦ±
1 7
Ġ9 0
ĠëĤĺ ë¦Ħ
ĠìĺĪ ìĥģ
Ġëĭ¬ ìĦ±
ĠìĹĲ ëĦĪì§Ģ
ĠìĦ¼ íĦ°
Ġâĺ ħ
Ġê¹ Ķ
ëľ ¨ë¦¬
Ġë³´ íĺ¸
Ġì¡¸ ìĹħ
ĠëĥĲ ê³ł
Ġëĭ¤ ë¦¬
ĠëĴ ·
íİ Ļ
Ġìĺ µ
ĠìłĦ ìĦ¤
1 4
ĠìķĦì¹ ´
Ġíİ ¼ì¹ĺ
Ġì£ Ħ
u r
ĠëĪ Īë
ĠëĵľëŁ¬ ëĤĺ
ŀ µ
Ġìŀ¥ ì°©
Ġìļ´ íĸī
ëį° ìĿ´íĬ¸
Ġë¬´ ìĹĩ
Ġê°ĳ ìŀĲê¸°
Ġë¶Ģ ìĹ¬
ĠíķŃ ê³µ
ĠëŁ¬ ìĭľìķĦ
ì µ
ĠêµŃ ë¯¼
Ġ19 6
ĠëĶ° ë¡ľ
ĠëķĮ ë¦¬
ĠìłĦ íķĺ
ì§Ģ ìħĺ
ĠìĿ´ íĥĪ
ĠìĹħ ëį°ìĿ´íĬ¸
ì ·¨
ë¦ ´
Ġì¹ Ń
Ġ y
ĠêµĲ ì²´
ĠìĪľ ìľĦ
Ġê´ľ ì°®
Ġì¢ħ ì¡±
ĠìķĦì ī
Ħë ıĦ
ĠìĬ¤ ì¹´
ĠëĦ ĵ
ì ĵ
Ġí Ĥ¬
ĠíĮĲ ìłķ
Ġë³Ħë ¡ľ
ĠíķŃ ìĥģ
Ġìµľ ìĨĮ
ĠìĪĺ ë¹Ħ
ĠëĪĦë ¥´
ĠíĮĮ íĭ°
Ġìķħ ë§Ī
Ġê±° ëĳĲ
ĠìĹ° ì¶ľ
ê ±
ìħ ī
Ġê³µ ìĹ°
ãĥ ³
ë³´ ìĿ´
Ġíŀ Ĳ
Ġê°ģ ì¢ħ
Ġì§ģ ìłĦ
ī ìĬ¤
ĠìĹ° íķ©
ľë ıĦ
ĠìĮ ĵ
Ġìĺ ·
² ł
Ġë³ĳ ëł¥
ĠìķĦ ìĬ¤
íı Ĳ
Ġê¸° íĥĢ
ì¦ ĺ
Ġ3 5
Ġì§Ģ íľĺ
ëł Īë
Ġê¸° ì²´
ĠìķĦìī ½
Ġì½ ¤
ë¨ ¼
ĠìłĲ ìĪĺ
Ġì¢ħ ë¥ĺ
Ġ7 0
Ġê²° ìĬ¹
Ġê±° ì¹ĺ
u t
ĠS K
ĠìĿ´ ëĿ¼
Ġíĥ ±
Ġãģ ®
Ġì¶ ľë
¯ ¤
¼ë§ Ĳë¡ľ
Ġì§Ģ ëĤ´
ĠìĨĮ ê°ľ
Ġê³ ¼ë
ĠëĤ ©
Ġë°©ìĸ´ ëł¥
ĠìĿĺ ìĽĲ
ìł ¤
Ġìķł ëĭĪ
ìĸ´ ë¡ľ
Ġíģ´ ëŀĺ
Ġê¸° ìĹħ
Ġ x
ì§ ľ
Ġì± Ħë
Ġê½ ĥ
ĠìłĦ ê¸°
ĠíĻ© ìłľ
ìĻ Ħ
ìĭ ±
ĠìĿĺ ìĻ¸
ĠíĮ ©
Ġì§Ģ ì§Ģ
ig h
Ġìŀ¡ íŀĪ
Ġëªħ ëł¹
ĠíĻķ ìłķ
Ġ_ _
Ġë¨ ¸
Ġë§ģ íģ¬
o d
Ġíĥ Ħì
ĠëĵĿ ìłĲ
ĠìĿĢ ëį°
Ġìķķ ëıĦ
ëĦ ·
í Ī
Ġëħ ¼
Ġê ¾¸
Ġë¶Ģ ëª¨
ĠìłĦë °ĺ
Ġë³Ģ ìĭł
0 9
ë¹ Ħë
ĠíĻĶ ëł¥
Ĺ Ń
í ŀ
ìĹ ½
Ġë¹ ¨
ĠìķĦìĿ´ ëıĮ
íĿ ¥
ĠH P
Ġì£¼ ìļĶ
Ġì° ¬
Ġì¼Ģ ìĿ´
e c
ĠìĤ¬ ë¡Ģ
ĠìĤ¬ ëĥ¥
ĠìĨĮ ìŀ¬
ì§ ĵ
ĠìĤ¬ ê¸°
Ġë¬´ ëĮĢ
Ġíı¬ì¼ĵ ëª¬
Ġëĭ¨ ìłĲ
Ġë°ľ ìĸ¸
Ġ \
Ġëĭ¤ ìĪĺ
ĠìĤ´ ë¦¬
ë¹ Ī
Ġì§Ģ ëıĦ
ãģ Ħ
ĠíĥĪ ì¶ľ
Ġë¡ ¤
ëħ ¸ë
ĠëįĶ ëĭĪ
ë ĥĲ
Ġê°ľë ħĲ
ĠíĮĲ ëĭ¨
ëŁ Ń
Ġìłķ ìĭĿ
Ġë¹Ħë °Ģ
ĠëĭĪ ê¹Į
Ġê¹ Ĭ
2 5
ĠâĢ ĺ
¹Ħ ìĬ¤
Ġë¬¼ ê±´
u m
Ġ3 1
ĠìĤŃ ìłľ
Ġìĭ Ń
ĠëıĻ ìĥĿ
ëĦĪ ìĬ¤
ĠìĤ¬ ìłķ
Ġíĥľ ìĸ´ëĤĺ
Ġë° ĳ
Ġë¬´ ìĬ¨
Ġë²Ħ íĶĦ
Ġ200 9
Ġê´Ģ íķĺ
ì¦ Īë
Ġëĥ ī
ĠìĬ¤íĥĢ ìĿ¼
Ġìŀ¥ ìĨĮ
ĠìłĲ íĶĦ
Ġë Ł°
ĠìĹĺ ë¦¬
Ġì§ Īë
ĠëĬĲ ë¦¬
a g
Ġv s
ĠìĪĺ ì¹ĺ
Ġìĭľ ìĦ¤
ĠìĿ¸ ìĭĿ
Ġëĭ¹ ìĭł
v er
â Ĩ
ĠìĹ Ħë
ĠìĿ´ íķĺ
ìľ ¤
Ġë¡ Ŀ
Ġë¡ľ ë´ĩ
ĠìĪĺ ëıĦ
Ġê²½ ìŁģ
Ġìŀĳ ìĹħ
ĠíĹ Į
ĠìłĦì °¨
Ġë§ ¹
ëł ¬
Ł Ń
¡ ¤
Ġê³µ ê°Ħ
Ġm m
ĠíĦ ¸
Ġëĭ¨ ìĸ´
Ġìĺ¤ ë¥¸
Ġìĥģ ê´Ģ
ëį ¤
Ġìµľ ê°ķ
ĠìĤ¬ìĿ´ íĬ¸
ĠíĬ¸ë ŀ
Ġìŀł ìĭľ
Ġíģ¬ ë¦¬
ë° Ģ
¡ Ŀ
Ġê°Ģ ë¬¸
ìĬ¤ íĭ°
ìķ Į
ĠìĤ¬ ê²©
ĠëĤĺ ìĦľ
Ġë³´ ìľł
Ġë¹Ħ ìļ©
ĠëıĻ ë¬¼
Ġëħ¸ë ł¥
ìķ Ĺ
ĠìĿ´ ìłģ
ĠíĬ¹ ìĿ´
Ġì¹´ ìĿ´
² Ī
ìł Ŀ
Ġíķĺ ëĬĺ
Ġk m
Ġê¸° ëıĻ
Ġê°Ĳ ìłķ
Ġíĸī ìľĦ
Ġê·¼ ì²ĺ
Ġì§ĳ ì¤ĳ
ĠãĢ į
ì¹ ľ
ĠìĦł ìĥĿ
Ġë¬´ ëł¤
Ġì½Ķ ìĬ¤
ĠìĻ¸ êµŃ
íĭ ±
Ġë¶Ħë ªħ
¬´ ë¦¬
Ġìķ ¤
ìķ ¼ë§Ĳë¡ľ
¹ ìĬ¤
Ġë°ľ ìłĦ
Ġíı¬ ê¸°
ìķ Ķ
Ġëł Īë
Ġìłķ íķĺ
ĠìłĦ êµŃ
Ġä ¸
ì» µ
Ġì°¨ ìĽĲ
Ġê² ª
ĠëĿ Ħ
Ġì¡° ìŀĳ
Ġê± ·
ĠíĶ ½
Ġë© ĺ
Ġê±´ ìĦ¤
íĹ Ī
ĠìĿ Įë
Ġë¹ Ļ
Ġì§Ģ ìĥģ
í į¼ë
ĠìľĦë ł¥
Ġê¸° íļĮ
ìĿ¼ë Ł¬
Ġt h
1 3
ĠìĤ¬ ë¬´
ĠìĿ¸ ìĤ¬
ĠãĢ Į
Ġê°ķ ìłľ
ìµ ľ
² ½
Ġìŀ¥ ê°ĳ
Ġê¸° ê³Ħ
Ġ200 8
Ġëıħ ë¦½
ĠìĨį íķĺ
Ġë¶Ģ ìłķ
Ġìłľë ª©
Ġ Ã
ĠëģĿ ëĤ´
ĠìĿ´ ëĭĿ
í ĳ
Ġìĺģ êµ¬
Ġëª© íĳľ
Ġì¹´ ìļ´
ĠìĻ ¼
ĠìĤ¬ íķŃ
ĠìĨ Įëł
ë§Ī ìŀĲ
Ġë§Ī ìĭľ
Ġìĭ¤ ìłĲ
ĠíĬ Ģ
Ġë¶Ģ íķĺ
Ġìłķ ë¦¬
Ġëĭ¨ ì²´
Ġâĺ Ĩ
Ġê°ģ ìĦ±
Ġâ Ĺ
ĠíıŃ íĥĦ
Ġë²Ħ íĭ°
Ġëĸ ¡
ĠìĿĺ ìĭĿ
ĠìĽĲ ìĿ¸
u l
ĠìŀĲ ìĽĲ
ĠìĪĺ ìĥģ
Ġìłľ íĴĪ
Ġê±´ ëĭ´
ĠìĿ´ ìĻ¸
Ġê°Ģ ìĪĺ
Ġë°Ķ ëĭ¤
Ġëł¤ ë©´
ĠëĨĴ ìĿ´
Ġë¶Ģ íĥģ
Ġë³¸ë ŀĺ
Ġí ģĲ
Ġ in
Ġê³ł ìĸĳ
ĭ ´
Ġë¸Įë Ŀ¼
ĠíĺĦì ĥģ
Ġê·¹ ìŀ¥
ĠìĹĲê²Į ìĦľ
ĠìĻĦ ìĦ±
ĠìŀĦë ¬´
ëĤĺ ëĿ¼
ĠìķĦ íĤ¤
Ġê² ¸
Ġêµ° ëĮĢ
ĠíĤ¤ ìļ°
ĠìĦľë ¹ĦìĬ¤
Ġìĺ Ľ
Ġíķ´ ìĻ¸
Ġë³µ ê·Ģ
ê¸ ¸
ìĭľ ë§Ī
Ġê°ĸ ì¶Ķ
Ġë¶ģ íķľ
r i
ë ī´
ìĪ ¨
ĠíĻ Ģ
Ġì« ĵ
ĠìĪ¨ ê¸°
ĠìĹ° ìĬµ
Ġêµ° ìĤ¬
Ġì²ł ëıĦ
Ġíĳľ ìĭľ
ĠìĤ´ íķ´
Ġíļ¨ ìľ¨
ĠìĿ¸ êµ¬
Ġì§ģ íĽĦ
ĠíĻĶ ë©´
Ĥ ľ
Ġì±ħ ìŀĦ
ĠìĪĺ íĸī
o s
Ġìķŀ ìĦľ
Ġ3 6
ĠíķĻ ìĽĲ
Ġì£¼ ìłľ
ìłĿ íĬ¸
Ġ Q
Ġíķ Ħëĵľ
ìľ Ħì
Ġê¸° ëĭ¤ë¦¬
ĠìłĦ ê°ľ
ĠìłĦë ł¥
a k
ĠíĿĲ ë¥´
Ġë¥ ´
ì ¥
Ĥ ł
S T
ĠíķĦì Ĥ´
ìĩ Ħ
igh t
Ġë³ĳ ìĤ¬
Ġì£¼ë ¯¼
ìł ł
Ġìľ¼ë¡ľ ìį¨
Ġë°Ķ ë¥´
Ġì¡° ì¢ħ
4 0
ëłĪ ìĬ¤
ĠëħĢ ìĦĿ
íĬ ¹
ĠìĹ ¼
ĠêµĲ ìĪĺ
Ġê³µ íı¬
ĠìĿĺ ìĤ¬
ĠêµŃ ìłľ
ĮëĤ Ļ
ëĵľ ë¦¬
ëĮĢ íķĻêµĲ
Ġë§Īë²ķ ìĤ¬
Ġê³ Ħë
Ġë¶Ī ê°Ģ
ĠíĻĺ ê²½
Ġ, ,
ìł ľë
ĠìĺĪ ìłĦ
Ġë§Ī ë¥´
Ġíģ¬ ê¸°
ëĳ ¥
ĠëŀŃ íģ¬
³ Ĳ
Ġë¹ ¨ë¦¬
Ġìłľ ê±°
Ġíı¬ ì§Ģìħĺ
ĠíĥĢ ì¹´
Ġê¼ Ń
ĠìĽ ĮëĤĻ
í Ĥ¨
Ġëª ½
Ġíıī ê·ł
ĠëıĦ ìłĦ
íĮĮ íĬ¸
Ġì¶Ķ ì¸¡
Ġ4 5
ê·¸ë łĪìĿ´ëĵľ
Ġë§Īë ¬´ë¦¬
Ġì¶Ķ ì²ľ
Ġìŀĳ ê³¡
Ġë» Ķ
ĠìĦ¸ ê¸°
ľ ¨
Ġìļ° ìĦł
ĠìĻĦë ²½
Ġë£¨ íĬ¸
Ġìħ ĭ
Ġê·¸ ìķ¼ë§Ĳë¡ľ
ĠìĹħ ê·¸ëłĪìĿ´ëĵľ
ĠK BS
ëĵľ ìĭľ
Ġêµ¬ ë§¤
Ġë¶Ħë ¥ĺ
ĠìĥĪë ¡ľ
ĠëĮĢ ê²°
Ġìĺ ®
Ġë³Ħë ªħ
Ġë¸Ķ ë£¨
Ġíıī ë²Ķ
Ġê° Ħì
ĠíĨµ íķ©
Ġìĭ¬ ê°ģ
Ġëª¨ ìĿ´
Ġìī ¬
Ġê³ł ìłķ
ĠíļĮ íĶ¼
ĠìķĦë¬´ ë¦¬
Ġ4 8
ĶĶ ìĸ´
ĠìķĦë Ĥ´
Ġìľł ëĭĪ
Ġìĭ¤ íĹĺ
Ġìŀ¥ ìłĲ
ĠìĿ´ëĿ¼ ê³ł
Ġë³µ ìĪĺ
Ġëĭ¤ íĸī
Ġë¡ ¯
ìĭ Ń
Ġë°ĺ ëĵľìĭľ
ĠìĬ¹ ë¶Ģ
ĠëıĦ ì°©
ë¹ Ļ
Ġìĺ® ê¸°
Ġê »
Ġëĭ¨ ì§Ģ
Ġì§Ħ íĻĶ
Ġë¶ ī
Ġëĭ¤ ìĨĮ
Ġëĭ ¥
Ġë³ĳ ìĽĲ
ĠáĨ¯ ìĪĺë¡Ŀ
ĠìĿĮ ìĭĿ
Ġê°Ģ ìļ´
Ġë¶ ķ
ĺ ģ
Ġìľł íĬľë
íĮ Ķ
Ġìĭ± ê¸Ģ
Ġìľ ¼
ä ¸
Ġê¸° ë°ĺ
ĠìŀĲ ë§ĪìŀĲ
Ġë¹Ħì ¤ĳ
ìķ ¼ë§Ī
ĠìķĪ ìłĦ
ĠìłĲ ìłĲ
Ġì§ Ĳ
Ġìłĳ ê·¼
Ġì½ ľë
Ġë²Ķ ì£Ħ
Ġíķ© ë¥ĺ
ĠìĿ¸ë ıĦ
Ġê± ±
ĠëĮĢ êµ¬
Ġìĺ¤ ëĬĺ
Ġíĸī ìĦ±
Ġê±± ìłķ
ĠìĹ¬ íĸī
ê± ¸
ĠëĥĲ ëĬĶ
ĠìķĦì ĭľ
ĠìķĶ ìĤ´
ĠìłĢ íķŃ
ĠëĬ ¦
ì± Ħ
ĠëłĪ ëĵľ
Ġå ¤
Ġë´ī ìĿ¸
ìĦ ¯
ĠíĥĢ ìŀĲ
ĠìĿ¼ë Ł¬
Ġì§Ģ ë°°
ĠìĻķ êµŃ
ìĬ ´
ëŀ ľëĵľ
Ġì¹ ¼ë
ĠìłĦë ŀµ
ĠìĤ¬ ê±°ë¦¬
ĺ ë¦¬
Ġ5 00
Ġì¦Ĳ ê¸°
Ġê°Ģìļ´ ëį°
Ġíĥ ĪëĿ½
Ġíĺ ģ
Ġì´ ¬
Ġë¯¸ìĤ¬ ìĿ¼
ĠìĻĢ ì¤ĳ
ĠíŀĪ ìĸ´ë¡ľ
ĠáĨ«ì§Ģ ëĿ¼
ĠìķĦ íĮĮíĬ¸
° °
Ġë²Ħ ê·¸
Ġê¸° ì§Ģ
Ġì¤Ħ ìĿ´
Ġì ¯¤
Ġìľł ìĤ¬
ìĤ ¼
Ġíıī ìĨĮ
Ġì´¬ ìĺģ
Ġê³µ ì£¼
Ġêµ³ ìĿ´
Ġìĭľ ìłĦ
Ġíĸī ìłķ
ĠëĿ¼ìĿ´ ë¸Į
Ġì£¼ë ¬¸
ª ¬
Ġíĥ Ŀ
ëª ĩ
ê ¼
ĠìĹ° ìŀ¬
ĠìĦ± íĸ¥
ĵ ł
Ġíĭ Ģ
¼ë Ĥ´
ĠíĻķ ìŀ¥
ĠíĴ Ģë¦¬
Ġìŀħ íŀĪ
íķ ĳ
Ġìŀ¬ ë¯¸
Ġì¹ ł
Ġëĵ¤ ë¦¬
Ġê°Ģ ì¹ĺ
Ġì¹ĺ ë£Į
íĻ į
ĠìĦľë ²Ħ
Ġì¢ħ ì¢ħ
Ġë³´ ë³ĳ
ìĦ ¸ë
ĠêµŃ íļĮ
ĠìłĦ ìŀĲ
íĬ¸ë ¡ľ
Ġìŀ Ń
íķĻ ìĥĿ
ìĿ´ ì¦Ī
Ġëª¨ ìŀĲ
Ġíĺķ ìłľ
Ġë² Ħë
ĠìĿ¸ ì²ľ
Ġì į
Ġëªĩ ëªĩ
Ġê³ł ìŀĲ
Ġì¹ĺ ëªħ
Ġìº ¡
ĠìĬ¤ ì½Ķ
ĠìĬ¤ íĶ¼ë
ĠìĨĮëł ¨
Ġë¦¬ ëįĶ
Ġëĭ¤ ê·¸
2 2
ĠâĢ Ŀ
c e
ĠìĽĲ íķĺ
Ġ200 7
Ġê±° ë¶Ģ
Ġìłķ ê·ľ
ĠíĬ¹ ìľł
ê¹ ¨
Ġê´ĳ ê³ł
ëĤĺ ìĿ´
Ġê¸Ī ì§Ģ
Ġë§Ī ëł¥
Ġìĺµ ìħĺ
Ġë¹ Į
Ġëĭ¬ ëŁ¬
ê ½
ĠìĬ¤ íģ¬
Ġê°Ģ ë©´
¦ Ī
ë§ İ
Ġ19 4
ĠC h
Ġt o
Ġë¨¹ ìĿ´
Ġìĭľì²Ń ìŀĲ
ìħ ľ
Ġë³ ¼ë
ĠìĿ¸íĦ° ëĦ·
Ġëª° ë¦¬
ë²Ħ ìĬ¤
ĠìĿĦ ì§Ģ
Ġìĸ´ëĳ ł
íĶ Įë
Ġë¯¸ë ĵľ
ìļĶ ìĿ¼
ĠëıĦ ìŀħ
ĠíĶĦë łĪ
Ġíĳ ¸
ãģ ®
ãģ ª
ĠìĤ¬ íĥľ
Ġê³ł ë¥´
ĠëĮĢ ìŀ¥
ĠìļĶ ì²Ń
Ġì±Ħ ìļ°
Ġê°ľ ì¡°
Ġë¡¯ ëį°
Ġì» ¬
Ġë³¸ ê²©
Ġë© ĭ
ĠëłĪ ìĸ´
ĠìĽ ¹
Ġìĭ¤ ìĪĺ
Ġ3 00
ĠëĤĺ ìĿ´íĬ¸
Ġìĭľ íĭ°
0 1
Ġë² ¤
Ġ3 3
ĠíĥĢìĿ´ íĭĢ
Ġìķ ī
Ġìŀ¥ ì¹ĺ
ì¿ Ħ
Ġíķĺ ëĵľ
íİ ľ
ĠìĪ ²
ĠíŀĪ íĬ¸
Ġìŀ¬ ë£Į
Ġê²Ģ ìĤ¬
ĠíĶĮë ŀĺ
Ġìŀ ī
ìĹ Ħ
ĠìĤ¬ ìłĦ
ëĭ ī
Ġì¤ĳ ë°ĺ
ĠÃ Ĺ
ĠI n
Ġíı¬ ìĬ¤
ĠëĵľëŁ¬ ëĤ´
Ġëį ©
ĠL G
Ł ½
Ġì§Ģ ìłķ
Ġë²Ī íĺ¸
ĠâĢ ľ
Ġëįĺ ìłĦ
í ĵ¨
ĠìĹ° ìŀ¥
ĠíĪ¬ ìŀħ
ĠìĪĺ ë§İ
Ġë°´ ëĵľ
ìĭľ ìĬ¤
ë¸ Įë
ĠëĶ° ì§Ģ
Ġëļ «
¨ ¼
Ġê´´ ë¬¼
Ġê³ł ëĵ±íķĻêµĲ
ì´ Į
ĠìłĦ íĻĶ
Ġê³ł ìĨį
A R
ë¹ ł
Ġ200 6
Ġâ ĸ
Ġì·¨ íķĺ
o c
Ġê¾ ¼
ĠE X
Ġë°ķ ìĤ¬
ĠëłĪ ìĿ¸
ĠìĤ´ ìĿ¸
Ġíķĺ ê³ł
Ġê³¨ ëĵľ
ĠìĿ´ ìĤ¬
ë ĬĲ
i a
ĠëĬĶ ê°Ģ
0 8
Ġë³´ ëĦĪìĬ¤
ĠìķĦì Ľĥ
Ġë°ľ ìĿĮ
Ġë²ł ìĿ´
Ġ r
ĠìĨĮ ìľł
Ġë¿ Įë¦¬
Ġc m
ë³ ¼
Ġìĸ¼ë§Ī ëĤĺ
Ġë ĩĮ
ìĬ¤ ì¼Ģ
ĠM BC
ìħ Ķ
Ġíĸī ìĤ¬
ĠìĥĿ ë¬¼
ĠíĮ¨ ëŁ¬
a p
ĠìĹĲ ìĿ´
Ġíķ´ ìłľ
Ġíķ´ êµ°
Ġì» µ
ĠíĿ¬ ìĥĿ
Ġìµľ íĽĦ
Ġê° Ĵ
Ġê° ¤ëŁ¬
Ġã ħ
ĠìĿ´ ìĸ´
ĠìłĢì§Ģ ë¥´
ë ļ
ìķ ¼ë
¨ ¹
ìĨ Ķ
íĹ ¤
ĠìĿĺ ëıĦ
Ġíķľ ê³Ħ
ìĿ´ íĦ°
ĠìĨĮ ìĭĿ
Ġíı °
Ġìł Ĭ
ĠíĪ¬ íĳľ
Ġíİ ľ
¾ Į
Ġë¹ µ
ĠìĦ ŀ
ĠìĦľ ìĪł
Ġìĺ¤ë¦¬ ì§Ģ
Ġì ħĢ
Ġëĵľ ë¦¬
Ĥ ¥
Ġìłķ ì±ħ
t er
ĠìĹŃ ëĮĢ
§ Ħ
íĺ ¸ë
ĠìĻ¸ë ª¨
Ġëĭ¤ ìļ´
ĠëĬĲ ëĥĲ
Ġëī´ ìĬ¤
ìĺ¤ ìĬ¤
Ġê³µ ëŀµ
ê¹ Ĳ
Ġìĺģ íĺ¼
íĹ Į
Ġë¹¼ ìķĹ
Ġìŀ¥ ëĤľ
ì¿ł ëĿ¼
Ġê°ľ ê·¸
2 00
íı ´
Ġy ou
ĠìľĦ íĺĳ
ĠíĿ ī
Ġë°ĺ ë³µ
ë° Ľ
ĠêµĲ íĨµ
Ġíĭ° ìĸ´
ĠìĤ¬ ìŀ¥
Ġìŀ¥ êµ°
ĠëĬĶëĭ¤ ëĬĶ
Ġì¡° ìłķ
íķ Ģ
Ġë¯ ¸ëĭĪ
Ġìļ´ ìļ©
Ġëª¨ íĹĺ
Ġë¬´ ìĦŃ
Ġê·¸ ìłĢ
0 7
ì¢ Į
Ġë§ º
Ġë³´ ì¡°
ĠìŀĲ ë£Į
ĠìĹĳ ìĬ¤
Ġìłģ ìłĪ
ĠìĽĲ ìłķ
Ġì°¨ ë¡Ģ
Ġëª© ìĪ¨
Ġìĸ¸ë ¡ł
ī ĺ
ĠF C
ì£ ½
ëĮĢ ë¡ľ
ĠìĿ´íĥĪ ë¦¬ìķĦ
ĠëĮĢ ìĿĳ
ä º
Ġìĭľ ëĤĺ
ĠìĦł ìĸ¸
Ġê¸° ëħĲ
ĠëĶĶ ìĬ¤
Ġì¢ħ êµĲ
Ġê°Ħë ĭ¨
il l
ë ®¤
ĠìĿĺ ìĭ¬
ĠìĿ¸ ì§Ģ
Ġì½ ľ
ë¥ ¼
Ġíķ´ ìĦĿ
Ġìĵ°ëŁ¬ ì§Ģ
o p
í Ħ
Ġë¬´ ìĤ¬
ŀ į
Ġëıħ ìŀĲ
Ġìĺģ ìŀħ
ĠíļĮ ìŀ¥
ĠìĤ¬ ëł¹
ĠìĤ¬ ìĥģ
Ġì¹´ ë©Ķ
½ íŀĪ
ĠìĿĺ ì§Ģ
Ġê³łìĸĳ ìĿ´
ëª ½
Ġì¡° ê°ģ
ìĭ ¸
ĠìĿ¸ ìĥģ
ĠìĿ¼ëŁ¬ ìĬ¤íĬ¸
ĠìĨĮë ħĦ
Ġì§Īë ¬¸
Ġë°Ķ ëĭ¥
Ġê°ľ ìĽĶ
Ġìķ½ ìłĲ
Ġê°Ģ ìĤ¬
Ġê°Ģ ìłķ
Ġê³ł ëĮĢ
Ġë¯¸ ë¦¬
ĠëĨĢ ëĿ¼
Ġì»¨ ìħī
ĠìĿ´ ì¹ĺ
Ġê² ¹
ĠëĮĢ ê¸°
Ġë§Ŀ íķĺ
ĠëĦ¤ ìĿ´
Ġì½Ķ ëĵľ
Ġë¸ ĮëłĪìĿ´
ĭ ¸
ì¹ ł
Ġìĺ¤ ëŀľ
at ion
ĠìĽĶëĵľ ì»µ
Ĳ ë¦¬
Ġíķ© ì¹ĺ
ĠìłĢ ê²©
ĠêµĲ íļĮ
ì¹ ¸
Ġê±° ì§ĵ
ĠìłĦì ĽĲ
Ġë¶Ģ ìĪĺ
Ġêµ¬ ëĭ¨
Ġìķ ¼ë
ĠìĹ Ħ
Ġì± Ļ
Ġìłķ ìĿĺ
ĠíĶĦë¡ľ ìłĿíĬ¸
Ġêµ¬ ë¶Ħ
Ġëħ¸ íĬ¸
ìħ Ģ
Ġíģ´ëŀĺ ìĬ¤
Ġìŀ Ĭ
íĵ¨ íĦ°
Ġìŀ¥ ê¸°
ãģ Ł
Ġíĺķ ìĭĿ
Ġê¸° ìŀĲ
Ġìĭľ ë¯¼
ãģ ¦
Ġì±Ħë ĦĲ
Ġìłľ ìĿ¼
Ġê³µ ë¶Ģ
ĠëĮĢ ëĭ¨
Ġê·¼ë į°
Ġìĭł ì²´
Ġê³µ ëıĻ
ì¡° ê±´
Ġê´Ģ ê´ĳ
Ġìľ Ī
Ġê°Ĳ ìķĪ
ëıĻ ìĥĿ
Ġê·¸ëł ĪìĿ´
ĠìĽ ¬
Ġê¼ ´
ëĭ¤ ë¥´
Ġëł Į
ĠìĤ° ìĹħ
ĠìĿ´ ìª½
Ġê¾¸ ì¤Ģ
ĠíĶ Ħ
Ġìĭ¤ ìĭľ
Ġì¥ Ĳ
Ġìĥģ ì§ķ
íĢ ´
ĠëĮĢ ë¹Ħ
ĠíķĦìĤ´ ê¸°
Ġëĭ¹ ìŀ¥
ĠìĥģëĮĢ ë°©
Ġë³´ ì»¬
Ġë¶Ī ê³¼
ĠM A
Ġ200 5
ĠìĬ¤íı¬ ì¸ł
9 9
Ġëŀ ľë
ĠìĿ¼ ì¢ħ
Ġ3 8
ĠíĿ¡ ìĪĺ
Ġì¹´ íİĺ
Ġíĳľ ìłķ
Ġìĸ¸ ìĸ´
2 4
Ġëĭ ®
Ġêµ° ëĭ¨
Ġë§Ī ìĤ¬
Ġëĭ Į
Ġ3 4
Ġë°© íķ´
² Ķ
2 3
ĠìĥĿ ìĦ±
ĠëĿ¼ ìĿ´íĬ¸
ĠìľłíĬľë ¸Į
ĵ ľë
ĠíĽĦì Ĩį
ëĿ¼ ìĿ¸
Ġìĺ¬ ë¦¼
al l
Ġìłģ ê·¹
Ġì§Ģ ìłģ
ĠíĨ ¤
Ġíĺ Ĳ
Ġë¹Ħì ĭ¸
Ġìłľ ìķķ
Ġìĥ ·
ëĿ¼ë ¦¬
Ġ {
Ġêµ¬ ìĹŃ
Ġë§Ī ì¹¨
Ġê³Ħ ê¸°
Ġê¸ ´
ë¦¬ ê·¸
Ġ200 4
ĠìĹĲ ìĿ´ìĬ¤
Ġì§ĳ ëĭ¨
ĠëĪĪë ¬¼
Ġì§Ħ ìŀħ
ëĵ ¬
ì Į
ĠíĻķ ë³´
Ġë¡ľ ëĵľ
ĠìĹ´ ì°¨
Ġê°ľë ´ī
Ġìłľë ¡ľ
¸ë§ Ŀ
Ġì½¤ ë³´
ë¨ ¹
Ġì£¼ë ł¥
ĠìĿ¸ ìĽĲ
Ġì»´ íĵ¨íĦ°
Ġë° ¸ë
ĠíļĮ ìĿĺ
Ġì¹ľ íķĺ
Ġë¶Ģ ë¦¬
íĴ Ģ
Ġì§Ģ ìĺ¥
Ġë¬´ ì¡°ê±´
íħĲ ì¸ł
ãĥ «
Ł° ìĬ¤
Ġìĺ¤ë¦¬ì§Ģ ëĦĲ
ë© ĺ
ëį ´
O N
Ġë© ¸ë§Ŀ
Ġë¯¼ ì£¼
Ġ and
Ġíĥ ľëıĦ
Ġìłľë ıĦ
Ġìķ Ļ
Ġë¡ľ ë§Ī
ĠìļĶ ìĭľ
ìĵ °
ĠìĿ¸ íĺķ
ĠìĦł ìłķ
ĠëĮĢ ì¤ĳ
ar t
Ġìĺ Ģ
ĠìĹ ł
Ġì°© ìļ©
ë¶ Ļ
ĠìĹ° ì£¼
Ġìĺ¤ íĶĦë
Ġíķ¨ ìłķ
Ġëĵľë Ŀ¼ìĿ´
Ġ100 0
Ġê²¨ ìļ°
ĠìłĦì Īł
ĠìĦł ë³´ìĿ´
Ġëį°ìĿ´ íĦ°
ĠìĬµ ê²©
Ġì½Ķ ì¹ĺ
Ġì§Ģ ëªħ
Ġìĸ´ ì°Į
¼ ì§Ģ
ë¥´ íĬ¸
ĠíĨµ ê³¼
ëĭ «
ĠíķĦì Īĺ
ìľ Ī
Ġì±Ļ ê¸°
Ġê°Ģ íķĺ
ĠìłĢ ì£¼
Ġë¹Ħë Ĥľ
Ġì´ ī
ĠìłĦ íĻĺ
ĠìĹĦë §Ī
Ġê°Ģë¥´ ì¹ĺ
Ġê´ĳ ì£¼
Ġêº ¼ëĤ´
ìĹ Ķ
ľ ł
ĠìĿ¸ë ¥ĺ
ìĹŃ ìĭľ
Ġëª¨ íĭ°ë¸Į
ëł ī
Ġ19 5
ëĵľë ¡ľ
ĠëĮĢ ëĭµ
Ġë¹ Įë
Ġìłķ ëĭ¹
íĨ ¨
ì° į
ãĤ ĵ
íİĺ ìĿ´ì§Ģ
Ġìķ ¼ë§Ī
ĠìĦ¸ ìļĶ
ë¯¸ë ĦĲ
Ġ20 20
Ġë¶Ħ ë¦¬
ĠëĮĢ íĺķ
Ġê°ľ ìĦł
Ġë°© ë¬¸
Ġ3 7
ĠëĶ ľë
0 3
Ġì§ĢëĤĺ ì¹ĺ
Ġìĥģ ì²ĺ
Ġìłľ ìķĪ
Ġìľł ìļ°
0 5
A N
Ġ i
Ġê²Į ìĭľ
ac k
ĠëıĻ ë§¹
Ġë¬´ ëł¥
Ġìľ¼ë¡ľ ë¶ĢíĦ°
Ġìķ¡ ìħĺ
ê½ ĥ
Ġë¨ ¸ë
Ġë°© íĮ¨
Ġìľł ëıĦ
Ġë Ŀ½
ĠëĪĪ ì¹ĺ
ĠëįĶ ë¸Ķ
ĠìłĲ ëł¹
Ġìŀł ê¹Ĳ
ëĭĪ ìĬ¤
ĠìĻĦë £Į
ë© ¸
Ġì§Ģ ìļ°
Ġ *
ĠìĪĺ ìĤ¬
ĠìłĦ íĨµ
ìŀĲ ë¦¬
Ġë¶Īë ªħ
Ġíĳ ¸ë
ĠìĤ¬ ê³¼
Ġìĺ¤ íĨł
Ġë²Ħ íĬ¼
Ġëį ľ
ĠëĤ¨ íİ¸
ĠíĺĦ ìŀ¥
Ġì§ģ ìĽĲ
Ġë¹ Įë¦¬
ĭ µ
ì² ©
ĠíĨµ ìĭł
ã Ĥ¤
ĠìľĦìĽĲ íļĮ
I N
Ġë¬ ¶
ĠëıĦ ì¿Ħ
Ġì§Ħ ìłķ
íĮ Įë
ĠìĿĺ ë¬¸
ĠìķĦë Ĥĺ
ĠìĪĺ íĺ¸
Ġìĥģ ìŀĲ
Ġì¥ ¬
ìĹ Ĩ
ë² ¤
íĥĢ ë¡ľ
Ġëª© ë¡Ŀ
Ġíķĺ ìľĦ
ë¦ Ħë
Ġë°° ìĭł
ĠA n
0 2
ì½ ľ
Ġìľł íĤ¤
Ġíĥľ ìĸĳ
Ġíİ¸ ì§ĳ
ì½ ¤
Ġë ŀĺ
ì½ ©
Ġìµľ ìķħ
ĠëĤł ê°ľ
ĠíĶ¼íķ´ ìŀĲ
ĠíĿ¬ ë§Ŀ
ĠìĦ¤ ë¦½
ë¥´ íģ¬
ĠìĿĢ íĩ´
Ġë¬´ íķľ
Ġëĵ± ë¡Ŀ
ĠëĮ ĵ
Ġê°Ģ ëĵľ
Ġìĺ¤ë¥¸ ìª½
ĠìĦł ë¬¼
å ¤
ĠìĻ¼ ìª½
ìķĦ ë¦¬
ĠìľĦì £¼
Ġë¡ľ ìį¨
ëĵ Ģ
ëŀĺ íĶĦíĬ¸
ĠP C
ĠìĽĲ ê±°ë¦¬
Ġ... .
Ġëĸ ¼
Ġì¹ĺ ë¥´
Ġê³ł íĨµ
ì£¼ë ĭ¹
Ġêµ¬ ì¶ķ
Ġí ĭĪ
ë¡ľ ëĵľ
ĠìĪĺ ë¦¬
ĠëĮĢ ìĽĲ
ĠíĮ¨ ìĬ¤
Ġ200 2
ĠíĽĦë°ĺ ë¶Ģ
ë³ į
Ġìļ© ë³ĳ
ĠíħĮë Ł¬
ĠR e
Ġì¹´ìļ´ íĦ°
Ġê°Ģ ë³į
Ġìŀ¬ íĮĲ
ë¡ ±
ëŁ¬ ìĬ¤
ì» ¨
Ġë© Ī
ĠëĮĢ ëĨĵ
Ġìļ° ìĪĺ
Ġíĺ ¼ë
ëŀĺ ëıĦ
ĠìĦľë ¸Į
Ħì ĭľ
ĠìĹŃ ìłĦ
Ġë§Ī íģ¬
Ġìķ Įëł
ë¯ ¹
Ġê²¹ ì¹ĺ
ĠíĪ¬ ìŀĲ
Ġìľ¡ êµ°
ë¬´ ìĽĲ
ìĺ ·
â ĺ
Ġì²´ ìłľ
Ġíħ Ĳ
at e
ĠíķľêµŃ ìĸ´
ĠëĶĶ ì§Ģ
ëĿ¼ìĿ´ ëįĶ
ĠíŀĪë¡ľ ìĿ¸
Ġì¼Ģ ìĿ´ìĬ¤
Ġì²´ ìľ¡
ìļ ¸ë¦¬
Ġëħ¸ë ıĻ
Ġë¯¸ ìĬ¤
i e
a st
Ġëį° ìĬ¤
Ġë§Ī ëĤĺ
íİ ł
Ġì¼ Ħ
Ġê´´ ë¡Ń
Ġê°ľ ìµľ
Īë ¡ľ
Ġê°¤ëŁ¬ ë¦¬
Ġìĭľ ëĤ´
ìĩ ¼
Ġê¸ Īë
Ġìŀĳ ìĦ±
ĠìŀĲ ìĤ´
Ġíģ´ ëŁ½
íħ Ģ
ìĿ´ ì¹ĺ
Ĺ Ĳ
ĠíļĮ ìłĦ
ìĩ ł
ĠìķĦë¬´ ëŀĺëıĦ
Ġì½Ķ ìĸ´
ë§ ¥
Ġì§Ħì ĺģ
ĠíĹĪ ìļ©
ãĤ ĭ
Ġë©Ģ íĭ°
¯ ¸ë
ĠìĹ ī
ĠìĬ¤íİĺ ìĿ¸
Ġ200 3
Ġì¢Ģ ë¹Ħ
ĠëĮĢëĨĵ ê³ł
Ġë©Ī ì¶Ķ
Ġê²Į ìĿ´
ì¦Ī íĤ¤
ì ¨
ĠíĻĪ íİĺìĿ´ì§Ģ
ìļ ¸ë
ĠìĤ¼ êµŃ
ãĤ ¹
ĠëĿ¼ë ĶĶìĺ¤
Įëł ¥
ìŀ ī
ĠíĻĶ ìĹ¼
Ġì¢ ģ
ĠíĶĮë Ŀ¼
Ġê° ±
P C
Ġìĭľ ì²´
ëĭĪ íĭ°
± ħ
Ġê¹¨ ëĭ«
Ġì± Ħì
Ġì°¨ ë³Ħ
Ġë ´
ĠìĨĶ ë¡ľ
Ġì»¨ íĬ¸ë
Ġìĺ¬ë¦¼ íĶ½
ĠìĨĮ ìļ¸
ĠìĿ¼ë³¸ ìĸ´
Ġì ¤
Ġê°Ģ ê¹Į
Ġê³µ íĻĶ
Ġíıī íĻĶ
ĠY ou
ĠíħĮ íģ¬
Ġíķ ĳ
íĮ ©
Ġ or
Ġê·¸ë¦¬ ìĬ¤
ĠìµľëĮĢ íķľ
ĠìĿĦ ê¹Į
ëħ ¼
¶ ģ
ĠìĬ¤ ë§Ī
Ġë¶Ħ ìķ¼
Ġ 00
Ġëª¨ ìħĺ
ĠìĭľëĤĺ ë¦¬ìĺ¤
ĠìŀĲ ê³ł
íı ¼
Ġíį¼ ì§Ģ
Ġë§Ī ìĻķ
Ġê°Ģ ìĬ¤
ëĿ¼ ìĬ¤
Ħ ·
ĠëĬĶëĭ¤ ê³ł
ëĭ¬ ë¦¬
Ġì£¼ë ª©
Ġì§Ħì ĭ¤
A T
ĠìĪĺ ëĭ¨
ĠS h
Ġë³ĳ ê¸°
ĠëłĪìĿ´ ìłĢ
íķĺ ëĿ¼
Ġ7 5
ĠëĬĺ ë¦¬
Ġìĺ¤ ìĺ¤
§ ¨
ĠìĤ¬ ëĭ¨
Ġìĸ´ ìļ¸ë¦¬
Ġí Ĥ¥
ëª¨ ë¦¬
ĠìĦ¸ê³Ħ ê´Ģ
0 6
Ġíħ Ķ
Ġë³´ ê¸ī
2 1
¥ Ń
Ġì¢ħ íķ©
ĠíĻ© ê¸Ī
Ġì§ ¤
ĠìĻ¸ ì¹ĺ
ĠìĬ¤ íİĻ
ë¡ ¯
ĠB l
Ġë¶Ģ ëĭ´
Ġë¶Ģ ì§Ħ
Ġê²¬ ìłľ
0 4
ê¹ Ģ
ìĸ´ ë¦¬
Ġë§ī íŀĪ
Ġê³µ ìĤ¬
Ġì½Ķ ìĬ¤íĬ¸
Ġëĵľë ¬¼
Ġëģ ¼ë¦¬
Ġ19 3
ê´ĳ ìĹŃìĭľ
ì¸ł íĤ¤
ĠíĬ¸ ìľĦ
Ġíķ¨ ëĮĢ
íĦ° ë¦¬
íĺ Ħì
ë¬´ ëĿ¼
Ġì»¤ ë®¤
Ġìķ½ ìĨį
Ġìĸ´ ëĭ¤
ĠíĥĢìĿ´ ë°į
ĠìĹħ ë¬´
íĦ ¸
Ġê´ĳ ìĹŃ
Ġê°Ģ ìĬ´
Ġí į¼ë
Ġëªħ ì¤ĳ
ĠìĹ¬ ë¦Ħ
ĠìĬ¤ ì¼Ģ
Ġë¶Ģ ìĿ¸
Ġë º
ĠãĢ ģ
Ķ ©
ar d
ì£ ł
ĠëĤĺ ë
Ġë°ķ ìĤ´
Ġì» ·
ë§Ī ìĬ¤
ê° ĸ
ĠíķĻ ê³¼
ĠìĦ± ìĿ¸
íĶ¼ ìķĦ
ìł Ħë
ì¶ ĺ
łĪ ìĬ¤
Ġì¦Ŀ ê±°
Ġíİ¸ ìĦ±
Ġêµ° ìĿ¸
Ġë© Ģë¦¬
ĠëĮĢ ë¯¸ì§Ģ
ĠI I
Ġê·Ģ ìĹ½
Ġì² ľë
ĠìľĦ íĤ¤
ĠíĮĮ ìķħ
Ġëĭ¥ íĦ°
Ġë³´ ìĪĺ
Ġìĺ¨ ê°ĸ
¡ Ģ
an t
Ġë¸Įë ŀľëĵľ
Ġì²ĺ ì¹ĺ
į ¤
ĠìŀĲ ìĭĿ
ĠíĮ¨ëŁ¬ ëĶĶ
2 8
ĠëĮĵ ê¸Ģ
g e
Ġíĥĳ ìĬ¹
ë² ½
ĠìĤ ¶
Ġë³´ ê³ł
Ġ3 9
ìĸ´ ìĬ¤
ĠëĤ© ì¹ĺ
Ġë°Ķ íĥķ
Ġì§Ģ ìĭĿ
Ġë³´ ëıĦ
íĿ ĳ
Ġì¤ĳ ëĭ¨
Ġë¯ ¹ìĬ¤
ìĦ¸ ìĿ´
Ġê±° ìłĪ
Ġëŀ ©
ĠìĹ¬ ìĻķ
Ġì½Ķ ëĦĪ
¼ë ¡ľ
Ġê¸° íļį
ĠìŀĲ ëĿ¼
¸ë ª¨
Ġê³µ ìŀ¥
Ġìľł ëŀĺ
Ġë§Ĳ ë¦¬
Ġâ Ļ
ĠíħĮ ë§Ī
Ġë± Ģ
ç Ķ
Ġíħ į
Ġë¡ľ ìĬ¤
ìĭľ ë¸Į
ĠìĹ° ê³Ħ
er s
ĠìŀĲ ë¥´
ìĤ¬ ì¹´
ë¸ Ĳ
2 6
ë¦Ħë ĭµ
Ĩ Į
Ġê°Ģ ìĿ´
Ġíĺĳ ëł¥
ì ³Ĳ
Ġë§Īë ħĢ
c t
Ġì¸¡ ë©´
y s
Ġìķł ë§¤
Ġê°ľ íİ¸
ĠìĹĨ ìķł
Ġìĺ¨ ëĿ¼ìĿ¸
Ġíķľ ê¸Ģ
Ġíģ¬ë¡ľ ìĬ¤
ĠíĻĶ ìĤ´
ı ħ
Ġìłķ ì§Ģ
Ġ re
ìŀ Ķ
ĠìļĶ ê´´
ĠìķĦ ë¦Ħëĭµ
ĠëıĮ íĮĮ
Ġk g
ĠìĿ´ ê³³
ĠëĶ° ìľĦ
ĠëĶľë Ł¬
ëª °
ĠìĿ´ ëŀĢ
Ġíķĺ íĬ¸
Ġê³ł ê¸ī
Ġê¹ İ
Ġíİĺ ë¥´
ĠìĺĪ ìĦł
Ġê·Ģ ì¡±
ĠìŀĲëıĻ ì°¨
Ġë¶ķ ê´´
ĠêµĲ íĻĺ
u e
ĠS BS
ìĽ Įëĵľ
Ġì½ ©
¨¼ íĬ¸
ĠìĤ ½
Ġìĸ´ ìļĶ
Ġíĥĳ ìŀ¬
Ġê²½ ê³Ħ
Ġë²ł ìĿ´ìĬ¤
° ķ
Ġêµ¬ ìŀħ
Ġíĸī ë³µ
a b
Ġë°ľ íľĺ
Ł¬ ìĬ¤
Ġê³ł ìľł
ëĭ ĺ
ĠìłĦ ê³µ
ĠS P
ĠëĦ ¥
ĠêµĲ ìĤ¬
Ġê´Ģ íĨµ
ìľĦì ¹ĺ
Ġë§¤ ì¹ĺ
Ġê³µ íĨµ
Ġ0 8
ĠìķĦíĶĦ ë¦¬ì¹´
ê³ł ëĵ±íķĻêµĲ
Ġëĭ¹ íĻ©
ł Īë
ìĿ¸ë ¬¼
Ġë¶Ħ ìĦĿ
Ġë°© ë©´
ĠN o
Ġìłķ ëł¹
Ġâ ħ
Ġë£ Į
Ġë£ °
Ġìŀ¥ ìķł
Ġ15 0
Ġëŀľë į¤
Ġì§Ģ ìłĲ
Ġíı ¼
Ġíķľ íĻĶ
ĠìĬ¤íĶ¼ë ĵľ
t h
ĠA P
at h
Ġì¹´ë©Ķ ëĿ¼
ĠìĬ¤ íĨ¤
Ġ5 5
ã ħ
Ġìľł ìļ©
Ġì§Ģ ìĭľ
ĠìĦ¤ ê³Ħ
Ġë§¡ ê¸°
2 7
Ġë¹ Ķ
ĠìĦł ë°°
ĠS p
Ġíĺ ľ
ĠìĿĢ ê·¼
Ġê±° ëŀĺ
el l
Ġìĸ¸ ìłľ
ĠëıĮ ê²©
Ġì°¨ ìłĦ
Ġ200 1
Ġìĸ´ ë¦°
ĠíĽ Įë
ĠíĿ ĺë¦¬
Ġë¸Ķ ëłĪìĿ´
Ġì° Įë¥´
ì¹´ ìĿ´
Ġê²© íĪ¬
ĠíĬ¸ìľĦ íĦ°
Ġìº Ķ
Ġë¬¸ë ªħ
Ġìłľ ìĭľ
íĪ °
Ġê²Į ìĿ´ì§Ģ
u p
Ġìŀ¥ ìĪĺ
Ġë¹Ħë¡ Ŀ
ĠìĦ¤ ëĵĿ
ĠìĻķ ìŀĲ
ì°¨ íĶ¼
ĠìĪľ ìĪĺ
Ħì ĥ
Ġë°¸ë Ł°ìĬ¤
Ġëį ¸
Ġê·ľ ìłķ
Ġìļ© ëıĦ
Ġì´Īë ĮĢ
Ġ st
Ġìĸ´ ì°¨íĶ¼
Ġìłģ ëĭ¹
Ġê¸° ìĸ´
å ®
Ġìħ °
Ġë¬´ ëĦĪì§Ģ
Ġëĭ¨ ëıħ
Ġë¸Ķ ë¡ľ
Ġ4 3
Ġìı Ł
Ġë¯¼ ì¡±
Ġíķµ ìĭ¬
Ġíĺ¸ ìĦł
Ġê³Ħì Ĥ°
Ġì²´ ìĿ¸
Ġê³ł ìĦľ
Ġì¶ľë °ľ
ĠëĤ ļ
ĠíĻĶ ìŀ¥
ë¦ ĩ
ëıĦ ìļ°
ĠëĮĢ ë¥Ļ
ĠíĶĦë¡ľ ëĵĢ
Ġë¡ľ ì¼ĵ
Ġê·¼ë ¬´
ĠëĤĺë īĺ
ê°Ģ ëĿ½
ĠìĬ¤íĥ ł
Ġìŀ¥ ë¥´
i f
ĠìĤ´ ì§Ŀ
ŀ ľ
Ġê°Ī ë¦¬
Ġê±´ ëĦĪ
ĠìĨĮ ìĪĺ
ĠìĿ¸ ìĥĿ
ĠíĬ¹ ê¸°
Ġëĵ± ëĵ±
ãģ Ĩ
Ġíĺ ¼ëŀĢ
ĠìŀĲ ê²©
Ġì§ Ŀ
íĶ¼ ìĬ¤
Ġìĺ¤ íķ´
ë¹Ħ ìķĦ
Ġíķ´ ìłģ
Ġëĵł ì§Ģ
ĠìĬ¤ íĮĮìĿ´
ë¨ ¸ëĭĪ
ĠíĻį ë³´
į ķ
Ġíķ´ ìĦ¤
Ġìļ° ëł¤
ĠìĿ¼ë¶Ģ ëŁ¬
Ġë° Ł
Ġì£¼ ìĹ°
ĠìĬ¤íĥ ¯
ĠìĪľ ìĦľ
ĠìĻ¸ë ¶Ģ
ëłĪ ê¸°
ĠíĮĮìĿ´ ìĸ´
ĠëĤ´ ëĤ´
Ġì¶© ëıĮ
ĠëĳĲ ë¥´
ĠìĨ Įë¬¸
Ġë¶ģ ë¯¸
ë¹ Į
ĠB G
ëª¨ íĨł
Ġê·¹ìŀ¥ íĮĲ
ĠëĴ¤ ì§ĳ
ëĭ¤ ì§Ģ
Ġìĭł íĻĶ
Ġì¶ ¤
Ġëĭ «
íĿ Ĳ
Ġíİ Ģ
ĠìĬ¤ íĨ
Ġ4 7
ĠëĤĺ ë£¨
Ġë¶Ī ìķĪ
Ġì¶Ķ ìłģ
Ġìŀħ íķĻ
Ġì»¤ ì§Ģ
I A
ëŀ Ħ
Ġìĸ ¸ëĭĪ
Ġìŀ¬ ëĬ¥
in e
Ġê±¸ ì¹ĺ
Ġê·¸ë ķĮ
ĠãĢ Ĥ
Ġê¶ ¤
Ġì£¼ë ıĦ
² ¨
Ġìĸ¼ ìĿĮ
ĠíĮĮ ìĿ¼
ë© į
æ ľ
Ġë¦ ´
ëħ ķ
ìĭľ ìĺ¤
Ġê°ķ ì¡°
ãģ ĭ
Ġë¬¸ ìŀĲ
Ĺ °
ĠíĽĮë ¥Ń
Ġì¦ Ī
Ł ¿
ĠëĤ ³
Ġëĭ¨ ìľĦ
ĠëĿ¼ìĿ´ ë²Į
ĠíĨµ ìĿ¼
ëĶĶ ìħĺ
íģ¬ ë¡ľ
Ġì§ĳ ìķĪ
Ġì±Ħ ìļ©
Ġëĵ±ìŀ¥ ìĿ¸ë¬¼
ĠìĹĲ ìĬ¤
ĠëıĦ êµ¬
Ġìłľ ê¸°
Ġìĵ°ëŁ¬ ëľ¨ë¦¬
Ġìĺ¤íĶĦë ĭĿ
ĠA l
Ġë³Ģ íĺ¸
Ġê°Ģê¹Į ìĿ´
Ġê¸° ìłĪ
ĠìĹ¬ ëıĻìĥĿ
ëł ĺ
Ġë³¸ë ¶Ģ
Ġìĺģ ìĹŃ
Ġë¬´ ê²Į
ĠíĦ° ë¯¸ëĦĲ
ĠìĹ¬ ë¶Ģ
Ġì¹ ľë
ë¬ ĺ
Ġìĭ¤ ì§Ī
Ġ9 9
Ġìľ µ
Ġìŀ¬ ìĥĿ
O R
ĠT h
Ġëĵ± íĮĲ
Ġì§Ģ ë¥´
Ġíķ´ ê¸Ī
m e
ĠëĵĢ ìĸ¼
Ġê³ł ë¯¼
ĠìĹĲ ìĸ´
ìĮ į
ĠP S
Ġë¡ ±
Ġìļ° ìĹ°
Ġë°ĺ ìĺģ
Ġíİĺ ìĿ´ìĬ¤
Ġì»¤ ë²Ħ
Ġë³Ħ ê°ľ
ĠìĪĺ ìĹħ
ĠëĦ ·
ĠëĤ´ ëĨĵ
ĠD e
Ġê¶ģ ê·¹
ìĿ į
Ġíķľ ìŀĲ
ĠìĪĺ íķĻ
Ġê° ĵ
ĠC D
ĠíĮĮìĿ´ íĦ°
Ġìŀ¥ ê´Ģ
Ġã İ
ĠëĿ¼ìĿ´ íĶĦ
ĠìĿ´ ìĦ±
al e
ë¦ ī
Ġë¹¨ ê°
Ġëĭ¬ ëĿ¼
ë°Ķ ë¡ľ
Ġë©Ķ ê°Ģ
Ġê¸° ë¶Ħ
Ġ4 4
on e
Ġë°ķ ìĬ¤
Ġê³ł ê¸°
ĠíĬ¸ëŀ Ļ
Ġê³ł ìĥĿ
ìłĦ ìŀĲ
ĠìŀĲ ìĿ´
Ġë®¤ ì§ģ
Ġì»¨íĬ¸ë ¡¤
i st
Ġê·¸ ëĭ¤ì§Ģ
íģ¬ ìĬ¤
Ġíĺķ ìĦ±
íģ¬ ëŀĺíĶĦíĬ¸
Ġìĺ¤ ë¥ĺ
ĠíĺĦ ì§Ģ
å Ń
Ń ī
Ġê· ł
Ġì¶© ìłĦ
ĠV S
Ġë©Ķ íĥĪ
Ġë¶Ī ë§Į
ĠëıĻ ê¸°
Ġìĺ¤ ë¹ł
ĠíıŃ íĴį
Ġë§Ī ìĪł
Ġì²ĺ íķĺ
ľë ¡ľ
ĠíĹ¤ ìĸ´
Ġê³Ħì Ĭ¹
Ġê¸° ê¸°
Ġìłķ ê¸Ģ
ĠìĪĺ ìĽĲ
â Ģ
Ġíı¬ ë¥´
Ġë§Į ì¡±
Ġíķ´ ë°©
Ġê·¼ ê±°
ëĵľë Ŀ¼
ĠìķĦì¹ ¨
ĠíĥĦì ĥĿ
Ġ4 6
ĠìķĦ ë¦¬
íį¼ ìĬ¤
Ġëªħ ìĺĪ
Ġìłķ ê¶Į
íĶ Ī
2 9
Ġ199 0
Ġë°ĺ ëŀĢ
ãĥ¼ ãĥ
Ġìł ¤
Ġ |
ì ¤Ħ
Ġìĭł ë¢°
ë² Ħë
P S
A M
ĠëĿ¼ìĿ´ ëįĶ
ĠìļĶ ìĽĲ
Ġê°Ī ëĵ±
ì¥ ¬
ë£¨ ìĬ¤
Ġì¦Ŀ ëªħ
Ġê²½ íĸ¥
Ġë§ī ìŀ¥
Ġì¤ĳ ê³Ħ
Ġë¹Ħì ľ¨
Ġìķķ ë°ķ
ĠíĮĲ íĥĢ
Ġë¶Ļ ìŀ¡
ĠìĬ¤ íĬ¸ë¦¬
Ġì§ľ ë¦¬
Ġê°Ĳ ìĤ¬
Ġì»¤ë®¤ ëĭĪíĭ°
Ġê²© íĮĮ
ìĦ¸ ìļ°
§ Ĳ
Ġê¶ Įëł¥
o o
Ġëį ®
Ġìłķ ë¥ĺ
Ġíİĺ ìĿ´
å ħ
Ġê²½ ìĺģ
Ġíĳ ľë
ê ¿
ìł Ħëĵľ
ĠS S
ĠìĨĮë ¹Ħ
Ġìĭł ì²Ń
Ġíķ¨ ìĦł
u b
ãģ Ĺ
Ġë¯¸ë Ĥĺ
Ġê³µ êµ°
ìĺ ¬
Ġ... ..
ĠíĿĶ ëĵ¤
ĠëĤ´ ì£¼
Ġ0 9
ĠìĬ¤ì½Ķ ìĸ´
ĠìĪĺ ìŀħ
Ġíĺģ ëªħ
ëŀĢ ëĵľ
Ġãĥ »
ĠíĽĦ ì§Ģ
ĠíĹ Įë
ì´ ī
¼ Ī
ë² Ħì
ìķĦë ²Ħì§Ģ
Ġë¯¸ êµ°
Ġëŀ ľ
íĽ Ħë
Ġìĺ¤ ìĬ¤
Ġìłģ íŀĪ
ì§ Ħì
Ġì·¨ ìĨĮ
Ġê²¨ ìļ¸
ì° ¾
Ġë¸ Įë¦¬
² ¤
Ġìŀħ êµ¬
ìĽ¨ ìĿ´
Ġëª¨ ë¦¬
Ġë¬¸ìłľ ìłĲ
ë² ¨
Ġëĭ¤ìĭľ íĶ¼
ĠìĬ¤í Ĥ¨
Ġì§Ģ ê¸ī
íĥ ĳ
Ġì¶ľ ìŀ¥
ĠìłĦíĪ¬ ëł¥
ëłĪìĿ´ ìħĺ
Ġê° ¤
Īë² ½
° ½
Ġíİĺ ìĿ´ì§Ģ
Ġìĺ¤ ë²Ħ
° ±
Ġìĺ¤ íĽĦ
Ġì¶Ķ ëĿ½
Ġëª ¹
Ġíķ´ ì²´
Ġìĥ ĺ
ĠìĬ¤íĬ¸ë Ŀ¼ìĿ´
Ġê·¸ë§Į íģ¼
ìĺ¤ ë¦¬
Ġíģ´ ë¡ľ
ĠëıĻ ëĦ¤
° į
Ġìĵ° ëłĪê¸°
ĠëıĮ ì§Ħ
ĠN PC
ĠíĬ¸ë łĪìĿ´
Ġìļ´ ëªħ
ĠìĬ¤ì¹´ ìĿ´
Ġê±´ ê°ķ
Ġ0 7
Ġ $
Ġë°ĺ ê²©
ĭ ī
ìĨĮë ħĦ
V P
ĠM P
ĠìĹ¬ ìĭł
ĠìĹ¬ ë¡ł
Ġê¹Ģ ìĦ±
ĠìĨĮë ©¸
ĠíıŃ ê²©
ì§Ģ ì»¬
Ġê³µ íķŃ
i p
ĠìĪľ ìĭĿ
ĠìłĦ ìŀ¥
ìĤ¬ íĤ¤
ëĳĲ ë¥´
Ġìĩ ł
Ġíĭ Ģë¦¬
ê³ł ê¸°
ĠìłĪë °ĺ
Ġêµ° ì£¼
ĠìĤ¬ ì¿łëĿ¼
Ġëª° ëŀĺ
Ġê°Ģ ìŀħ
ĠìĦ Ń
ĠìĬ¤ íĮĮ
Ġê°ĳ ìĺ·
ĠâĢ ĵ
ĠìĿ´ ë¡ł
Ġì£¼ ìłĦ
Ġë³¸ ìĦł
ĠëłĪ ìłĦëĵľ
Ġì²´ ê³Ħ
ĠíĮĮ íĬ¸
Ġë²Ķ ìĿ¸
Ġë§Ī ëł¨
Ġìłľ ì¡°
ĠB R
Ġì´Ī ìĽĶ
ľë ŀĢ
Ġê²Į ìĿ´íĬ¸
ìĽ ĥ
Ġ199 8
ĠíıŃ ì£¼
Ġë§Ī ì£¼
Ġ Ð
ĠìłĦ ìĦł
ĠëĭĮ ìŀĲ
Ġì§Ģ ëĬ¥
ĠìĺĪ ìĪł
ĠA C
Ġë¦¬ ìĬ¤
Ġì° °
Ġï¼ ģ
s e
© ìĿ´
ĠëĦĺ ì¹ĺ
Ġì¦ī ìĭľ
ëĤĺ ê°Ģ
ĠìķĦìĺ ¤
Ġì¹´ ì¦Ī
Ġê³ł ì¹ĺ
ĠìĿĳ ìĽĲ
Ġê°Ģë©´ ëĿ¼ìĿ´ëįĶ
ĠìłĦ íĺķ
ì¿ ¨
A S
ĠíħĮ ìĬ¤íĬ¸
Ġê°Ģ ë¡ľ
ĠíĥĢ ìĽĮ
it h
Ġìĭł ìĦ¸
ĠA r
ĠìĹħ ì²´
Ġìĸ´ ì¨
ìŀĲ íĤ¤
Ġì¿ł ë¡ľ
ê» ı
âĺ ħ
Ġìŀ¥ ìłĦ
Ġê°Ĳ ìĹ¼
Ġë¬´ ëĤľ
Ġê¹ ĥ
ĠS T
ĠìķĦìĭľ ìķĦ
Ġí Ī
ĠëłĪ ìĺ¤
ŀ «
¶ Ħ
íĭ ¸
ĠìĦľë ¶Ģ
ìķĦ ê°Ģ
ĠíıŃ ëł¥
Ġì¡° ì¤Ģ
ĠìĿ´ ìĬ¤
ĠìĬ¤ íĶĦë
Ġì§Ģ ëĮĢ
Ġíħ ľ
ĠìĹ° ìĺĪ
ãģ ¨
ŀ Ĺ
ĠìķĦë¬´ ëŁ°
i ve
Ġìŀĳ ìļ©
Ġì į¨
Ġì£¼ë ¨¹
Ġëĭ ¿
Ġë²ł ë¥´
Ġë³´ ìłķ
Ġë³Ħë ıĦ
ãĤ ī
Ġê±° ì£¼
ĠíĮĮìĿ´ ëĦĲ
íĹ ¨
Ġì Łģ
Ġë¬ µ
Ġêµ¬ ëıĦ
Ġê¸° ìĽĲ
Įë ĵł
Ġ199 9
ê° ¤
ĠìĽ¨ ìĿ´
Ġì¶Ķ ê²©
Ġìĭľ íĸī
Ġíķľë ²Ī
Ġëĭ¹ ìĦł
ĳ ¥
ĠíĹ¤ ëĵľ
Ġ0 4
Ġìĭ¬ ìŀ¥
íĶĦ ë¦¬
Ġëĭ¤ë©´ ìĦľ
8 0
Ġ6 4
n d
ĠíĻĶ ëł¤
ë¡ľ ìĬ¤
ë¡ ¤
Ġì¹´ ëĤĺ
ĠëĳĲ ëłµ
Ġìĭł ìĿ¸
Ġíģ¬ ë£¨
ĠëĮĢ ë¯¸
ĠëıĻ ìĽĲ
ãģ £
Ġìłľë ²ķ
A L
Ġêµ¬ íĺĦ
Ġë¹Ħ íĬ¸
Ġëĵľë ĶĶìĸ´
ĠìĿ´ëłĩ ê²Į
Ġê°Ĳ ìĭľ
en d
ĠìĺĪ ìĻ¸
P G
ëŀ į
Ġëħ ĦëıĦ
Ġìĺ¤ íĶĪ
Ġë°Ķ ë³´
Ġì§Ģíķĺ ì²ł
Ġê°Ģ ëĵĿ
ãĥ ĥ
ĠëĤ Ń
ĠëĬ ĳ
ĠìļĶ ìłķ
Ġê²½ ëł¥
Ġì¡° ìłĪ
or e
L C
Ġë¬´ ìĸ´
Ġë³µ ìŀ¥
ĠìĬ¤íİĺ ìħľ
íĮ ¡
Ġìı ł
Ġê³Ħ ê¸ī
ĠìĹ° ìĤ¬
ìĿ¼ë ¦¬
íĳ ¸
Ġë©Ķ ë¦¬
ĠìĻ¸êµŃ ìĿ¸
Ġê³µ ìĤ°
ĠíķĻ ìĤ´
ë°Ķ ìĿ´
Ġ0 6
Ġì§Ģ íĺķ
ĠìŀĲ ëĬĶ
Ġìĺ¤ ë¡ľ
Ġëł ¹
íĪ¬ ìĬ¤
V E
Ġìĭľ ê°ģ
Ġìŀ¥ ìĭĿ
Ġì¿ł íĤ¤
Ġì»¨ íħĲì¸ł
Ġìĺģ ìĽĲ
ĠíĻĶ ìĿ´íĬ¸
Ġ0 3
Ġê²½ ìľł
íķľ êµŃ
ĠìĹ° ìķł
ĠìķĶ íĿĳ
ĠíĨµ ìłľ
ĠíħĮ ìĿ´
Ġ4 2
Ġâ ĳ
ĠìĪĺ ìĪł
in d
or t
Ġìĭ¤ íĸī
ãĥ ©
Ġí ĥģ
ĠëĮ ĦìĬ¤
ĠC V
ĠëĲĺ ì°¾
Ġìĸ´ ê¹¨
Ġê» ĺ
Ġì¡° ìļ©
Ġ0 1
Ġêµ¬ ì¶ľ
ìĺģ ìĥģ
Ġëģ Įë¦¬
ì© ¡
ĠëĮĢ íķĻêµĲ
ĠìĿ¸ ìĪĺ
ĠìļĶ ìĥĪ
Ġìĺ ¹
ĠëĳĲ ìĤ°
Ġ!! !
Ġíķ© ê²©
Ġëį §
Ġê³ °
Ġë©ĶìĿ´ ìłĢ
i k
Ġìĭľ ìķ¼
it y
ĠìĪĺ ìļĶ
Ġì¤ĳ íķĻêµĲ
ĠìĹ° ëĮĢ
Ġì§Ħ ì§Ģ
Ġí ĸ
Ġëĵľë ŀį
Ġíķĺ ìĪĺ
Ġìĭł ê³ł
ëı Ī
Ġì²ľ ìĤ¬
ģ °
ëĦ Īë
ĠìŀĦë ªħ
Ġë°ĺ ì§Ģ
ĠìĹ° ëĿ½
ìĨĮë ħĢ
ĠìķĦì Ĥ¬
ĠìĺĽ ëĤł
ìľł íĤ¤
Ġì¡° ì¹ĺ
ĠìłĦë °©
ĠëĤĺ ì¹´
Ġë¬´ ë¥´
ĠìĨĮ ì´Ŀ
ĠëĦ¤ìĿ´ ë²Ħ
O S
ĠíĢ ¸
Ġì°¸ ìłĦ
Ġìŀ ¦
ëł ´
ãĥ ª
Ġê±°ì§ĵ ë§Ĳ
ĠíĽ Ķ
Ġãģ Ħ
Ġì£¼ë ħĦ
Ġíķ Ħë
Ġë¬¸ ìŀ¥
Ġë¦ ½
Ġê² ģ
Ġë§ŀ ìĦľ
Ġìļ¸ íĬ¸ëĿ¼
Ġï ½
s s
Ġíİ¸ ì§Ģ
Ġê³ł ìłĦ
íĮĮìĿ´ ìĸ´
Ġë¶Ģ íĴĪ
Ġë³Ģ íĺķ
ĠìĦľ íı¬
Ġìŀħ ëł¥
ìĿ¼ë ³¸
ĠëĨĵ ì¹ĺ
Ġë§ŀ ìĿ´
Ġê³Ħ ìłķ
Ġê³µ ê¸°
Ġê·¸ ë¦°
£ ¡
ĠìĹ° ìĥģ
Ġê´Ģ ê°Ŀ
ĠìĿ¼ ìĥģ
Ġë¸ĮëĿ¼ ì§Ī
ĠâĹ ĭ
Ġê² ī
ëıĦ ë¡ľ
Ġë¸ Į
Ġìŀĳ ëıĻ
ìŀ ĩ
Ġê²Ģ ìĥī
Ġë§¤ ëł¥
ĠìĥĿ ìĿ¼
Ġëī´ ìļķ
íĭ° ì»¬
Ġê³µ ìľł
ëħ¸ ìĬ¤
ĠìĿ´ ëŀĳ
ìĿ´ ìĸ´
ê³ Ħì
Ġìĥģ íĴĪ
ĠíĨł ìĬ¤
ĠìķĦë ©Ķ
Ġëģ Ķ
Ġë¶Ī íİ¸
Ġ4 00
Ġë¯¼ ê°Ħ
ĠëĤĺíĥĢ ëĤ´
ĠìłĦë ĭ¬
ĠëĬĳ ëĮĢ
Ġëį ´
ĠìĻ¸ êµĲ
ëł Ĳ
ëĤĺ ëĭ¤
ĠC P
Ġì°¨ ë¦¬
Ġêº ¾
Ġì¡° ìĭ¬
l d
Ġ12 0
ħ ¸ë
Ġíķĺ ìĸ
Ġìłľ ìŀĲ
ĠìķĦë ģ¼
Ġ199 7
ĠëĿĦ ìļ°
Ġìł ł
ĠM S
ĠëĿ¼ë©´ ìĦľ
Ġì¶ľ ì²ĺ
Ġêµ¬ ë¥´
ĠáĨ«ëĭ¤ ë©°
Ġë©Ķ íĥĢ
Ġê°Ħë ¶Ģ
íķ Ħë
an g
Ġë³´ ë¬¼
Ġê·¸ëŀĺ íĶ½
ĠíĮĲíĥĢ ì§Ģ
íĭ° ìĬ¤
Ġìĥģ ê¸ī
ĠB e
m s
Ġê¸Ģ ìŀĲ
ĠL e
Īë Ŀ¼
Ġì£¼ ìľĦ
Ġã Ĩį
Ġìłľìŀĳ ì§Ħ
Ġë³´ ìŀ¥
ê³ł ìĨį
ĠíĿ¥ íĸī
ëł Ľ
ĠíķľêµŃ ìĿ¸
Ġëĳ ¥
a v
ĠíĬ¸ë łĪ
Ġìĭ¬ ë¦¬
Ġì°½ ìŀĳ
Ġê°Ģ ê²Į
ìĸ´ ëıĦ
Ġíĺ¸ íĻĺ
ĠíĻį ì½©
ĠìĿ´ ëĵĿ
ĠK T
Ġê³µ ì§Ģ
ĠëĮĢ ìļ°
¶ Ī
ĠìķĦì ¼Ģ
ëĦĲ íĭ°
Ġìłķë¥ĺ ìŀ¥
ĠìĬ¹ ê°ķ
Ġìŀħ ìĪĺ
ëĶ °
ĠíĻĺ ìĥģ
ĠìŀĲ ë§¤
ĠëĮĢ ë§Į
a in
Ġê°Ħ ê²©
ë ¿
Ġ6 5
Ġëħ¸ ìĺĪ
Ġì¶ľ íĺĦ
Ġë¶Ī ê½ĥ
Ġíķ Ģ
Ġê¸¸ ìĿ´
Ġì¹´ ë¥´
Ġê·¸ ì¹ĺ
Ġìĥģ ìłĲ
Ġìŀ¥ êµĲ
Ġìĥģ ìĥģ
ĠìĹ° ê´Ģ
Ġëĭ ī
ĠA T
¹ ´
Ġìĭł ê·ľ
ìĦľ íĬ¸
Ħë Ł½
ĠìĮĵ ìĿ´
Ġì į°
Ġë§¤ ìĿ¼
Ġì¡° ì¡°
ĠëıĻ ìĺģìĥģ
íİĻ íĬ¸
Ġëħ¸ ì¶ľ
ĠìŀĲ ì¹ĺ
ĠíĶ ĮëłĪ
ĠìķĦ ìļ°
ĠìĿĢ íĸī
ĠìĤ¬ ìļ´ëĵľ
ĠíļĮ ìĪĺ
Ġìķ ¼ë§
Ġìļ¸ ìĤ°
ĠìĹ° ë°©
on g
Ġë©Ķ ì¹´
Ġíľĺ ëĳĲë¥´
Ġì£ Ħì
ĠíĥĢ ìłĲ
íĬ¸ë ĦĪ
ĠíĽĶ ì¹ĺ
Ġíĺķ ìĤ¬
Ġíĺ¸ íħĶ
Ġê¸ į
Ġê³µ ìĽĲ
íĻ Ģ
Ġì´Ŀ ê¸°
Ġê¹¨ ì§Ģ
I C
Ġå ħ
ìĿ¼ë Ł¿
ë¦Ń ìĬ¤
ãĥ Ī
Ġê¶Į ì´Ŀ
ì¸ µ
ĠìĿ¼ë ĮĢ
Ġíĥľ ìļ°
ĠëıĦ ìĦľ
ĠìĤ¬ëł¹ ê´Ģ
Ġë§Īë ĥ¥
Ġë°ĺ ë°ľ
Ġê³ł êµĲ
Ġë³µ ìŀ¡
ĠíĽĦì ¿ł
ĠìķĪ ëĵľë¡ľ
¹ ł
Ġì²ł ìłĢ
ĠìĪľìĭĿ ê°Ħ
ĠíıĲ ì§Ģ
3 5
Ġì°½ ì¡°
ĠëĨį êµ¬
Ġíĺ¸ íıī
ĠìĦ¸ ìĽĶ
Ġê³¼ë ª©
ë¥ ľ
ĠL o
ĠíĹĮ íĦ°
Ġìĭ¬ íĮĲ
ĠìĿĺ íĺ¹
¹ Ħì
Ġê·¸ë¦¼ ìŀĲ
Ġ0 2
Ġd e
ĠìĬµ ëĵĿ
¶ Ķ
Ġë³´ ìĦĿ
ĠìĹĺ íĶĦ
ĠáĨ ¸
ê°Ģ ë¯¸
ĠH e
Ġì¶ľ ëł¥
Ġê¸ ¸ëĵľ
ãģ ¾
ĠìĿ´ ìŀĲ
Ġ0 5
ëª¨ ë¡ľ
¬ ĺ
Ġíı¬ íĬ¸
Ġë©Ķ ìĭľ
ĠíĮĮ ìĿ¼ëŁ¿
ĠìĤ¬ìĭ¤ ìĥģ
Ġìħ Ķ
ì¹´ ëĵľ
ĠëĮĢì²´ ë¡ľ
ëĭ¤ ìĿ´
ĠìĨĮ íĻĶ
Ġãģ «
Ġê³µíĻĶ êµŃ
ĠìĬ¤ë§Ī íĬ¸
Ġìŀł ìĪĺ
Ġíĥ± íģ¬
ĠìĬ Ľ
ë§ ŀ
Ġê²½ ê³ł
Ġ is
Ġìłľ ìĿ´
Ġb e
Ġê³µ ìŀĳ
Ġëĭ¨ ìĿ¼
r y
© Ģ
Ġêµ´ ë¦¬
ĠìĿµ ìĪĻ
ĠìĹ ®
Ġê°Ģ ëŁī
Ġëĵľë Ŀ¼
Ġíķľë ķĮ
Ġì°© ê°ģ
Ġë¹Ħë ĶĶìĺ¤
Ġê·¹ ëĭ¨
ë¨ ¸ë¦¬
Ġëı Įë
ĠìĿ¸ ì¦Ŀ
ĠìĿ´ ìĬ¹
ĠìĿ´ ìŀ¬
ĠíĮ Ŀ
ĠìĿ¼ ìĸ´
Ġìĸ´ ì§Ģ
Ġìĸĳ ìĤ°
Ġë¸Ķ ë¡Ŀ
ë° Ģë¦¬
Ġê¸° ìĬµ
ĠëĮĢ ê³µ
ĠìĪĺ ìĨ¡
ë°Ķ ìĿ¼
í Ĥ¬
Ġìĭ¤ ë¦¬
Ġê³ł íĸ¥
ë¶ ķ
ĠëĮĢ ë¦½
Ġê¼¬ ë¦¬
l y
ĠëĤ¨ ë¶Ģ
ĠìļĶ ì¦ĺ
Ġê²½íĹĺ ì¹ĺ
Ġê°ľ ìĦ±
ëĳ¥ ìĿ´
ĠìľĦ ìŀ¥
Ġìľł ëł¹
Ġë¬´ ë£Į
ĠìĬ¤ íĨł
ĠìłĪ ë§Ŀ
ī į
Ġì²´ íı¬
ĠíĻĺ ìŀĲ
Ġê°ķ ìĿĺ
ĠëĤ ľë
Ġë¨¹ íŀĪ
Ġëª© ê²©
ĠíĻĺ ìĬ¹
ĠíĶĦëłĪ ìŀĦ
Ġìłģ ìĸ´ëıĦ
ê¹ Ķ
Ġë¬» íŀĪ
Ġíĳľ ì¤Ģ
ìĽ¨ ìĸ´
Ġê²°ìĬ¹ ìłĦ
Ġì¹¨ ê³µ
Ġ4 9
Ġë³¸ë ªħ
Ġê³µ íķĻ
Ġìłľ ìĸ´
Ġ199 5
ı Ī
Ġì¤Ģ ìĪĺ
ĠëıĦ ë°ľ
ĠíĮ¨ ìĭľë¸Į
ĠíĻ Ģë¡ľ
ĠA I
ĠíĤ¤ ë¦¬
Ġíģ´ ë¦¬
ĠëĨĢ ëŀį
Ġëģ¼ ì¹ĺ
íħ į
Ġíĺĳ ë°ķ
Ġë§Ī ì¸ł
ĠíİĢ ì¹ĺ
ĠU S
ë¬ µ
Ġìĥģ íĸ¥
ìľ µ
ĠìĽ¬ ë§Į
ĠìĪĺ ìļ©
ëĤ ©
ĠëĮĢ ëĮĢ
ì°½ ê¸°
Ġë¶Ģ ìľĦ
Ġì¶Ķ ì§Ħ
Ġí ĵ¨
6 0
A C
Ĥ ·
Ġìĸ´ ëĵľë
Ġìļ© ìĤ¬
Ġêµ¬ ìĨį
ĠìĿ´ ë¦¬
ĠíĨµ ìĥģ
Ġì§Ħì ĭ¬
ĠìºĲ ìĬ¤
ìłľë Ĥĺ
Ġìľ Ļ
Ġë¶Ħë Łī
Ġì»¤ íĶĮ
Ġìķ ±
Ġì½ĺ ìĦľíĬ¸
Ġë§Ī ëıĦ
E D
Ġë ¼Ī
ĠìĪĺ ì§ĳ
ĠìłĦ íķ¨
ĠìķĦë¬´ ê²ĥ
Ġë¦¬ ë²Ħ
ĠS e
Ġê·Ģ ìĭł
ĠëıĦ ëĭ¬
ĠíĶĦë¦¬ ë¯¸
ì¹ ¼
Ġêµ¬ ë©į
Ġ199 6
Ġíģ¬ë¦¬ íĭ°ì»¬
ĠìĨĮë ĵľ
Ġìĸ´ëĳ ¡
Ġíķĺ íķĦ
ĠëĮĢ ëŀµ
ĠíĽĦìĨį ìŀĳ
Ġëı ¼ì§Ģ
Ġë²ķ ë¥ł
ĠìĿ¸ì§Ģ ëıĦ
Ġìĭł ë¬¸
ĠìĤ¬ ìŀĲ
Ġë¬¼ ì§Ī
ĠíĬ¸ë Ŀ¼
ĠëĮĢ ëŁī
Ġìĸ´ì¨ Įëĵł
íĨ ±
Ġë§Ī êµ¬
ĠìĦł íĺ¸
Į ë¦°
ĠíĬ¹ íĻĶ
Ġê·¼ ìľ¡
Ġêµ¬ ìĽĲ
Ġê³ł ëĵ±
Ġë§Ŀ ì¹ĺ
ĠìłĦíĪ¬ ê¸°
4 5
ĠëıĻ ìŀĳ
ê±° ëĤĺ
ĠíļĮ ìĽĲ
ĠìķĦë ¨¸
Ġê°ľ íĨµ
Ġê²½ê¸° ëıĦ
ãĤ ¯
ĠìĬ¤íĨ °
Ġìĺģ íĨł
ĠBG M
¸ ł
ìĬ¤ íĤ¤
ĠíĮĮ íĬ¸ëĦĪ
Ġë§¤ ëĭĪ
ĠìłĦì ĭľ
Ġì°¨ ëĿ¼ë¦¬
4 8
Ġìĭľ ê°
ĠìĬ¤íı¬ ìĿ¼ëŁ¬
ĠìŀĦì ĭľ
E C
Ġìķ µ
Ġìľ¡ ìĦ±
Ġë²Ī ê°ľ
Ġæ ľ
Ġìľ¡ ì²´
E N
ĠìĿ´ ëĤ´
Ġë´ Ħ
i re
ìłĢ ìĬ¤
Ġëŀ ľëĵľ
B O
Ġê°ľ ì²´
ĠíĮĢ ìĽĲ
âĢ ¦
u st
ĠíĶĦ ë¦°
Ġê³ł ë¬¸
ķ ħ
ì¹´ ìĻĢ
Ĭ ĺ
ìĿĺ ìĽĲ
Ġë©ĭ ì§Ģ
ĠìĹ¬ ì§Ģ
Ġìļ´ ìłĦ
íĭ° ëĤĺ
Ġìŀ ĸ
Ġê°Ĳ ìĺ¥
êµ¬ ë¦¬
Ġëĭ¬ íķĺ
Ġê³ł ë°±
ĠâĨ ĵ
Ġë³¼ íĬ¸
Ġíķ ľëıĻ
ê°Ģ ìĻĢ
ĠëĦ¤ ìŀĦ
Ġê¸ Ģë¡ľ
ĠìĬ¬ ë¡¯
ľë °ľ
Ġìĭľ ëĵľ
ĠíĮĮ ê²¬
Ġìľ¼ëł¤ ê³ł
íĨ¨ ë¦Ń
Ġê³§ ë°Ķë¡ľ
I T
Ġë¶ Īë²ķ
Ġìĭ¤ ëĵľ
ĠëĦ Ĳë¦¬
ìĭľ ì½Ķ
Ġë°ĺ íķĺ
ìĪ Ń
Ġê²° ë¡ł
ĠìĿ¸ ê³µ
ĠìłĦì ĹŃ
ĠëŁ¬ ë¸Į
ĠN e
Ġë¬´ íļ¨
Ġë°ķ ê·¼
íĶĦë łĪ
ĠëĮĢ ê°Ģ
ĠíĤ¤ ìĬ¤
ĠìĿĺ ë¢°
Ġíĸ¥ ìĥģ
Ġìĥģ íķĺ
íģĲ ìĸ´
Ġìĸ¸ ìłľëĤĺ
ìķĦë ħ¸
ĠN C
Ġ198 0
Ġë¶Ģ ë¶Ģ
Ġë¹ ¡
ĠìĺĪ ê³ł
Ġíģ´ ëŀľ
Ġëħ¹ ìĿĮ
ł Į
ĠìĿ¸ ê·¼
Ġì´Ī ì°½ê¸°
ĠìĿ¼ë°ĺ ìĿ¸
Ġìľł íĸī
ê¼ ¬
ìĦ± ê¸°
Ġíĳ¸ë ¥´
Ġë§Īë¦¬ ìĺ¤
ĠìĹ¬ ìľł
Ġìķħ ìĹŃ
í ĮĢ
ĠìĤ¬ íĨł
ĠìĺĪë Ĭ¥
ĠìµľìĨĮ íķľ
Ġì§ ±
Ġë³´ ìķĪ
Ġì¡° ì§Ģ
Ġë¸Ķ ëŁ¬
Ġìŀĸ ìķĦ
Ġìľł íĿ¬
ĠìĹ°êµ¬ ìĨĮ
ĠF A
ìĺ¤ ì¹´
Ġêµ¬ ê²½
ĠìĤ¬ ìĸĳ
Ġê·ľ ì¹Ļ
ĠìĹ ¼ë
Ġê²½ ìĥģ
Ġìļ© ìĸ´
Ġë¨¸ ìĭł
Ġê¹Ģ ìĺģ
Ġêµ¬ ì²´
Ġë¦¬ ë©Ķ
ĠìĿ´ ëĤł
Ġ9 5
Ġê¸° ìģĺ
Ġä º
Ġë¯¸ ì¹´
Ġê²Į ìĬ¤íĬ¸
ĠìĨĲ ê°ĢëĿ½
Ġê¹ Įë
ĠìĦ¸ìĿ´ ë¸Į
Ġë³¼ë Ħ·
į ĺ
ĠëĶ° ìĺ¤
Ġê° ĩ
ĠìĤ¬ ìĭł
Ġìłķ ë³µ
ëĭ¤ ìĪĺ
ì»¤ ìĬ¤
ĠìĬ¤ íħ
Ġ199 4
ĠíĬ¸ë ¡ľ
ĠãĢ ı
Ġê°Ħ íĺ¹
Ġê°ĩ íŀĪ
Ġë£¨ ìĭľ
Ġë¦¬ ìĸ¼
ĠìĿµ íŀĪ
¸ Ĳ
ĠìĪĺ ìĺģ
ì§ Ĳ
Ġ4 1
Ġê³ł ìļ©
Ł¬ ì§Ģ
ĠìĤ¬ìĿ´ ëĵľ
ĠìĨĮë ĭī
ìĺ¤ íĶĦ
ìķĦ ìĿ´
ĠíĻľ ìĦ±
Ġìłģ ìĿĳ
Ġê·¸ë Ŀ¼
Ġëģ Ħ
ì¥ Ĳ
Ġëª¨ ë°ĶìĿ¼
ãĤ Ĭ
Ġëª¨ìŀĲ ëĿ¼
Ġë°© ìĤ¬
Ġíķ© ìĦ±
Ġì§Ģíľĺ ê´Ģ
Ġì¼ ľ
Ġê¸° ìłĲ
Ġë¯¸ ì¸ł
Ġê°ľë °©
ĠíĨł ë¡ł
ĠíĢ Ħë¦¬
Ġì° Į
ãĥ »
Ġìĸ´ ë¥¸
Ġìĭľ ê³Ħ
ĠëĦĪë¬´ ëĤĺ
Ġë¹ Ĺ
Ġê°Ģ ìĨį
ëı Įë¦¬
ĠìĹ¬ëŁ¬ ëª¨ë¡ľ
Ġë§Īë £¨
Ġë©ĺ íĥĪ
Ġíĺ¸ ê°Ĳ
i x
Ġê°Ģ ìĭľ
F A
Ġë¶Ģ ìĦľ
ĠìĭĿ ëĭ¹
ê· ¸ë¦¬
Ġëª¨ ì¡°
Ġëľ ¯
ĠU n
ìŀ¬ ìĿ¸
ĠíĶĦë Ŀ¼
Ġì»¤ ë§¨
ĠëıĻ ë¶Ģ
Ġê° Ŀ
ĠíļĮ ìĥģ
Ġê² Įë
Ġìĭł ëĿ¼
Ġë°ķê·¼ íĺľ
Ġëº ı
ĠíĬĢ ìĸ´ëĤĺ
ê°Ģ ìĬ¤
Ġë©Ģ ì©¡
Ġê¸° ì´Ī
ĠìĬ¹ ê²©
Ġl d
Ġìŀħ ëĭ¨
Ġë¸ĶëłĪìĿ´ ëĵľ
Ġë°ķ ìłķ
Ġìľ¼ëĭĪ ê¹Į
Ġê²Įìĭľ íĮĲ
as s
Ġë¦¬ë©Ķ ìĿ´íģ¬
ì ¾Į
Ġì£¼ë §Ĳ
Ġëĭ¤ ìĦ¯
ĠìĭĿ ìĤ¬
Ġíİ¸ ìĿĺ
ĠíĿ ł
Ġë¸ĮëłĪìĿ´ íģ¬
ĠìŀĲìĿ´ ìĸ¸
Ġìľ¼ë Ł¬
Ġë³Ģíĺ¸ ìĤ¬
Ġìĭľê° ĦëĮĢ
ĠíĦ ¸ë¦¬
ìļ° ëĵľ
Ġìĸ´ë¦° ìĿ´
ĠíĮĮ ë¦¬
ĠâĢ¦ âĢ¦
Ġì¹ĺ ìļ°
Ġf or
ĠëĮĢ íķľ
ĠìĿ¸ ìĹ°
ĠíĬĢìĸ´ëĤĺ ìĺ¤
ĠìĿ´ ìĬ¬
ĠìĦŀ ìĿ´
ĠìĽĥ ìĿĮ
ĠìĻ¸ ê³Ħ
Ġì²ĺ ë²Į
Ġê¹Ģ ìłķ
ĠìĺĪ ì¸¡
Ġíķ© ì²´
ŀĢ ìĥī
ms ys
Ġld msys
Ġëª¨ ëª¨
Ġì¤ĳ ëĮĢ
ĠãĢ İ
Ġìĭł ìĦ±
Ġìłĳ íķĺ
O L
ĠìķĪë Ĥ´
ĠëĪĦë Ĥĺ
ĠìĹ´ ìĭ¬
ar k
Ġë¹Ħíĸī ê¸°
u d
ĠìĹ° ìĿ¸
ĠìĿĺ ë¬´
ĠD LC
ĠìĨĮ ìĬ¤
ê³ ¼ë
Ġì¹´ ìĺ¤ìĬ¤
ĠíĽ ¼
ĠëŃ ī
ĠìķĦ ê¸°
Ġê±´ ì¶ķ
ķ íĦ°
Ġë¦¬ ìĬ¤íĬ¸
ĠíĨł ëª¨
ĠëĥĲ ë©°
íĬ¸ë Ĥ¨
Ġëľ ¨ë¦¬
ĠëŀŃ íĤ¹
ì» ·
ĠíĬ¸ë łĪìĿ´ëĵľ
Ġë¯ ¼ë
Ġìĺģíĸ¥ ëł¥
ĠìºĲ ëħ¼
Ġìłķ ë©´
ĠìĪĺ ëł¨
Ġë§ ĺ
ĠìłĦ ìłģ
Ġê² Ĳ
Ġ8 5
ĠíĢĦë¦¬ íĭ°
Ġìłģ ëĮĢ
o g
Ġ7 7
Ġìľł ë¹Ħ
Ġìĥģëĭ¹ ìĪĺ
Ġê¸ ¸ë
ĠìĽ¹ íĪ°
ĠìķĦ íĬ¸
Ġê¸į ìłķ
Ġë°Ķ ì¹ĺ
ĠëĮĢ ì¶©
ĠëĬĶëĭ¤ ë©´
ĠêµĲ ìłĦ
ĠíĽĦ ê¸°
ĠìĽ ħ
Ġë¬´ ë¦
Ġíķ ¸ëĵľ
ĠëĮĢ ëĭ¤ìĪĺ
Ġì¢Į ìļ°
ê ¾
ĠíĮ¬ ëį¤
ĠM VP
ĠíĪ¬ êµ¬
Ġ6 6
å ı
Ġìĺģ ìĹħ
ĠìķĮ íĮĮ
ĠìĿ´ ì§Ģ
ìī ½
ĠìĿĺ ìĥģ
Ġê°ķ ëĤ¨
Ġê²½ê¸° ìŀ¥
Ġìº¡ íĭ´
Ġëĵľ ë¦½
Ġê´´ë¡Ń íŀĪ
ĠìĬ¤ íı°
ìľĦ íĤ¤
ë¸Į ë¦¬
ĠT H
Ġë¶Ħ ê¸°
Ġê³µ ë¬´ìĽĲ
ĠíĥĢ ì¼Ģ
ĠìķĦ ê°Ģ
ĠìĦ Ģ
ìĬ¤ íĦ´
ìł ¸
Ġâ Ķ
ĠìĿ¸ ê²©
u re
ĠíĦ° íĤ¤
ĠëĦĪ íĶĦ
ĠíĶĦë¦¬ íģĲìĸ´
ĠìķĦ íģ¬
Ġë¸Įë £¨
Ġì² ¨
ĠF em
Ġê¸° ë³ĳ
ë ±
ĠíĶĦë ¡Ŀ
ì¹´ ë¦¬
Ġíļ ¡
ĠíĽ Ĺ
Ġë²ł ìĬ¤íĬ¸
Ġìºł íį¼ìĬ¤
Ġì¶ ĺ
ĠìĿĮ ìĦ±
Ġìĸ´ íĥĿ
Ġê°Ģ íĨ¨ë¦Ń
ĠìĦ± ê³¼
Ġê³ ģ
ĠìļĶ ê¸Ī
Ġì± ķíĦ°
Ġì¦Ŀ ìĸ¸
ĠëĬĲ ëĿ¼
Ġë¬´ ìłģ
n e
ĠëĮĢ íıŃ
Ġê²° ë§Ĳ
Ġê·¸ëłĩ ê²Į
Ġê½ Ĥ
ĠìĦ¸ìĿ´ ë²Ħ
ë²Ħ íĶĦ
Ġë¸Įë ¡ľ
Ġìŀĳ ìĤ¬
oc k
Ġê°ģ ìŀĲ
Ġë³¸ ì²´
Ġë§ĪìĿ´ ëĦĪ
Ġê³µ ê¸ī
ĠìĿ¼ ìĽĲ
ĠëıĻ íĻĶ
ĠìłĦì §ģ
Ġë© į
³ Ħ
ĠìĿ´ ëŀĺ
ĠìĿ¼ ìĭľ
Ġë¬¸ ìŀ¬ìĿ¸
ĠìĹ Ħì
ĠìłĦ ìĦ±ê¸°
Ġë¹ ļ
Ġë¦¬ ì¹ĺ
Ġê²½ê¸° ëł¥
ĠìŀĲ ê¸Ī
Ġ5 7
Ġê¼ ½íŀĪ
ĠìĻķ ì¡°
Ġë¦ ¼
ëł ģ
ìľ ĦëĮĢ
ìķĦì ĭľ
ìĦľ ìĬ¤
ĠìĹĶ íĦ°
ĠíĥĦ ìķ½
ĠìĻ Ħì
ĠìķĦ íĭ°
ĠìłĢ ìŀ¥
Ġíĥ± ì»¤
Ġê°¤ ëŁŃ
Ġ le
ĠìŀĲ ì±ħ
ĠìĶ ¬
ĠìķĪ ê²½
Ġ5 8
ĠëĨį ëĭ´
ĠíĶ¼ë ¶Ģ
íĭ° ëĵľ
ìĿ¸ë ĵľ
Ġë°© ì§Ģ
ĠëĮĢ ë¦¬
ĠìķĦë ¹ł
Ġê³ł ì§Ģ
Ġë§Ī ìĿ¸
Ġê·¸ëŁ¬ ëĭĪ
ëģ ĦëŁ½
Ġì¶ľ ë§Ī
Ġìĭł ë¶Ħ
o od
ìĬ¤ ì½Ķ
Ġíķł ìķĦë²Ħì§Ģ
Ġìłĳ ìĨį
Ġë§Īì¹¨ ëĤ´
Ġì£¼ ìŀĲ
at ale
ëį ľëŀĢ
ĠìłĲ ì°¨
ëįľëŀĢ ëĵľ
ŀ Ń
ĠFem me
ĠS N
Ġìį ©
Ġë² ĮëłĪ
Ġê¸° ìĹ¬
íĿ ¡
Ġë°ķ íŀĪ
ĠìĹ´ ìĩł
Ġìłľ ì£¼
Ġë¶Ģ ë¬¸
ĠìłĦë ©´
ec t
ĠíķĺìĪĺ ìĿ¸
F atale
Ġì²´ íģ¬
Ħìĥ Ī
ĠFemme Fatale
Ġì£Ħ ëĭ¤
ĠëłĪìĿ´ ìĬ¤
ê·¸ë £¹
Ġì²Ń ìĨĮëħĦ
ĠìĥĿì¡´ ìŀĲ
ĠìĨĮ íĺķ
ë³ Ħìĭľ
ĠíĻĶ ìłľ
Ġìľµ íķ©
ĠP ro
ĠëĤĺ ìķĦê°Ģ
ĠëĬĶì§Ģ ëĿ¼
Ġê°ķ ëıĦ
Ġì¢ħ ìĿ´
ĠëĮĢ íķŃ
Ġì¶ľ íĮĲ
Ġíķľ ì°¸
ì¼ Ħ
Ġ an
ê² Ĳ
ĠìķĦë °Ķ
u c
Ġæ Ŀ
3 3
ìĤ¬ ìŀĲ
Ġìķ ¨ë¦¬
Ġê°ľ ìŀħ
ĠP D
Ġëľ ¬
ãģ Ļ
ĠT e
ĠìĻ¸ íĺķ
ĠëıĻ ëł¥
ĠìĭŃ ìŀĲ
ìĿ¼ë ŀľëĵľ
ìŀĲ ëĵľ
Ġì¹´ ìĬ¤
ĠìĤ´ íĶ¼
Ġê¹ ¡
ĠìķĮëł ī
Ġìľł ë¡ľ
Ġë³Ħ ëĭ¤ë¥´
ıĻ ìķĪ
Ġë§Ī ë¦¬ìķĦ
ĠíĪ¬ ìĸ´
ìŀ¡ ìĿ´
Ġì»¬ ëŁ¬
¸ Įë
ìĬ¤ íĬ¸ë
Ġãİ ¡
Ġê¸° ëıħ
ŀ Į
ìĺ ¹
Ġìľł íĺķ
íķĻ ìŀĲ
Ġì²Ń ëħĦ
ì¦Īë ¯¸
Ġ8 8
ĠW h
ĠìĤ¬ íĺķ
Ġì¶ķ ìłľ
ëĳ ĳ
Ġì¡° ìĸ¸
Ġìŀ¥ ìķħ
Ġì²ľ ìŀ¬
ë¹ Ľ
o b
ĠìĿ¼ ê²©
ĠMA X
Ġìĸĳ ìª½
Ġíİ ł
ãģ §
Ġíķł ë¨¸ëĭĪ
Ġå¤ §
Ġê³Ħë ĭ¨
íİĺ ìĿ¸
Ġ9 8
Ġê¸°ìĤ¬ ëĭ¨
Ġë§ĪìĿ´ íģ´
Ġê°Ģ ì§ľ
ëĶ ĺ
ĠìķĪíĥĢ ê¹Ŀ
ĠíĮĶ ë¦¬
i v
Ġëĭ´ ê¸°
Ġê¾ ¸ë
Ġíķĺ ëĿ½
ĠìĹĲìĦľ ë¶ĢíĦ°
ĠíĶĦë¡Ŀ ìĭľ
ĠìĪĺ ìĿµ
ĠíĨ ±
ĠìĺĪ ìĤ°
Ġìķŀ ëĳĲ
Ġ on
ëĭ Īë
Ġê¹Ģ ìŀ¬
Ġë¬´ ê²ģ
ĠëĦ¤ ëįľëŀĢëĵľ
ł ¨
Ġë¹¼ìķĹ ê¸°
ĠM C
er e
íĬ Ģ
ĠíĹ ĺ
ĠíĺĲ ìĿĺ
Ġê·¸ë ıĻìķĪ
ĠãĤ Ĵ
íĶ ĮëłĪìĿ´
Ġê³ł ëıĦ
ĠãĢ ĳ
Ġìĸµ ì§Ģ
ĠìłĦì ĭł
Ġë°Ķ ìľĦ
íĨł ìĬ¤
Ġë© ķ
ĠëįĶ ëįĶ
ĠíĶĦë¡ľëĵĢ ìĦľ
ëĵ¤ ìĿ´
Ġë§Īë ĶĶ
ĠëĦ ī
Ġì¹ĺ íĤ¨
ĠìºĲ ëĤĺëĭ¤
Ġì¢ħ ìłĲ
ĠíĦ° ì¹ĺ
ê°Ģ ë¦¬
Ġãģ ¯
íľ ´
Ġìĭł ê¸°
Ġãģ Ĺ
ĠëĮĢ ì²ĺ
3 1
e p
ĠìĬ¤ íĤ¤
Ġ5 6
Ġ5 9
Ġì§ĢëıĦ ìŀĲ
f f
Ŀ¼ë ĵľ
Ġë± ħ
Ġë¶Ģ ìŀ¥
Ġë¸ ĮëłĪ
ĠëįĶëįĶ ìļ±
Ġë¡ľ ê·¸
Ġëħ¸ ìĿ¸
ĠG r
® ¬
Ġë°Ķ íĢ´
ĠíĶĮëłĪìĿ´ ìĺ¤íĶĦ
íĥ Ħì
Ġê¹Į ëĭ¤
Ġìĸ´ì§Ģ ê°Ħ
Ġë¬¸ íķĻ
Ĺ ¥
Ġíģ¬ ëĿ¼
ê º
Ġê¹Įëĭ¤ ë¡Ń
ĠëįĶ ë¹Ļ
ê·¸ë §Ī
E S
ĠìĮį ëĳ¥ìĿ´
ĠíĹĪ ëĤĺ
ĠìĨĮ ì§Ģ
Ġëªħ ìĦ±
ìĦ¸ ìĬ¤
Ġëħ ¼ë¦¬
Ġì¡° ë¦¬
Ġíķ© ìĿĺ
Ġë¶ģ ë¶Ģ
ë¶Ļ ìĿ´
Ġëĭ Ń
ĠìĤ¬ìĿ´ ì¦Ī
ĠíĽĹ ëĤł
Ġêµ¬ ìĤ¬
Ġê¸° ëŁī
ĠK O
Ġëª¨ì¡° ë¦¬
ĠC C
Ġíĺĳ íļĮ
ĠìĨĮ ìĽĲ
Ġ5 4
ĠìłĦë ©¸
ĠìĬĪ íĮħ
Ġìļ° ìľĦ
ĠãĢ Ĳ
ĠëĤĺ ëĤĺ
ĠìĽĲ ë³¸
ĠìĦľ ìĸĳ
Ġë§¥ ì£¼
ĠâĨ Ĳ
ĠìĿĮë °ĺ
ĠìĤ¬ ë§Ī
Ġìłĳ ì´ī
ĠíķľëıĻ ìķĪ
Ġìĭľ ìĦł
ĠíĨł ëģ¼
ê·¸ë ¡ľ
Ġì¹ ©
Ġê³¼ ìĹ°
Ġêµ¬ ëĤĺ
ĠíĹ Īë
Ġê·¹ ë³µ
íĥĢ ìĿ´
Ġì Ł
ĠìĿĺ ë£Į
ĠíķĻ ë¶Ģ
Ġë ·
Ġìĸ´ ë§Ī
Ġì»¤ ë¦¬ìĸ´
ìŀĦ ìĬ¤
ëŀ Ń
ĠSK T
Ġ7 6
Ġìŀĺ ë¦¬
ĠìĬ¤íĶĦë §ģ
Ġë²ķ ìĽĲ
I S
Ġì°¨ íĬ¸
ĠíĶĮë ¡ľ
íĤ¤ ìĬ¤
Ġìĭ¤ ë²Ħ
ĠìĥĿëªħ ëł¥
Ġê±° ìĿ¸
Ġì°© íķĺ
Ġì¹Ń ì°¬
Ġìĥ Īë²½
Ġå ®
ĠìĬ¤í Ħ´
ì§Ģ ë§Ī
ĠíŀĪë į°
ĠW e
ìĽĮ íģ¬
Ġê²Ģ ì°°
ìĿĢ íĸī
ar e
¹Ħ ìķĦ
ĠëłĪ ìĬ¬
Ġíķĺìĸ Ĺ
ĠìĨĲ íķ´
Ġå īį
ê³ł ë¦¬
ĠìĽĲ ìĪĺ
Ġì¤ĳ íĻĶ
ĠëıĻ ë°©
ĠìĿĮ ìĽĲ
ĠS R
Ġk t
ĠíĽĦë °©
Ġê²° ì½Ķ
íĥ ±
Ġìĭł ìĦ¤
Ġíķ «
Ġê³ ½
íĥĢ ìĿ¸
ĠêµŃ ë°©
Ġë©Ķ ëī´
Ġíĸī ìłģ
Ġë¯¼ ì£¼ëĭ¹
ĠëĤļ ìĭľ
ĠìĿ¼ ìłľ
ĠìĨĮ ì¤ĳ
ĠìĤ¬ ìłľ
Ġê°ķ ì²ł
ìĿ¼ë ĵľ
Ġê°Ģ ë£¨
ĠD J
ĠìĺĪ ìĭľ
ëĿ¼ ê¸°
Ġíĥľ ê·¸
Ġë³´ ê´Ģ
Ġìĺģ ë¬¸
Ġë§¤ ì§ģ
Ġìŀ¬ íĺĦ
ì» ´
ĠìĹĲ ëĵľ
ë¡ľ ìļ°
ê² Įë
Ġê°ķ ìĽĲ
ĠìĿ´ëŁ¬ íķĺ
ĠìĤ ¼ë
íĭ° ìķĦ
ĠìĬ¤ ìľ
ĠìºĲìĬ¤ íĮħ
ĠìķĦë Ŀ¼
ĠëĤ¨ ìª½
ĠC l
Ġë¸Ķë¡ľ ê·¸
Ġë¶ģ ìª½
ĠìłĦë¬¸ ê°Ģ
Ġê¸°ëıħ êµĲ
ĠíĹ Ľ
Ġë¬´ ëį¤
ĠìķĪëĵľë¡ľ ìĿ´ëĵľ
ëľ ©
ĠìĿĢ íķĺ
Ġíı¬ ìĬ¤íĬ¸
Ġëħ¸ë ©Ģ
ĠìĭĿ ë¬¼
ĠìŀĲ íıŃ
¥ ¸
Ġì¹Ń íķĺ
i z
Ġë²ł íĬ¸ëĤ¨
ĠìĬ¤ íĭ°
ĠìĤ¼ ì§Ħ
ĠìĿ¼ë ªħ
Ġíı¬ ë¡ľ
Ġëĭ¨ ìŀ¥
ĠA R
Ġìĭľ ëĭ¬ë¦¬
ĠìĿ¼ ìŀĲ
æ Ŀ
Ġë°© ì¶ľ
Ġë¯¸ë Ŀ¼
Ġì£¼ ê¸°
ì¦Ī ë§Ī
ëħ ģ
ĠíĽ¼ ìĨĲ
q u
ĠëĤ´ ìĦ¸ìļ°
ĠìĬ¤ ìĬ¹
ĠíĬ¹ ì§ĳ
Ġì¹´ ë¯¸
Ġíľ´ ëĮĢ
ĠA K
Ã ©
Ġë© ľ
ĠíĻĺ ìĺģ
Ġë¹ Įëĵľ
ìħ °
Ġ6 00
ou r
íķ ı
ĠíĪ¬ ëªħ
Ġë¹¨ê° Ľ
Ġë© ¸
Ġê·¸ ê³³
ĠëĿ¼ ê¸°
Ġë¯¸ë ĶĶìĸ´
ĠëįĶ ëŁ½
3 7
¡ ¬
êµ¬ ëł¤
Ġìłķ ìĽĲ
ĠíĨł ë¥´
ĠëĮĢ ê°ľ
ĠìĿĺ ì¡´
Ġêµ ½
Ġ5 1
ĠìłĦì §Ħ
Ġê°ľ ìłķ
O M
ĠíĥĢ ìĿ¸
Ġì¹ĺëªħ íĥĢ
ĠìĨĮ íĶĦíĬ¸
Ġìĸ ¼ë
ëħ¸ ìļ°
Ĭ ¬
Ġìłķ ì°°
ĠìĶ ¹
Ġë°ĶìĿ´ ëŁ¬ìĬ¤
ĠìĿ´ ìĭĿ
ĠìĹĲ ëĭ¤
ëŁ¬ ì§Ģ
Ġ? ?
ĠíĹĪ ë¦¬
ĠìķĮë °Ķ
Ġë§Ī íĤ¤
ĠìĥĿ ëŀµ
Ġíı¬ ê²©
ĠìĬ¬ íĶĦ
Ġê³¼ ìłľ
Ġë¬´ë¦ İ
Ġìļ ¸ë
ĠëĪ Ħë¦¬
ĠìłĢ ëŁ°
Ġëĳĺ ì§¸
ĠìĺĪ ìĪĺ
Ġì·¨ íĸ¥
es s
ĠíĿ¬ ê·Ģ
Ġê°¤ëŁŃ ìĭľ
F C
ĠìĿ´ ìĺģ
E M
ĠëĤ´ ìŀ¥
ì¤ĳ íķĻêµĲ
ëĦ ¬
ä ¹
Ġë§Ī ìķ½
ĠìĹ ĩ
Ġê³ł ìĪĺ
Ġíı¬ íķŃ
Ġê¶Į íķľ
ĠáĨ ¼
Ġ j
Ġë³´ ëĿ¼
ĠíĶ¼ ê²©
ĠìŀĲ êµŃ
Ġë¶Ģ ì§Ģ
ì© į
ê³µ íķŃ
Ġê³ł ìŀĳ
ĠíĿĲ ë¦Ħ
Ġíĺ¸ ì£¼
ĠìĹ° íĮ¨
Ġê²° ìĦ±
Ġì¦Ĳ ê²ģ
ëŀ Ĺ
íĮ© íĬ¸
Ġê³µ ìĦ¸
ìŀ Ħë
Ġì¡° ìĦ±
ĠëıĦ ì£¼
Ġì¶© ìĦ±
ë¯ ¼ë
ĠìĪĺ ìĭŃ
Ġê¹Ķ ëģĶ
Ġì½ľë Ŀ¼
ĠìĤ¼êµŃ ì§Ģ
ìļ° ë§Ī
ĠìłĢ ëħģ
ê±° ì§Ģ
ĠìĺĪ ìģĺ
Ġìĸ´ëĸ ł
ĠëĪĦ ìłģ
Ġ5 2
R A
ĠëłĪìĿ´ ëĵľ
Ġëĺ ¥
or d
íĥĢ ë¦¬
ìłĦì Ĥ¬
ĠS M
Ġíĺĳ ìĥģ
ĠìłĦ íĽĦ
ĠíħĮë ŀĢ
Ġê¸° ìłģ
5 5
ĠëĪ ķ
Ġë§ĪìĿ´ íģ¬
ag e
Ġìľł íķĻ
Ġê±° ë¯¸
ĠìłĦì² ł
ãĤ Į
Ġ199 2
ëĭ¤ ëŀĹ
Ġìŀ¬ ëĭ¨
Ġëıħ íĬ¹
Ġëª½ ê³¨
Ġì¹ ¼ë¦¬
ĠìĪĺ ìĪĺ
ĠíĽĦ ê³Ħ
Ġëı ĭ
ĠìºĲ ë¦¬
ĠìĥĪë ģ¼
ĠíĹ¤ ìĿ´
3 6
Ġ he
ê¸ ĭ
ĠíĽĦì Īł
ìķĦì Ľĥ
íĬ¸ë §¨
ĠíĶĮë ŀ«
ĠìķĦì ¿ł
ì½Ķ íĨł
ĠíĺĦì ĹŃ
Ġìłķ ì°©
Ġë¸Ķ ë¦¬
Ġìĵ ¸
ĠíĻĶìŀ¥ ìĭ¤
ãģ ı
ĠëĵľëĿ¼ìĿ´ ë¸Į
ĠìĻĢ ìĿ´
ĠëģĬ ê¸°
T V
Ġìĭł íĺ¸
Ġíķ´ ë¦¬
Ġê·Ģ ì°®
â Ĺ
§ Ŀ
Ġìľł ì¹ĺ
Ġì°į íŀĪ
ĠëıĻ ìĿĺ
ë§ Ļ
ë¹Ħ ìĬ¤
Ġê·¸ë Ł¼
ĠìĽĲ ìĨĮ
ìļĶ ìĭľ
Ġ9 7
¢ ħ
ìĤ Ń
Ġìłľìŀĳ ìŀĲ
ìĭľ ìĬ¤íĬ¸
Ġìĺ¤ ë§Ī
Ġë©Ķ ëª¨ë¦¬
ĠëĨĢ ìĿ´
id e
íŀ Īë¡ľ
ĠíĥĢ ëĿ½
ĠëłĪìĿ´ ëįĶ
ìľ Ħë
ĠìĿ¼ ì°į
ĠìķĪ íĭ°
ĠìĿ¼ë °©
Ġê°Ģë¦¬ íĤ¤
êµ¬ ì¹ĺ
Ľ Į
Ġëį§ ë¶ĻìĿ´
ëĵ Ń
ĠìĬ¤ íĶ¼
Ġëª° ëĿ½
i an
Ġìŀ¡ ì§Ģ
ĠìĬ¹ê°ķ ìŀ¥
B A
ĠìĹ® ìĿ´
Ġë¶Ģ ëĶ
ĠìĹ° ìĬ¹
Ġê³ł ë§Ļ
ĠìĦľ ìļ¸ë
ĠíĮ¨ ìħĺ
Ġì§ĳ íĸī
ë ĩĮ
ķ ê¸°
Ġì´Ŀ ë¦¬
ĠìĪĺ ëĬ¥
Ġë©´ ëª¨
ĠëıĻ êµ´
Ġíķ´ ë³ĳ
Ġíİ¸ ìŀħ
ĠëĨĵ ìĿ´
ĠìĿ´ ìĭľ
ë¶Ģ ë¡ľ
Ġì²ĺ íĺķ
O P
ìĬ¤ íĨł
Ġë¯¸ë £¨
ĠìĬĪ íį¼ë
Ġê¸° ìĪĻ
ëĨ Ī
4 7
å Ĳ
Ġìľ Įë¦¬
Ġìį¨ ë¨¹
Ġìłķ ë¹Ħ
Ġì° ¢
ĠS C
å Ī
Ġìłģ íķ©
Ġì½Ķ ìļ°
ł ¹
Ġì¤ĳ ëıħ
Ġë¶Ī ìĤ¬
Ġì± Įë¦°
Ġíĸī ë³´
Ġìłľ ìŀĦìĬ¤
ĠëĤ´ ìĦ±
Ġì¹ĺ ìľł
Ġìĺ¤ ìłĦ
ĠíĮĲë§¤ ëŁī
ĠìĨĮ ìľĦ
ĠìĤ¬ ìĤ´
ëĤĺ ë¬´
Ġìĥģ ìĹħ
ë§ Ľ
ë§Īë £¨
Ġíķ´ ìĥģ
Ġë¹Ľ ëĤĺ
ĠìķĦ ìķ¼
Ġì¿ ¼
Ġìºł íİĺìĿ¸
Ġê°Ħì ĭł
ĠëıĦ ëģ¼
ãĤ Ĥ
Ġå Ĳ
ì¹´ ìĺ¤
Ġì»¤ë§¨ ëĵľ
ì¦ Ĳ
Ġë¬´ ëłµ
Ġê¸Ī ìĨį
Ġê¸° ë¥´
ê² ¨
Ġ199 3
Ġ it
ì§ĳ íĬ¸
Ġìĺ¤ ê°Ģ
ê²Į ìŀĦ
Ġë¦¬ ëĵ¬
ĠíħĶ ëłĪ
Ġê¸° ëıĦ
Ġìĭľ ì¦Ī
ĠìľłëĭĪ íı¼
ĠíĦ° ëľ¨ë¦¬
ĠìĻ ł
Ġìłķì¹ĺ ìĿ¸
ĠíĿĶëĵ¤ ë¦¬
ĠìĬ¤ ìľĦ
Ġë§¤ëĭĪ ìłĢ
Ġëĳ Ķ
Ġìŀ¬ ìĤ°
Ġìĥģ ìĿ¸
ĠC om
ĠíĥĢìĿ´ ê±°
Īë² ĦìĬ¤
Ġëį°ìĿ´ ë¹
Ġíķĺ ìķ¼
Ġê³ł ìĬ¤íĬ¸
ê² Ł
Ġì±Ħ íĮħ
Ġíı´ ëŀĢëĵľ
Ġëĥ ĦìĥĪ
Ġë¬ĺ ì§Ģ
ĠíĻĶ íķĻ
ĠíĬ¸ë ŁŃ
Ġê¸° êµ¬
Ġì£¼ ìĤ¬
Ġìĥģ ìĪł
Ġì´ Į
ĠìĿ¼ë³¸ êµ°
Ġå °
Ġëĭ¤ ì¹ĺ
Ġìĺ¤ëŀľ ë§Į
ĠìĽĲ ì¹Ļ
ĠìĦłíĥĿ ì§Ģ
ĠìĦł ìłĦ
Ġì¶ľ ìŀħ
ĠT r
Ġì´Īë ³´
ìĭľ íĥĢ
Ġëĵ¤ íĤ¤
im e
ĠëıĦìĦľ ê´Ģ
ìĸ´ ë§Ī
í Ĥ·
Ġë¯¸ ìķĪ
ëĤ¨ ëıĦ
Ġë©´ ìĹŃ
Ġìľł ë¬¼
Ġìĭł ìĤ¬
Ġë¿ Ķ
ä »
Ġê°ľ íĺģ
²Ħ ìĬ¤
Ġìļ© ê¸°
Ġíİ «
ĠìķĦìĿ´ ìĬ¤
9 0
ìĸĳ íķ¨
Ġêµ¬ ìĦĿ
ë° ¥
íķĺ ë©´
Ĩ ¡
ĠíķĻ ìŀĲ
Ġì°¸ ìĦĿ
Ġê°ķ ìļĶ
Ġë¯¸ë ¬ĺ
ĠìĪĺ ë¹Ħì
ĵ Ŀ
Ġê¹Ģ íĥľ
Ġì§Ģ ê²½
Ġíķĺ ì°¨
Ġë°° ì°¨
Ġì«ĵ ê¸°
ĠX X
Ġë¶ ĵ
A D
ĠíĻ ľë°ľ
ĠìĿ¼ ì¡±
ĳ Ķ
Ġ8 6
ĠC J
Ġê¸Ī ìľµ
ĠìĿ´ ì§ĳíĬ¸
Ġìķħ ëĭ¹
ĠìķĦë§Ī ëıĦ
ĠëĶĶ ë²ĦíĶĦ
Ġëħ¸ë ¶Ģ
ĠíĥĪ íĩ´
įĶ ìĬ¤
ìļ° ë¦¬
ìĪł ìĤ¬
Ġë§ī ëĮĢ
Ġì¹ĺ ë£¨
Ġìĭ¤ ë§Ŀ
ĠíĿĶ ìłģ
ĠìĺĪë ¹Ħ
Ġ5 3
Ġìļ© ìĦľ
ĠíĽĦë °°
íħĮë ¥´
ĠìĿ´ ë§Ī
Ł ´
ĠíĥĦì °½
ĠìĿ´ ìłķ
ìĵ ¸
ĠìĿ¸ë ĶĶ
Ŀ¼ ìĬ¤
Ġìľł ëĮĢ
íģ¬ ë¦¬
Ġìĭł ë¶Ģ
Ġë¬¸ êµ¬
Ġì¦Ŀ ìĺ¤
Ġë¹Ħì ¶Ķ
Ġå ı
ìŀ Ħì
æ ĺ
ĠìĹ ¿
Ġê¹Ģ ë¯¼
ĠìĿ¼ë³¸ ìĿ¸
ĮĢ íķĻêµĲ
Ġê¸° ìļ©
Ġì¤ĳ ë¦½
å ·
ĠìĹħ ìłģ
ĠW W
Ġìĸ´ë§Ī ìĸ´ë§Ī
ãĤ Ī
ĠíĿ¥ ë¯¸
Ġ9 6
ĠíĬ ķê¸°
Ġëľ¬ ê¸Ī
ĠíĬ¸ëŀ ľ
Ġì£¼ ìĭĿ
ĠìĭĿ ëŁī
ĠìĽĮ ì»¤
Ġë ´ĩ
ĠëįĶë¶Ī ìĸ´
Ġëĭ´ ë°°
ĠëıĻ ìª½
ëĭ¤ ìĭľ
ëĤĺ ì¹´
Ġ ;
Ġë¶Ģ ê°ģ
Ġìĥģ ìĭĿ
ëŁ ¿
Ġì§Ģ ì§Ħ
ĠO ST
ìłĢ ìĶ¨
ë¥ĺ íĥĦ
Ġìŀł ìŀ¬
ĠM e
Ġíĺ Ħë
Ġëª¨ ëŀĺ
Ġëĭ¹ ìĿ¼
Ġíİĺ ìĿ´ì¦Ī
Ġê³¨ ëĵł
ĠìĬ¤ë§ĪíĬ¸ íı°
ëıĦ ë¥´
ī ģ
ĠìĿ´ ìĬĪ
íķĺ ë¥´íĬ¸
ĠêµĲ ìŀ¥
ĠìĪĺ ìŀ¥
Ġíģ´ ëĿ¼
Ġë§¤ ì²´
ĠF I
ĠêµŃ ìĻķ
ĠëĦ¤ ìĺ¤
Ġìĥī ê¹Ķ
Ġíķĺ ëĭ¨
Ġê´´ ìĪĺ
ĠE x
ĠëĮĢ ì§Ģ
Ġê·¸ëŁ¬ëĭĪ ê¹Į
Ġìĺ¤ íĥĢ
ê°Ģ ëĵľ
ëĶĶ ìķĦ
ic k
Ġê¸° ì¢ħ
Ġëªħ íĻķ
Ġìµľ ëĭ¤
ĠìļĶ ì½Ķ
b er
Ġì ¾Į
ĠìĿĺ íļĮ
Ġ25 0
ĠëĤ´ ì§Ģ
Ġíĺ¹ ìĭľ
ĠìĿ¼ ê¸°
Ġìľ¼ ìĭľ
Ġ18 0
Ġê°ľ ë§ī
ĠêµŃ ë¦½
Ġëħ¹ ìĥī
Ġê°Ģ ëıĻ
Ġë©Ķ ë¥´
Ġë¦¬ ëĵľ
Ġë£¨ íĶ¼
ĠêµĲ ë¥ĺ
ĠìľĦì ĥģ
ĠíĬ¸ ìľĪ
± ±
ĠìĦ ¹
ë ĸ
Ġì ³Ĳ
ĠìĬ¤ íĬľë
åŃ Ĳ
Ġíĺ¸ ìľĦ
Ġm e
ĠëıĻ ìĿ¸
ëĶĶ ìĸ¸
Ġì·¨ ë¯¸
Ġíķĺ ìļ°ìĬ¤
¸ë §ģ
Ġëĵľ ë¦¼
p er
Ġìĸĳ ìĦ±
Ġê¼ ½
Ġë¬´ ì²Ļ
ìĿĢ ìĥī
ĠìĬ¤ ë¯¸
Ġíİ ĳ
ĠìĤ¬ ë§ī
ĠíĥĢ ìĦł
Ġìłķ íĻĶ
Ġê°ľ ìĭľ
Ġê°ľë Łī
Ġìķ¨ë¦¬ ìĬ¤
Ġì°¨ ê¸°
ĠìĦ¸ ì¢ħ
ĠìĦ¸ íı¬
ĠëįĶ ëĿ¼
Ġë°Ķ ë¦¬
ĠíĹĮë ²ķ
I D
Ġëļ ľ
ãģ ¯
Ġë¶Ī íĥĢ
ìķĦì ¹ĺ
ĠìĹ° ê¸Ī
Ġìĭ¬ ìĤ¬
Ġíģ´ëŀĺ ìĭĿ
Ġëľ¬ê¸Ī ìĹĨ
Ġíĺ¸ ìĪĺ
ë§Ĳ ë¦¬
â ĸ
ĠìłĢ ëł´
Ġìĸ´ ìĿ´
íĮ Įë¥´
Ġëĭ¨ íİ¸
Ġì´Ī ëĵ±íķĻêµĲ
ãģ ł
ĠëĤĺ ì¹ĺ
ĠìķĦìĿ´ ëĶĶ
Ġê¶Į ë¦¬
ĠìĬĪ íĬ¸
ĠìĤ¬ ê·Ģ
Ġìĺģ ì£¼
ĠëįĶ êµ°
Ġê°Ħìĭł íŀĪ
ĠíĻĶ ë¬¼
¥ ŀ
Ġê³ł ìľĦ
ĠìķĦ ìĿ¼ëŀľëĵľ
ĠìķĦ ìłĢìĶ¨
Ġìĥģ ìĭ¤
Ġíı¬ ìĪĺ
ãģ ĵ
Ġëĵľë ¡ľ
ĠìĬ¤íĬľë ĶĶìĺ¤
Ġ# #
ĠëģĬ ìĿ´
ê¸° ìĤ¬
ë§Īë ĶĶ
ĠìłĦë ĮĢ
Ġê¸°ìĪĻ ìĤ¬
ĠìĪ Ń
Ġw ith
P M
Ġì½Ķ ëĤľ
Ġì¿ Ħ
Ġìĭł ìķĻ
ĠI S
ĠëĤĺ ë¥´
ĠëĿ¼ë ĵł
ë ĺ
ĠêµĲ ì°¨
Ġê¶¤ ëıĦ
ìĬ¤ ì¹´
ĠA M
ĠG T
ĠíģĲ ë¸Į
ĠíĥĢ ìĪĺ
ê¹ ¥
Ġì¡´ìŀ¬ ê°Ĳ
ãĥ³ ãĥ
æ ĸ
į ½
ĠìĦľ ìª½
ìħ ĭ
ĠëĭĪ ì½Ķ
Ġë£¨ ëĤĺ
ê¸Ģ ëŀľëĵľ
ĠìĿ´ ìĿµ
ĠíļĮ ì°¨
ĠíĨµ ì¹ĺ
Ġìķł ìłķ
íĻĶ ìłĲ
ëĭ¤ ëĤĺ
Ġìŀĳ íĻĶ
Ġë°Ķ ê¹¥
Ġë¯¸ ìķ¼
ãģ «
ĠíĥĢ ìľ¨
Ġë¶ĢëĶ ª
° ´
å ľ
Ġë¦ Ń
Ġê³¤ ëŀĢ
ac e
Ġìļ ¸ë¦¬
Ġì£¼ ìĹŃ
Ġë© ľë¡ľ
ìĥ ·
ĠìĭĿ ë¯¼
Ġê³¼ ìŀ¥
ĠëıĦ ëĳĳ
7 5
Ġê¸° ìļ¸
ìĬ¤íĬ¸ ë¦¬ìķĦ
į° ìĬ¤
Ġì·¨ ìŀĦ
ë²Ħ íĬ¸
Ġë¬¸ë ĭ¨
ĠìĤ Ĳ
Ġê²© ì¶Ķ
Ġê·Ģ íĻĺ
Ġë¹Ħ ìĦľ
ĠP l
Ġìŀ ĦëĮĢ
Ġìĺ¬ íķ´
Ġc h
ĠìŀĲ ê·¹
Ġê´Ģ ì¤ĳ
o y
íķ µ
Ġìĥģ ëĭ¨
Ġëĭµ ë³Ģ
ĠìĪĺ ë¥ĺíĥĦ
ĠìĹ° ë£Į
Ġë°ľ ëĭ¬
ĠíĦ ±
ë¦¬ ìĬ¤íĬ¸
å į
Ġìį ¬
ìĬ¤ íħĮ
ìķ Īë
U N
ĠìĤ¬ ì¹´
Ġê¹Ģ ì¢ħ
ëļ ±
O T
Ġê°Ģ ë§Į
ĠíĮĲ ê²°
İ Ģ
Ġì½Ķ ì½Ķ
Ġíĺķ ìĥģ
ĠíĹ¤ìĸ´ ì§Ģ
ĠìĤ¬ ëıĦ
Ġìłģ êµ°
ĠíŀĪ ëĤĺ
Ġê¹Ģ ëıĻ
ĠëĦĪ íĿ¬
ĠìĤ¬ íĽĦ
ĠìķĦ ìĿ¸
Ġê²° ìłĦ
Ġ8 00
ĠìĬµ íķĺ
ì¼ Ī
ĠëĶĶì§Ģ íĦ¸
ë°Ķ ë¥´
íĮ¡ ìĿ´
ĠíĦ° ëĦĲ
5 00
ĠìĤ¬ ìľł
ëŁ ´
ĠìĿ¼ ì¹ĺ
Ġë¬´ ìĹŃ
Ġëĭ¨ ëĭ¨
ĦĪ ìĬ¤
íĥ Ĳ
Ġê±° ëĵŃ
ĠìķĶ ìĭľ
ĠìĬ¤ ìĽ¨
ĠíķŃ ìĿĺ
ì± ł
ĠìĬ¤ ëłĪ
¹ Ħë
Ġ199 1
íĬ¹ ë³Ħìĭľ
m er
Ġë§Ĳ íĪ¬
ĠìłĦì £¼
ĠíĻĶ ìĦ±
3 4
Ġìŀħ ì§Ģ
Ġíıī ìĥĿ
Ġì£¼ ì°¨
Ġìłķ íĻ©
Ġë°ĺ ìłĦ
ĠìĹ°ìĺĪ ìĿ¸
Ġìĺ¤ ì§ģ
ĠëĵĿ íĳľ
Ī Ħ
Ġë¬´ ì§Ģ
Ġìŀĳê³¡ ê°Ģ
ĠìķĦì¼Ģ ìĿ´ëĵľ
Ġë©Ķìĭľ ì§Ģ
Ġíľĺ ë§Ĳë¦¬
ĠíĺĲ ìĺ¤
ĠI C
ĠìŀĲ ë§ī
ĠH D
Ġê±´ ëĵľë¦¬
Ġíķ´ ëªħ
ĠëĶĶ ìĬ¤íģ¬
Ġìĭł ìŀ¥
Ġë§¤ ìŀ¥
Ġê³³ ê³³
Ġìħ ĺ
ĠíĿĳ ìĿ¸
Ġ6 8
Ġë³´ ëĵľ
ak e
Ġìĥģ íĺ¸
Ġë³µ êµ¬
7 0
ĠëĽ° ìĸ´
f t
Ġëŀ ¨
Ġë¹Ħì ĥģ
Ġìĺ¤ ìĤ¬ì¹´
ĠìĻĦ ê²°
ĠìŀłìĪĺ íķ¨
ë ®¬
ic e
é Ļ
Ġë¯¸ ìĬ¤íĦ°
Ġë°± ìĦ±
Ġìķħ ëªħ
ìĭľ ì¦Ī
Ġë¶Ħì ĭł
Ð °
Ġì¹ĺ ê³ł
ĠìĨĮë ĮĢ
Ġíķľ ë§ĪëĶĶ
Ġì¶Ķ êµ¬
ĠêµĲ ìĭ¤
Ġ7 2
ë°Ķ ëĿ¼
ĠìĬ¤íİĺ ìĿ´ìĬ¤
ĠëĤ´ êµ¬
Ġíĥ ľë
Ġìļ© ëŁī
Ġìľł ìłģ
ĠêµĲ ëıĦ
Ġê¸Īë °©
ĠìĿ´ ìĦľ
3 8
Ġì½Ķ ìĿ¸
Ġíĸī íķĺ
Ġíģ¬ë¦¬ìĬ¤ ë§ĪìĬ¤
íĥĢ ì¹´
ĠìĬ¤ ìº
ĠìĨĮë Ŀ¼
Ġìĭł ë¹Ħ
ë¹ ¨
Ġíĳľ ì§Ģ
² Į
Īë ª¨
Ġêµ¬ ìĬ¬
ĠëĤ¨ ëħĢ
ìĿ Įë
Ġë¬´ ìĪł
ĠìĽĲ ìŀĲ
ìľ Ĺ
Ĩ Ĳ
Ġì²Ń ìĨĮ
Ġë¹Ħë¡ Ģ
ĠíĻķ ëĮĢ
Ġë°ĺ ìĤ¬
ĠìķĦìĿ´ ì½ĺ
Ġì¹¨ ìŀħ
Ġ..... .
a ve
Ġíģ´ ë¦Ń
Ġìľ Ĺ
ĠëıĦ ë°ķ
Ġìĭľ ìľĦ
Ġë¶Ī êµĲ
ĠA S
Ġì°¨ìĿ´ ìłĲ
Ġìĭ¤ ìłĦ
ë¸Ķ ë¦°
ìķĦ ìĬ¤
Ġê³µ ê³µ
Ġ198 8
ĠíĹ ĪëĿ½
ĠíĶ¼ ìķĦëħ¸
ãĤ ¿
Ġì»¤ ëħķ
Ġìĭ¬ ìĭ¬
ĠìĪĻ ëł¨
ĠíĿ¡ íĺĪ
Ġìĺ ³
Ġìĭľ íķ©
ĠíĨ °
í ģ°
Ġë¯¸ íĦ°
ĠìŀĶ ëľ©
é ĥ
ĠëĮĢ ìĦł
ìĿ´ ëĦĪ
Ġê¸° ë¯¹
Ġëł¤ ëįĺ
Ġì§ľ ì¦Ŀ
m an
Ġì²ĺ ë¶Ħ
Ġê³Ħ íĨµ
Ġìĵ ¸ëª¨
ĠìĺĪ ìĸ¸
Ġíģ´ ëłĪ
Ġê°Ģ ë°©
ìĿ¼ë ³´
ĠëĤĺ ë§Ī
Ġìĭ £
Ġê°ķ ìŀĲ
ì§ ±
Ġë¡ľ ê³ł
Ġì¶Ķ ì¢ħ
ĠíķŃ ë³µ
Ġì»¤ íĶ¼
ĠTH E
Ġë ŁŃ
Ġíģ¬ ë¦¼
ou nd
U S
ł ī
ĠìĦł ê³ł
Ġë³µ ì§Ģ
it e
Ġë©ķ ìĭľì½Ķ
Ġë±Ģ íĮĮìĿ´ìĸ´
ĠìºĲ ìĬ¤íĦ°
ĠìŀĦì ĭł
Ġê³µ ë£¡
Ġì§ĳ ì°©
¡ ±
Ġê³ł ê°ľ
ãĤ ¢
Ġê°Ħ ìłĳ
ë° ĭ
Ġì¹¼ë Ĥł
Ġë¡ľ ì¦Ī
Ġë§¥ ìĬ¤
ì£¼ ìĭľ
ĠëĤľ ìŀħ
ìķĦë Ĥĺ
Ġê²½ íĺ¸
Ġëį° ëĵľ
ê°Ģ ìĭľ
Ġëį° ëª¬
ĠìĿ´ ì¤ĳ
ìĭľ ëĮĢ
ĠD S
ê°Ī ë¦¬
êµĲ íĨµ
Ġë²ķ ìĿ¸
Ġê±° ìłĲ
ê´ Ħ
ĠE n
Ġê³ł êµ¬ëł¤
ĠìķĦìĿ´ ëŁ¬
ê° Ĵ
ëĭĪ ìĸ´
ĠêµŃíļĮ ìĿĺìĽĲ
Ġì Ńī
Ġìĺ¤ ë²Ħì
p h
Ġìłľ ìķ½
Ġíľ ©
ìłł ê°Ģ
ĠëĦ¤ íĬ¸
Ġíľ´ ìĭĿ
ĠìĨĮìĨį ìĤ¬
ĠëĶĶì§Ģ ëª¬
ı Į
Ġì§Ģ ë¢°
Ġë¸Įë Ŀ¼ë
Ġêµ¬ ë¦¬
Ġì£¼ë ¥ĺ
ĠêµĲ ê³¼
ĠâĢ ¢
ĠíĥĢìĿ´ ìĸ´
Ġíķľ ìª½
ŀĳ ìĿ´
Ġìľł ìĿ´
Ġ? !
ĠìĨĮ ìŀ¥
Ġì¶Ķ ìĸµ
ĠëĮĢíķĻ ìĽĲ
¬´ ë¥´
Ġë°ĺ ëıĻ
ĠìĦ¸ë ¥´
5 6
ìĭľ íĭ°
Ġì»¤ ëĭ¤ëŀĹ
Ġì² ©
ĠìĿ¼ ìĿ¼
ĠíĽĦê³Ħ ìŀĲ
p e
ĠìĹĲ ë¦¬
Ġ Î
ĠëĤĺ ì¸ł
Ġìľ¼ë Ŀ¼
Ġê·¸ë ŀľëĵľ
Ġë¯¸ ì§Ģ
ĠíķĻ ê¸°
íĶ¼ë ĭĪ
¼ë ĵľ
ĠáĨ¯ ëł¤
Ġë¶Ģ ìŀĲ
ĠëįĶ ëŁ¬
Ġì¹´ ëĿ¼
Ġì´Ŀ ìķĮ
ĠáĨ ¨
ĠëĤĺë¬´ ìľĦíĤ¤
ĠëıĦ ìłģ
ìķĦë ª¬
Ġ197 0
Ġìĸ¸ ìłłê°Ģ
Ġìľ ĦëĮĢ
Ġì¡° ìĹ°
Ġìŀħ ëĮĢ
Ġìĥģ ê¸°
ĠíĹĪ ê°Ģ
Ġíı¬ë¥´ íĪ¬
ĠìĬ¹ ê°Ŀ
Ġìĭľ ëĦĪì§Ģ
Ġìłķ ìĪĺ
Ġëį© ì¹ĺ
ĠëģĶ ì°į
Ġíĭ ±
ë° Į
Ġê± ¸ë§
ĠíĶĦë Ŀ¼ìĿ´
Ġì¶© ì²Ń
ĠëĿ¼ìĿ¸ ìĹħ
¶ ĵ
Ġë¡ľ ìĸ
Ġì¶© ìĭ¤
Ġì¤ į
ëį° ìĿ´
Ġìľł íĨµ
Ġíģ¬ë¦¬ìĬ¤ íĥĪ
Ġê±¸ë§ ŀ
Ġê²° ìĭ¬
ĠìĬ¤í ĮĢ
5 9
ĠìĨĮë ĭĪ
Ġìŀ¬ ë°Į
ĠëıĮ ìŀħ
ìŀ ĺ
ĠìłĢ íĥĿ
ĠìķĦìĿ´ëŁ¬ ëĭĪ
Ġë¬¼ë¦¬ ì¹ĺ
ĠìĻ Ī
ĠìĬ¤ íĭ¸
Ġ11 0
Ġìī ´
Ġì±ĶíĶ¼ìĸ¸ ìĬ¤
ĠíĥĢ ì¿ł
ĠìĹ° ëł¹
ĠìĹ° ê·¹
¹ Ľ
Ġë³µ ë¬´
Ł¼ íĶĦ
Ġê²ĮìĿ´ ë¨¸
æ Ī
ĠëĲĺ ëıĮë¦¬
ê³µ ìĤ¬
Ġì²ĺ ì§Ģ
ĠëĤ¨ ë§¤
Ġìłķ ì°¨
Ġìī Ĳ
ë¦¬ ìĺ¨
ĠëĶ ´
Ġë°° íĦ°ë¦¬
Ġë½ĳ íŀĪ
Ġìĸ¸ë įĶ
ĠìĬ¤íĬ¸ëĿ¼ìĿ´ íģ¬
Ġë¸ĶëŁ¬ ëĵľ
ĠìĿĮë ª¨
Ġìľł ëł¥
âĺħ âĺħ
ĠìĽĥ ê¸°
Ġë°° íı¬
ĠìĦ¼ ìĬ¤
Ġì§Ħë ³´
Įë ¡ľ
ĠëŁ° ëįĺ
Ġìĸ´ ê·¸ë¡ľ
ĠëĭĪ ìĭľ
ĠìķĪ ê¸°
Ġíĩ´ ìŀ¥
Ġê³µ ë°©
Ġìŀ¬ ìłķ
Ġíĭ° ì¼ĵ
å ¯
Ķ §
ĠìĤ¬ ìĽĲ
ĠëĵľëĿ¼ìĿ´ ë²Ħ
Ġë§Īë ¹Ħ
Ġêµ¬ì¶ķ íķ¨
ìĹ £
ëĮĢ íķľë¯¼êµŃ
Ġì¹´ íĬ¸
ĠìłĦì Ĭ¹
Ġì±Ħ íĥĿ
Ġë£ ¬
ĠíĮ ½
ĠS D
Ġë¬´ ê´Ģ
ĠìĨį ìĿ´
å ¥
Ġê¸°ê´Ģ ì´Ŀ
Ġê°Ģ ìĥģ
ĠìĨĮ ìĨ¡
Ġë¯¸ ìĨĮ
Ġê°ķ ìłĲ
ĠíĬ ľ
íĶ Ħì
ĠìĿ´ìĬ¬ ëŀĮ
âĨ Ĵ
Ġê±° ìļ¸
ìłĢ ëŁŃ
ĠíĥĢ ê²Ł
Ġìŀĳ ìľĦ
ĠíķŃê³µ ê¸°
Ġëĭ¹ ê¸°
Ġìŀī ê¸Ģëŀľëĵľ
ĭĪ ìĸ´
Ġì§Ģ ìľĦ
Ġë¯¸ ìĪł
ĠC on
Ġëĭ¤ìĿ´ ìķĦëª¬
Ġìľł ëıħ
am e
Ġê·¸ë ŁŃ
ĠR PG
Ġì°½ ê³ł
Ġì¹Ń íĺ¸
ë¬´ ìĭľ
ĠìĹĲ ìļĶ
ĠëĤ® ì¶Ķ
Ġê¸´ ìŀ¥
Ġì¹¨ ëŀµ
Ġê·¸ëŁŃ ìłĢëŁŃ
ĠíĬ¸ëŀľ ìĬ¤
Ġë°± ìłľ
ĽĮ ì¹ĺ
Ġê¸° ë¦Ħ
Ġê°Ĳ ê°ģ
ãĥ Ń
ĠìĤ¬ ìĿ¸
Ġë¬´ ë°©
Ġì´Ŀ ìĦł
ĠíķĦ ë¦¬
ĠíĹ¤ ë¹Ħ
Ġ198 9
ĠìĿ¼ë ĭ¹
ĠíĥĦ íĻĺ
Ġê¾¸ë ¯¸
ĠìĶ Į
Ġë¶Īë Łī
Ġë²ķ ìłķ
Ġê¸Ī ìķ¡
Ġ7 8
Ġì·¨ ìķ½
ĠìĹĲ ë¥´
ĠíĿ °
ĠíĨł ë²Į
ìĿ¸ë ¨¼íĬ¸
a h
4 4
íĺ Ħë
ĠëįĶêµ° ëĭ¤ëĤĺ
Ġì£¼ íĥĿ
Ġãģ Į
Ġå į
Ġm ath
ĠìĹĶ ìł¤
ĠíĶĮëŀĺ ìĭľ
Ġìĭ ¹
Ġë» Ĺ
Ġ @
Ġíĺ¸ íĿ¡
Ġì²´ìľ¡ ê´Ģ
Ġë°ĺ ë°ķ
ì½ ľë
© ĺ
Ġê¸ī ê²©
ĠìĦ± ëĤ¨
Ġê²° íķ©
Ġ6 7
ĠK IA
ë¯¸ë ĶĶ
ĠíıĲ ìĩĦ
é ģ
Ġê²½ ë¹Ħ
ĠêµŃ ìłģ
Ġ10 1
ĠëıĻ ìķĦë¦¬
ĠìĨĮìľł ìŀĲ
Ġëħ¸ë ¥´
Ġìĥī ìĥģ
ĠíĮĮ íģ¬
íħĮ ìĿ¸ë¨¼íĬ¸
Ġíĥľ íıī
ĠìŀĲ ìłĦ
Ġìĺ¤ ìĬ¤íĬ¸ë¦¬ìķĦ
Ġìķ¼ ìĬ¤
ë¶ģ ëıĦ
Ġí Ĥ¨
ĠìĥĿëªħ ì²´
ĠëĳĲ ëĵ¤
ac t
Ġì´Īë ¡Ŀ
Ġëĵľëŀĺ íĶĦíĬ¸
Ġë¦´ ë¦¬
ĠL C
ì¹ĺ ê¸°
ìľ ¼ë¡ľ
Ġë§ī íĮĲ
Ġêµ¬ ê¸Ģ
ĠS c
Ġæ Ń
ëĦ¤ ìĬ¤
Ġê¸Ģë¡ľ ë²Į
Ġë©Ķ ëĭ¬
°Ķ ìĿ´
Ġê°ľ ìĪĺ
Ġë£ ¸
ìĺ¤ ë£¨
ĠëıĻ ê¸ī
Ġë©ĶìĿ´ íĶĮ
Ġë§Ī ë¦°
ì§ Ħë
ë¯ ¸ëĭĪ
a w
ĠìĥĪ ê¸°
ê±¸ ìĿ´
ĠíĶĮëŀ« íı¼
Ġì§Ħ íķĻ
Ġíķ© ë³ĳ
ĠìĿµ ìĬ¤
ĠëłĪìĿ¸ ìłĢ
ĠëĮĢ ì±ħ
ĠìĬ¤ ìľĦì¹ĺ
ĠìłĢ ìŀĳ
ĠìĬ¤ íħĶ
ãĥ ¬
ĠíĮ¬ íħĢ
ĠëĳĲëĵ¤ ê¸°
¼ë ¦
íķĺ ëĤĺ
ĠB L
ĠëĺĲ ëĭ¤ìĭľ
an c
ĠìĹĳìĬ¤ íĬ¸ëĿ¼
a e
ãģ į
ĠìŀĲ ë³¸
ĠìĿ¸ ì¢ħ
ĠíĨµ íĻĶ
ĠìĿ´ ì¦Ī
íĦ° ìĬ¤
Ġìłľ íĬ¸
ê·¸ë Ĥĺ
Ġä »
ìķĦìĭľ ìķĦ
Ġìŀĳ ëħĦ
Ġw h
íĨł ë¥´
i o
Ġìĭ¤ ì¢ħ
Ġë¶Ī íİľ
Ġìľ Į
Ġê·¼ë ³¸
Ġì¶ľ ìĥĿ
Ġì´Ŀ ìŀ¥
Ġê¹Ķ ë¦¬
Ġë³´ ìĻĦ
ĠìĹħ ë¡ľëĵľ
¸ë§ ī
äº º
s h
Ġëĵľë ¡Ń
4 6
V D
ç ¾
Ġë§ ·
ĠëĿ¼ìĿ´ ìĺ¨
Ġëį¤ ë¹Ħ
ĠíĥĢ ìļ´
Ġì¡´ ê²½
ĠìľĦë °ĺ
ìļ´ ìĦľ
Ġì²ľ íķĺ
ĠìľĦìĽĲ ìŀ¥
ĠìĿ´ ë¯¼
ĠëĤ´ ìłĦ
ĠëĶľ ë§ģ
ol d
om e
Ġë§Ī ìĬ¤íģ¬
Ġíħį ìĬ¤íĬ¸
Ġë§Ŀ ê°Ģì§Ģ
Ġë°ľ íĮĲ
O W
Ġíķ´ ì¹ĺ
ĠëıĦ ë£¨
ĠìĹĲ ëĶĶ
ĠìłĦ ìłľ
Ġë§¤ ëħĦ
ou t
Ġë¶Ģ ìŀĳ
ĠìĿ¼ íĻĶ
ë¶Ģ ë¥´íģ¬
Ġë¬´ìĭľ ë¬´ìĭľ
ìļ° ì¹ĺ
Ġë¯¸ íĤ¤
ãĤ ·
Ġê»ĺ ìĦľ
ĠêµŃ ëıĦ
ĠíĹ¬ ê¸°
Ġìķ½ íĥĪ
ĠìĬ¤íĬ¸ë łĪìĬ¤
Ġë°ľ ë¦¬
Ġíİ¸ ê³¡
Ġì¢ħ ëª©
Ġìĺ¤ë²Ħì ĽĮì¹ĺ
ĠìķĦì ¦Ī
ĠêµĲ ëĭ¨
ĠìĿ¸ë ł¥
ĠíĽĦì ĽĲ
Ġê°Ģ ìĿĦ
íĶ Įëł
Ġìĭľ ìĽĲ
ìĤ¬ ìĿ´
Ġì¿¼ íĦ°
Ġë³´ ì¡´
ĠíĽĦì ĨĲ
Ġê´Ģë¦¬ ìŀĲ
3 2
Ġì¶ľ êµ¬
Ġæ ĸ
Ġê²¬ ëĶĶ
Ġì¢Į ìĦĿ
Ġì§Ģ ë¶Ī
Ġì½Ķ ë¯¸ëĶĶ
ĠM y
ë¯ ¹ìĬ¤
Ġìľł íļ¨
ĠI D
ĠëĮĢ ì¹ĺ
Ġë¬´ ìĮį
Ġ6 1
Ġë¦¬ ë·°
Ġë©Ķ ìĿ´ëĵľ
Ġíĥ ķ
ĠìĦ± ë¦½
Ġíķ´ ìķĪ
ĠG S
Ġíİĺ ëĦĲíĭ°
Ġì¹´ íĥĢ
ĠìĻĢ ìĿ¼ëĵľ
Ġì²ł ìĪĺ
Ġêµ ¿
ĠíĿ ©
ĠìķĦë©Ķ ë¦¬ì¹´
ê¾ ¸ë
Ġê²½ ë¡ľ
ĠìĹĺë¦¬ íĬ¸
Ġë· °
Ġìĭł ìłĦ
3 9
Ġëŀ Į
Ġë¶Ģ ìĬ¤íĦ°
Ġì£¼ íı¬
Ġì¹´ êµ¬
Ġê¼ ¼
Ġì ª
I G
ĠìŀĲ ë¹Ħ
çĶ °
ĠìķĮëłī ìĤ°
Ġìĭľ ë¡ľ
ëį ¸
ĠëĤ¨ ë¶ģ
Ġëĭ¤ ìĬ¤
² Ħë
Ġë¿ ľ
ĠìĿĢ ìĭł
Ġê¹ ľ
ĠëĮĢ ê±°
ëį ±
Ġìłķ ê¸°
Ġíıī ìĿ¼
Ġï¼ ļ
Ġë³µ ìłľ
Ġë¦¬ ìĬ¤íģ¬
Ġëĭ¨ ì¶ķ
Ġíĺ¸ ì¹Ń
Ġê±´ ì¡°
Ġä¸ Ń
Ġê´Ģê³Ħ ìŀĲ
Ġëģ¼ ìļ°
ìłĦì °¨
ĠìļĶ ìķ½
ëįĺ ê°Ģ
Ġëĵ± ì§Ģ
Ġëģ Ī
Ġì²ľ ë§Į
ĠìĿ¸ ì¹ĺ
ĠìĿ¸ ê¶Į
i es
Ġë°ĶìĿ´ ìĺ¤
Ġë² Ļ
ĠíĨµ ìĤ°
Ġë£¨ ì¹´
Ġìĺ¤ëĬĺ ëĤł
ãģª ãģĦ
ĠìĦľìļ¸ íĬ¹ë³Ħìĭľ
ĠíĶ¼ íĦ°
íĶĦë ¡ľ
ë¬¼ ê´Ģ
Ġêµ¬ ë¯¸
Ġë°° ìłķ
Ġê°Ĳ ì¶Ķ
Ġê·ł íĺķ
4 9
Ġìĥģ ëĭ´
ĠìĦ¸ë ¸Ĳ
Ġë¶Ħì Ĺ´
o k
u g
ĺ ¤
ĠìĿ´ íİĻíĬ¸
Ġìºł íĶĦ
d er
Ġì°¸ê°Ģ ìŀĲ
Ġëªħ ìĿĺ
ĠìĽ¨ìĿ´ ë¸Į
ë³´ ëĵľ
Ġê³ł ì¦Ŀ
Ġíķĺë£¨ ì¹´
ĠìĿĢ ì§Ģ
ëį° ë¯¸
Ġì° ¸ëª¨
ì½Ķ ëĵľ
ĠìĿ´ ì£¼
ìĹĲ ìĿ´
ĠE N
ĠìĤ¬ìłķ ê±°ë¦¬
ĠëĦ¥ ìĦ¼
Ġê°Ĳ ì§Ģ
Ġê°Ħ ê°Ħ
ë¯¼ë ĭ¹
Ġê´Ģ ìłĲ
íĥľ ìļ°
O D
Ġê¹Ģ ëĮĢ
ë©ĺ íĬ¸
ĠëıĻ ìĦ±
ê³ ½
Ġë§Įë Ĥ¨
ĠCP U
Ġë¶Ģ ìĭ¤
ĠìŀĦ íĮ©íĬ¸
Ġìĸ¸ë įķ
ĠâĹ ı
M A
L L
ĠëĦ Īë
ĠìĤ¬ìĿ´ ë²Ħ
Ġê° Īë
a x
ĠìĻł ì§Ģ
V A
ĳ ¤
Ġê·¸ëłĩ ì§Ģë§Į
ĠìĿ į
ê² Ķ
ĠìĹ¬ ìļ°
Ġìĸ´ë ¢°
Ġìļ¸ íĶĦ
ìĬ¤ íĭ±
Ġë¬¼ë Łī
ĠìķĦëĤĺ ìļ´ìĦľ
Ġìłķ íĨµ
Ġë³¸ ì§Ħ
Ġëħ¸ë ²¨
ow er
E T
Ġë³Ģ íĻĺ
Ġìķ¼ ìĥĿ
Ġëĭ¤ìĿ´ìķĦëª¬ ëĵľ
p l
ĠìĬ Īë
ëį ©ìĿ´
Ġë¡ľ ìļ°
ĠìĹ° ë§¹
ĠíĥĲ ìłķ
ë Ľ°
Ġìľł ë§Ŀ
ĠíķĻ ìĬµ
ĠE P
ìķ ¤
ĠíĹ Ŀ
ĠíĶ¼ ìĬ¤
Ġì²´ íĹĺ
íĤ¤ ìķĦ
Ġë¶Ħì Łģ
Ġì§Ģ ì¹ĺ
ĠíĶĮë Ŀ¼ìĿ´
ĠìĪĺ ìĦĿ
i al
ĠìłĢ ê·¸
Ġë¸Įë Ŀ¼ìĿ´
ë¶ Īë
Ġì¹´ ìĻĢ
ĠìĻľ ê³¡
ĠìĿ´ íĺ¼
Ġe x
ĠëıĦ ìłĢ
Ġê³µ íĹĪ
ĠìĪĺ ê¸ī
ĠìĿ¸ ì§Ī
Ġê°ģ ë³¸
Ġì§Ģ íĮ¡ìĿ´
ĠìĤ¬ ì¿ł
Ġë²ł íĥĢ
Ġì¹´ìļ´ íĬ¸
ĠìĹĦì Ĺ°
ìľł ëŁ½
Ġíķł ìĿ¸
íħĮë Ĥĺ
íĶ Įë¦¬
Ġê°ĳ ìŀĳ
ìĭł êµĲ
Ġìĭł ëıĦ
Ġìŀĳ ìłķ
ìĻĢ ëĮĢ
Ġë¨¸ë ¬´ë¥´
Ġê²½ ëĤ¨
ĠìłĦ íĮĮ
Ġë¹Įë Ķ©
ìŀ ł
Ġìĭľ ìĭł
Ġì¡° ìļ°
Ġë°Ķ ìģĺ
ëłĪ ìĿ¸
ĠìĦľë ²Ī
ëļ Ŀ
Ġë ®
Ġê·¸ë ĮĢ
ĠíĤ¬ ëŁ¬
ë£ ©
ì£¼ ìĿ¸
ĠìĬ¹ ìłĲ
ë©Ķ ìĿ´
Ġë¹ĦêµĲ ìłģ
ĠìĻ¸ê³Ħ ìĿ¸
Ġìĺ¤ ëĿ¼
ĠíĶ¼ ìļ°
Ġë¯¸ë Ħ¤
Ġëħ¼ ìĿĺ
Ġëª¨ ëĭĪ
ĠìĹ¬ íķĻìĥĿ
ì¹´ ë¡Ń
Ġë§Į ë§Į
Ġìŀ¬ íļĮ
Ġê°Ĳ ìĥģ
ê²½ ê¸°
an ce
Ġìķħ íĻĶ
ĠìĦľë²Ī íĬ¸
Ġìŀ İ
Ġê³µ ìļ©
ĠëĶľ ëłĪìĿ´
İ ĭ
ĠìĪĺ ëªħ
Ġì¤ĳ ì²©
Ġì½Ķ ë¦¬ìķĦ
ĠêµĲ íĻ©
ì²ľ ìĭľ
ac h
ĠíŀĲ ëŁ¬
Ġì¸¡ ìłķ
ĠìĨĮ ìĿĮ
ĠíĽĦ íĩ´
ĠëĤł ì¹´ë¡Ń
ĠìĪĺ ì¶ľ
Ġìĺ¤ ëĶĶìħĺ
ĠíĬ¸ë Ŀ¼ìĿ´
Ġêµ¬ ë¦Ħ
Ġë¯¸ ì¿ł
Ġë£¨ ìĿ´
ëĭ Ĳ
Ġê°Ģ ìļĶ
Ġìĥ Įë
å °
ĠíĮ ¡
Ġìŀ¥ ê±°ë¦¬
ĠìķĦ ìĦľ
íħĮ ìĿ¼
ĠìĿ¼ë³¸ íĮĲ
ĠëĶĶ ìł¤
ĠëĮĢ ìĻķ
Ġ6 9
ë¯¼ ì£¼ëĭ¹
Ġì£¼ë ĳĶ
ad e
į ¸
ê² ¹
Ġíģ¬ ëłĪë
ìĹŃ ìĤ¬
ĠíĶĮëŀĺ ê·¸
Ġê·¸ ë¦½
Ġëıħ ìŀ¬
ĠíķĻ ê¸ī
Ġì¦Ī ìĿĮ
Ġìłķ ìĺĪ
ĠìĪĺ ë©´
ĠêµŃ ìłķ
ĠìĹĶíĦ° íħĮìĿ¸ë¨¼íĬ¸
Ġìĸµì§Ģ ë¡ľ
ëį° ëłĪ
Ġì¡° ìķ½
Ġíľĺ íķĺ
ĠíĬ¹ ìłĦ
Ġë£¨ íģ¬
ĠìĦ¸ë ĩĮ
Ġ3 000
íĺ ¸ë§ī
ĠìłĦë ¶ģ
Ġì²Ń ìĻĢëĮĢ
łĪ ëĤĺ
ê³łìĨį ëıĦë¡ľ
Ġì£¼ ê°Ħ
ì² ľë
Ġê²½ ìķħ
Ġì²ĺ ì°¸
ĠìĿ´ ëªħ
íŀĪ ì½Ķ
ĠìĬ¤íģ¬ ë¦°
O C
ĠëĨ Ģë¦¬
ĠêµŃ ìĸ´
Ġê¸° ìŀ¬
Ġë§Īë²ķ ìĨĮëħĢ
Ġë³´ íĺ¸ë§ī
Ġë§¤ ë²Ī
ĠF l
l l
ĠëıĻ ìłĲ
ëĬ ¬
ĠK BO
Ġê¸° ëĳ¥
Ġì¡° ëªħ
Ġì¡° ì»¤
ì¡ ¸
íĮ ¬
Ġë¹Ħ ìłĦ
Ġì´Īë°ĺ ë¶Ģ
Ġíı¬ë¥´íĪ¬ ê°Ī
Ġì§Ī íĪ¬
ĠìĻķ ìľĦ
Ġê´Ģ ëŀĮ
ĠìłĦë Ŀ¼ë
ĠìĹħ ê³Ħ
ĠëĿ¼ìĿ´ ëĦĪ
ĠìķĦì¹´ ëį°ë¯¸
ĠìĹ°íķ© êµ°
ĠìĬ¤íĥĢ íģ¬ëŀĺíĶĦíĬ¸
Ġê¿ °
ĠíĢ ´
ë§Ī ì¸ł
Ġ198 7
ĠëĴ¤ ì§Ģ
ĠìķĦíĤ¤ ëĿ¼
Ġê³ł ìŀ¥
ë ĩ
ë¯¸ë Ħ¤
ĠìŁģ ìĿ´
Ġ13 0
ĠìŀĦ ê¸Ī
Ġìĸ´ íķĦ
at t
ëłĪìĿ´ íĦ°
ĠíŀĪìĸ´ë¡ľ ì¦Ī
íķ Ħëĵľ
Ġê³µ ìłķ
ëĵľë Ł½
Ġê·¼ ê±°ë¦¬
æ Ń
Ġëĭ¨ ìĽĲ
Ġëł Ļ
ëĬ ¦
Ġíķ´ íĶ¼
Ġê±´ ëĦ¤
Ġì¡° ìĿ´
Ġìĭ± íģ¬
Ġë°° íĬ¸ë§¨
íķľêµŃ ëĭ¹
ê° Īë
Ġë°© ìľĦ
ĠìĦľ êµ¬
ä ½
íķŃ ê³µ
Ġì¹¨ ë¬µ
Ġìļ° ìłķ
Ġ8 9
Ġì§ģ ìŀ¥
ĠìĽĲ ì¡°
ĠíĮĮ ì¸ł
Ġìĸ´ëĵľë ²¤
ìŀĲ ëıĻ
ëĮĢ ìłĦ
ĠìĦľ ìĦľ
Ġãģ §
Ġì¤ĳ ìŀ¥
ĠìĨĮ ìļ©
Ġëĭ¨ íĸī
ëĿ¼ìĿ´ ëĤĺ
ĠíĪ ´
ĠìķĦíĭ° ìĬ¤íĬ¸
Ġë²Ħ ìĦ¯
ĠëĥĲ ë©´
5 7
Ġê³ ±
íļ Įë
Ġê°ľ ìĦ¤
or y
Ġs h
Ġë¯¼ê°Ħ ìĿ¸
ĠìĻĢ íĥĢ
Ġë®¤ ì§Ģì»¬
Ġìĺ¤ ìĹ¼
Ġëħ¸ëıĻ ìŀĲ
ĠO r
ħ ķ
Ġìĸ´ ì§¸
ĠìĦł ëĳĲ
Ġê¼¬ ìĿ´
ĠíıŃ íĸī
Ġê°ķ ìĤ¬
or ld
ëĦĪë ¨¼íĬ¸
Ġë¶Ģ ëĵľëŁ½
Ġìłľ ì¶ľ
Ġíİ Į
ë© §
Ġë¶Ģ ìŀĦ
ĠëĿ¼ìĿ´ ìĸ¸
ë ±ħ
Ġë³¸ ìĤ¬
ĠíĬ¸ë ¡¤
Ġë¹ ¼ë
Ġì¶ķ íķĺ
a z
Ġíĺ¸ë ŀĳìĿ´
ĠíĶĦë łĪë
Ġãģ ª
Į íĬ¸
Ġëª «
ĠS H
Ġê¶ģ ê¸Ī
Ġìĥģ ìĤ¬
ĠíŀĪ ì¹´
Ġìķ½ íĻĶ
Ġëľ¨ ê²ģ
ĠíĨł ëĦĪë¨¼íĬ¸
Ġëª© ìĤ¬
Ġì»¤ ìĬ¤
ĠW ar
ĠíĥĲ íĹĺ
ĠìĦł íĸī
ĠëłĪ ìķĮ
ĠëŁ¬ ìĭľ
Ġãģ Ĥ
Ġìľł ìĤ°
ë¨¸ ìĬ¤
ĭ īìĬ¤
Ġíĸī ë°©
Ġì£¼ ìĿ¼
Ġìľł ë°ľ
Ġë°© ì¹ĺ
Â ·
Ġëħ ¼ë
Ġì¡° ë¡±
Ġìŀł ìŀħ
íĨ ¡
Ġë§ī ëĤ´
ĠìłĪ ì°¨
Ġì§Ģ ì¹Ń
Ġì¶Ķ ë¦¬
Ġìķħ ëª½
Ġì¼ Ī
Ġì²ł ê±°
Ġì½ľë ¡ľ
Ġìĭł ìŀħ
20 18
ĠìĽĲ ë¦¬
ìł ĦëĮĢ
ĠìĪĺ ìĥī
Ġìĺ¤ íģ¬
ĠíĮ ħ
ĠëıĻ ìĸĳ
Ġíķ´ ê³¨
Ġê³µ ìĹħ
Ġê°Ĳ ìĭ¸
íŀ Ĳ
Ġì§Ģ ë¦¬
Ġë¹Ħì £¼
Ġì½ĺ íħĲì¸ł
Ġì£¼ íĸī
ĠìĤ° íķĺ
Ġì±ĶíĶ¼ìĸ¸ ìĭŃ
é ĩ
Ġíķĺ íĸ¥
ìĿ ĮëĤ
ëĿ¼ë ħ¸
Ġì¤ĳ ìĭľ
ì£¼ë ¯¼
ìĦ¼ íĬ¸
¹ Ī
Ġìľł ìĿ¸
is h
ĠëĦ¤íĬ¸ ìĽĮíģ¬
Ġ8 4
ãģ Į
Ġì¹ĺ ì¦Ī
ĠíĪ¬ ì²Ļ
ĠìĿ´ ê¸Ģ
Ġì¤ĳ ë³µ
Ġìł¤ ë¦¬
Ġìĺ¤ ì¹´
ĠìłĦë ¬´
§ ĳ
ë¥ ¸ë
Ġìĺ¹ íĺ¸
Ġì³Ĳ ëĵ¤
Ġê¹Ģ ê¸°
ìĿĮëĤ ł
ĠëĮĢ ìĿ¸
Ġêµ¬ ìŀ¥
Ġ7 4
ĠìĻ ľë
Ġë£¨ ë¨¸
ĠíĮĮë Ŀ¼
âĨ ĺ
íĭĢ ëŁ¬
re am
Ġëª¨íĹĺ ê°Ģ
ê³ ±
Ġë²ł ëĦ¤
ĠìĪĺ ìĹ¼
ĠíĮ¨ ëĦĲ
20 19
ĠìĪĺíĺ¸ ìŀĲ
ĠìĤ½ ìŀħ
Ġë°ľë ª©
° ¸
Ġëĭ¤ ìĿĮëĤł
ì¹´ ëĿ½
Ġëį° ìĿ´íĬ¸
Ġë°ķ ì§Ģ
ĠS k
ĠëĤĻ íķĺ
Ġìĸ´ ìĭľìĬ¤íĬ¸
ĠêµŃ êµ°
ĠíĬ¸ë Ł¼íĶĦ
Ġç Ķ
ĠìķĶìĤ´ ìŀĲ
ãĤ «
ĠLo ve
ĠìłĢ íķĺ
Ġë¯¼ ì²©
Ġê¸´ ê¸ī
Ġìĸĳ ìĥģ
į° ëĵľ
Ġíķľë Ĥĺ
ë§Ī íģ¬
ĠíĶĦë¦¬ë¯¸ ìĹĦ
Ġãģ ¨
Ġì²´ìĿ¸ ì§Ģ
Ġëª¨ ìĭľ
Ġê²° íĪ¬
ĠëĴ¤ ëĬ¦
Ġê²½ ì§ģ
ĠM ar
Įë ıĦ
Ġëŀ Ħ
Ġê°Ģ ì£½
Ġìłľ ìłķ
ĠìĦł ìłľ
ĠíĹ Ĳ
ĠC G
Ġé ĩ
Ġìĭľ ê³µ
ĠF or
ĠìĬ¤ìĽ¨ ëį´
ĠìĤ¬ìĿ´ ì½Ķ
ĠíĬ¸ë¦¬ íĶĮ
å ¸
Ġìķħ ê¸°
Ġê±° ë¶ģ
ĠìłĢ ëłĩ
Ġì¶ľ ê²©
ëľ »
ìĤ¬ ëŀĳ
Ġæ ĺ
ëĦ¤ ìŀĦ
ë²ł ìĬ¤
í į
Ġëª¨ íķ¨
Ġê³µ ìĿ¸
Ġê°ľ ìĭłêµĲ
Ġëªħ ë°±
Ġ7 9
Ġê²© ì°¨
Ġìĭ¤ ì±ħ
Ġ6 2
Ġìłľë Ħ¤
Ġì¦Ŀ ìĥģ
ëĶ ķ
ĠëŃī ì¹ĺ
Ġê³µ ìĪĺ
ĠìĨĶ ì§ģ
íĽ Ħì
Ġê³µ ë°±
ĠíĽĦ ìŀĲ
Ġë°± ìĿ¸
Ġê¸° ìļ´
Ġë² Ħì
Ġë¬ĺ íķĺ
ì§Ģ ë¥´
ĠìĤ¬ ìļ°
Ġì²ł íķĻ
Ġìŀ¥ ìĿ¸
ĠD VD
5 8
°ĺ ëıĦ
ow n
ĵ ±
ê°Ģ ë¥´
Ġë°° ëĭ¬
Ġê°Ħ íĺ¸
Ġë¹Ħì£¼ ìĸ¼
Ġë¶Ģ ìĤ¬
Ġìĭł ìŀĲ
ĠíĥĢ ìĦĿ
Ġãģ ĭ
Ġë¨¸ë¦¬ ì¹´ëĿ½
Ĺ Ħ
Ġìĺģ ê´ĳ
Ġê·¸ë ŀĳ
Ġ7 00
Ġê¹Ģ ê²½
ĠêµŃ ê²½
Ġë¹Ħì ¹ĺ
ìĹ¬ ê°Ŀ
Ġì°¬ ìĬ¤
ĠìĨĲ ìĥģ
ĠìĽĲ ìłĦ
¸ë ĮĢ
Ġê°Ĳ ëıĻ
Ġê·¹ ëıĦ
ĠëĿ ł
Įë ©´
Ġìŀ¥ ìĤ¬
Ġê³¼ë ıĦ
Ġì±Įë¦° ì§Ģ
ĠìĻľë ĥĲ
ĠìĪ ľë
Ġì¦ī ìĤ¬
Ġê¸° ìĥģ
Ġíķ¨ ë¶Ģë¡ľ
Ġë§Ī íĶ¼ìķĦ
ìĺ¤ ë¥´
Ġë²Ķì£Ħ ìŀĲ
ĠìłĦë Ĥ¨
Ġì°¸ ìĤ¬
Ġìµľ ìĭł
ê°Ģ ëĭ¤
ĠìĿ¸ íĶ¼ëĭĪ
Ġì²´ ê°Ĳ
an n
Ġìłľìŀĳ ìĤ¬
Ġ198 6
Ġê°ķ ëĵ±
Ġë§Ī ê°Ĳ
ĠìĽĲ ë¬¸
ĠíĨł ëĭĪ
Ġê¿ Ģ
Ġê¸° ìķĦ
Ġì¤ĳ ëł¥
Ġìĺ¤ ëĭĪ
Ġìĸ¸ë į°ëĵľ
ĠìķĦ íĭĢ
Ġë¬´ ëĿ¼
Ġëļ« ë¦¬
³ ¼
íĮ ½
ĠSN S
ĠìĦ± ì§Ī
Ġíĸī ìļ´
ĠìħĶ íĭĢ
Ł ³
Ġë¬¼ ê³łê¸°
ê¹¨ ë¹Ħ
Ġë©° ì¹ł
Ġíķ´ íĤ¹
ĠìķĦë¥´ íĹ¨
Ġìŀł ëĵ¤
ĠìĦĢ ëıĦìļ°
ĠìķĪ ê°ľ
Ġëĭī ëĦ¤ìŀĦ
ĠìŀĲìłĦ ê±°
ë§ µ
Ġìµľ ìłģ
ĠìĦłê±° êµ¬
Ġíı¬ì¼ĵëª¬ ìĬ¤íĦ°
ĠíĨµ ë¡ľ
Ġì§Ħ ê²©
ĠíĶ¼ë ĭīìĬ¤
Ġìĥģ ìĺģ
íĭ° ìĸ´
Ġì¦ī ìľĦ
Ġ8 2
ĠíļĮë ĭ´
Ġìľłë§Ŀ ì£¼
Ġìĺ¬ ìĬ¤íĥĢ
ê·ľ ìĸ´
Ġìĸ´ ë²¤
ãģ ¡
Ġë³¸ íĨł
Ġë°± ìŀĳ
ìķ¼ ìĪĺ
Ġíı¬ ìľĦ
Ġì±Ķ íĶĦ
Ġì§Ħ ìķķ
ìĽĮ ì¦Ī
ĠíĬ¸ ë¦Ń
Ġê¸° ìĦ¸
Ġíĺ¼ë ıĪ
£¨ ìĬ¤
ĠF e
i le
ĠìĤ¬ ìĤ¬
íĤ¤ ì§Ģ
Ġìĺģ ì§Ģ
ìłĢ ë¦¬
Ġíķ© ë¦¬
Ġë¬´ ìĤ°
Ġìŀħ ì£¼
Īë² ł
Ġìĭ¬ ìĿĺ
Ġë§Ī ìļ°ìĬ¤
ĠI t
Ġë¯¸ë §Į
ĠìĭĿë¯¼ ì§Ģ
Ġìĺ¤ íĤ¤
ĠìľĦ ìĦ±
íĭ Ģë¦¬
Ġãģ į
ĠìĬ¬ ëĿ¼
ĠJ R
ĠíıĲ ê¸°
Ġëª¨ ë¡ľ
ì´Ī ëĵ±íķĻêµĲ
is s
ĠìľłíĿ¬ ìĻķ
ìĦ ¬
Ġì¤ĳ íĺķ
Ġê²Ģ ìĪł
Ġì§Ħì £¼
Ġë§Īë ¸Ķ
Ġì¶Ķì¢ħ ìŀĲ
Ġê¸° ìĥĿ
ĠíĨµ ê³Ħ
ĠìĨĲ ìĭ¤
Ġë§ī ìĥģ
¯¸ ìķ¼
ĠìĹ° ë´ī
ĠíĻĶ ìŀ¬
Ġì§Ī ë¦¬
ĠìĹ İ
ĠëĤł ì§ľ
ĠìĪĺ ë°±
ëĤĺ ë¯¸
Ġëħ¸ë ¬´
Ġíķľë ĳĲ
ĠìĬ¤ ëĤĺìĿ´
Ġìļ° ìľł
ĠëıĻ ëªħ
ĠL A
ë²ł ë¥´
ĠíĽĪ ìŀ¥
Ġë¶Ļìŀ¡ íŀĪ
íı¬ ë¥´
Ġëħ¸ ì¡°
Ġë¬´ ìĿ¸
Ġìļ° ìĦ¸
ĠìĦľ íģ´
Ġê±´ êµŃ
ìĤ¬ ê¸°
ĠíĨµ íĭĢ
Ġìķ¼ ê°Ħ
Ġìľł ê²©
ëĿ¼ ìĿ´íĬ¸
Ġë§Į ìĿ¼
Ġë°ľ êµ´
Ġ6 3
ĠìĦľë ¨¸
Ġê°Ģ ëĶĶìĸ¸
ĠìĤ¼ ê°ģ
ĠìĭľëĤ´ ë²ĦìĬ¤
Ġíı¬ ìŀ¥
ĠëĮĢ ì¡°
ĠJ T
Ġë¶ĢìĦľ ì§Ģ
Ġê³Ħì ĭľ
ĠìĹ¬ ê°Ŀ
Ġì§Ħì ĥģ
ĠWW E
Ġë§Ī ìĺ¤
ĠìĹ¬ ìĿ¸
ĠìĤ¬ë¬´ ìĨĮ
íĤ¤ íį¼
ĠìĹ¬ ëŁ¿
ĠìĦľìĦľ íŀĪ
ĠìĦ¸ íĮħ
Ġì½Ķ ë¯¹
ĠìĹĦë °Ģ
Ġìľł ì¶ľ
Ġì´Ī ëĵ±
Ġì¶ķ ë³µ
Ġëĭ¹ ìĤ¬ìŀĲ
M P
ĠA D
Ġê³ł ë¡ľ
ĠíĥĢ ë§Ī
ĠíĥĿ íķĺ
Ġê°Ĳ ìĪĺ
ĠìĪľ íĻĺ
ou s
Ġìľł ìŀ¬
ĠíĥĿ ìĭľ
Ġì ĮĢ
ãĥ ŀ
ìķĦ ì§Ģ
ĠìļĶ ìĿ¸
Ġë²¨ íĬ¸
Ġíį¼ë ¶ĵ
Ħ ĺ
ĠìķĦë¥´íĹ¨ íĭ°ëĤĺ
Ġ8 7
ĠìĹĶ ëĵľ
ĠìĨĮë °©
Ġì§Ĳ ìĬ¹
Ġì§Ĳ ìŀĳ
ĠìĦł ìŀĦ
ĠíĮ¨ ë°Ģë¦¬
Ġë©ľë¡ľ ëĶĶ
í ģĺ
Įëł ¤
Ġë¹Ħì ľł
Ġìľł ë§Ī
ĠìĬ¤íĥł ëĵľ
Ġëĵľë Ł¼
ĠìĬ¤íħ Ŀ
íĬ ¬
ì ¯¤
ë¨¼ ìĬ¤
ìķĦ íĤ¤
ĠíĶ Į
ro m
è ¡
Ġê° ļ
ìĤ¬ ë¥´
Ġê±° ì¹ł
Ġì¡° ê¸°
Ġ9 4
íĹ ¬
ĠìĿĺ ìŀĲ
Ġëĭ¹ ëĭ¹
Ġíľ ł
íĶĦë Ŀ¼
ë°© ìĨ¡
Ġë³´ ì¶©
Ġìĸ» ìĸ´
ì² ¨
ĠìĶĮ ìļ°
Ġë²Ī ì§¸
Ġê¹ľ ì§Ŀ
Ġê³¼íķĻ ìŀĲ
íħĲ ëıĦ
ĠìķĦê°Ģ ìĶ¨
Ġìĸ»ìĸ´ ë§ŀ
ĠëĮĢ íı¬
i ver
ĠìķĦë ıĻ
ĠìĬ¤ìº Ķ
Ġìª ¼
Ġìĭł ë°ľ
Ġì¹ĺ ìĹ´
ĠëĤĺë£¨ íĨł
ĠìĦľë °ĶìĿ´
Ġë¬´ ê³µ
Ġì¹´ ì¹´ìĺ¤
ĠìĹ¬ íĮĮ
ĠëłĪ ì§Ģ
ĠìĿ´ ì¢ħ
T E
ĠìłĦë §Ŀ
ë©Ķ ê°Ģ
Ġ18 9
Ġï½ ŀ
ĠìĹ´ ë§¤
Ġê´ĳ ìĦł
íĶ Ķ
Ġë¬¼ ì²´
ë¸Įë Ŀ¼
§ ¤
Ġë¬¶ ìĿ´
ëŀ ¨
Ġë¶Ī íĸī
Ġë¶ĢëĶª íŀĪ
Ġê°Ģ ê³µ
ê·¸ë ŀĺ
ê²Į ìĿ´
Ġê°Ģ ëĳĲ
ĠëĬ Ļ
ic h
ĠìĹ¬ ìĦľ
ĠìĿ¼ë ¦¬
ĠíĮĮ ìĥĿ
ìĤ¬ ìļ°
ĠíĶĦë łĪìĿ´
ë¦´ ëĿ¼
ĠìĬ¤íĬ¸ë¦¬ ë¨¸
ìłĢ ê¸°
ĠG B
ĠíĬ¸ëłĪ ìĿ¼ëŁ¬
ĠìĿ´ ìĪĺ
ĠìĹĲ ë¦Ń
ĠíĻĶ ìĤ°
ĠíĤ¤ ëĿ¼
re e
ì²ł ëıĦ
Ġë©ĶìĿ´ ì»¤
Ġê³ł ìĨĮ
ĠìĪĺ ëıĻ
Ġìĭł ìĦł
Ġë§Ī ì½ĶíĨł
Ġëįĺ ê°Ģ
Ġê´Ģ ì°°
Ġê³¨ íĤ¤íį¼
ĠíĮĮë ŀĢìĥī
Ġìļ° ìĽĶ
ìĤ¬ ë¦¬
ĠD E
ĠìĤ¬ëł¹ ë¶Ģ
ëĵľ ëłĪ
ĠA d
¶Ī íĺ¸
Ġìĥģ ìĦ±
Ġìľł ìĿĺ
Ġëł¤ ëĭ¤
Ġíģ¬ëłĪë Ķ§
o st
ĠìĬĪ íį
Ġêµ µ
ìķ¼ ìĬ¤
Ġíĺ¸ë Ĥ¨
Ð ¾
ĠS E
Ġëħ¼ ìŁģ
Ī Ħë¦¬
ĠíķĻìĥĿ íļĮ
I ON
ĠíĶĦë ŀŃ
ĠëıĮ ìĹ°
ĠìĻ¸ ìłĦ
ê· ¸ëĭĪ
ĠìĬ¹ ë¬´ìĽĲ
ĠíĤ¤ ë³´ëĵľ
Ġê´ĳ ìĤ°
Ġê³ł ë¬´
Ġë¹Ħì Ľĥ
Ġë¹Ħë ªħ
ar y
Ġëĸł ëıĮ
ĠëĵĢ ìĺ¤
ĠìĹ¬ê¸° ìłĢê¸°
5 4
í ĸ
Ġëĭ¹ ëĮĢ
Ġíĺ¸ë ¶Īíĺ¸
Ġíķĺ íķĺ
ĠìĬ¤ ì¿¨
ĠëĿ¼ë įĺ
ĠE D
Ġä ½
ĠìĬ¤íĮĮìĿ´ ëįĶ
Ġë³´ìĿ´ ìĬ¤
20 17
ĠìķĦë ŀį
Ġë°Ķ ì§Ģ
ĠíİĺìĿ´ìĬ¤ ë¶ģ
¡ľ ìĬ¤
Ġê¶Į ìŀ¥
Ġê°Ģ ìĺ¤
ĠìĪĺ ìĬµ
Ġë°Ķ ëĶĶ
ĠìĿ´ ìĽĥ
Ġë§Ī ì¼Ģ
êµ¬ ë¯¸
ë¹ Įë¦¬
Ġëªħ ëĭ¨
ĠìķĦì ¸ł
Ġìĺ¤ë¡ľ ì§Ģ
t e
Ġë²ł íħĮë
íĪ ¼
Ġìļ° íĺ¸
ĠìľĦë ¡ľ
ĠëĤĺ íı´
ĠìĽĲ ìĪŃ
íļĮ ìĤ¬
as h
ĠìŀĲìĿ´ìĸ¸ ì¸ł
Ġì·¨ ìĹħ
ĠìĿ´ ë¸Į
ãĤ £
i b
Ġê³ł ê°Ŀ
Ġê¸° ë¬ĺ
êµ¬ ëĤĺ
íķĦë įĶ
o v
Ġì¤ĳ ëŁī
ëį° ìĬ¤
Ġì§ĳ ê¶Į
ľ ¨ë¦¬
ĠìĦ¸ ê¸Ī
Ġê¶Į ìľł
Ġìļ°ì£¼ ìĦł
ĠìĽĢì§ģ ìŀĦ
Ġê´Ģ ìĹ¬
Ġê¹Ģ ëĳĲ
ĠíĬ¸ ìľĦì¹ĺ
¡ľ ë´ĩ
ĠëĿ¼ íĭ´
Ġë©ĺ íĬ¸
Ġë¯¸ëĵľ íķĦëįĶ
5 2
Ġê³ł ë¸Ķë¦°
Ġê¸° ê°ĳ
Ġëģ ĵ
ì½Ķ ìĸ´
ĠíĥĢ ì¸ł
ĠB r
Ġë°Ķ ë¡ł
ĠìķĪ ìĭ¬
íĬ ľ
Ġìŀ¥ ë¯¸
ĠìĹ ½
Ġë°° ëł¤
Ġê°ģ ìĺ¤
ìļ° íĬ¸
Ġìľł ìĸ¸
ìĿ¼ ì¦Ī
Ġë²ķ ì¹Ļ
Ġìĸµ ìłľ
R E
ĠìĿĺ ìŀ¥
ĠìĪĺë¹Ħì Īĺ
Ġìĺ¤ íĶĦ
ĠëĶĶ ë°Ķ
ħ ìĬ¤
ãĤ ¸
¯ Ķ
Ġìŀ¥ ìĦ±
Ġê³¨ ëłĺ
ìĸ´ ëĵ¤ìĿ´
Ġê²½ ë¶ģ
ì¸ Ħ
ĠìĤ¬ ê´Ģ
ĠìłĦë ıĻ
Ġì´ī ìĪĺ
ĠëĤł ëĽ°
Ġíŀ Ļ
ow s
ĠëłĮ ì¦Ī
ĠìĿ¸ ìļ©
Ġì½Ķ ë¥´
Ġíĳľë ©´
Ġíķĺ ì¸ł
Ġì§Ģ ëª©
Ġìĺ¤ ëĶĶ
Ġ un
Ġìĺ¤ ëįĶ
Ġì°½ ëĭ¨
m ent
Ġê³¼ ìŀĲ
Ġìĺ¤ ëĿ½
Ġë¶Ģ ê°Ģ
íĤ¤ ë¦¬
ĹĲ ìĸ´
ĠìĬ¹ ì°¨
Ġíģ´ ë¡ł
Ġë© ľë
Ġê±° ë¡ł
Ġê´Ģ íķł
Ġ198 5
ĠíĿ° ìĥī
Ġë§Į ì§Ģ
ĠìĹĺë¦¬ ìŀĲ
Ġì§Ģ ìĹ°
ĠíĮ¨ íĤ¤ì§Ģ
Ġb y
Ġï¼ Ł
ĠíŀĪë ©Ķ
Ġë¶Ģ ëıĻ
Ġë£¨ ë¹Ħ
ĠíļĮ ìĥī
Ġì°½ ìĽĲ
Ġë²Ĺ ê¸°
Ġíķ ¸ë
ĠíĽĦë°ĺ ê¸°
å ±±
ĠìĥĿ ìłĦ
Ġë°° ì¶ľ
ì°¨ ê¸°
ĠìĬ¹ ìŀĲ
ĠìĦł ìĤ¬
Ġì£¼ë ĭĪìĸ´
Ġê·¼ ìĽĲ
Ġìľł ìĦ±
ĠìĨĮ ìļĶ
Ġë©´ ìłģ
Ļ Ģ
ë³ ¼ë
ĠìķĮëł īìĬ¤
Ġìĸ¼ íĭ°
Ð µ
Ġí į½
ĠC S
Ġê°Ħê°Ħ íŀĪ
Ġì²ľ ìķĪ
Ġê°Ģ ëĿ¼
ìķĦì ĸ´
Ġìĸ´ì© Įë©´
Ġë¡ľ ë¦¬
ĠB B
on d
Ġìľ¼ëĿ¼ ê³ł
ĠìĿ´ ëĭĪ
ĠíĮĮ íİ¸
Ġëħ¸ë °Ķ
ì¶ ¤
Ġëª¨ ëĵ
p s
íŀĪ íĨł
ĠìĥĪë ĪĦë¦¬
Ġ196 0
Ġì¤ĳ ìłĲ
Ġ8 1
Ġëħ¸ ê°Ģëĭ¤
ĠâĨ Ķ
¤ Į
ì¹´ ë¥´
ĠíķŃ êµ¬
ĠëĲĺ ìĤ´
íķĺ ìĭľ
ĠìĹŃ ëŁī
ĠíĬ ¼
Ġì§Ħì ĹĲìĸ´
Ġíĭ ´
ìķĦë ĭĪ
ìĦ¸ë ĮĢ
íĥ Ħë
Ġìłģ ì¤ĳ
ìĽ °
Ġëł ī
ĠL P
Ġíį¼ íı¬
Ġíĥľ íģ´
ĠëıĻ ëĤ¨
ĠíĽĦ íļĮ
ĠìĦł ìŀ¥
Ġì´Ī ìĿ¸
Ġìķ¼ë§Ī íĨł
ìķ ŀ
Ġë³Ģ ìŀ¥
Ġìĸ´ìķ¼ ì§Ģ
Ġíĥľ êµŃ
Ġë³´ëĿ¼ ìĥī
Ġë¡ľìĸ Ħ
Ġì§Ģ íĸ¥
Ġì¹´ ì¸ł
ĠìŀĲ ëħĢ
ĠíĮĮë ıĻ
ĠíĮĮë ©¸
ĠíĻķìŀ¥ íĮ©
£ ©
Ġê´Ģ ì¸¡
Ġíľ´ ê°Ģ
Ġë¨¸ë ¬¼
íĬ¸ë ¡ł
Ġë°± ìĹħ
Ġë² Įë¦¬
Ġë°ľ íĸī
ĠìķĦ ìķ¼ë
Ġìķ½ ë¬¼
ĠíĨł íģ¬
ãĤ¤ ãĥ
Ġëª¨ íĨł
ë£ ¸
ĠìĿĳ ìļ©
ot h
ĠëĿ¼ëĵł ê°Ģ
Ġë§ī ê°ķ
Ġë³µ íķ©
Ġë¶Ģ ì°©
Ġë¹Ħ ê·¹
ĠíĨł ë¦¬
ãĤ Ń
ĠëĶĶ ìķĦë
ĠìĬ¤ë¯¸ ìĬ¤
ĠëĲĺ ëıĮ
íı¬ ìĬ¤
Ġìķ¡ íĭ°ë¸Į
ìĭ¸ ìĿ´
ĠìķĪë ħķ
Ġì¶ľë £¨
å¤ §
ë¯¸ ìķ¼
Ġëıħ ìłĲ
ĠëģĮ ìĸ´ëĵ¤ìĿ´
Ġë²¤ ì¹ĺ
Ġíı¬ ëĵľ
ĠíĶĮë Ł¬ìĬ¤
Ġì¢Į ìłĪ
19 9
ĠìĬ¤ íĥľ
ĠìĦ± ëĭ¹
Ġë³´ íĹĺ
ìĬ¤ íĨłë¦¬
ĠìķĦìĬ¤ ì¹´
ĠL I
ĠìĪľ ìĸĳíķ¨
ĠíĿ¡ ìĤ¬
ĠìĬ¤ íķĢ
ĠìłĦì ĥĿ
Ġíķ© ëıĻ
ĠìĬ¬ ëłĪìĿ´
Ĳ ëŁ¬
Ġëĭ¤ ì§Ģ
Ġìłľ ì¹ĺ
ĠâĢ »
Ġ as
Ġì¼ĢìĿ´ ë¸Ķ
ĠíĹ ¨ë¦¬
Ġìķ¼ ìĪĺ
ë°Ķ ëĭ¥
ĠíıŃ íĮĮ
íĭĢ ëŀľëĵľ
Ġê¸° ëł¥
ĠìĦ± ë³Ħ
Ġë°ĺ ê°Ĳ
ĠìĪĺ ìĽĶ
ĠëĮĢ ëł¹
ĠìĹ¬ëŁ¬ ë¶Ħ
O U
Ġìłľë ¬¼
Ġ5 000
Ġ16 0
ic al
Ġëª¨ëĵ Ī
ĠëĤĺ ë¹Ħ
Ġì½Ķ ë©ĺíĬ¸
Ġìĭ¤ ìĥģ
Ġë¡¤ ëĵľ
ëª ¹
Ġë³µ ìĦł
Ġæ Ī
8 8
Ġë§Į ì£¼
ĠìĦł ì¶ľ
Ġë£ ©
ĠìĬ¤ìľ Ļ
íĿ Ķ
ĠSt ar
ë¹ µ
ĠP R
Ġìĭľë¦¬ ìķĦ
ĠW ind
Ġìĸ´ëĵľë²¤ ì²ĺ
ìŀĲ ìĻĢ
Ġë¹Ħ ìĬ¤
Ġë°ķ ë¬¼ê´Ģ
ĠíĬ¸ëĿ¼ ìļ°ë§Ī
ë Ŀ
ŀ Ļ
Ġëª¨ ì§ĳ
Ġíħ Ģ
Ġëł¤ ëĭ¤ê°Ģ
Ġë°ĺ ëıĦ
Ġë¹Ļ ìĿĺ
T S
ĠëıĦ ê¹¨ë¹Ħ
Ġì¶ľ ìĤ°
Ġìĩ¼ íķĳ
Ġê°Ħì £¼
ĠíĽĦ ìŀĦ
Ġì°½ ìĦ¤
ĠìĤ¬ íĪ¬
íı¬ ëĵľ
Ġíķĳ íģ¬
4 00
Ġìł ĸ
ĠìĿ¼ ê°Ģ
ãģ ķ
ĠíķľêµŃ íĮĲ
ë¡ľ ê·¸
ĠíĻĶ íķ´
ĠìĥĪëĪĦë¦¬ ëĭ¹
ĠëĿ¼ë ĭĪ
ë§Ī ìĿ´
ãģ Ĥ
é Ģ
é Ľ
Ġìī´ ëĵľ
ìķĦ íĶĦ
ĠU P
Ġìľł ê¸°
ĠìºĲ ì¹ĺ
Ġê» į
Ġíķ´ë³ĳ ëĮĢ
Ġíģ´ ë¦°
Ġíı´ ë¦¬
Ġíĥľíıī ìĸĳ
ìĬ¤ íĥĦ
ĠìĨĮ íĨµ
Ġm y
# #
Ġëł Ľ
ìĹĲ ë¥´
Ġëĭ¥ ì¹ĺ
ĠìĿĦ ìĪĺë¡Ŀ
Ġìľł íĺ¹
ĠíĬ¸ë¦¬ ê±°
ĠìĹĦ ê²©
Ġëĭ¤ìļ´ ë¡ľëĵľ
ĠìĿ´ íĨł
Ġìĭľ íģ¬
ĠëıĻ ê²½
ĠC F
Ġë°ľ ëłĮ
Ġë³µ ìĽĲ
ì¿ł ìĬ¤
1 00
Ġìĥģ ìĦ¸
Ġì´Ī ì½ľ
Ġì°¬ ìĦ±
ĠìĤ¬ë¬´ ìĭ¤
Ġë³´ ê±´
ìĺ¤ ê³µ
Ġ8 3
ë°ĺ ëĮĢ
ĠãĤ Ĭ
Ķ ĺ
ĠìĿ¸ ìŀ¬
ĠíĪ¬ ìĤ¬
Ġë ĩ
íģ¬ ëĿ¼ìĿ´ëĤĺ
Ġìļ° ë¥´
Ġíĳľ ìłĪ
Ġìĭł ìļ©
Ġê°ķ ë¦¼
Ĥĺ ëĿ¼
ĠìĦ¼ ìĦľ
Ġê²°íĺ¼ ìĭĿ
Ġth at
Ġê³µ ê°Ĳ
ĠëıĻ íĸī
ëħ¸ ìĬ¤ì¼Ģ
Ġëį© ìĸ´ë¦¬
Ġê·¸ëŁ¬ ë©´
ĠíĮĮë ¥´
ĠíĨµ ì¹Ń
ĠìłĦë Ŀ½
ĠíĿĳ ìĹŃìĤ¬
ĠìĪĺë¡Ŀ ê³¡
Ġyou r
Ġë¶ ĦëĮĢ
Ġë°° ìłľ
íİ Ģ
Ġìķ¼ ì¿ł
Ġíĺ Ģ
Ġìŀ¥ íĥĢ
Ġìĥ¤ ìĿ´
Ġêµ´ ìļķ
4 1
íķĺ ìĿ´
Ġìĸĳ ë°ĺ
Ġíıī íĥĢ
Ġë¬¼ íĴĪ
Ġë¡ľ ë²ĦíĬ¸
Ġëĭ¨ ê²Ģ
Ġë²ł ë¦¬
Ġì¤ĳêµŃ ìĸ´
ĠìĭĿ íĴĪ
Ġíį¼íı¬ ë¨¼ìĬ¤
Ġì¤ĳ ìĪľ
Ġíģ¬ ëłĪ
ĠìĹ° ê³ł
ì¦Ī ì¹´
Ġì¶ľë ²Ķ
Ġê¹ĥ ë°ľ
Ġë§Ī íĬ¸
Ġê¸ Īë©Ķ
Ġìĭ¤ìĭľ ê°Ħ
Ġìį¬ ëįĶ
Ġë§Ī ëĵľë¦¬
Ġì¤ĳ ìĦ¸
ĠìĬ¹ ì§Ħ
Ġ14 0
ĠíķĺìĿ´ íį¼
Ġì§ģ ìĦł
ĠíĨł ë§Ī
Ġì¹ľ ìłĪ
Ġì½ĺ ìĨĶ
Ġì§ķ ê³Ħ
Ġ198 4
Ġìĺ¤ë¸Į ìłĿíĬ¸
Ġìłķ ìĦĿ
Ġë²łíħĮë ŀĳ
êµĲ ìľ¡
ĠN E
ì§Ģë§ī ì§Ģ
ëıĦ ìĭľ
ĠìĦ± ìĭ¤
Ġì¶Ķ ë°©
Ġíĺķ íİ¸
Ġì¡° ì¹´
íİĺ ìĿ´
íĺ¸ë ıĦ
ĠíĹ Īë¬´
Ġìŀł ìĭ¤
æ µ
Ġê²Ģ ìĿĢìĥī
Ġíį¼ ì¦Ĳ
ĠìĬĪíį¼ë ¡ľë´ĩ
Ġë¬´ ì§Ģë§īì§Ģ
ëģ ¼ë¦¬
Ġê°ľë°ľ ìŀĲ
Ġë¶Ģ ëģĦëŁ½
Ġíĺ¸ ìĿĺ
ĠP r
Ġãģ ĵ
Ġíķĺ ê¸ī
ĠTV A
ĠìĿ´ìĬ¤ ëĿ¼
ìł Ħì²
Ġì§Ģ ìĤ¬
łĪìĿ´ íĦ°
Ġìłľ ìŀ¬
å º
Ġíķľ ì°½
Ġì¡° ìĥģ
ĠJT BC
ĠìĽ °
ĠU N
ëĪ Ħë
Ġãģ ķ
Ġëĭ¨ ì¢ħ
Ġë» ¥
ĠíıŃê²© ê¸°
ĠìĹĲ ê·¸
íĥĢ ìŀħ
ĠìĹ¬ ê³ł
ãĤ ĥ
ëģ Ĺ
ĠìĿ¸ ìĬ¤íĥĢ
Ġìļ° íģ¬ëĿ¼ìĿ´ëĤĺ
ĠìĹŃ ìŀĦ
Ġ7 3
ĠìĨĮíĶĦíĬ¸ ìĽ¨ìĸ´
I M
Ġì¤ĳ ì§Ģ
Ġê²Ģ ìĹ´
êº ¼ë
Ġëıĭ ë³´ìĿ´
Ġ9 2
ê·¸ë Ŀ¼
âĹ ĭ
Ġ z
ĠëıĮë ³´
ìĽĶ ëĵľ
íĢ ĺ
Ġë¶Ģ ìŀ¬
Ġê´ĳ ìŀ¥
ìħ Ģë¡ľ
ĠìĦ¤ ëł¹
ëª¨ ìĬ¤
Ġë§Īëĵľë¦¬ ëĵľ
I P
ĠìĽ Įë
Ġëªħ ëª©
ĠáĨ¸ ìĭľìĺ¤
Ġë¡ľ ë¹Ī
ìĿĺ ìŀĲ
Ġì¦Ŀ íıŃ
Ġê³µíĨµ ìłĲ
oo k
ĠëıĦ ìŀ¥
Ġìĭľ ìĿ¸
er o
4 2
Ġìĭľ ì¹´
ë »
20 16
Ġì¶ľ ê°Ħ
ìłľ êµŃ
ĠíĬ¼ íĬ¼
ì¸ł ì¹´
ĠìĻķ ë³µ
Ġëı Ķ
Ġë¹Ħ íĭĢ
ĠìĿ¸ë ¯¼
ĠëĤĺ ëħ¸
Ġëĵ± ê·¹
ĠìĨĲ ìĺ¤ê³µ
ĠíĦ° íĬ¸ë¦¬
ĠìķĦìĿ´ ìĸ¸
Ġìŀī ìĹ¬
ĠëĿ¼ ìĬ¤
Ġì¤ĳ ìľĦ
ëĭĪ ì½Ķ
Ġãģ £
Ġë§ĪìĪł ìĤ¬
ìļ° ëĿ¼
Ġê²½ ì£¼
Įë¦¬ ìĸ´
Ġì°¨ ì²´
Ġíĺ¸ ìĨĮ
Ġ12 5
ĠíĶĦë¡ľ íķĦ
Ġ15 00
ro w
ĠëĮĢ ìłĳ
ĠìŀĲ ê¾¸
Ġìĥ ¬
ĠìºĲ ìĭľ
Ġê´ĳ ê¸°
ĳ ĳ
Ġìĥģ ë°ĺ
ĠíĶ¼ë ¡ľ
Ġê³µìĤ° ëĭ¹
Ġìľł ìłĦìŀĲ
Ġìŀ¥ ë¡ľ
Ġìļ° ìĿµ
ĠìĨĲ ê¼
am p
ĠíĹ ·
L E
ë ĥ
Ġì§Ģ ìĿ¸
Ġë©ĭ ëĮĢë¡ľ
Ġê°Ģ ëĤľ
ĠìĨĲ ìŀĲ
Ġê¹İ ìĿ´
ĠM B
ë°Ķ ëĤĺ
Ġæ Ĺ¥
Ġé Ľ
Ġë¶Ģìŀĳ ìļ©
Ġê°Ģ ëĭ´
Ġìĸĳ ìŀĲ
ĠëįĶë¶Īìĸ´ ë¯¼ì£¼ëĭ¹
ĠìĹ° ìĤ°
ĠíĨł íģ°
ë° ľë
Ġ7 1
le ct
ĠëĭĮ íħĲëıĦ
ìĬ Ĳ
ĠP h
ëĵľ ë¦½
ë¶Īë ªħ
Ġì¹´ ì§Ģ
ĠìĤ¬ íĩ´
Ġìĸĳ ìĨĲ
å Ĭ
ĠíĶĦë ŀĢ
ì² ¼
ëį° íĥĢ
Ġíİ ´
ëĭĪ ì¹´
Ġë³Ģ ìĪĺ
Ġì¶ķ ìĨĮ
ì£¼ìĿĺ ìŀĲ
r on
Ġë¡ľ ìĿ´
ĠìĪĺ ë¹Ħë
ìĻ ¸ë
Ġì¶Ķ ìĦ¸
ĠìĬ¬ ë¡ľ
Ġíĩ´ ê°ģ
Ġìķł íĶĮ
Ġíķ´ ë¨¸
ìķ ī
ĠìĬ¹ ìĿ¸
ç ļ
ĠS F
Ġìŀ¥ëĤľ ê°Ĳ
Ġë°ķìłķ íĿ¬
Ġìĥģ ë¥Ļ
Ġì¡° íļĮ
Ġë¹Ħ ë¦¬
Ġì¹¨ ëĮĢ
ĠëıĦ ëĿ¼
Ġìľł ëĤĺìĿ´
Ġê¸ī ìĭĿ
Ġn e
Ġì½Ķ íĬ¸
Ġê³ł ë¦¬
Ġì¹ľë ¶Ħ
ĠêµĲê³¼ ìĦľ
Ġëħ¼ë ¬¸
íĿ ī
íĳ ¸ë
ĠìĨĮ ê¸Ī
Ġê°ľ êµŃ
ë°Ķ ì§Ģ
in k
Ġì²« ì°¨
Ġê·ľ ìłľ
ĠíĺĪ ìķ¡
å Ľ
ĠìĤ¬ ìķħ
Ġë²Ī ì§Ģ
ĠíĹ¬ ë©§
Ġì§ Ļ
ĠìĺĪ ìķ½
íħĮ ë¦¬
ê°Īë Łī
ĠìĿ´ìĬ¤ëĿ¼ ìĹĺ
Ġì¹ĺ ìķĪ
ĠìłĲ ê²Ģ
ĠâĶ Ģ
o on
ĠO VA
Ġìĺ¤ ë©Ķê°Ģ
Ġê°ľë ³Ħ
Ġê·¸ ë¦ĩ
ĠìķĦë ¯¸
Ġìŀ¬ íķĻ
Ġë¸ĮëĿ¼ìĿ´ ìĸ¸
ĠìľłëĤĺìĿ´ íĭ°ëĵľ
§ Īë
Ġë¶Ģ ìľł
ĠíĥĲ ì§Ģ
Ġëĭ¨íĸī ë³¸
Ġì§Ģ ë¶Ģ
Ġìļ© ìĿ¸
Ġìķ °
Ġì¤ĳ ëıĻ
ĠA A
Ġê¹Ģ ìĥģ
Ġì²´ ê²°
an s
ĠìĽĲìĪŃ ìĿ´
Ġë¶ Ĳ
Ġìłķ ë°ĺëĮĢ
Ġë¦¬ ìĺ¤
¼ë§ ¨
Ġëĥī ìłķ
Ġìŀ¥ ìĭł
Ġë¸ĮëĿ¼ ìļ´
ä¸ Ģ
ãħ ĭ
ĠíĹĿ ê°Ģë¦¬
ë°Ķ ìķ¼
ĠF ate
Ġíķľë °ĺëıĦ
Ġê°ķ ëł¬
Ġê·ľ ê²©
é ĸ
ìłķ ë¶Ģ
ĠìĽĲ ëįĶ
Ġê²° ìłľ
ìĥĿ íĻľ
Ġë³Ģ íĥľ
ĠL V
ĠãĤ ¢
Ġìľ¼ëł¤ ëĬĶ
5 3
Ġíĥ Ħë
4 3
Ġë§Ī ìĬ¤
or m
Ġëį° ëª¨
Ġì¹´ ìŀĲ
Ġê¹Ģ ìļ©
Ġë©´ íĹĪ
Ġìĸ Ģ
Ġêµ¬ ë³Ħ
ê¶ Ĳ
Ġì¤ĳ ìĥģ
Ġë¸Ķ ëŀĺ
Ġë¸Ķ ëŁŃ
ìķĦë Ŀ¼
uc k
A P
ìĭľ ë¡ľ
Ġê¸ ģ
ĠíıŃ ë¡ľ
Ġì²Ń ì£¼
ĠáĨ« ëĵ¤
ĠìĿ¼ ìļĶìĿ¼
ĠáĨ¸ëĭĪ ê¹Į
ĠE S
ĠìŀĦ ê¸°
ĠìĹĲ ë¡ľ
ê¸ ´
Ġíİ Ń
Ġì£Ħì ±ħ
Ġì£¼ ê´Ģ
ĠìĿ¼ ì»
Ġíķ´ ìĸĳ
Ġë¶Ħ íķ´
Ġëįķ íĽĦ
ĠìĻ¼ ìĨĲ
ĠíĬ¸ëłĪìĿ´ ëĦĪ
ĠìĤ¬ ìķ¼
Ġì°½ ë¬¸
Ġë¶Ī íĥľìļ°
ĠìĿ¼ì» «
p t
ëĵ¤ ë¦¬
ĠëĶ ¸ë¦¬
ëĭ¤ ìļ´
Ġìķ¼êµ¬ ìŀ¥
Ġíĺľ íĥĿ
ĠíĶĦë¦° ìĦ¸ìĬ¤
Ġëĭ¨ ê¸°
ĠìķĦì ²
Ġìĭ¸ ìĿ´
ĠëĤľ ìĤ¬
Ġì¹¨ íĪ¬
Ġì£Ħì±ħ ê°Ĳ
ĠìłĦ ê²©
ĠO n
¥ ¼
ĠíŀĪ íĭĢëŁ¬
ĠíĻķ ìĤ°
Ġëª ¸ë
Ġëª¨ ìŀĦ
ĠìŀĲìľł íķľêµŃëĭ¹
Ġíı¬ ìĬ¤íĦ°
Ġê³ł ê°Ģ
ĠìŀĶ ìĿ¸
ĠíĮ¨ ëĦĲíĭ°
Ġì§Ħ ê¸ī
Ġì¢ħ ê²°
Ġë£¨ íĶĦ
íĶĮë ŀĺ
ĠíĶĦë¦¬ë¯¸ ìĸ´
Ġìĺ¤ ìĿ´
ĠìĿ´ ëª¨
ĠìĤ¬ ë¦¬
ĠìĦ¸ ë¦¬
ì į
ĠFI FA
ë¦¬ ìķĪ
ĠìĤ¬ ë²ķ
an k
Ġëª¨ëĭĪ íĦ°
Ġìľłìŀ¬ ìĦĿ
Ġë¹Ī ëıĦ
ĠìĦľ ë¦¬
Ġëĵľë £¨
en s
Ġë§Įë £¨
ĠìĹĲ íĶ½
ĠìĪĺ ìĭľ
ì½ ¥
Ġì¡´ ìĬ¤
Ġé ģ
ìĦľ ìļ¸
Ġìĺ¤ ì£½
Ġìłľ ê°ĪëŁī
Ġ9 3
Ġë°©ìĨ¡ êµŃ
Ġê·¸ëłĪìĿ´ íĬ¸
ĠìķĦ ê¹Ŀ
ĠíĨł íķĺ
Ġíķł ë¦¬
Ġë¯¼ì£¼ ì£¼ìĿĺ
Ġë²Ļ ì»¤
6 6
í īģ
Ġãģ Ĭ
Ġê°ľ ì²Ļ
ĠK R
ĠíĮĮë ŀĹ
ĠìĪĺë¹Ħë ł¥
Ġë§ŀ ë¶Ļ
ĠëĤľë ¬´
Ī ĦìĬ¤
Ġìĭľ ë®¬
Ġìľł ë£Į
ĠG O
ì¹ľ êµ¬
ĠìŁ Ī
ìĦ¼ ìĬ¤
ĠìķĦìĭľ ìķĪ
Ġê¹ĢëĳĲ íķľ
Ġìĸ´ ìĥī
Ġìĺ¨ ëıĦ
ì ı
ĠëłĪ ìĿ¼
Ġì±Ħë ³´
Ġë¦¬ ëĿ¼
Ġ9 00
Ġë©į ì²Ń
Ġë³´ ì¢Į
ĵ¤ ìĿ´
Ġë¯¸êµŃ ìĿ¸
ĠëĪ Į
Ġë§Ī ìľł
ĠíŀĪ ëĵł
Ġë§Ī ê³Ħ
ĠS up
ĠíĬ¸ë ł
ĠìĹ¬ ìĿĺ
ĠìĻ¸ ìļ°
ì£¼ìĿ¸ ê³µ
ĠìŀĲ ìłľ
Ġìķ½ ìŀĲ
Ġì²ľ ìĹ°
íİĺ ë¥´
Ġì¼Ģ ë¹Ī
ĠAn d
ĠìĹĲ ìĿ´ì§Ģ
Ġê±° ëĵł
Ġì¡° íĻĶ
ëĶ ±
ëĬĲ ë¦¬
M S
ĠëıĻ ë°ĺ
ĠíĮ¨ ìłĦ
ãģ ¿
ĠìĬ¤íĬ¸ë¦¬ íĬ¸
ĠëĤŃ ë¹Ħ
ĠëĮĢ íĸī
ëĤ ľë
Ġê½ ī
ĠíĥĢìĿ´ íĥĦ
Ġìĭľ ë¹Ħ
ĠìĬ¤ íİł
Ġë§¤ ëĭĪìķĦ
ìħĶ ëĦĲ
ìĿĺ íļĮ
Ġê²Ģ ì¦Ŀ
Ġê°ķìĽĲ ëıĦ
! !
C G
ĸ ¸
ĭĪ ìĬ¤
Ġë³ ¶
Ġê°ķ ê²½
Ġìļ° ì¸¡
20 15
Ġêº ¼ì§Ģ
ĠìĥĿ ì²´
Ġê°ľ ìŀ¥
ĠìĬ¹ ë¥ł
ĠìľĦì ĹĦ
âĨ ĵ
Ġëį°ìĿ´ë¹ Ħëĵľ
Ġìĭľ ëĿ¼
ĠêµĲ ë³µ
ĠìĨĲ ìī½
ë© ľ
ĠìĬ¤íĬ¸ëĿ¼ìĿ´ ì»¤
Ġê³ł ìĿĺ
ìĹĲ ìĦľ
ĠëłĪìĿ´ ëĶĶ
Ġs e
ĠíĴĪ ì§Ī
Ġë īĺ
Ġíķĺ ìĹ¬
Ġê¸° ë¶Ģ
Ġë°° ìĹŃ
ĠíĴ ĭ
Ġì²« ì§¸
Ġë¯¸ëĤĺ ë¯¸
Ġë¡ľ ìłľ
Ġíĺ¸ ê¸°
Ġìłľë ıħ
Ġê¼¬ ë§Ī
ĠìĹ¬ íĥĢ
ĠìĦľíı¬ íĦ°
Ġìķķ ê¶Į
Ġíķ´ ìĤ°
5 1
Ġì§Ģ ìĺ¤
ĠáĨ«ëĭ¤ ê±°ëĤĺ
ĠìĤ¬ ë¦½
Ġëĭ¤ íĪ¬
Ġ9 1
Īë² Ī
ĠD C
ĠI N
ĠìĦ¸ìĽĶ íĺ¸
ĠêµĲ ë¦¬
Ġë³Ģ ëªħ
Ġãģ ı
Ġë´ī ìĩĦ
ìĿ¸ë ³´
íİĺ ëĿ¼
o h
ĠëĨ Ķ
íı¬ íĬ¸
Ġë°Ķë ĳĳ
æ ³
ĠëłĪ ìĺ¨
Ġë²Ħ ìĦľ
Ġì¶© ëĤ¨
Ġ198 3
ĠíĹ· ê°Īë¦¬
Ġë¶Ī ìĮį
Ġå Ī
ĠìķĦë°Ķ íĥĢ
Ġë¡ľ ë³´
Ġë¦¬ ì¦Ī
Ġì½ĶìĬ¤ íĬ¬
ĠìŀĬ íŀĪ
ł Ļ
ĠíĻ Ģë¦¬
ĠìĻľëĥĲ íķĺë©´
Ġê³ł ìĤ¬
Ġìĭľ ìĥģ
Ġìľł ìŀħ
íŀ Īë©Ķ
ê¸° ìĹĲ
Ġë¶Ģ ê·¼
ĠìķĦë¬´ íĬ¼
Ġë²Ķ ìļ©
ìĭ± íĦ´
Ġì²ł ê¶Į
Ġìĺ¨ ì²ľ
ĠëĤ© ëĵĿ
ìłĦ ìĦ¤
ë¯¸ë Ĥĺ
ĠâĻ ª
ĠìĿĺ íķĻ
Ġìļ° ìĹĲ
Ġê¹Ģ íķ´
ĠíĨł ìļĶìĿ¼
Ġê°Ħ ìĦŃ
ĠìŀŃ ìĬ¨
Ġê¸Īë©Ķ ëĭ¬
Ġëĭ¤ íģĲ
Ġìĭ¤ íĺĦ
Ġëªħ ë¬¸
ãģ ¤
ĠìķĦ ì§Ģ
ĠP K
Ġë§Ī ëĭ¹
ĠíĪ¬ ìŁģ
ĠìĿ¸ë ²¤
Ġ198 2
ë²ł ìĿ´
ĠíĻķ ìĭł
ĠíŀĻ íķ©
Ġì´Īì½ľ ë¦¿
Ġìĭ¤ ì²´
Ġëħ¸ ìĬ¤
ĠíĤ¤ íĥĢ
æ °
Ġíķ© ìŀĳ
Ġê·¹ íķľ
Ġì¸ł ë°Ķ
ĠìľłëĭĪ íģ¬
I I
Ġê¶ Įë
ĠìĤ¬ íĤ¤
ĠìŀĲ ì¡´
Ġêµ¬ì¡° ë¬¼
ĠG o
ĠíĺĪ íĨµ
ĠNe w
ë§Ī ë¥´
ëłĪ ëĤĺ
Ġìļ°ë¦¬ ëĤĺëĿ¼
ĠíĬ¸ ìľĹ
ĠíķĻ ëĮĢ
ĠìĦł ì¡°
ĠëĶ° ëľ»
ĠíķĺëĤĺ íķĺëĤĺ
Ġìŀ¡ ê¸°
Ġíķĺ ì§Ģ
ĠëıĦ íĬ¸
Ġê¸° ì°¨
Ġìĭł ìŀĳ
ĠíĬ¸ë¡ľ íĶ¼
ĠìķĦë łĪëĤĺ
Īë² Ħ
¼ ìĭľ
Ġìļ° íļĮ
íĨł ëĭĪ
ĠM F
ĠíĥĦ íķµ
Ġë§¤ ëĭ¬ë¦¬
Ġíı¬ íĦ°
å ¾
ĠëĿ¼ ê·¸ëĤĺ
Ġì¶ľ íĺĪ
Ġå Ń
ĠíĽĦì ľł
Ġíĺĳ ì¡°
Ġì£¼ ìµľ
Ħìĥ ī
ĠìĿ´ ìĪľ
Ġê°ķ ë¯¼
ĠíĶĦë ¡ł
Ġëĭµ ëĭµ
Ġìĩ¼ íģ¬
un g
Ġëªħ ë¶Ħ
ĠìĦľ ë¥ĺ
Ġ18 8
Ġê·Ģ êµŃ
ĠëĬ¥ëł¥ ìŀĲ
Ġê²Ģ ìłķ
Ġì¼Ģ ìĿ´íģ¬
ç Ľ
íĪ ´
« ĺ
ĠìĻĢ ì¹´
Ġê·¸ë Ŀ¼ë
Ġs p
ĠíĿ¡íĺĪ ê·Ģ
i er
Ħ Ľ
Ġë¦¬ ìĤ¬
íĨł ë¯¸
ĠíĹ ¥
ë± ĥ
Ġíķĺ ë°ĺ
Ġê´Ģ ìļ°
Ġ! ?
ĠO N
ĠíĻĢ ëĵľ
ĠìĤ¬ ë¡ľ
ĠìĪĺ ì§ģ
ĠìŀĲ ê°Ģ
Ġì¹ ¸ë
ë² Ħëĵľ
Ġíı¬ ì¦Ī
Ġ10 5
ĠS U
ĠìĹī ë§Ŀ
Ġë¹Ħ ê³ł
Ġìŀħ ë¬¸
ĭ ¥
ĠãĤ Ĥ
ĠíŀĪì¹´ ë£¨
ìħĢë¡ľ ëĤĺ
Ġë¯¸ë ıĦ
Ġì« Ĵ
ìłĦì ĨĮ
ik e
íħĮ ìĿ´ìħĺ
Ġêº ¼ë¦¬
íĭ ¸ë
ĠíĢ µ
ë¸Ķ ë¦¬
Ġìĥ Į
Ġëĵľë ¡ł
ĠíĻĺ ìĥĿ
ĠìłĪ ì¹ľ
ĠíĶĦëĿ¼ ìŀĦ
ĠìŀĲ ì¹Ń
ĠB PM
ĠW i
Ġì¡°ì¢ħ ìĤ¬
Ġë°©ìĤ¬ ëĬ¥
Ġì¤ĳ ê±°ë¦¬
ĠI M
Ġâĸ ł
Ġëĭ Ľ
ë²ł ìĿ´íĦ°
ë¹Ħì ¹ĺ
Ġê³ł ì§ĳ
ĠíĴį ê¸°
Ġì§Ħ êµ¬
ĠíĴį ë¶Ģ
Ġì§Ģ ëł¥
ĠìĿ¼ë łī
Ġê³µê²© ìĪĺ
Ġìĸµ ìļ¸
ĠìĬ¤ ë§¤
ë¡ ¬
Ġë©Ķ ìĿ¼
Ġì§ķ ìĹŃ
Ġìŀ¥ìķł ë¬¼
if e
ĠAl l
ĠëĤł ìĶ¨
ìĭľ ê°Ħ
ĠC ol
Ġê´ĳ ê²½
ëĿ¼ë ĭ¹
ĠëıĻ íķ´
ĠíĥĢ ìĿ¼
Ġë¶Ģ íĮ¨
en ce
ĠìŀĦ ìĿĺ
ëł Ļ
ĠëłĪìĿ¸ ì§Ģ
Ġâħ ¡
ĠìĿ´ìĸ´ ìĦľ
Ġ?? ?
Ĺ ħ
ĠìĪĺ ìľĦ
ĠìĨĲê¼ ½íŀĪ
Ġë§Ī ìĤ°
ìĸ Ģ
Ġë°± íĻĶìłĲ
ĠV er
as e
ĠìĽĲ íķľ
ìļĶ ë¯¸
Ġíķ¨ ëĿ½
ìĭľ ê³ł
ĠíķĻ ë²Ī
Ġìº £
ëĨ Ģ
Ġìĺ¤ë¥¸ ìĨĲ
ĠíķĻ ë¬¸
ë¹Įë¦¬ íĭ°
Ġí ģ°
Ġìŀ¥ ë¡Ģ
íĬ¸ë łĪ
Ġ198 1
Ġë°Ķë¥´ ìħĢë¡ľëĤĺ
ìĤ¬ìļ° ë£¨ìĬ¤
N A
Ġìľł ë¯¸
Ġìĭł ìĨį
ë§Ī ê·Ģ
Ġìĭ¤ ìĿĢ
ĠS w
Ñ Ģ
ì½Ķ íĶĦ
ĠìĿĮë £Į
Ġìľłìļ° íĤ¤
Ġëħ¸ë¬´ íĺĦ
å ¼
Ġêµ¬ ëıħ
Ġìĺ¬ ëĵľ
Ġì½ĶìĬ¤ íĶĦëłĪ
ĠKO F
ĠêµĲëıĦ ìĨĮ
ĠíĬ¸ë £¨
Ġê¸° ìĪĺ
Ġê·¼ë ĮĢ
Ġìĺģ ìĸĳ
ĠëıĻ ìłķ
ĠC H
Ġíĺ¸ ìĭľ
ĠI T
íķĺ ë§Ī
Ġëª¨ ìĿĺ
Ġë¦¬ë²Ħ íĴĢ
Ġê°Ģ íķ´
Ġíı¬ íļį
Ġê²½ì°° ìĦľ
ĠìľĪ ëıĦìļ°
Ġìĭľ ê°Ģ
p le
ĠìĬ¤ëĤĺìĿ´ íį¼
¸ µ
ê³ Ħë
ĠëĨį ìŀ¥
ł ´
ĠìĿ¸ ì¡°
Ġëª¸ íĨµ
Įë Ŀ¼
Ġíģ¬ ëĿ¼ìĿ´
Ġì¹ľ ì²Ļ
ĠíĻ© íĽĦ
ĠëĮĢ íĥĢ
Ġë¯¸ë Ł¬
Ġêµ¬ìĦ± ìĽĲ
Ġíıī ìłĲ
ì¶Ķ ê°Ģ
Ġë°° êµ¬
Ġê°Ĳ ìŀĲ
Ġê¶Į ìľĦ
ĠëĦ¤ íĭ°
Ġëĸ¨ ì¹ĺ
Ġíİĺ ìĬ¤íĭ°
Ġì§Ī ìĦľ
ãģ ĳ
ĠëĶĶ ì¦Ī
Ġëĵľ ëłĪ
Ġì§Ģ ìĪĺ
ĠìĤ¬ìĿ´ íģ´
ìĭľ ì¦Į
Ġë¯¸ ê¶ģ
Ġë°ľ ëłĪ
ê³µ ìĽĲ
Ġì§Ī ì£¼
ĠíĶ¼ë ĭĪ
ë Į
ëłī ìħĺ
ĠëĮĢ ìī¬
ĠìľłíĬľë ²Ħ
ĠìĤ¬ ì´Į
Ġìłķ ë¬¸
ĠíĺĦ ê¸Ī
ĠíĨł ëĮĢ
Ġãģ ¾
Ð ½
ĠìĤ¬ ì²ľ
Ġë°© íķĻ
Ġë©Ķ ìĿ´ì§Ģ
Ġê³ł ëĬĶ
ĠíĬ¹ ê³µ
st er
Ġëª¨ëį ¸ë§ģ
ĠìķĦìĺ¤ ìĿ´
Ġìĸ´ì§¸ ìĦľ
¢ ¨
ĠìĿ¼ ê´Ģ
Ġì¡° ë¥´
ĠëĤ´ ë°Ģ
Ġê°ķ ê°Ħ
ĠíĬ¹ ê¸ī
Ġë´ī ìĤ¬
Ġëºı ê¸°
ë¥¸ë °Ķ
ìĨĮ ì´Ŀ
íħĮ ìĿ´
ĠíĶĦë¡ľ íĨł
Ġë©ĺ ë¶ķ
Ġìµľ ìłĢ
ë°Ķ ë£¨
ë²Ħ ìĬ¤íĦ°
ĠO P
¼ë ¥´
ìĤ¬ ìĬ¤
Ġìĺ¤ ì§Ģ
Ġìĭ¤ ìĤ¬
Ġëĥ ¥
ç İĭ
Ġë§Ī ê¸°
Ġå° ı
A Y
Ġê±´ ì§Ģ
ëĦ¤ ìĭľìķĦ
ĠìĤ¬ë¡ľ ìŀ¡
ë ½
ĠìķĦë ²ł
Ġì²´ ì¤ĳ
Ġìĺ¬ ë°Ķë¥´
ĠìĦ¸ë Ŀ¼
Ġë¶Ħì Ĥ°
ĠìĬĪíį¼ë¡ľë´ĩ ëĮĢìłĦ
Ġë°° ìĪĺ
ì§ģ ìŀĲ
ĠëĮĢ ë³Ģ
ë³ ¸ë
ĠìľĦ ìķĪ
ĠM L
Ġëĭ ¦
Ġë§Ī ìĹĲ
ĠD F
Ġì½¤ ë¹Ħ
Ð ¸
ĠìłĦ íĸ¥
Ġì°¨ ê°ĳ
ĠìķĪ ìĸĳ
íħĮ ìĬ¤
Ġë¶Ģ ëŁ¬ì§Ģ
Ġìľł íĥĦ
Ġë§Įë Ĭ¥
Ġê²½ ìĹ°
Ġìŀħ ì¦Ŀ
Ġ al
Ġë¬´ íķľë
Ġìĸ ĩ
Ġëª° ìĤ´
o x
ĠìĿ´ ëĮĢ
¦ ¿
Ġìĸ´ ìĦ¤
Ġìĭł íĺķ
ĠíħĮë Ŀ¼
ĠìĿ´ ë¥¸ë°Ķ
Ġì§Ģ ë¡ľ
Ġë¦¬ ë°Ķ
Ġíģ¬ ëłĪìĿ´
Ġë§¤ ì¶ľ
ĠìĽĮ íģ¬ëŀĺíĶĦíĬ¸
Ġë¶Īë Ĭ¥
Ġë¦¬ íĭĢ
ĠìĿ¸ ì¹Ń
Ġìŀ¬ ê°ľ
Ġíıī ìĸĳ
Ġìĸ´ëĸ» ê²Į
ë² ĮëłĪ
ĠìĦł ëıĻ
ĠP P
ĠE d
Ġë» ĺ
Ġìļ´ëıĻ ìŀ¥
Ġì¤ĳ ê³ł
ĠìļĶ íķľ
ĠíĶ¼ ì§Ģì»¬
ĠìĹĶ íĬ¸ë¦¬
Ġw e
ĠáĨ«ëĭ¤ ëįĺê°Ģ
Ġë¶Ģ ìĬ¤
Ġì£¼ë ¨¸ëĭĪ
Ġëħ¸ë ŀĢìĥī
Ġâĸ ·
Ġê¸°ìĽĲ ìłĦ
Ġìłľ ìĻķ
íĥĢ ë§Ī
Ġê´Ģ ìŀ¥
Ġê±¸ ê·¸ë£¹
Ġë³¸ë Ĭ¥
Ġìĥģíķĺ ìĿ´
7 7
Ġìĥģ ê¸Ī
ĠëĦĺ ë²Ħ
Ġìĭł íķĺ
Ġíħį ìĬ¤
ST ER
Ġê¹ĢìĦ± ê·¼
ĠëĮĢ ë©´
Ġì£¼ ìĦĿ
Ġì§ĳ íļĮ
íĬ ł
íĬ¸ ë¦Ń
Ġì²ľ ìŀ¥
æ ī
Ġìĺģ ê°Ĳ
ĠìĿ´ìĸ´ ë°Ľ
IN G
Ġê°Ī ìĥī
Ġãģ Ī
ĠìĦ± ê²½
Ġìĭł ì¤ĳ
Ġë¬¸ ìĸĳ
Ġê·¸ë¦¬ íķĢ
ëł ·
Ġëª¨ ìĪľ
Ġêµ° ìĪĺ
ĠëĦĪë ¨¸
ĠìĦľìļ¸ ìĭľ
Ġê¸Ī ê°ķ
ìķĦë ¨¸
ĠìĿ´ëĿ¼ íģ¬
ĠìĹ¬ ìĦ¯
ĠìłĦë Ĥł
ĠëĦ¤íĭ° ì¦Į
Ġì¸ ¤
H z
Ġê°Ĳ íĥĦ
Ġíıī ìĥģ
ĠëıħìĿ¼ êµ°
ĠëıĦ ëįķ
Ġë°© ìĭ¬
Ġëĥ īìŀ¥
ì¿ł ë¦¬
Ġê³łëĵ± íķĻìĥĿ
ĠìĬĪíį ¼ë§¨
Ġìĸ´ ê¸°
ĠíĥĲ ìĤ¬
ĠTe am
ìł ¼
ĠãĢ ī
Ł° íĬ¸
Ġì·¨ ëĵĿ
Ġì ¾
Ġë°ĺ ìĦ±
ĠìķĶ íĺ¸
ĠíİĺìĬ¤íĭ° ë²Į
ĠìĽĲ ìĭľ
ĠãĢ Ī
ìĽĮ íĶĦ
Ġì§Īë ³ĳ
ĠAK B
Ġìĸ´ ë¹Įë¦¬íĭ°
ĠëıĦ ìĭ¬
ĠìĹ´ ìłķ
Ġë¸Ķ ëĿ¼ë
ëħ ĦëıĦ
Ġì´Ī ì¤ĳ
ĠëĪ Ħì
ĠíĪ¬ ê¸°
Ġìļķ ìĦ¤
ĠìĬ¤íĶ¼ ìĸ´
Ġìĸ´ ìĬ¤
íķĻ ê³¼
Ġìŀ¬ ìķĻ
Ġê¹Ģ ì¹ĺ
ĠìĤ´ ìĿ¸ë
Ġíİĺ ìĸ´
ĠìķĪ ìª½
Ġíĺ¸ íģ¬
ĠíıŃ ìĬ¤
ë³¸ ìĿ¸
Ġìļ ±
Ġìĸĳ ìĭĿ
Ġë¶Īë ©¸
Ġìľ¡ ìĥģ
ĠìĿ´ íĭĢ
ĠëģĶ ìĤ´
Ġíķľ ìĿ¼
Ġìĭł ì§Ģ
ìŁģ ìĿ´
ìļĶ ìĿ´
Ġê·¸ëł Ī
Ġë³´ê³ł ìĦľ
Ġë¹¨ê° Ħìĥī
ç «
ĠìĿ´ ìĻĢ
ĠìĬ¤ ëħ¸ìļ°
Ġì¹´ ëĦ¤
Ġíıī ë¡ł
Ġìłľ ì£¼ë
ĠëĤ´ ìĿ¼
Ġë°ĺ ì§Ŀ
Ġëħ¸ë ŀĹ
Ġì¹´ ë¦¬ìĬ¤
ĠìĤ¼ íĤ¤
Ġë¸ĮëłĪìĿ´ ì»¤
ĠìĨĮë ĵĿ
ëĭ¹ ì´Ī
ĠìłĦë ĭ´
ãĥ ¥
ou n
ì²ł ìĪĺ
Ġëħ¹ íĻĶ
ĠëĿ¼ ìĬ¤íĬ¸
ë°° ìļ°
Ģ ħ
Ġëĵľë¡ľ ìļ°
Ġì² ¼ìĭľ
ĠìķĦë Ŀ¼ë
ĠF M
Ġëį® ì¹ĺ
Ġíķĺ ë§Ī
ëĤ Ļ
Ġíŀĺ ìŀħ
Ġê¹¨ ëģĹ
ĠáĨ¯ ëĿ¼
ĠG P
Ġì²ľ ì²ľ
ĠíĥĲ ìĥī
Ġìĭľ ìĺ¨
ĠíĥĢ ë¥´
ë°Ķ ìĿ´íĬ¸
ĠíĦ° ë³´
Ġì¼Ģ ìĿ¸
Ġìļ´ ìĨ¡
ê»ĺ ëģ¼
ëıĮ ìĿ´
ì²´ ìĬ¤íĦ°
ĠíĶ¼ íĬ¸
Ġìĸ ½íŀĪ
Ġ19 50
Ķ ë¦¬
ì¹´ ë¯¸
ĠíĿ Ļ
ĠìĬ¤ì½Ķ íĭĢëŀľëĵľ
Ġíķ´ ëĤ´
Ġíģ¬ ëŀĺ
Ġê²Ģ íĨł
Ġ36 0
Ġì²ľì²ľ íŀĪ
Ġìļ° ìļ¸
Ġê¸°ëıĻ ìłĦìĤ¬
Ġíĺģ ìĭł
Ġìĸ´ ê·¸
Ġê°Ģ ëł¹
Ġë§Ī ìĿ¸ëĵľ
íĮ Ł
Ġë¹Ħ ìĬ¤íĬ¸
Ġ10 6
ĠëĤĻ ìĦł
Ġê¸° ì§Ī
Ġë§Ĳ ëłĪìĿ´
Ġì¶© ì¡±
Ġë¡ ¬
ĠìĹ°êµ¬ ìĽĲ
Ġë°ľë ªħ
ë İĢ
Ġë§Īë ķħ
ì¼Ģ ìĿ´ìħĺ
ĠíħĮìĿ´ ë¸Ķ
Ġë²ĦìĦľ ì»¤
ì¹´ ìĿ´ëıĦ
Īë² ¨
is e
ĠìĹ° ìĪĺ
ĠìĹŃ ìĬµ
ĠìĽĮ ìĭ±íĦ´
k e
ë¦ ¼ë
ĠìĹ° ìĦ¤
Ġíķ´ ìĨĮ
ĠíĮĮ ìļ¸
ĠìķĦì Īĺ
ĠìĬ¤íĥľ íĶĦ
Ġíķĺ ìĬ¤
Ġê°Ģ ìĦ±
Ġê°ľ êµ¬ë¦¬
ĠíĶĦë łĮ
ĠP art
ĠìŀĲìĿ´ìĸ¸ íĬ¸
7 8
Ġê³ł ì¶Ķ
Ġë¶Ģ ìĽĲ
ìĤ° ìĹŃ
ĠìĻķ ë¹Ħ
Ġë°Ģ ëıĦ
Ġâĳ ł
ì Ń
Ġìķµ ì»¤
ıĻ ìŀĲ
ĠíĨł íĤ¤
Ġë²ķ ë¬´
ĠíĥĪ ì·¨
ĠM an
Ġíĺĳ ìłķ
Ġë²¨ ê¸°ìĹĲ
s p
ł Ľ
Ġêµ¬ ìĥģ
Ġìĭ¤ ì¡´
ãĥ £
ĠìĹĺë¦¬ ë²łìĿ´íĦ°
ì Ł
íģ¬ ëĿ¼
ìĬ¬ ë¦¬
ĠìĤ¬ë¬´ ëĿ¼ìĿ´
ì¡° ìĦł
Ġä ¹
7 6
ĠáĨ¯ ê²Į
Ġìŀ¥ íĮĲ
ĠëĤ¨ ëıĻìĥĿ
Ġíİĺ ë¯¸ëĭĪ
Ġê°Ģ ì±ł
ĠìŀĲ ìľ¨
ëĭ Į
Ġì¡´ ì¤ĳ
Ġê³Ħì Īĺ
ĠíĹ¤ ë¥´
Ġëª¨ ì¢ħ
Ġë£¨ ìĿ´ìĬ¤
ìĹ¬ ìŀĲ
ĠW orld
Ġëĵľ ëłĪìĬ¤
Ġì¿ Ħì
ĠíĴį ìĦł
Ġ197 9
ĠìĿ´ ë¹¨
ĠëıĦ ìĥī
Ġë¹ Īë
ĠìĬ¤ íĮĮë¥´
Ġë°© ìĸ¸
ĠìłĦë ĭ¹
Ġì¹¨ ì°©
ĠíĥĢ êµ¬
ĠìĽĲ íĶ¼ìĬ¤
ĠO ne
ĠìĻ¸ ê³½
ĠëĨĶ ëĳĲ
ĠìĿ¸ ìĦ±
íĨł ë¦¬ìķĦ
ìłĢ ëŁ°
Ġê¹Ģ ìĬ¹
ĠíĺĦ ìŀĲ
ê¸° ë³¸
Ġë¬´ ëĬ¬
ĠìĪĺìĪĺ ê»ĺëģ¼
Ġìĭľ ë°Ķ
êµŃ ìłľ
ĠM ag
ĠT R
or n
ĠíķľëĤĺ ëĿ¼ëĭ¹
Ġìķ ĵ
ast er
ĠíĨ ¡
ê´Ģ ê³Ħ
ĠB S
ĠìĿĢ íıĲ
ĠìĿ´ ìĹĲ
Ġìµľ ìĦł
Ġìĸ¼íĭ° ë°ĭ
ĠëıĦ ë°°
Ġê¹Ģ ì§Ħ
ĠD P
ĠìĻĦìĦ± ëıĦ
ĠìĬ¤íĶ¼ë ¦¿
Ġë¹Ħë ¹Ħ
ul t
í ĭĪ
Ġì£¼ ì¶ķ
ĠëĶ ĺ
Ġìĥ µ
ë¬´ ì§Ģ
Ġê·¹ ëĮĢ
ĠíĻ© ëĭ¹
Ġë¯¼ íıĲ
Ġíĸ¥ íĽĦ
ĠëĮĢ ìĦ¸
ĠíĮ ģ
Ġ10 8
ĠìĦ¸ë ¶Ģ
ĠìŀĲ ìĤ¬
íĥĢ ìŀĦ
Ġëªħ ìĤ¬
ĠíĨł ìĭľ
ê°Ģ ìĿ´
ì «
Ġë¬´ ëıĦ
Ġìļ© ìĿ´
Ġëª© ê±¸ìĿ´
Ġìķķ ëł¥
Ġì´Ī ì²Ń
Ġë³Ģ ìĿ´
ĠìŀĦ íķĺ
o ol
² ³
ĠëĮĢ ìľĦ
ì¹ ¼ë
Ġëķ ¡
ĠêµŃ ìŀ¥
Ġê´ĳ ë¬¼
ĠU E
Ġëħ¸ë¶Ģ ëĤĺê°Ģ
9 6
ĠìĦ± ë¶Ħ
Ġêµ¬ ëıĻ
Ġê°ķ ìľł
ĠëĶĶ ìĭľ
Ġíģ´ ëĿ¼ìĿ´
ë²ł ë¦¬
Ġê¹Ģ ìĪĺ
Ġìļ°ìĬ¹ ìŀĲ
ª °
Ġëį° ë¯¸
ĠíķĻ ëħĦëıĦ
ãĤ ³
ëłĲ ëĿ¼
êµ¬ ëĭĪ
Ġê¸° íĽĦ
Ġë¶Ħ íĻį
ĠíķŃ íķ´
ìĻĢ ëĿ¼
æľ ¬
ëł¥ ìŀĲ
ĠR A
ĭ Īë
Ġíıī íĸī
Ġëĭ¤ìĬ¤ ë¦¬
Ġë§Ī ì§Ģ
Ġíı¬ íĥĪ
Ñ ģ
ĠìĹ° ìłĦ
ĠëĮ Ħ
Ġê°ķ ìķĦì§Ģ
Ġë§Ŀ íĨł
Ġìķł ì¹Ń
ë©ĺ íĦ°ë¦¬
ĠìĬ¤íĭ° ë¸Ĳ
ĠìķĦìĿ´ëĶĶ ìĸ´
a i
ĠìĿ´ëŁ° ìłĢëŁ°
ĠìŀĶ íĺ¹
ĠëĮĢëĮĢ ìłģ
ĠìĬ¤ìľĦ ìĬ¤
ĠìĿ´ íĥľ
Ġì£¼ ì²´
íĮ į
¬´ ëĿ¼
Ġìłĳ ìłĦ
ëĤĺ ë¦¬
ĠìĦ± ìĤ¬
ĠA N
Ġëª¨ ìļķ
ĠíĶ¼ ì¹´
Ġëĭ¤ ì¹´
Ġìłľ ìĿĺ
ĠìĽĲ íĺķ
it ion
ĠìĦľíı¬ íĬ¸
ĠM G
ìĶ Ģ
Ġì°© ë¥Ļ
Ġë°Ķ ëĤĺ
Ġíĳľ ìłģ
ìķĦë ¥´
âĺ Ĩ
ĠìĿ´ ëĮĢë¡ľ
Ġë³Ģ ìĨį
ĠN H
ĠíħĮ ì¸ł
ê¿ Ī
Ġíķĺ ìĿ¸
ĠìĻĦ ê³µ
ĠíĻĶ ê¸°
ĠìĬ¤ì¼Ģ ìĿ¼
ĠëĮĢ ëıĻ
ĠìĹĶ ì§Ģ
Ġìĺ¤ìĬ¤ ë§Į
ĠìĶ »
Ġêµ° ë¶Ģ
Ġíĺ¸ë Ł¬
ch or
Ġê³¨ ì¹ĺ
Ġë½ Ģ
í Ĥ¥
ĠëĿ¼ìĿ´ìĺ¨ ì¦Ī
ĠìĿ´ ìĺ¨
Ġì¡° êµŃ
Ġì¸¡ ê·¼
¸Ķ ë¡ľ
ĠìĬ¤ ì¦ĪíĤ¤
ĠìĽĲ ë¡ľ
ë§Ī ì¹ĺ
Ġë³µ ìĤ¬
or k
ĠJ P
ç ¥ŀ
Ġìĭľ ê³¨
Ġë°ĺ ìĹŃ
ĠìĹ´ íĺĪ
ĠíķĦ ë¦Ħ
Ġä¸ Ģ
ĠìĤ¬ ì¹ĺ
Ġë¬´ ëĬ¥
ĠP V
Ġê°ģ ìĿ¸
Ġë²ł ìĸ´
ĠìľĮë¦¬ ìĹĦ
Ġ up
ģ Ķ
ì§ Īë
Ġê²© ëł¤
łĪìĿ´ ìħĺ
Ġìłķìĭł ëł¥
as on
Ġìłķ ìĦ±
Ġëıħ ë°±
ìĨĮë Ĥĺ
Ġë¸ Įëł
ì¶Ķ ìĸ´
ª¨ íĨł
ëĦ¤ ë§Ī
ĠìĻĦ íĻĶ
Ġâĺħ âĺħâĺħ
Ġê³Ħì ¸µ
ĠìĦľìļ¸ë ĮĢ
Ġê³ł ìĭľ
ĠìĿ¼ ì²´
ĠëįĶ ë¯¸
Ġìķł ìĿ¸
Ġì¿ł ëį°íĥĢ
Ġë¡ľ ë§¨
ĠìĨ ľ
Ġìľł ì¹´
Ġë°° ëĵľ
Ġìļ© ìķĶ
ĠíĶĮë ŀľ
Ġê¹Ĭ ìĿ´
ĠìķĦì² ĺ
ĠìĤ¬ ê°Ģ
ĠìĦľ ìĹ´
Ġë¨¼ ì§Ģ
ĠìĽ¨ ìĬ¤íĬ¸
ĠíĬ¸ëŀ ©
Ġë¸Ķë¦¬ ìŀĲëĵľ
ìĤ° ìĭľ
Ġë°ķ ìŀĲ
Ġë¹Ħ ìļ°
Ġëĭ¤ìĿ´ ìķĦ
ĠëĶĶìŀĲ ìĿ´ëĦĪ
ë¹Ħë ĶĶìĺ¤
ëĭ Īë²ĦìĬ¤
ĠìĦľ ìĭĿ
ìĦ¸ ì§Ģ
Ġë¹Ħ ê¸°
Ġãģ Ŀ
ĠK e
Ġì´Īë¡Ŀ ìĥī
Ġë° Ń
Ġìĥģ ìĿĺ
ĠìĽĲ ìŀ¥
Ġê°Ĳ ëĭ¹
¸ë§ ¤
Ġì¹´ìĿ´ ìĤ¬ë¥´
ĠìĬ¤ íĭ°ë¸Į
Ġë¬´ ìļ©
Ġì½Ķ ëģ¼ë¦¬
Ġì·¨ ìŀ¬
ĠëĤĺìĿ´ íĶĦ
Ġíį¼ ìĬ¤íĬ¸
ĠìĹĲ ëĭ¤ê°Ģ
Ġìķ Īë¬´
Ġíĥ Ń
Ġê³µ ìĭł
ë§Ī ë¦¬
ëĦ ¨
Ġê¹Ģ íĥĿ
ĠëĬ¥ ê°Ģ
Ł ¼ë
ĠíĹ¬ ë¦¬
ê¹Ģ ìĥĪ
ĠìĻĢìĿ´ ë²Ī
Ġë°ľ ê°ģ
ê³µ íĻĶ
Ġë¶Ī ì°¸
ìļ´ ëıĻ
Ġëħ¹ ìĿ´
ĠìŀĲì¡´ ìĭ¬
Ġê²© íķĺ
Ġìł ¬
Ġìľł ìĹ°
ĠíĬ¸ë ŀĺ
Ġëł īìĬ¤
ĠìĽĲ ì£¼ë¯¼
ĠìłĦì Īĺ
ãĤ ¦
íĥĪ ë¦¬
ĠíķĦë¦¬ íķĢ
ĠWind ows
A K
ê°Ģ ë£¨
Ġëª¨ íĦ°
Ġì¹´ ìĺ¤ë£¨
Ġìļķ ìĭ¬
ĠìķĦìĪĺ ëĿ¼
ĠëĲĺ ëł¤
Ġëĳ ł
Ġê°Ī ìĪĺë¡Ŀ
o ve
ê¸° ìĬ¤
Ġë°ķ ëªħ
ë©Ķ ëĭ¬
ĠìľĪ ëĵľ
ã ĥģ
ĠìĬ¤ íĭ±
ĠìĽĮ íĶĦ
Ĭ ±
Ġìŀ¥ ëĤ¨
Ġë§¤ ì£¼
ëĶ ľ
Ġìĺ¥ ìĥģ
ĠìĤ¬ ìĹ°
ì¹ «
Ġë³Ģ ëıĻ
ĠíĬ¸ìľĪ ìĬ¤
Ġëĭ¤ìĭľ ê¸Ī
ìĻĢ ìĿ´
ëłī íĦ°
Ġëĥīìŀ¥ ê³ł
ĠëıĦ ë¦¬
ĠìĤ¬ ëªħ
ìĸ´ íĬ¸
ãģ Ĭ
Ġíħ Įë¦¬
ĠìĤ° ë§¥
20 14
ĠëĤ¨ íķľ
ëħ ¸ë¦¬
Ġíı´ ìķĦìĽĥ
ĠìĬ¤ ë°Ķë£¨
ĠìĥĿ ê¹ĢìĥĪ
ĠìķĦì Ĭ¬
ëĶĶ ìĬ¤
Ġê°Ħ íĮĲ
ĠìłĦì Ĩ¡
Ġë§¹ ìĦ¸
Ġê³ł ë°ľ
Ġê¸° ìĿ¸
ĠìĪĺ ê°Ĳ
Ġë°Ķ íħĢ
ë²Ħ ë¦¬
ĠíļĮ ê´Ģ
íı¬ ë¨¸
Ġì¤ Ħì
å ½
Ġíĩ´ ì¹ĺ
ìĪĺ ë¦¬
ĠìĦŃ ì·¨
ĠìĬ¤íĮĮ íģ¬
Ġìĥģ ì£¼
ê³¼ íķĻ
Ġë¶Ħë ĭ¹
Ġìł Īë²½
ĠìłĦ ì§Ģ
ì¤ĳ êµŃ
Ġå¤ ©
ĠìĬ¤ íĬ¸
ĠëĮĢ íĶ¼
Ġë§Ī ì°°
Ġìķķ ì¶ķ
Ġv er
å £
ĠìĿ´ ìĿ¸
Ġëį° ë¹Į
Ġíĥľ íĴį
¥ ¨
Ġìĭľ íĬ¸
Ġìŀ¥ ë³¸ìĿ¸
Ġìĵ° ë¦¬
Ġê¹Ģ íı¬
ëĭ Ľ
Ġë² ¡
Ġìº ĺë¦¬
ĠìľłëĮĢ ìĿ¸
å ¿
Ġìĭľ ì¢ħ
íļĮ ìŀ¥
Ġì²ľ ì§Ģ
Ġë©Ķì¹´ ëĭī
ĠìĿ´ ëĵ¬
ë¥ ¼ë¡ľ
ĠìĨĮ ë§Ī
Ġê°Ħ ì§Ģ
Ġì¹´ë¦¬ìĬ¤ ë§Ī
Ġì§Ģ íĺľ
ê» į
ĠíĨł ì§Ģ
Ġë§Īë ¯¸
Ġê¸° ê»ı
ìķĦ ìķĦ
ĠG re
Ġì¢Į ì¸¡
ĵľë °±
Ġëĭ¤ ìĿ´ìĬ¤
ĠìĤ¬ ë°©
Ġìµľ ìĪľ
Ġíĸī ì§Ħ
Ġå ¥
ĠêµĲ ëĮĢ
íĮĮ íģ¬
ëłĮ ì§Ģ
Ġì¶Ķ íĽĦ
ĠE C
Ġì²Ń êµ¬
Ī Ī
Ġê¸ ĭ
ĠíĿ¥ ë¶Ħ
Ġê¿Ī ê¾¸
ĠìŀĲì±ħ ìłĲ
æ Ĺ¥
Ġíķĺ ìĤ¬
ĠìĹ¬ íĥľ
Ġë§¤ ê°ģ
ĠêµĲ íĨł
ìĤ Ĳ
ĠìķĦë¥´ ë°ĶìĿ´íĬ¸
G E
Ġìĺ¤ ëĶĺ
Ġëķħ ë³¼
Ġê°± ìĭł
ĠíĥĢìĿ´ê±° ì¦Ī
ìĿ´ ëıĻ
ëĮĢ ì²´
Ġìŀ¡ ëª¹
âĨ Ļ
Ġìĺ¤ ëĭ¤
æ ´
ì Ńī
ìŀĲ ì¹´
Ġê¹Į ë§Īê·Ģ
ĠíĿĳ ë§ī
ĠìĹĳ ìĭľì¦Ī
ĠLI VE
Ġì¤ĳ ìĽĲ
Ġë§¤ ëĵľ
Ġì¹¨ ëª°
Ġë§ĪëıĦ ì¹´
ĠáĨ¯ëł¤ ê³ł
Ġëª¨ ìĿĮ
Ġê¹Ģ ì¤Ģ
Ġ are
ĠìĻĢ ìĿ¸
ĠìĦ¸ë ¡ľ
ì½ľë Ŀ¼
Ġìŀħ ìĤ¬
ĠìĻķ ìĭ¤
ig n
Ġê³¼ ìĸ¸
ìļ° ì§Ģ
Ġë°ķ ìĪĺ
Ġë§¨ ìľł
Ġì¸ł ì¿ł
ë¬´ ê¸°
ĠíĽĦì¿ł ìĭľë§Ī
ĠG am
Ġë©Ķë¦¬ íĬ¸
Ġìĺ ´
Ġëªħ ìŀ¥
Ġíķł ë¡ľ
ir l
6 00
§ ¥
Ġë§ŀ íŀĪ
Ġëħ¸ ë¦ĩ
Ġíį¼ íİĻíĬ¸
ĠìĹĺë¦¬ìŀĲ ë²łìĬ¤
Ġë¦¬ íĶĦ
Ġìŀħ ìŀĲ
Ġëĵľ ìĽĮíĶĦ
ĠìĦľ ìłģ
ĠìķĦë¬´ ëłĩ
Ġê¸Ģ ìĶ¨
Ġì¤ĳêµŃ ìĿ¸
ĠíĮĮë ıĦ
ë³Ģ ìĿ´
ãĥ« ãĥ
Ġan chor
ĠìĬ¤ ì»¬
Ġì¶ ľëıĻ
ĠíĨł ìļĶ
6 2
Ġì§Ģ ë¶Ħ
Ġìĭľ ìĤ¬
Ġìĭ¤ ëĤ´
Ġë¦¬ ìķĦ
íĶĮë Ł¬
ĠìĻķ ì¡±
ĠíŀĪë Ŀ¼
Ġì£¼ìĤ¬ ìľĦ
Ġë¶Ģ ì±Ħ
Ŀ¼ ìĿ¸
ĠëĨį ìĹħ
Ġìłķ êµĲ
Ġë°© ìļ¸
ĠìŀĲìĭł ê°Ĳ
ë¯¸ë ¥´
Ġê³¼ ìĭľ
ëĦ ¥
ĠëłĪ ì½Ķëĵľ
Ġå ½
Ġìļķ ë§Ŀ
Ġë®¤ì§ģ ë¹ĦëĶĶìĺ¤
ĠìĬ¤íħĶ ìĬ¤
ĠìłĲ ë©¸
ĠêµĲ ìłķ
Ġë¬¼ ìŀĲ
Ġìľłëĭ Īë²ĦìĬ¤
ĠíĻ ĭ
ĠìĿ¼ ì¡°
êµ¬ ìŀ¥
ĠN BA
ł¤ ë°Ľ
Ġë¯¿ ìĿĮ
Ġìĥģ ë¬´
Ġë¬¼ë ł¤ë°Ľ
ĠìĬ¬ ëŁ¬
ĠëĿ¼ìĿ¸ íķĺë¥´íĬ¸
Ġë§Īì¼Ģ íĮħ
ĠìĿ´ëĵ¬ íķ´
Ġìĭľ ëł¨
ê·¸ë §¨
âĨ Ĳ
¹ Ń
ëĭ¤ ëĵľ
Ġì¤ĳ ê²¬
ĠëıĮìĹ° ë³ĢìĿ´
ĠìĹĶì§Ģ ëĭĪìĸ´
æ Ľ
ĠìĹĲ ì½Ķ
Ġëķ Įëł¤
Ġë§Ĳ ìĶĢ
Ġë§ī ì°¨
¼ë¦ °
ĠìĤ¬ íļĮë
Ġë¯¸ ìĿ¸
Ġæ Ļ
ìĿĢ ìĿ´
ĠíĮĮë °į
Ġë¹Ļ íĮĲ
ĠìĿ´ ë³ĳ
ĠëĤ´ ê°ģ
âĨĺ âĨĴ
Ġìłģ ìŀĲ
ĠìĽ Įë¦¬ìĸ´
Ġë¯¸ ìķ¼ë
Ġêµ° ëį°
ĠC R
Ġëļ ±
Ġë° Ī
Ġìłķ ìĤ¬
Ġê·¸ë £¨
Ġíİ¸ ë¦¬
Ġê°ģ ì§Ģ
Ġìľ¤ ë¦¬
ĠíĥĢ ì¹ĺ
ĠíĻĶ ìĥģ
in t
Ġëļľ ëł·
Ġë¡ľ íĤ¤
Ġæ µ
íĶĮ ë¦¿
Ġëĭ Īë
Ġê·¸ë ¥´
ĠëıĻ ìłĦ
ë£¨ ê¸°
ë£¨ íĥĢ
ìŀĲëıĻ ì°¨
Ġê°Ħ íĮĮ
ì²ĺ ëŁ¼
ìĹ° íķ©
ë¯ Ģë¡ľ
Ġìĺ¨ ìłĦ
Ġê·¹ ìĭ¬
ì¿ ¤
ë¬ ¼ë¦¬
ĠìķĦì¹´ ëĦ¤
ë Ĩį
Ń Ķ
ĠëıĻ ê³Ħ
ë£ ¬
íİĺ ìĿ´ìĬ¤
ê¿ ī
Ġìļ¸ ìĿĮ
ä ¼
ĠìĹĲ ëĶĶìħĺ
ĠëĤĺ ë¦¬
Ġìĸ ¹
ë¹Ħ ìłĦ
ĠíĽĦë ¯¸
Ġë°ĶìĿ´ ìĺ¬
Ġê²Įë ģĶ
ĠìĪĺ ë¦½
Ġê´ĳ ëªħ
Ġìĭľ ëħ¸ë
ĠA m
Ġë©Ķ íĬ¸ë¡ľ
7 9
ĠìĦ¸ ìĿ¸íĬ¸
Ġì¢ħ ìĺģ
Ġå ľ
st r
ĠìĪĻ ì²Ń
ĠìĹ° ìĩĦ
Ġíı¬ ì°©
Ġë¯¼ ê°Ĳ
Ġê¸°ë³¸ ê¸°
ĠíĨ ¨
Ġìłľì£¼ë ıĦ
Ġì§Ħ íĿ¥
ĠD ay
Ġê°Ī êµ¬
Ĵ ¤
Ġ2 20
ĠëĤ´ ìĻ¸
Ġíı¬ ë³ĳ
Ġíı¬ íĥĦ
e ar
Ĳ ģ
Ġë¯¸ ì¦Ī
Ġìŀ¬ ì§Ī
ĠB T
ãĤ į
ĠìĬµëĭĪ ê¹Į
ĠíĶĦëŀĳìĬ¤ ìĸ´
ĠëĶĶì¦Ī ëĭĪ
íķĺ ë£¨
²Ī ìĹĲ
Ġ194 5
Ġì£¼ ìĪłìĤ¬
Ġíķľ êº¼ë
Ġëªħ ìĭľ
ĠC r
ĠëłĪìĿ´ ìĭ±
Ġíķľêº¼ë ²ĪìĹĲ
ĠìĬ¤ ì¿
ĠD M
Ġì¶© ê³ł
ĠìĿ´ìĺģ íĺ¸
Ġëį ¥
ãģ Ń
ĠíĶ¼ ìŀĲ
Ġìľ¼ëł¤ ë©´
ĠíĶĦë ŀľ
ĠD ream
ĠP re
ãĤ ª
Ġì§ ¬
Ġìłķ ìłĲ
Ġìľł ìłĦ
ĠìĦ± ìłĦ
Ġê¶ģ íķ©
Ġì»¨ ëĶĶìħĺ
Ġ197 8
ìĭľ íĶ¼
Ġç Ļ
ĠìĶ¨ ìķĹ
ĠìĬ¤íĥ Ń
ĠâĹĭ âĹĭ
ĠìĿ¸íĶ¼ëĭĪ íĭ°
ĠìĨĮ ì§ĳ
Ġé Ģ
ĠìŀĲ ëł¥
Ġì°¨ ë¦¼
ĠìĨĮ ê¿ī
ĠìĹ° ëıĻ
ĠìłĲ ìľł
ĠìĨĮë Ĥĺ
¤ ¼
ĠìłĲ ìĭ¬
ãĥ Ĭ
Ġìķł ìļ©
ìĦ¤ ìĿ´
ĠëłĪ ê·
ëĿ¼ë ©´
Ĳ ê¸°
Ġí ĵ
ìĿ´ ë¦Ħ
Ġë§Ī ìļ´
Ġíķ´ ê³ł
Ġë°ĺ ìŀ¥
ĠëĮĢ ìĹŃ
Ġê°ķ ë¦ī
Ġê·¸ëŁ¬ ë¯Ģë¡ľ
Ġíģ´ë¦¬ ìħ°
ĠìŀĲ ìĤ°
ĠìĦ¸ë ¡Ģ
Ġìĩ ¼ë
ëī´ ìĸ¼
ĠìĿ¸ ìłĳ
Ġë¦¬ ë³¸
Ġëĵ¤ ë¥´
ĠëĮĢ ìĦ±
Ġì° ¸ë
Ġê³µ ëĭ¨
ëĮĢ íķĻ
Ġë¦¬ ëª¨
Ġì± ł
Ġí Ĥ´
ĠìĹĲ ë°ĺ
Ġê±° ìĦ¸
ĠìĿ¼ ê³±
ìĦ¸ ìĦľ
ĠìĿ´ëªħ ë°ķ
Ĭ Ħ
Ġë¶Ģ ìĭľ
Ġë³¸ ê´Ģ
ëĵľë Ł¬ì§Ģ
ĠíķĦì Ĥ¬
6 8
ìĬ¤ íĭ´
ĠìĤ¬ ìĪĺ
Ġìĺ¤ ë§Į
Ġ11 9
ĠìŀĶ ë¥ĺ
Ġê¸°ëıĻ ëł¥
ĠìĿ´ ìľ¤
ìĺ µ
Ġìĸ Į
Ġìŀ¬ ë²Į
ĠII I
Ġìłķ ëĭµ
ĠíĻĶ íıĲ
Ġíİ¸ìĿĺ ìłĲ
Ġíĺ¼ íĺĪ
Ġìĥģ ëĥ¥
Ġì¤ĳ ê¸°
ĠA V
Ġê°ģ ëıĦ
Ġë³´ìĬ¤ íĦ´
ê° ľë
ĠìĺĪ ìĿĺ
Ġíķĺ ì¿ł
Ġìĭł ëıĻ
Ġìĺ¤ ë²Ħë
ĠìĹ¬ ëĭ¨
ĠíĮĲ ìĤ¬
ĠìĦ¬ ê¸°
Ġê°ĢìĦ± ë¹Ħ
ĠëłĪìĬ¬ ë§ģ
Ġê°Ģ êµ¬
Ġìĭ¤ ìłģ
Ġæ Ķ
Ġì§Ģ íģ¬
ĠìĤ¬ ê°ģ
Ġìĭ¬ ìłķ
ĠíģĲ ìĸ´
Ġë° ī
Ġìĭľ ë§Ī
Ġì²ľ êµŃ
le s
å ĳ
íħĮ ìĺ¤
Ġìĭ± ê°Ģ
Ġëª¨ ìĬ¤íģ¬
Ġê·¸ë Ĥł
ĠíĶ¼ ê·ľìĸ´
Ġìĺ¤íĨł ë°ĶìĿ´
İ Ħ
Ġìĭł ê´Ģ
Ġê¹Ģ ìľł
Ġìŀł ê¸°
ìķĦì °
ĠëıĦ ìķ½
Ġëª¨ íĺķ
Ġìŀħ ìĦ±
Ġë§Ŀ ìĦ¤ìĿ´
Ġìĭľìĥģ ìĭĿ
Ġì½Ķ íĨł
Ġ17 0
Ġì§Ģ ìŀ¥
Ġìłķ ìļ°
Ġë°© ìķĪ
ĠëĤ¨ íķĻìĥĿ
Ġå ¼
Ġê°Ģíķ´ ìŀĲ
ĠëĳĲ ëĩĮ
ìĹĨ ìĿ´
ĠìĹĲ ìĸ´ë¡ľ
Ġìĺ¤ ìļ°
Ġíİ ¸ë
Ġê¹Ģ ì§Ģ
Ġëŀĺ íį¼
ĠíĪ Ń
Ġê² Įë¥´
ĠìķĦë ¹Ħ
ìĹĲ ë¥¸
ĠãĤ Į
ĠíĬ¸ ë¦´
Ġéĩ ĳ
ĠìĦľë°ĶìĿ´ ë²Į
ë°Ķìķ¼ ìĭľ
ĠìĦł ë¡ľ
ĠB J
Ġëª© ìļķ
ìĭ¸ ìĽĢ
Ġê³ł ìĿ¸
ĠìłĦ ê³¼
Ġìŀ¥ ë²½
ìłĢ ëŀĺ
Ġìŀ¥ìķł ìĿ¸
Ġíľ´ëĮĢ íı°
Ġë¶ĢëıĻ ìĤ°
ĠìĬ¤ íĥĿ
Ġì¤ĳ ìĨĮ
ëŁ¬ ë¸Į
Ġê°ľë ªħ
ĠëłĪìĿ´ ì§Ģ
Ġëĳ¥ ì§Ģ
Ġë³ Ħì
Ġë³´ ê°ķ
Ġê·¸ë ŀ¨
ĠìĬ¤ì¹´ ìĽĥ
íĹ¤ ìĿ´
Ġë³´ ìļ°
ĠíŀĪ ëĵľëĿ¼
íĥĢ ëĭĪ
ĠìĨĮ ìĨĮ
ĠìłĢ ìĬ¹
Ġå Ľ
Ġê²¬ íķ´
ëĿ ł
Ġë² ¼ë
ĠíĨµ ë³´
Ġë³ĳ ê³¼
ĠìĿĳ ê¸ī
Ġë²Į ìį¨
ĠìĬ¤íı° ìĦľ
¡ ¤ëŁ¬
ur n
Ġë¡ľê·¸ ìĿ¸
i el
Ġìĭł ìĥģ
ĠT S
Ġìĺ¤ ì¼Ģ
Ġë¯¸ë ħĢ
Ġë§· ì§ĳ
I R
V ER
Ġì£¼ ìłĢ
Ġìłķ ë°Ģ
Ġê·¸ë ¡ľ
Ġêµ¬ íĺķ
Ġìļ° ëĵľ
Ġì´Ŀ íķ©
Ġìĭľì¹´ ê³ł
Ġìĸ ¼ë¦¬
ĠìĦł ì§Ħ
ĠíĮ¬ íĭ°
Ġíķĳ ê³Ħ
Ġì¢ħ ìłĦ
ĠìĪľ ìłķ
Ġæ ī
ĠO G
ìº ł
Ġì¶ľ ìĦĿ
ĠìĤ¬ ì§ģ
Ġìĥģ ìĭľ
Ġê±° ìĬ¤
ì§Ħ íĺ¸
at or
ë Ĳĺ
ĠìĿ¸ ê°Ģ
Ġë¸Įë ŀĺ
Ġï¼ Į
ĠëĤĺ ìĿ¸
ĠB E
ĠìķĦì¿ł ìķĦ
Ġê¸°ìļ¸ ìĿ´
Ġì´Īëĵ± íķĻìĥĿ
Ġíķĺ íĶĦ
ĠU p
Ġë¯¸ ìĺ¤
ĠëĳĲ ëĵľëŁ¬ì§Ģ
ĠíķĻ ìľĦ
ë³´ ê·¸
ĠìĦľë °©
n ow
Ġë¦¬ íĶĦíĬ¸
ĠìĿ´ëĤĺ ë§Ī
Ġê²½ ìĤ¬
ĠìĿ¸ íħĶ
ĠíĮ¨ ìŀĲ
ĠìĿ´ìļ© ìŀĲ
ra g
ëĭ¤ ì¹´
Ġë¶Ģ ìĬ¤íĬ¸
Ġìĭł ëį°
ĠC M
Ġìķł ìī¬
ĠìĬ¬ íĶĶ
Ġì§Ħë ıĻ
ĠìĿ´ëŀĺ ìłĢëŀĺ
ĠìĿ¸ìĬ¤íĥĢ ê·¸ëŀ¨
ëĮĢ ìĤ¬
ĠE U
Ġë¬´ ëĭ¨
Ġì¹´ íĶ¼
ëĦ ĺ
ĠìłĢ ìŀĲ
Ġë²ł ìĸ´ìĬ¤
ĠíĻ© íĺ¼
ĠìĿ´ê¸Ģ ìĬ¤
ĠìĤ¬íĪ¬ ë¦¬
ĠìµľìĪľ ìĭ¤
Ġìķ ĮëłĪ
ĠìŀĲ ë£¨
ĠìĹ¬ íı¬
ĠìĦł ë°ķ
Ġå ·
Ġë¬¼ ìķ½
ĠìķĦë§Ī ì¶Ķìĸ´
ĠìķĦ íħĮëĤĺ
Ġì°¬ ìĸĳ
Ġìħ° íĶĦ
a il
Ġê² Ł
ĠëĤĺ ë¯¸
ì¹ĺ ìķĦ
Ġìľł ëıĻ
Ġë¬´ ìĭĿ
Ġë²ķ ìĤ¬
ĠìĬ¤íħ Ł
Ġëĭ¬ ìĿ¸
íĮ¨ ìĬ¤
ĠáĨ«ëĭ¤ë©´ ìĦľ
ul l
Ġëĩ Įë
y n
ĠD PS
Ġå ¾
ĠìłĪ ëĭ¨
Ġë²łìĿ´ ì§ķ
Ġê¸° ìĨĮ
Ġì° Ķë¦¬
Ġë³µ ëıĦ
Ġë§ĪìĿ´ íģ¬ë¡ľ
il d
ĠìĹī ëļ±
Ġìĭľíģ¬ ë¦¿
y le
Ġ at
Ġëª¨ ìĹĲ
Ġëĭ¹ ì´Ī
ĠëıħìĿ¼ ìĸ´
ĠìĬ¤ì¹´ ìļ°íĬ¸
9 8
ĠìĤ¬ ëĤĺ
Ġëĭ¨ ë°ľ
ĠìĦľ ê¸°
ĠC L
ĠF W
v el
ĠëĤĺ ëĿ½
íŀĪ íĬ¸
Ġt v
Ġë°ĶìĿ´ ìĹĲë¥¸
Ġë¶Ģ ìĨį
Ġã Ħ
ĠìĨĲ ëª©
ĸ ĳ
Ġë¬´ ëħĢ
Ġë¬´ ê¶ģ
ìĦ± ìĿ´
Ġìŀħ ìĽĲ
Ġì´Ī ìĥģ
ĠíĶĮë £¨
Ġë¯¼ë ³ĳ
Ġê¸° íĺ¸
ĠìĬ¤ íĥĪ
ĠíĨł ë¯¸
Ġë²ł ë¥
ĠíĬ¸ë Ł¬
os e
ì± Ī
Ġëįĺì§Ģ ëĿ¼
Ġê»į ì§Ī
ĠM i
ĠìĽĮ íģ¬
ĠìĿ´ ê´ĳ
ĠìŀĲ ìķĦ
ìĬ¤íĭ° ìĬ¤
Ġíıīìĥģ ìĭľ
ìŁ Ī
ë¹ ¨ë¦¬
Ġê°ķ ëĮĢ
Ġëĭ¨ ëł¨
ĠìļĶ ê²©
Ġì§Ģ ìĦł
Ġìĺ¤ ëłĮì§Ģ
Ġë§Ī íĥĢ
Ġê³µ ìĺģ
Ġ3 50
Ġë°° ê¸ī
Ġê¹Ģ êµ¬
ĠíĥĪ íĻĺ
Ġì£¼ìĿĺ ìŀĲ
ì§ ĸ
Ġëıħ ë³´
ĠëĤľ ë¦¬
Ġp l
ìĬ¤íģ¬ ë¦¼
ĠUS B
ĠìĬ¬ëłĪìĿ´ ìĸ´
Ñ Ĥ
ë ķħ
ĠìĨĮ ìĦľ
ĠêµŃ ë¬´
æľ Ī
ĠìĦ± ìĶ¨
g h
Ġê³¼ ìĿ¼
Ġëª¨ ë¹Į
Ġê²½ ë¶Ģ
Ġìŀ¬ ìĪĺ
Ġìŀ¬ ê±´
Ġë³ĳ íĸī
Ġê¾ Ģ
ìķĦíĶĦ ë¦¬ì¹´
Ħë ²Ħ
ĠìĨ Ł
ĠìĬ¤íĥĢ íĬ¸
íĶĮëł īìĬ¤
Ġë§Ī íĭ´
Ġì¡° ë³Ħ
ëĭĪ ì¦ĺ
ĠìĤ° íĥĢ
ë¦¬ ëĤĺ
ĠìĦł ë´ī
ol l
ĠëıĦ ëĮĢì²´
ĠëĳĲ ëª©
ìĥĿ ê¸°
ĠíĬ ľë
Ġc on
Ġì¢Į ìĿµ
© ĭ
ĠìĹĲ ë©Ķ
ìĤ¬ ìĿĺ
Ġëĭ¨ ìĦľ
ĠìĿ´ ìĽĲ
ĠìĽĲ íĮĲ
ĠëĬ¥ íķĺ
ĠíķĦ ë¦½
ĠíĶĮëĿ¼ ì¦Īë§Ī
Ġì£¼ì°¨ ìŀ¥
ĠíĶ¼ ìķĦ
ì½ §
ĩ º
Ġë¶Ģ ì²ľ
Ġè ¦
Ġíĸ ĩ
ë± ī
C S
ĠìĨĲ ìŀ¡ìĿ´
è ¨
ĠìĪĺ ì²ľ
ìĹ ¼ë
ëıĦ ëĿ¼
Ġëª¨ ëħ¸
Ġì²´ ì½Ķ
ĠíĨł ë§ĪìĬ¤
Ġì¹ľë ª©
ĠUE FA
Ġíķ ı
Ġê³ł ëŀĺ
Ġìĭ¤ ìļ©
Ġë¶Ħ íķł
ì£¼ë ¡ľ
ĠìĹī ëį©ìĿ´
Ġê¸° ìĺ¨
Ġìĭľ ê·¸ë
Ġë¦¬ ì¹´
Ġíķ´ ëıħ
ĠìłĲ íķĺ
Ġìķħ íĸī
ĠìĪĻ ìĨĮ
ĠBl ack
ê³¼ë ¬¼
Ġê°Ģ íŀĪ
ĠëĤ´ ë±ī
ĠíķĺìĿ´ ëĿ¼ìĿ´íĬ¸
ì ĳ¤
ĠìĿ´ ëĪĦ
Ġì§Ģ ë¶ķ
Ġëĸ¨ êµ¬
ub e
Ġì§ĳ ê³Ħ
ĠíŀĪë¡ľ ìĭľ
ĠìĿ¸ëıĦ ëĦ¤ìĭľìķĦ
ĠìĤ¬ ì¡±
Ġë§Ĳ ê¸°
ë§Ī ìĬ¤íĦ°
Ġìłĳ ìĪĺ
Ġ197 3
íĥĢ ë¥´
Ġë£¨ ë¦¬
Ġê²© ëł¬
Ġìķ¼ë ĭ¹
Ġì»¤íĶĮ ë§ģ
ĠëĿ¼ëįĺ ê°Ģ
ĠìĬ¤ë§¤ ìĭľ
Ġë¦¬ ìħĭ
ĵľë Ŀ¼
Ġë³´ ê¸°
Ġì´Īì¤ĳ ë°ĺ
é Ŀ
ë¶ Ħë
ĠìĦł íı¬
Ġìļ° ë£¨
Ġë£¨ íĤ¤
Ġì§Ŀ ìĤ¬ëŀĳ
Ġìķ½ íĺ¼
Ġp ro
¶ ķ
Ġê´Ģ ë¬¸
ëĿ¼ë Ŀ¼
Ġìľłê²© ìĪĺ
ĠìĿ´ ë°©
ĠíĪ¬ ê³ł
Ġíĺĳ ëıĻ
Ġe at
ĠíĿī ìķħ
Ġì Ĳ
Ġì£¼ ìĪł
Ġì¤ĳ ìŀ¬
ĠT o
ĠëŁŃ íĤ¤
ê³ °
Ġêµ ¶
ĠìĦ¸ ê°Ģ
Ġì´Īë³´ ìŀĲ
iver s
Ġìĸ´ ìĽĲ
Ġëĭ¤ ì§Ģë§Į
ĠíķĻ ëł¥
Ġãģ Ĩ
Ġë°ķëªħ ìĪĺ
Ġìłľ ë¦¬
Ġíķ¨ ìĪĺ
ĠG u
Ġìłľ ì§Ģ
íĥĢ ìĬ¤
Ġê¸° ë¦¬
ĠìķĦë ŀ«
ĠëĬ ª
Ġíģ¬ëĿ¼ ìļ´
å Į
ĠíĥĦ ìķķ
Ġì ©
ê° Ħë
ĠíĮĮ ìļ´ëĵľ
Ġëĭ¤ëĭĪ ìĹĺ
Ġç ¥ŀ
Ġë³´ ë³µ
Ġíİĺ ìĸ´ë¦¬
ĠíĻ© íĥľ
ĠìĬ¤íĥĢ ìĽĮì¦Ī
Ġd o
Ġê¹¡ íĮ¨
ĠìłĦëıĻ ì°¨
Ġì¿Ħì ½Ķ
Ġê¹ĢíĥĿ ìļ©
Ġíķĺ ìĭľ
ĠìķĦë §Īë
Ġíĥľ ìĥĿ
ĠíİĮ íĶĦ
ã Ĥ°
Ĭ Ī
ĠêµŃ íĨł
ĠD D
Ġìº¡ ìĬĲ
ê¸ĭ ëĤĺ
ìĹħ ìŀĲ
Ġë°ķ ìĦ±
ĠíŀĪë ¹Ħ
ëŀŃ íģ¬
è ī
Ġé Ŀ
Ġê³¼ ê²©
Ġë§Ī ìķ¼
ĠíĥĢ ëħ¸ìĬ¤
ĠF r
Ġê¸Īë °ľ
ë§¥ ìĬ¤
ĠìĦ± ë°°
Ġì¡° ëįĺ
ĠíĿī ëĤ´
ìŀ¬ ê¸°
Ġì§Ħë ĭ¨
ĠìĨĮëª¨ ëŁī
Ġëº ¨
Ġë°° íĽĦ
Ġê°Ĳ ê¸Ī
ĠC ar
ëĶĶ ìĽĢ
Ġé Ļ
et h
Ġë¹Ĺ ëĤĺê°Ģ
ĩ Ħ
Ġ11 5
Ġì¿ł ë°Ķ
ĠëĮĢ êµŃ
Ġëĭ Ĳ
Ġì²ĺ ëħĢ
ĠC E
n g
Ġë³¸ ì§Ī
Ġë£¨ ë§Ī
ì¿ł ë¡ľ
Ġë°± ë§Į
ìł¸ ìĬ¤
ĠëĮĢ ê²Ģ
Ġíķľìłķ íĮĲ
Ġìĭł ì¡°
ĠO S
Ġì¸ł íĤ¤
è ¦
ĠìĪĺ ìĿ¸
Ġë¦¬ ëĤĺ
ĠâĨ ĳ
Ġíİĺë¥´ ìĨĮëĤĺ
Ġë¦¬ë°Ķ ìļ´ëĵľ
Ġê³µ êµĲ
ĠìĹ° ìĨĮ
ĠìķĪ ëĤĺ
ĠëĳĲ ê»į
ê¹ ĥ
ìĸ¸ íĬ¸
Ġâĳ ¡
U M
ĠìĹ £
Ġë°© ì¹¨
ic a
Ġëį´ ë§Īíģ¬
Ġíĺ¸ê°Ĳ ëıĦ
Ġì°¨ ìŀ¥
ĠA p
ĠD r
Ġì¹¼ë Ŀ¼
ĠìĹĲëĵľ ìĽĮëĵľ
ĠëĦ¤ íģ¬ë¡ľ
Ġíİĺ ìĿ´íģ¬
ĠìĿ´ ë³Ħ
Ġì¹´ ìĭľ
Ġê²° ê³¼ë¬¼
Ġë§Įë łĻ
ìĹĲ ëª½
Ġë¯¸ë ģ
íĺĦ ìļ°
å Ł
å ¹´
Ġìľł ëĬ¥
ĠìĤ° ìĨĮ
ĠëĤĺìĿ´ íĬ¸ë
Ġì»´ ë±ĥ
Ġê¼´ ì°Į
ìĤ¬ ìĿ´ëĵľ
Ġìŀ¥ íķĻ
Ġê³¡ ëªħ
Ġì£¼ ìŀħ
Ġìłķ ë°ľ
Ġê³µ ëªħ
ĠìĦ¬ ë©¸
Ġê³Ħë ŀµ
ĠìĿ´ ì¯¤
íĶ ĮëłĪ
ĠëĦ Ĳ
ĠìĬ¬ ëŀĺ
I X
ê·¸ë łĪ
ĠìĿ´ë¦¬ ìłĢë¦¬
ĠêµŃë°© ë¶Ģ
Ħ ¡
Ġëª ¸ë§¤
ĠíĮĢ ìŀ¥
Ġë£¨ ìĪĺ
Ġìĺ Ĳë¡ľ
ê· Ħ
Ġìłľ ìĤ¬
ĠìĪľ ì²ľ
ĠR O
Ġíķłë¡ľ ìľĪ
ĠìĿ´ íĸī
Ġë§Īë ª¨
Ġç ¾
ĠíĻĭ ì¹´ìĿ´ëıĦ
ıĦ ìłĦ
Ġë§ŀ ë¨¹
ĠëĴ¤ ìŀĩ
ĠìĪĺ ì¤ĳ
ĠëĿ¼ ìŀĦ
Ġê¹Ģ ê´ĳ
ĠìķĦìĿ´ ìľł
ëĿ¼ë §Ī
ĠO p
ìĿ¸ë³´ ìļ°
Ġë²Ħ ìĬ¤íĬ¸
Ġë¦¬ íį¼
Ġë¯¸ë Ĥ¨
Ġë§Ŀ ëªħ
Ġì¤ĳë°ĺ ë¶Ģ
ĠìĬ¤íĮĮìĿ´ëįĶ ë§¨
Ĥ µ
ĠëĮĢ ë§Ī
ĠìĹ° ëıĦ
ĠìķĮ ìķĦì°
ĠG l
ë©Ķ ëĿ¼
ĠìłĪ ìłķ
Ġì°° ìĬ¤
Ġíİĳ íģ¬
ĠìķĮìķĦì° ¨ë¦¬
ĠìĿ¸ ì±Ī
Ġë¶Ī ê¸¸
Ġ... ?
Ġì¼ Ħì
ì§Ģ ìĺ¤
Ġë¹Ħ ìŀĲ
ĠëıĻìĦ± ìķł
ëĭĲ ëĿ¼
ĠSup er
Ġìľ¼ë ¦¬
ë¯¸ë ħ¸
Ġìĺ¤ë¥¸ íĮĶ
Ġìĥĺ íĶĮ
Ġì¶ľíĮĲ ìĤ¬
Ġê³ł ë¦½
ĠëıĦ ìĸ´
ëĤĺ ìĻĢ
Ġì¡° íıŃ
ĠìĬ¬ëĿ¼ ìĿ´ëĵľ
Ġìĺ¤ ëħ¸
Ġë°ľ íĤ¤ë¦¬
ĠìķĦì ľł
Ġëħ¸ ê³¨
ìĤ¼ ì§Ħ
Ġìĭľ ë²Ķ
ĠS ch
Ġë¶Ħë °°
íĴĢ ìĿ´
t y
Ġìĺ¤ ì¦Ī
Ġê³µ ì§ľ
Ġì´Ī ì½Ķ
Ġì¿ µ
Ġf rom
íĥĲ ìłķ
ĠìĪĻëł¨ ëıĦ
Ġíķĺ ëıĦ
ĠìķĦ íı¬
Ġìļ° ìĬ¤
Ġìķ½ ì²´
ĠL O
Ġë¯¸ ìĨĮëħĢ
ĠíķŃ ëª¨
íĻľ ìķ½
ĭ ĺ
ĠëĮĢ êµ°
Ġr ight
ìķ Ĭ
Ġì¤ĳ ë¶Ģ
Ġìĥ Įëĵľ
ãĤ ģ
ĠíĿ¬ìĥĿ ìŀĲ
Ġìĭľë®¬ ëłĪìĿ´ìħĺ
8 00
ë Ĵ¤
Ġìłľë °ľ
Ġë§¹ íĻľìķ½
ķ ·
Ġê¹Ģ ìľ¤
ëĦ¤ ìĿ´
ìĬ¤íĥĢ ìĿ¼
ê³ł ìĬ¤
ĠíĻĶ ê°Ģ
ì£¼ êµĲ
Ġì´Ī ìłĲ
ĠìĿĳ ìĭľ
b le
Ġê³ł ìĬ¤
ĠáĨ¯ ëŀĺ
ĠìĪĺ ìĭł
Ġâ Ī
Ġ197 5
Ġë¯¸ ìĪĻ
Ġìķ¼ë§ Ŀ
Ġë® Į
ĠëłĪê· ¤ëŁ¬
Ġìĭł ìĪĺ
ĠS A
¨ ¸ë¦¬
å ¹
Ġì§Ģ ë£¨
Ġìĺ¤ ìĹŃ
êµĲ ìĤ¬
Ġëŀľ ìĦľ
ìĬ¤ íĬ¸ëĿ¼
ĠëıĻ ìĥģ
ĠíĹ ¨
ĠíĶĮë Ł¬
íĶĦë Ŀ¼ìĿ´
ĠëĮĢ ìĭľ
ìĸ´ ì§Ģ
ĠN ight
Ġë°°ìĭł ìŀĲ
Ġì°° ëĤĺ
ĠìĺĪê³ł íİ¸
Ġê²° ìĿĺ
Ġ10 3
Ġë¯¼ ì¤ĳ
¡ ¯
Ġìłģ ìĭľíĥĢ
Ġê²½ ë³´
Ġíĺ¹ íıī
ë¨¼ íĬ¸
ĠìĬ¤íĨł ì»¤
Ġê°ľ êµĲ
Ġíıī íĮĲ
Ġë¹Ħì °¸
íģ´ ë¦¬
ĭ Ń
Ġì¡° ë¦½
Ġëį°ìĿ´ë¹ Ĺ
Ġíıīë¡ł ê°Ģ
Ġê°ķ íĥĪ
ê² ¸
ëĭ īìĬ¤
Ġì£¼ êµĲ
ĠíĻĶ ìĦĿ
ĠìĦĿ ìľł
ĠìĦ¸ ì»¨
Ġë§¤ ê·¸ë
Ġê³¨ íĶĦ
20 13
ĠíĥĪ ìĤ¼ì§Ħ
íį¼ë ĭĪ
Ġìĭ±ê°Ģ íı¬ë¥´
P N
Ġíķ´ ìłĦ
Ġê´Ģ ë£Į
Ġë¶Ħì ĩĦ
Ġn ot
6 7
ĠìĿ´ ëĵľ
ĠìŀĲ ëĦ¤
Ġì¶ ¥
ìļ´ ìĪĺ
ĠL a
Ġëĭ´ ìŀĦ
Ġíľ´ ë¨¼
Ġíķĺì§Ģ ë©Ķ
ĵ £
Ġë§Ī ìĿĮë
Ġê³µ íĹĮ
Ġë°ĺ ê¸°
ê» ĳ
Ġë§ĪìĿĮë ĮĢë¡ľ
Īë £¨
ĠM on
ĠëłĪ ìĿ¸ë³´ìļ°
Ġì¹´ì¦Ī ë§Ī
Ġëŀ į
Ġíİĺ ë¦¬
Ġç ´
Ġíĸ Ħ
Ġíı¬ íħĲ
ĠìķĮ ìķĦë
Ġë°ľìĤ¬ ê¸°
3 00
ĠìĿĺ ìķĦ
Ġíı¬ ìħĺ
ĠíķĻ ìĤ¬
ĠëģĿ ìŀ¥
Ġìļ´ìĺģ ìŀĲ
ëĪĦ ìĬ¤
Ġìĸ´ ëĤĺ
¸ë į°
Ġë³´ íİ¸
Ġìľł ì¹´ë¦¬
ĠëıĻ ìĦľ
ĠM us
ĠE l
Ġc om
Ġë¬´íķľë ıĦìłĦ
ĠìĬ¤ ìĻ
Ġë°ľ ê¸ī
Ġë°ĺ êµ°
ĠíĻ© ìĭ¤
Ġ197 6
Ġì¤ĳ íķĻ
Ġê°ķ íĥĢ
Ġë¦¬ ë¯¸
ĠìĤ¼ìĦ± ìłĦìŀĲ
Ġë§Ī íķĺ
ĠëĿ¼ë Ŀ¼
Ġê°ľ íĮĲ
ĠíĨµ ìĨĶ
ĠA t
Ġê·¹ ìļ°
Ġê¿ ĩ
ĠìĤ¬ ê·¹
ìĽ ¬
Ġìļ° ì¹ĺ
Ġìļ° ëĳĲ
ì°¨ ìĿ´ì¦Ī
ĠìĻķ ê°Ģ
Ġ12 8
Ġãģ ł
Ġ11 2
Ġëļ Ŀ
ĠëĪĪë ıĻìŀĲ
Ġìĭłëį° ëłĲëĿ¼
Ġì§Ģ ë©´
ĠìĿ¼ ì£¼
ĠíŀĪ ê°Ģìĭľ
ĠìĻ¸ë ¡Ń
ĠìĨĮ ìĥĿ
Ġì¶ľ ìłľ
Ġãģ ¿
Ĥ¨ ëıĦ
ĠíħĮìĿ´ íĶĦ
Ġìĭľ ìĸ´
Ġï¼ Ī
ĠíĮĮ ìĿ´íĬ¸
Ġìŀħ ìĭľ
Ġë§Ľ ë³´
ĠìĿĺ ìĿĺ
Ġìĭł ìŀĦ
ĠíĮ¨ ëĵľ
Ġìĺ¤ë¡ľ ì¹ĺ
ĠìĪĺ íķĺ
ĠìĬ¤ íĶĮëŀĺ
Ġë¦¬ ì²ĺ
Ġìĥ¤ ìĺ¤
ĠìºĶ ìĬ¬
ĠëĤľë ¯¼
Ġë§Ī ìĿ¼
Ġãģ Ł
Ġì»´ ë°±
Ġì§Ħë ıĦ
ĠQ u
ì§Ģ ìĤ¬
Ġìĭľ ëª¨
Ġì¡° ë¡ľ
Ġë¶Ī ì¾Į
Ġë¯¸ë ģ¼
íħĮë Ŀ¼
Ġë¹Ī ìķ½
Ġê²Įìĭľ ë¬¼
Ġê°Ŀ ê´Ģ
ä¹ ĭ
Ġëģĵ ìĿ´
ĠìĦ± ìĪĻ
íĦ´ íĬ¸
ĠìŀĶ íķ´
Ġï¼ ī
Ġì¹´ ëłĮ
íĨ °
Ġìķħ ìĸ´
Ġì¿ł ë£¨
Ġìķ¡ ì²´
Ġê²½ìĥģ ë¶ģëıĦ
´ Ŀ
Ġìĥģ ìĸ´
ĠS o
ĠìĬ¹ ê¸ī
ĠíĶĦë¡ľëĵĢ ìĬ¤
6 5
Ġë¶Ģ ìłģ
Ġìłķ íĺķ
Ġë©Ķ ìĦ¸ì§Ģ
ĠíĮ© íĬ¸
ì ģ
Ġê°Ģ ë¸Įë¦¬
Ġëĭ¬ ëŀĺ
Ġë³µ ìĿĮ
Ġìķħ ìĿĺ
Ġìłľ ëĭĪ
Ġê±¸ ì¦Ī
Ġíĺ¸ë ĵľ
æ Ļ
Ġì¡° ìĪĺ
an ge
ĠìĿĳ ëĭµ
Ġ en
ĠìĿ´ ëħĲ
ĠëĤ¨ ìĸĳ
Ġë©Ķ ëª¨
Ġë³ĳ ìĹŃ
u k
ĠìĦł ìĽĲ
E L
ĠëĮĢ ìĪĺ
ĠìĪľ ì°°
ĠíĶĦëŀŃ íģ¬
ĠëĮĢ ëªħ
Ġì´Ī ê³¼
Ġì§ģ ì±ħ
Ġê·¹ ìķħ
Ġì§¤ ë¦¬
ĠìĹĲ ë°Ģë¦¬
Ġëĭ¨ ìĹŃ
Ġ17 5
Ġê³¤ ì¶©
Ġ all
ĠìĿ¼ ê°ģ
Ġìĭ¤ ë¡ľ
Ġë¯¸ë ¡ľ
Ġì¤Ħ ê¸°
ìĿ¸ ê°Ħ
ĠìłĦ íķĻ
ĠìĹ¬ ì£¼ìĿ¸ê³µ
Ġë¬¸ ìĿĺ
ĠìłĦë ıĦ
Ġë¡ľ ë¹Ħ
ĠëłĪ ëĤĺ
Ġê¸Ī ìļĶìĿ¼
ĺ Ī
Ġê±° ì§Ģ
ìĥģ ê°Ģ
Ġíģ¬ ëŀĺíĶĦíĬ¸
ĠR o
ĠëĮĢ ëĵ±
íĥĢ ìļ´
Ġíĺ¸ ìĿĳ
Ġëħ¸ íĬ¸ë
Ġìĭľ ëĦ¤ë§Ī
Ġë¹Ħ ê¼¬
Ġì²ł ê°ĳ
Ġë§Ŀ ìĥģ
Ġê¹¨ ìļ°
Ġìµľì¢ħ ìłĦ
6 9
Ġì¹´ ìĤ¬
Ġì§ģ íĸī
ĠíħĮë ĭĪìĬ¤
Ġëħ¸ë¥´ ìĽ¨ìĿ´
Ġëĭ¤íģĲ ë©ĺíĦ°ë¦¬
Ġë³¸ ìĿĺ
ìķĻ ìĬ¤
ĠíĢ´ ì¦Ī
ìĤ¬ ìĭ¤
ĠëĤ´ ìłķ
ĠìĤ¼ ê±°ë¦¬
Ġêµ³ íŀĪ
ĠìĬ¤íĨł ìĸ´
çļ Ħ
Ġì²Ń ì¶ĺ
ĠìķĪë ³´
Ġì°½ìŀĳ ë¬¼
Ġì¸¤ ëį°ëłĪ
Ġê³ł ì¢ħ
ĠíĶĦë ¡¤
Ġë©Ķ ëĶĶ
ê°ľ ìĿ¸
Ġì§Ħì Īł
Ġì¿ ¤
Ġëĥī ëıĻ
Ġä¸ ī
ŀ Ħ
Ġëĵľëŀĺê³¤ ë³¼
ĠìķĪë ıĻ
Ġë©ĶìĿ´ìłĢ ë¦¬ê·¸
Ġê°Ģ ìĦ¤
ĠëıĻ êµ¬
Ġê¹Ģ ìĹ°
Ġê¸ī íĸī
at er
ĠíĻĺ íĺ¸
ì¨ ©
ĠëĤĺ ëŀĢ
ic s
Ĥł ëĳĲ
ĠíŀĪëĤĺ íĥĢ
ê³µíĻĶ êµŃ
Ġì¤ĳ êµ¬
ĠìķĦ ìŀĲ
Ġêµ¬ ìłľ
Įë įĶ
Ġë°ľë °ľ
7 2
ç ī
ĠáĨ«ëĭ¤ ëĵł
Ġíķ¨ ìŀ¥
ëĳ Ķ
Ġì±Ħì °į
ĠëıĦ ê°Ĳ
ĠëĮĢ ëª©
Ġë°° íĬ¸
ĠíĨµ ì¦Ŀ
Ġê¸°ìĪł ëł¥
Ġ21 0
Ġì¡¸ìĹħ ìĭĿ
Ġ É
ë¯¸ êµŃ
Ġê°Ĳ ìĦ±
Ġì§Ī íĻĺ
ĠìĤ¬ ë¬¼
Ġìĭľ ê°Ģì§Ģ
Ġìłķ ì¤Ģ
ì¹´ ê²Į
Ġì§Ħë ¡ľ
Ġê·¸ëĿ¼ ìļ´ëĵľ
Ġíķĺ ê¸°
ì§Ģ ìķĬ
ìĹ ł
ëª ¸
Ġë°ľ íĥģ
ĠB o
Ġíŀ ĮíĬ¸
Ġê´´ ìĿ¸
ĠìĸĮ ìłĦ
Ġê±° ê¾¸ë
Ġë§Ī ìĪĺ
ĠìĿ¸ë ¬¸
Ġê²½ì°° ì²Ń
ĠíĮ© ìħĺ
Ġíħį ìĤ¬ìĬ¤
íķĦë ¡ľ
Ġìĸ´ëĵľë °´
å İ
Ġìĭľ ì¡°
Ġìĺ¤ íİĺëĿ¼
Ĩ Ģ
Ġì£¼ ìľł
ĠêµĲ ìĹŃ
in al
Ġì¼Ģ ë¦¬
Ġì°© ì§Ģ
Ġê°ĢìĿ´ ìķĦ
ê· ¼ë
Ġìľłì¹ĺ ìĽĲ
è »
Ĩ Ī
ê³ł ìĤ¬
Ġìĭł ìĥĿ
ìĨĮ ìĪĺ
Ġë§ŀ ë¬¼ë¦¬
Ġíĺ¸ë ĤłëĳĲ
Ġn d
ãħĭ ãħĭ
ìĿ Ħë
Ġìĥģ ê³µ
ĠR ed
ëĿ¼ë ĬĶ
Ġä ¼
ĠìĽĲ ë§Ŀ
ãĤ ı
ĠíĹ¤ ëĿ¼
ĠìķĦìĬ¤ íĬ¸ëĿ¼
ĠìĿ´ìĤ¬ ìŀ¥
ĠëıĦ ì¿ł
ĠìĤ¬ ìĻĢ
ê³¼ ìĿ´
ìĸ¸ ìĬ¤
ê¶ ĮëıĦ
ĠV ol
ìķĦì Ĭ¬
Ġì¿¨ íķĺ
8 5
ĠìĪĺ ìĹ¬
ĠíĮ °
Ġê²½ìĥģ ëĤ¨ëıĦ
ĠêµĲì°¨ ë¡ľ
6 4
ĠëĤ ¯
Ġìĺ¤ ê³µ
ĠëįĶ êµ¬ëĤĺ
Ġå ¿
ĠìľĦì ĭľ
ĠR em
ĠìłĦë°ĺ ê¸°
ĠìĭŃìŀĲ ê°Ģ
íĥĦì ´Ŀ
ë² ³
ĠìĽĲ íĻĶ
ĠC o
ĠëŀĢ ìĬ¤
ĠìĿ´ìĪľ ìĭł
ĠìĿ´ ëĭ¨
Ġë§ ĳ
Ġìŀ¬ ì¦Ī
or s
Ġíĥģ ìĽĶ
íĤ¤ìĬ¤ íĥĦ
Ġìķ Ĺ
Ġë¶Ģ ì²ĺ
Ġìļ° ëĿ¼
ãĤ Ħ
Ġë¹Ħë ĭ¨
ë°ķ ìĬ¤
íĳ ľë
ĠìĬ¤ì¼Ģ ì¤Ħ
Ġë§Ī ì§ķ
ĳĲ ë¥´
Ġë¦¬ ì½Ķ
ĠíĽĦë ĵľ
Ġë§ĮíĻĶ ê°Ģ
Ġê¸° íĸī
ĠìĪĺ ì»·
Ġìłķ ì¡°
Ġê¹Į ìĿ´
Ġìłľë ³´
Ġì§ĢìĹŃ êµ¬
Ġë¯¼ ìĽĲ
F L
ç ľ
Ġë¸Ķ ëĿ¼
Ġê·¼ ìĦ±
Ġì¹¨ íķ´
ëĺ Ĳ
Ġì§Ģ ê·¹
Ġìĭľ ëģĦëŁ½
íĭ° ì½ĺ
ĠìĬ¹ íĮ¨
ìľĦì ĽĲ
Ġë¶Īê°Ģ ìĤ¬ìĿĺ
Ġë²łë¥ ¼ë¦°
ħ Ħë
ĠìĬ¤íĥĢ ì¦Ī
ëĬĲ ëĭĺ
Ġëĭ¤ ì§Ĳ
Ġë¡ľ ìĬ¤íĦ°
ĠìĦ¸ ìŀĲ
Ġë²Ħ íĦ°
er t
íĬ¸ë £¨
Ġíĺ¼ ìĿ¸
ĠíķĦë ĳĲ
Ġìºĺë¦¬ íı¬
Ġë©´ ìłľ
ëıĦ ìĸ´
ãĥ Ł
ap p
ĠìĿ´ ì¼Ģ
Ġìłķ ìĦľ
ĠìķĦë ĭ´
ĠíķĻ ìłĲ
ĠëĦ¤ ìĿ´ìħĺ
Ġíģ´ ëŁ¬
ĠìķĦìĬ¬ ìķĦìĬ¬
ĠìĻ¸ ìķ¼ìĪĺ
³´ ëĵľ
Ġê²© íĩ´
Ġê°Ī ê¸°
Ġë§Īë¥´ ì½Ķ
Ġê¸° íķľ
íİ ĳ
Ġë§¤ íĬ¸
ĠëĦĪ íģ´
Ġë¶Īë¦¬ ìļ°
²ł ë¥´
Ġë®Į íĹ¨
Ġìĭł ëħĲ
Ġìµ ¸
Ġì°¸ ìľ¼ë¡ľ
ĠD o
ĠíĤ¤ ìļĶ
Ġìķŀ ìĦ¸ìļ°
Ġì§Ģ ê°ģ
ĠíĥĢ ë¡ľ
Ġë³¸ ê°Ģ
ë¦¬ íĬ¸
ĠìŀĲ ì¹«
ĠìĪĻ ì£¼
íĸ Ħ
Ŀ¼ë ³´
ìłľ ìĬ¤
Ġìłľ ìĿ¸
Ġë¦¬ ë²ł
ê¸Ģ ë§ģ
ãĥĥ ãĤ¯
ĠìķĮìķĦë ĵ£
ĠìĤ¬ ëĤ´
ĠìĦ± íıŃ
Ġì¡° íķŃ
Ġì¹´ íħĮ
ìĤ° ëıĻ
Ġ10 9
ĠF ire
ĠìĬ¤íħĮ ìĿ´
Ġ197 4
ĠìĿ¸ ì²´
Ġì¶Ķ ê¶ģ
ĠG M
ĠìĤ° íĥĦì´Ŀ
ĠíĮĮìĿ´ íĶĦ
ĠìĤ¬íļĮ ì£¼ìĿĺ
Ġ197 2
ĠìķĦì¹´ ìĿ´
Ġë¬´ì§Ģ ê°ľ
Ġãģ£ ãģ¦
æ ľ¨
íķĺ ìĹ¬
íĬ¸ë Ħĺ
Ġê¸Ī ê³ł
Ġç µ
Ġë¶Īë ¬¸
ĠáĨ¯ì§Ģ ëĿ¼ëıĦ
Ġê°ĢëĿ¼ ìķī
D S
Ð »
¡ľ ëĵľ
Ġê¹ ½
Ġì¹´ ë¥¼
ëłĪ ìĺ¹
ĠëıĦ ìĤ¬
ĠìĬ¤ ìĻĢ
ìĥģ ìľĦ
Ġë§¤ ê¸°
ĠìĹ¼ë ĳĲ
å· Ŀ
le t
ĠìĨĮë¹Ħ ìŀĲ
ë İ
Ġë³´ ì§ģ
Ġìľł ì§Ħ
ĠìĦł íļĮ
Ġ... !
ĠíĨµ íĸī
Ġì¦Ŀ ìĿ¸
Ġì»´ íį¼ëĭĪ
Ġê¼¼ ìĪĺ
éĩ İ
Ġê±°ê¾¸ë ¡ľ
O O
Ġë¬´ ëĦĪë
Ġíķ´ ìļ´
Ġë§ŀ ëĮĢ
ĠëķĮëł¤ ìŀ¡
Ġê²½ ì§Ģ
ĠíĶ¼ ì¹ĺ
ing s
ê³ §
Ġê´Ģê´ĳ ê°Ŀ
Ġë°ľ ìłĦìĨĮ
at s
Ġë§Īë Ŀ¼
Ġíķ¸ëĵľ íı°
Ġìĸ´ ê¸ĭëĤĺ
ĠìĤ¬ ìļ°ìĬ¤
ĠíĶĦë¡ľ ê·¸ëŀĺ
ĠìĬ¤íĥ ľë
ìµ ¸
Ġë¬´ëĦĪë ľ¨ë¦¬
Ġì¹ĺ íķĺ
Ġ12 1
ëįĶ ìĬ¤
ë° Ń
ĠëĳĲ ë£¨
ĠìĦĿ ìĥģ
ĠìĬ¤íĥĪ ë¦°
T R
ĠìĦ± ì§Ģ
ĠìĹ° ìŀĩ
Ġë¬¸ ìĭł
ĠìĦ¤ ë§Ī
at ch
Ġw ill
łĪë ¸Ĳ
m a
w ay
ĠìĬ Į
© º
Ġ11 1
it t
å¯ º
Ġíķĺ ì¹ĺ
Ġê±° íĴĪ
Ġëĵ± ìŀ¬
ĠìĹ° ëĭ¬
Ġìĸ´ëĤĺ ëįĶ
Ġì£¼ íĻ©
ĠíĶ¼ ìĺ¤
Ġíķĺë£¨ íŀĪ
Ġì§Ģ ìĦ±
Ġë³´ ë£¨
ĠS l
Ġìłľë ĮĢ
Ġì´Ŀ ëıħ
Ġ197 7
Ġíĵ¨ ìłĦ
ĠìłķëıĦ ìłĦ
Ġt r
ĠìĽĮ íĦ°
Ġl v
ĠìĬ¤ ì¿ł
ĠìĿ¼ë ¡Ģ
ĠìĦ¤ íĥķ
Ġ12 00
ĠëĿ¼ìĿ´ íĬ¸ë
Ġíĥ± íĤ¹
Ġê°Ģë¸Įë¦¬ ìĹĺ
Ġíĺ¹ ìĤ¬
Ġìłľ ê°Ī
ĠíĻķ ìĹ°
Ġì²ľ ìĥģ
å¤ ©
ĠìĬ¤íĮĮë¥´ íĥĢ
ĠìĿ´ ë§Į
ĠìĤ¬ ìĨĮ
ìłĦ íĬ¸
ë²Ī íĺ¸
ĠìĿ´ìļ© ê°Ŀ
ĠìĬ¤ ëª¨
Ġì¹´ ë¥¼ë¡ľ
Ġë°ķ ì¢ħ
ĠëĪĦë ªħ
ëļ «
ĠìĪĺ ìĦ±
Ġìĥģ íķľ
Ġìľł ìĭł
Ġìľł ë¨¸
Ġêµ¬ íĺ¸
Ġíı¬ ëıĦ
Ġì¢Į íĮĮ
ë§Ī ìĤ¬
ĠP ar
Ġì´Īë Ĭ¥
ĠìĨĶ ìłĢ
ĠíĬ¸ëŀľìĬ¤ íı¬ë¨¸
ĠìĿ´ ì¿ł
ĠìłĦë ĳĲ
ĠM E
Ġìķ½ ì¹Ń
Ġìĸĳ ìĭ¬
íį¼ë ĵľ
ëĭĪ ìĻĢ
Ġ19 0
Ġíıī ëĵ±
ĠíĤ¤ ëĵľ
íħĮë Ħ¤
ìŀĦì ¦Ī
Ġìĥģ ë¶Ģ
ĠG G
ì¼Ģ ìĿ´
ê¶Į ìŀĲ
Ġì£Ħì Īĺ
Ġë°° ìĥģ
ĠìķĶ ì»·
Ġì±ħ ìĥģ
ĠíĿĳ ë§Ī
ĠìĤ¬ìķ¼ ì¹´
å ³
Ġì¡´ ìĬ¨
Ġë¯¸ë ¯¸
íİĺ ë¦¬
Ġë°ĶìĿ´ íģ¬
Ġë¶ĢìĤ° ê´ĳìĹŃìĭľ
íķĦë¡ľ ê·¸
Ġìĸ´ ìłľ
Ġê³ł ëł¹
ĠìĦ± ê¸°
Ġã Ĥ¹
ĠM k
Ġë¹Ħë ¡ľ
ĠíħĮ ìĺ¤
ĠìŀĲ íĮĲ
ĠìĿ¼ íĴĪ
ì² ¸
Ġíģ¬ ë¡¬
ĠíħĮ ìĿ¼ì¦Ī
ĠíĿ¬ ëĮĢ
ĠìķĪë ©´
ä ¿
Ġë¶Ģ ì¹ľ
ĠìĿ¼ ìĤ¼
Ġê²°ìłķ ìłĦ
ĠíħĮíģ¬ ëĭī
ëĩ ¨
° ¥
Ġíķĺ ëĬĲëĭĺ
ĠS er
Ġìļ© ìĿĺìŀĲ
Ġê°ľë ¯¸
os s
Ġë°ķ ì¥Ĳ
ĠíĪ¬ ëĭĪë²ĦìĬ¤
Ġíķ© ë²ķ
ĠëłĪìĿ´ ë¸Ķ
ê± Ģ
ĠëĤĺíı´ ëłĪìĺ¹
y e
Ġê³ł ê³ł
Ġê³µ êµŃ
q ue
ë¦¬ ê°Ģ
Ġíķľ ìĸĳ
Ġê°ľ ê·¸ë§¨
Ġìĭ¬ ë¬¸
ĠëĤĺë£¨ íĺ¸ëıĦ
Ġê¹Ģ ì£¼
Ġì·¨ ì§Ģ
Ġëīĺ ìķĻìĬ¤
Ġë¶Ģ ëŁ½
Ġê°ķ ìĬµ
Ġìķ¨ ëŁ°
¯¸ë Ĥĺ
ĠìĬ¤íİĺìĿ¸ ìĸ´
Ġë¹Ħ íĤ¤
Ġë¯¸ë ¥´
Ġê¹ĥ ëĵ¤
Ġë¦¬ íĥĢ
ĠSt e
íģĺ ëĿ¼
ĠìķĪ íĨłëĭĪ
ë¹ Ĺ
ĠT OP
Ġé »
Ġìļ°ëĳĲ ë¨¸ë¦¬
Ġê³µ ì²ľ
ĠìłĢ ê¸Ģë§ģ
Ġìŀ¬ ë¹¨ë¦¬
ĠëĬ¥ ìĪĻ
ĠìĦľë ªħ
ë¯¼ ì£¼
ìĹ¬ ê¸°
Ġë°©ìĨ¡ ìĤ¬
Ġëĵľ ë¦´
łĪìĿ´ íĬ¸
Ġë©¸ ì¢ħ
Ġëĭ¤ íĪ¼
ëĤĺ ë¥´
ë¡ľ ë¡ľ
ĠìķĦ ë¦¬ìķĦ
ãĥĥ ãĥ
¸ë Ŀ¼
Ġì£¼ ê°Ģ
Ġíĥ ĦëıĦ
Ġë§Ī ì¹´
Ġì¤ĳ ëħĦ
Ġëªħ ëªħ
ĠíĪ¬ ìĦ±ìĿ´
Ġë¯¼ ìłķ
Ġê¶ģ ìłĦ
ĠìĪł ì§ĳ
ĠìĻ¸ë ©´
Ġêµ¬ëıħ ìŀĲ
ĠìŀĲ ê°ģ
Ġì¡° êµĲ
8 9
ãģ Ľ
ĠI m
ì´ Īë
Ġ197 1
± Ģ
Ĩ Įë
ĠìĹĲ íķĦë¡ľê·¸
Ġíķľ ê°ķ
Ġì¶Ķ ëª¨
Ġê°Ĳ ê¸°
Ġãģ ¡
Ġå ¹
Ġë£¨ë§Ī ëĭĪìķĦ
j ect
ë§Ī ìĿ´íĬ¸
Ġth is
ĠëĶĶìķĦë ¸Ķë¡ľ
ĠíķĺìĹ¬ ê¸Ī
ĠíĬ¸ëŁ¬ ë¸Ķ
Ġê³µ ê³ł
ìĦ± ìļ°
Ġë°ľ íĨ±
Ġê¿° ëļ«
Ġëħ¸ ìĪĻ
ĠE m
ĠìĬ¬ ìĬ¬
ĠìĿ´ íĥĢ
ĠìķĦ ë¦¬ìĬ¤
ëĤ Ń
ĠëĮ Ĳ
Ġëļľ ê»ĳ
Ġë¯¸ëıĦ ë¦¬
ê° Ħì
Ġë¡ľ ìĬ¤íĬ¸
Ġë¹ Īë²Ī
ĠìĿ¼ íĻĺ
ĠíĨł ìļ°
Ġãģ Ļ
ì»¤ ëħķ
ĠëĿ¼ìĿ´ ìĦ¼ìĬ¤
ìĬ¬ ëĿ¼
Ġëª¨ìĸĳ ìĥĪ
Ġìľł ì¦Ī
Ġìŀ¬ ë°°
Ġç Ľ
ver y
y pe
Ġê¸° íĶ¼
Ġê´Ģ ìłĪ
ëĤ´ ë¦¬
Ġìĭ¬ íĻĶ
ĠíŀĪë¹Ħ íĤ¤
ĠìŀĲ ìľĦëĮĢ
ĠëıĻ ìĤ¬
ĠìķĦ íı´
ĠìĬ¤í Ģ
ĠíĽĪ íĽĪ
ĠìĤ´ìĿ¸ë §Ī
G A
ĠìĤ¬ íĥĦ
ë¶Ģ íĬ¸
ê±° ìĬ¤
Ġê¹Ģ ìĦł
Ġëª© ëıĻ
Ġìĸĳ íĮĮ
ĠìĲ Ĳê¸°
ĠD R
Ġë²Ķ íĸī
Ġê¸°ê´Ģ íı¬
Ġê¹ĢëĮĢ ì¤ĳ
Ġì¡´ ëĮĢ
ĠëĿ¼ìĿ´íĬ¸ë ĭĿ
Ġ one
Ġê³µ ìŀĲ
Ġì»¤ ë¹Ħ
Ġë®¤ ì§Ģìħĺ
Ġì¡°ì§ģ ìĽĲ
Ġê³µìĤ° ì£¼ìĿĺ
t a
Ġê±° ë¥´
Ġë¬´ ë¹Ħ
Ġì¹´ ìĿ¼
Ġë²Ī ìĭĿ
Ġë°° ìĨ¡
ì²ľ êµ°
Ġìĺ¥ íĥĢ
íĤ¨ ìĬ¤
Ġíĺ¼ë ıĻ
Ġíĺ ¸ë¦¬
Ġê³µ ëª¨
ĠíĨł íĬ¸ëĦĺ
Ġíĥľ ê¶ĮëıĦ
Ġé «ĺ
ĠìķĦìĤ¬ íŀĪ
ĠKT X
ì« ĵ
ĠëıĻ íĺ¸
Ġë°ĺ ë¡ł
Ġì¹ĺ ë§Ī
Ġìĭ¬ ìķ¼
ĠëıĦëĿ¼ ìĹĲëª½
ì§Ģ ë°©
Ġìĺ¤ ë°Ķ
Ġëĭ¬ ê±Ģ
ĠìĿĺ ìłķë¶Ģ
Ġì¤ĳ ëıĦ
ĠìłĦë ¡Ģ
Ġå Ĭ
ëģ Ī
Ġìĺģ ëĵ±
ì¤Ģ íĳľ
ĠíĻķ ê³ł
Ġìļ´ ìĦĿ
ou gh
Ġê²¸ íķĺ
ë° ¤
ê³µ ê²©
ab le
Ġë¦¬ì²ĺ ëĵľ
Ġëĭ ·
íĨµ ìĪĺ
Ġì§ĳ íķ©
Ġë¸ĮëĿ¼ë įĶìĬ¤
c he
Ġìłľ êµ¬
ĠìĦł ìĿ¸
Ġë¶Ħ íı¬
ĠíĮĮë Ŀ¼ë
Ġìµľê°ķ ìŀĲ
ìĭľìĬ¤ ì½Ķ
Ġì²ľë ¬¸
Ġì¤ĳ ê¸ī
ĠìĿ¼ë ²ł
Ġê·¸ë¦¬ìĬ¤ ëıĦ
Ġë©ĶìĿ´íĶĮ ìĬ¤íĨłë¦¬
ĠíĶĦëŀľ ì°¨ìĿ´ì¦Ī
ĠìĹĲ ìĿ¼ë¦¬
Ġê³ł ëĵł
ĠëĤ¨ ë¯¸
Ġíĺ¸ êµ¬
Ġíķľë °©
ĠìĨĮê¿ī ì¹ľêµ¬
Ġí īģ
Ġê¸° ë³µ
Ġê³µ ëĮĢ
Ġ4 000
Ġíİ¸ ê²¬
ìĬ¤íĦ° ì¦Ī
íĭ± ìĬ¤
Ġëª¨ìĬ¤íģ¬ ë°Ķ
ëĭ¤ ìĬ¤
ĠìĹ¬ ìºĲ
ĠëıĻ ëĵ±
Ġë²Ī ê°Ī
ĠE BS
ĠìĪŃ ë°°
į ±
Ġìĭľ ëħ¸
Ġì£¼ ê±°
Ġë°ĺ ê²½
Ġìķł ìĵ°
ĠíĹĮë ³ĳ
ĠìĦ± ê¸°ìĤ¬
Ġì½Ķ ëĶĶ
ĠìłĢ ê±°
Ġíķ¨ ìĦ±
ĠìĹĳ ìħĢ
Ġäº º
¾ į
ĠìĤ¬ ìĬ¬
Ġë°° ë¦¬ìĸ´
Ġë§¥ ëĿ½
ë¬ ¼ë
Ġì§Ģë°° ìŀĲ
ĠíĭĢ ìĸ´
ĠíİŃ ê·Ħ
7 1
ķ ãĤ
ĠëıĦ ìļ°
ëĤĺ ë²ł
ĠìĬ¤ ì½ľ
Ġíİ Ħ
Ġê°ķ íĺ¸
ë¬´ ìĭ¤
ë¬ ¸ë
ĠìĪĺ ëĿ¼
ĠìĹ¬ ìŀ¥
ĠM M
ãĥ §
Ġë³µ ìļ©
ìļ¸ë Ł¬
Ġì¹ľ ìķł
ĠìĻ¸ ê´Ģ
íĪ Ń
ĠìĤ¬ ìĹŃ
Ġë¯¸ ìĦ¸
Ġíı¬ íģ¬
ĠT ime
ĠìĨĲ ê¶Į
ç¾ İ
ĠìĿ´ ê²½
Ġìľ ¨ë¦¬
ĠëĮĢ ìķĪ
ãģ ĺ
Ġëŀľ ìĬ¤
ĠìĦ¹ ìĭľ
ĠìĿ´ ëħ¸
ë§Ī ëĵľ
Ġì¹´ìĿ´ ìłĢ
Ġãħ ĭ
Ġë§ĲëłĪìĿ´ ìĭľìķĦ
ĠìŀĲ ìŀĳ
Ġëĭ¨ ë§Ĳ
ĠI s
ĠìĤ¬ì²ľ ìĻķ
i um
ëŀ Ħëĵľ
Ġë§Ī ìĬ¤ì½Ķ
ĠìĦ± ëĮĢ
ĠìĿ¼ë ³´
Ġìĭ¤ ìĬµ
Ġ21 1
ĠíĮĮê´´ ëł¥
ĠëĶĶìĬ¤ íĶĮëłĪìĿ´
ìĮ Ķ
Ġë¸ĮëłĪ ìĬ¤
Ń ĩ
ĠT O
ĠëĶĶ ë¹ĦìłĦ
ìĻ¸ë ²ĦìĬ¤
ĠìĹ° ë§ī
Ġë¯¸ë ª¨
Ġíģ¬ë¡ľ ìļ°
ï ¼
ĠëĮĢ ìĻ¸
ĠìĹ° ê°Ħ
Ġë³¸ ìŀĳ
Ġì¤ĳìĭ¬ ì§Ģ
Ġë¸ĶëŀĻ íĻĢ
æ ķ
Ġì°¨ ìļ©
Ġ11 6
ĠìĻ¸êµŃ ìĸ´
ĠëĮĢ ìĬ¹
ĠíĥĢ íĤ¤
ãģ ©
Ġíģ´ ë¦½
ê·¸ë Ŀ¼ë
Ġì°½ ìĿĺ
ĠìĹ°ê¸° ëł¥
ra in
Ġìŀ¥ë¡Ģ ìĭĿ
i ent
Ġê°ľ ìĹ°
ĠS ou
Ġì§ĳ ìĤ¬
ê° ¤ëŁ¬
ë¯¼ êµŃ
ĠìĬ¤ì¿ ¼ëĵľ
ëŀ ©
ĠìłĦ ìŀĦ
ìĺ¤ ë²Ħ
íĭ ¸ë¦¬
Ġìĭ¤ ìŀ¥
ĠA L
Ġìĸ´ëĬĲ ìĥĪ
è ª
ë¦¬ ì¹¸
ëĭ¤ ëĭĪ
Ġ12 3
ĠíĶĦë¡ľ ìĬ¤íĬ¸
Ġë½ĳ ê¸°
Ġìĺµ íĭ°
ìŀ¬ íĮĲ
Ġë°ľ ì°¨ê¸°
ãĤ Ĵ
ë¬¸ íĻĶ
Ġãģ ĳ
ìĭľ ìŀ¥
Ġë¬´ ìĪĺ
ëĦ Ľ
ĠìĭĿ ìĬ¤
Ġê¾ ¸ë¦¬
êµŃìłľ ê³µíķŃ
Ġì£¼ íĮĮ
ë¶Ģ íĤ¤
ĠíĮĮ ê²©
ĠëłĪ ìĬ¤íĨł
Ġì°½ ë¦½
Ġn o
Ġìĺ¤ë¦¬ ìĺ¨
Ġë³´ ëĶĶ
ĠìĪĺ ì§Ģ
ĠëĶ ¥
Ġê°ķ ìĿ¸
Ġìŀ¬ ì§ģ
ãĥ Ĩ
ĠíĨł ë§ī
ĠíĮĮë ŀĳ
Ġì¹´êµ¬ ìķ¼
Ġì¹´íħĮ ê³łë¦¬
ĠìĤ¬ ë²Ķ
ĠëĮĢ ëĭĪ
ĠìĨĮ ë§¤
Ġëĭ¨ ìĨį
Ġì²ľ ê³Ħ
Ġë²Į ê¸Ī
ĠìĺģíĻĶ ìłľ
ĠìĦ¬ ê´ĳ
Ġë¬¸ë ²ķ
Ġê°ķìłĲ ê¸°
¹ Į
Ġìĭľ ìķĦ
ĠëıĻ ëĮĢ
Ġëĭ¨ ìŀĲ
ĠìĪľê°Ħ ìĿ´ëıĻ
ë¿ ľ
ĠìĿ´ ìĨĮë
ìĿĺ ëĭ¹
ĠíĮĮ ìĨĲ
ĠìłĦì Ĺ´
Ġìĥ ĲëŁ¬
ĠãĤ ĭ
Ġìĺ¤ëĿ½ ìĭ¤
ĠìĬ¬ëŁ¬ ê·¸
Ġìŀ¬ íĻľ
Ġê³Ħ ê³¡
ĠG en
Ġìĺ¤ë¦¬ ì§Ħ
ĠSe ason
ê¸° ìĹħ
Ġì§ģ ìĨį
ĠìĬ¤ë§Ī ìĿ¼
Ġíķ´ ë³Ģ
Ġìļ© ìĤ°
ĠO F
ìłĦì Łģ
ìħī íĬ¸
Ġìľł ìĬ¤
Ġê¹Ģ ìĿ¼
ĠëĴ¤ ìª½
ãĤ º
ë°± ê³¼
Ġìºĺë¦¬íı¬ ëĭĪìķĦ
Ġë¶Ģ ê´Ģ
Ġë¦¬ ë²ĦìĬ¤
ëĦ ī
ĠF PS
Ġê°ķ ìĪĺ
ì§Ħì ĺģ
¤Į ë§Ī
ĠìĿ¸ì±Ī íĬ¸
Ġë§ĪìĬ¤ì½Ķ íĬ¸
ĠìĬ¤ ê¸°
Ġë¬´ ìĥī
Ġì§ģ ìľĦ
Ġì¢ħ ë§Ĳ
Ġìķł ëĵľ
Ġê¸ī ìĨį
Ġì²Ń ìĤ¬
ĠìĬ¤íĥĢ ëĶĶìĽĢ
ĠìĺĪë °©
ĠìĨĮëł ¹
ãģ£ ãģ¦
Ġë°ĶëĤĺ ëĤĺ
ĠìĿ´ ëĿ¼ë
ìĹ ī
Ġë¦¬ ë³¼ë
ĠP er
ĠíĤ¤ ë¥´
Ġë³´ ë¥´
Ġê³¼ ê°Ĳ
Ġìľł ë©Ķ
ĠëĤ´ ë©´
Ġìĭ¤ ë£¨
ĠS L
ĶĶ ìķĦ
ãĥ ¡
ĠU C
ìĬ¬ ëŁ¬
ĠìĨĮëł¨ êµ°
ĠìĪĺìļ© ìĨĮ
T A
ĠíĴį ê²½
ĠìĪĺ ê°ķ
ĠìĿ¸ ìĩĦ
Ġê°Ĳ íŀĪ
ë© Ģ
Ġê·¼ë ł¥
ER O
Ġíģ´ëłĪ ìĸ´
ĠëłĪìĬ¤íĨł ëŀĳ
ĠìĹĲ ë°Ķ
ĠR P
Ġëĥ ħ
Ġì²Ń ìĤ°
ìĹĺ ëĿ¼
Ġë¹Ī íĭĪ
ê°Ģ íĥĢ
Ġë²ķ ìķĪ
Ġè ¡
Ġëĭ¤ ìłĢìĬ¤
ĠìłĢ ì¡°
ĠL TE
Ġc an
Ġë°Ģ ì¹ĺ
ëľ ¨
Ġë² Īë
ĠíĻĶ ìĭł
íĮĮ ë¦¬
ĠìĿ¸ë ªħ
Ġ24 0
ĠíıĲ íĹĪ
Ġë± ī
Ġì½ľë Ŀ¼ë³´
ĠëłĪìĬ¬ ëŁ¬
Ġëĵľë£¨ ìĿ´ëĵľ
D X
Ġë³´ ìĤ´
ĠìĦ± ëªħ
ĠëıĻ ì¡°
ĠìķĦë§Ī ì¡´
Ġë°ĺëŀĢ êµ°
Ġì±ĶíĶ¼ìĸ¸ìĬ¤ ë¦¬ê·¸
ĠìłĦì Ĩį
ê¸Ģ ëĿ¼ìĬ¤
ĠëĵľëĿ¼ íģĺëĿ¼
ì§ ¤
ĠB M
ëª¨ ìĸ´
ĠíĨł ëĦ¤
ĠìĻĦ êµ¬
¶ģ ëıĦ
ìļ° ìłĢ
ĠìķĦë ĵľ
Ġìľł ìķĦ
Ġë¬´ ê³ł
ĠêµĲ ëĤ´
ëłĪìĿ´ ëĵľ
Ġâĸ ³
Ġìłģ ìĦ±
ĠìłĦì Ĺ
ĠëĴ¤ íĨµìĪĺ
ãĤ µ
ĠìĬ¤íĥĢ ë¦¬ê·¸
Ġì±ħ ìłķ
Ġê·¼ë ¡ľ
Ġìĭ¤ëł¥ ìŀĲ
ĠìłķíĻķ ëıĦ
ĠíĶĮëĿ¼ ìĬ¤íĭ±
ĠìłĦëĳĲ íĻĺ
g er
Ġ ar
Ġì§ ļ
Ġíķľ íĥĦ
ĠëĤ´ ë¿ľ
ĠìĹ° ë§Ĳ
ĠëįĶ ëĿ¼ë©´
ãģ °
Ġ9 99
ĠíĬ¸ëłĪìĿ´ ëĭĿ
ĠìĿ´ ìłĲ
ĠëĿ¼ ì§Ģë§Į
íļĮ ìĿĺ
Ġíģ´ ëłĪìĿ´
Ġíĳ ¹
ĠìŀĲ ì§Ī
ĠíĥĢ ëĭ¹
ìłĢ ìļ°
Ġ10 2
Ġê²¨ ë£¨
ĠìľłëĭĪ ì½ĺ
Ġìĺ¤íĶĦë Ŀ¼ìĿ¸
Ġê°Ģ íĺ¹
©Ķ ìĸ´
Ġëħ¸ëŀĺ ë°©
Ġë¬¸íĻĶ ìŀ¬
Ġë²Ħë ¸Ķ
ĠíħĮëŁ¬ ë¦¬ìĬ¤íĬ¸
ct ion
ĠìķĦì ¤Įë§Ī
Ġì¶©ê²© íĮĮ
ĠæĿ ±
ĠíŀĪëį° ìļĶìĭľ
Ġë¹Ħë¡ľ ìĨĮ
Ġê°Ģ ìĿ´ëĵľ
ìĨĮ íĶĦíĬ¸
¥ ľ
Ġê²½ ì§Ī
Ġë§Į ìłĲ
ĠS y
ĠìĺĪ ìļĶ
Ġê¸¸ ê±°ë¦¬
ĠëĿ¼ìĿ´ ì¦Ī
ĠBG A
ĠìĿ¼ì£¼ ìĿ¼
ìĿ´ ëĤĺ
ĠìĽĲ íĿī
Ġì²ĺ ìłĪ
Ġê´ĳ ëĮĢ
Ġíİĺ ìĿ¸
Ġh ave
ĠìĽĶ ëĵ±
Ġíķ´ íĥľ
ĠìłĢ ê¸°
Ġêµ° ë¦¼
Ġì§ĳ íķĦ
Ġíĵ ¨ë¦¬
I L
ĠìĬ¤ ì¹¼ë
ì¤ĳ ê°Ħ
ĠëłĪ ìĬ¤
re ss
Ġ25 9
ĠëıĦ ë¦¬ìĸ´
Ġê²½ ìĦł
Ġìłľ ëĭ¤ìĿ´
ìĥĿ ëªħ
Ġb l
ĠíĹĪë ¸Į
Ġê¸° ê´´
Ġìļ° ìĤ°
Ġëĥī ê¸°
Ġë¸ĮëłĪìĿ´ ë¸Į
éģ ĵ
Ġì ĳ
íĥĢ ìļ°
ĠìĹ° íĥĢ
ëłĪ ìĺ¤
ĠìĽĲìŀĳ ìŀĲ
ı ¾
Ġë² Ħëĵľ
Ġì²´ ê²©
ĠëĪĪ ìķŀ
Ġíģ¬ë¦¬ìĬ¤ íĭ°
ĠëĮĢêµ¬ ê´ĳìĹŃìĭľ
ĠëĦī ëĦī
ĠëĲĺìĤ´ ë¦¬
Ġì¹´ì§Ģ ëħ¸
Ġë²Ķ íķĺ
Ġíĩ´ ìĹŃ
Ġìĭľ ì´Ī
Ġë°± íķ©
Ġë¡ ¤ëŁ¬
ĠëŁ¬ ìī¬
ĠìĿ´ ìĿĺ
ĠëĮĢ ì°¨
ĠíĮ ľ
Ġë¦¬ ìĹĺ
ĠëĶ° ëıĮë¦¬
ĠìĦ¤ íĻĶ
ĠìĹł ë¸Ķ
ìłĦì² ´
ĠíŀĪ ì¹´ë¦¬
Ġë°ķ íķ´
Ġë¶Ħ ìŀ¥
ĠìĦĿ ê¶ģ
ìĿ¸ë ıĦ
Ġì¤Ħì ¤Ħ
Ġê°Ģ ë§Ī
ĠìĦ¸ íĤ¤
ìłĢ ëĵľ
ĠT w
ĠìķĦìĿ´ íı°
Ġìļ´ ë°ĺ
20 12
Ġìłľì¡° ìĤ¬
ı Įë¦¬
Ķ ëĭ¤
Ġìľ¼ë Ŀ¼ë
ĠìĤ¬ ëĤĺìĿ´
Ġê³µ ì¡´
Ġì°¨ ë¶Ħ
Ġì¹ĺ íĬ¸
Ġíĥľ ìŀĲ
ĠìĦ¬ ìľł
Ġë§¹ ëıħ
ĠìĤ¬ ì§Ģ
Ġìĭľ ìĻ¸ë²ĦìĬ¤
Ġë°Ķ ëĭĲëĿ¼
Ġíĺĳ ìĿĺ
Ġ196 9
ĠëĩĮë ¬¼
t o
ĠìŀĲ ë¶Ģ
ë£¨ ìĪĺ
ĠëłĪ ìĭľíĶ¼
al k
ĠìłĢê²© ìĪĺ
ĠìĽĲìŀĲ ëł¥
Ġìłķ ìłĦ
Ġë§Į íĸī
Ġìłľë ħ¸
Ġíĥľ ê·¹
Ġìŀī íģ¬
ĠìľĪ íĦ°
çĶ Ł
Ġê¹ĥ íĦ¸
ĠíĨłë§Ī íĨł
Ġë³ĢìĨį ê¸°
å ĭ
Ħ Īë
Ġì£¼ë ¦
Ġì»¤ ë¦¬
Ġê³¨ ëª©
Ġíĳ ¼
íĽĦë °ĺ
Ġìĺ¤ë§Ī ì£¼
Ġë¡ľ ìĹ´
Ġíķľ íķĺ
íĭ° ëħ¸
ĠS un
Ġìŀ¬ ê¸°
Ġë©Ķ êµ¬ë¯¸
Ġì¢ħ ë¡ľ
ĠìĨĮë ıĻ
ìĿ¼ë Ŀ¼
Ġê²© ë³Ģ
Ġ100 00
Ġì»¤ìĬ¤ íħĢ
ĠìĥĿ íĥľ
ĠíıĲ ìĦł
Â· Â·
8 6
Ġìĥģ ê°Ģ
ìľ Ļ
ĠìķĦìĿ´ ìĬ¤íģ¬ë¦¼
ĠD ark
ãĤ ĩ
in s
Ġì¶ľìĹ° ìŀĲ
Ġâĸ ¡
l and
ì²ľ ìĤ¬
ĠëıĦ ë¥´
ì¹´ ìĬ¤
Ġìļ° ê¸°
Ġì²´ íĺķ
ĠìĦľë ĳĲë¥´
ĠH E
ì± Ķ
Ġì¿ł ë¥´
ĠíĥĲ êµ¬
ĠìĪĺ ëł¹
ĠëĤ´ ê¸°
Ġíľ´ ê²Į
Ġìĸ´ë²¤ ìł¸ìĬ¤
ê¸ Īë
ê³µ ìĹħ
ĠD on
ĠëĮĢíķľ íķŃê³µ
æ ²
Ġìŀ £
Ġë² ļ
ĠíļĮ ê²¬
ĠìļĶ ë¯¸
Ġìŀħ ìĸĳ
ĠE Z
ĠíķĦì Ĺ°
íĮĮë ĭĪ
Ġë¦¬ ìļ°
Ġë°ķ íĥĪ
ëª¨ ìĬµ
ĠN M
Ġì°° ë¦¬
ë§ Įë
ĠëĤĺ ëĵ¤
ĠìĿ¼ ìĤ°
ë²Ħ ê·¸
Ġl a
ĠìĹĲ ë¯¸
ĠìĤ¬ íĥķ
Ġìµľ ìłķ
ĠìĹ´ ìĦ¸
ëŁ° íĬ¸
ĠëłĪìĿ´ ëĦĪ
od e
ĠíĹ¤ëĵľ ìĥ·
ĠìĿ¼ìĿ¼ ìĿ´
Ġì ¯Ķ
Ġê³µ ìĬµ
Ġëªħ ëĮĢìĤ¬
ĠMS L
ëĶ° ë¥´
íĳ¸ë ¥´
¥ ¿
Ġê³µ ìĿµ
Ġë³Ģ ì§Ī
Ġê±°ìĬ¤ ë¥´
į ´
ĠìĪĺ íĻķ
Ġì¡° ìļ´
Ġíķ´ ìĹŃ
Ġë°ĶìĿ´ íĤ¹
Ġìŀ¥ê°ĳ ì°¨
Ġëį¸ íĥĢ
Ġê·¸ëŀĳ íĶĦë¦¬
Ġìĺģëĵ± íı¬
© ľ
ĠìłĦ ê´ĳ
ĠëıĻ ìķĦ
Ġê°ķ ëıĻ
Ġê°ķ ìĦ¸
ëĦ Į
ë¦½ íĬ¸
ĠO f
ë¸Įë¦¬ ëĵľ
v en
Ġìĥģ ìļ©
Ġìłľ ìŀĲë¦¬
ĠëıĻ ë¶ģ
ĠìĹ° ë°ľ
Ġë©Ķ ëĶķ
ĠíĬ¸ ìĻĢ
Ġì£ł ì£ł
ĠìĿ¼ëŁ¬ ìĬ¤íĬ¸ë
ĠìĹ¬ ìĪĺ
Ġë²Ħ ë¦ĩ
Ġëªħ ëĤĺëĿ¼
ìĹĲ ê²Į
Ġì£¼ë ¬´
ĠìºĲ ë¦¬ìĸ´
ĠìľĦì ª½
Ġê¹¨ ìķĮ
Ġ196 8
Ġëĵľë¦¬ ë¸Ķ
ĠíĹĲ íģ¬
âĨĻ âĨĲ
Ġìĸ´ ë¯¸
ì§Ģ íĦ°
ìĹĲ ìĿ´íĦ°
Ġë°ķ ìĺģ
ĠíĤ¤ ì¦Ī
ì£ ¼ë¦¬
ĠìĹĺ ë¦¬ìĬ¤
ĠãĤ ı
Ġìĥģ ìĨį
Ġê³µ ìķ½
Ġë°© íĻĶ
ĠíĮĮë ²Į
Ġê²½ìłľ íķĻ
ĠìĹĲë©Ķ ëŀĦëĵľ
ĠëĤĺëĵ¤ ëª©
O A
ç ´
Ġì°¨ ìĦł
Ġë¯¸ ì¦ĪíĤ¤
ìķĦë ©Ķ
ĠìĦ¼ íĭ°
ĠìĥĿìĤ° ëł¥
ĠìĹĲ ìĿ¸
ĠS m
ĠA c
ĠëĦ¤ ì½Ķ
ĠíķĦ íĦ°
Ġg o
ä¸ Ń
ĠíĶĦëłĪë į°
ê²ĮìĿ´ ë¨¸
Ġêµ¬ íĥĢ
Ġì¹´ ë¦¬
Ġì¶ľ ê³ł
íĬ¸ë Ł´
ĠìĤ¬ìĿ´ íĨł
Ġì¹ľ ìłķ
ìĿ¼ë ¡ľ
ĠìŀĦì §
Ġíķĺëĵľ ìĽ¨ìĸ´
Ġæĸ °
ĠíĶĦë¡¤ ë¡ľê·¸
Ġë¯¸ ìĭĿ
ĠíĮ¨ ëĭī
Ġê½ ģ
Ġíİĺë¯¸ëĭĪ ì¦ĺ
Ġë°° ë¦¬
ĠC N
ĠëłĪìĿ´ ì²¼
ì¦Īë £¨
ĠUn ivers
Ġë¦¬ë³¼ë ²Ħ
Ã ¼
Ġëªħ íĥĲìłķ
Ġìĸĳ ì£¼
Ġì²¨ ëĭ¨
7 4
8 4
ì¹ĺ ìĺ¤
Ġìĺģ ëĤ¨
Ġëª© ìŀ¬
Ġìĭľë¦¬ ìļ°ìĬ¤
ĠìľĦíĤ¤ ë°±ê³¼
íľ´ ìĿ¼
Ġìĺ¤íĤ¤ ëĤĺìĻĢ
Ġë¯¸ëģ Ħë
ĳ ĺ
Ġìĭľ ì§ĳ
Ġë¶Ģ ë¥ĺ
Ġ60 48
Ġë»Ķ íķĺ
ĠíĹĺ íķĺ
Ġìĸ´ìĦ¤ íĶĦ
Ġê·ł ìĹ´
Ġíķľ ìĭł
Ġëĭ¨ ìĭĿ
Ġë¸ĮëłĪ ìĿ¸
ëĺ ĳ
ĠìĬ¤ ì¦Ī
Ġë¬´ ìĭł
Ġì¹´ ë¬´
Ġê³Ħ ìłĪ
Ġë³ĳ ìĭł
ĠG e
Ġì¶Ķìłģ ìŀĲ
ĠíĶĦëłĪë ĶĶ
æ ĥ
Ġë¬´ ìĥģ
ìĬ Īë
Ġíı¬ ìĽĮëĵľ
ĠR es
Ġì²Ń ëĤĺëĿ¼
Ġìĥ¤ ë¥¼
Ġëķ Ģ
Ġíķľ ì¸µ
ĠìķĪ ëĵľëłĪ
íĭ° ëĦĺ
ĠA B
Ġìķŀ ëĴ¤
ĠìĨĮìŀ¬ ì§Ģ
ĠìĬ¤íĬ¸ë¦¬ ë°į
Ġëª¹ ìĭľ
Ġë©ľë ¡ł
Ġìĭ¤ë£¨ ìĹ£
8 3
Ġë©´ ìłĳ
Ġê³µ íľ´ìĿ¼
Ġê°ķ ìĦľ
ĠëŃ Ķ
Ġíķľë ıĦ
Ġíĵ¨ ì²ĺ
ĠæĿ İ
ë¦¬ ëĵľ
Ġê³ł ìļ°
ĠëĦ µ
ĠìĿ´ìĦ± ê³Ħ
Ġ6048 00
ĠìĿ´ ì¦Īë¯¸
ĠìĤ¬ ìľ¡
ĠëĤĺ ëłĪìĿ´ìħĺ
Ġë¹Ħ ìŀ¥
Ġì²Ń ë£¡
ic t
ĠìĨ¡ ë³ĳ
ë¹ ĦëĮĢ
Ġì¹ĺ ë°Ķ
íĺ¸ ìĦł
Ġì§Ħ íķĺ
Ġìļ´ ìĪĺ
Ġê¸¸ ê°Ģ
Ġìļ´ëıĻ ê°Ģ
Ġìħĭ ì§¸
ĠíķĢ ëŀĢëĵľ
Ġê°ľë§ī ìłĦ
Ġë¶Ī íıī
ĠT P
Ġìĭ¬ ìĹ°
ĠìĹ¼ ìĥī
ĠìķĮëłīìĤ° ëįĶ
Ġê°Ħíĺ¸ ìĤ¬
ĠìĿ´ ë¡Ģ
Ġë¶Ģ ëĭ¹
ĠìĽĲ ì£¼
ĠëĭĪì½Ķ ëĭĪì½Ķ
ĠìĿĢ íĺľ
Ġê¹ ľë
Ġë¬´ ìĬ¤
ĠëıĻ ì¡±
Ġìĭł ë³ĳ
ĠìķĦì¹´ ê¸°
Ġì¶©ì²Ń ëĤ¨ëıĦ
Ġìĺ¤ëĶĶ ìĺ¤
ĠëĤĺìĿ´íĬ¸ë ©Ķìĸ´
p ort
ë ķ
ìĿ´ ìĦ¼
Ġë¶Ģ íĿ¥
Ġå Į
Ġì¤Ħ ë¦¬
ĠíĮĶ ëłĪ
ou ld
íĶĦë ŀĢ
Ġë¸ĶëĿ¼ë ĶĶ
9 5
ĠíĮ Įë¬¸
ì¤ĳ ìķĻ
ãģ Ī
Ġè Ī
ĠíĤ¹ ëį¤
ĠíĶĦëłĪ ìĬ¤
¶ Ļ
Ġíķĺ ìĻĢìĿ´
ĠìłĢ ìĬ¤íĭ°ìĬ¤
Ġíıī íĥĿ
Ġëª© íı¬
Ġë¯¸ë ĵ¤
Ġê´ĳ ë³µ
Ġíĥľ ì¢ħ
Ġìłĳ ìłĲ
ĠêµĲìľ¡ ë¶Ģ
ĠëĦĵ íŀĪ
Ġì¤ĳíĻĶ ë¯¼êµŃ
ĠëĤ ¡
ìĪĺ ìĬ¤
ìłĢ ê²ĥ
ìĹĲ ìĿ´ìħĺ
ëĳĲ ìĤ¬
ĠíĶĦë¡ľ ê²ĮìĿ´ë¨¸
ĠìĿĳ íķĺ
Ġãħ £
Ġi OS
ĠìĭŃìŀĲ êµ°
Ġìª¼ ê°ľ
ĠìĿ´ ì²ľ
Ġíķĺ ìļ°
ĠìĤ¬ ìķĪ
Ġíķ© ê³Ħ
Ġíĺ¸ë °ķ
Ġë£ ¡
ĠíİĺìĿ´ ì»¤
Ġíķ´ìĥģ ëıĦ
c l
ê¸° ìķ¼
Ġë¯ ¹
ĠìłĢ íĿ¬
ĠêµĲ ìĸĳ
ĠW AR
ĠìĬĪ ê°Ģ
Ġíĺ¼ë ĭ¤
Ġê°ģ êµŃ
ĠíļĮë ¡ľ
ì½¤ ë³´
Ġíľ© ìĭ¸ìĿ´
ĠìĪĺ íĹĺ
Ġë°Ķ ì¿ł
ì¹´ ì¿ł
ĠìĹ°ê¸Ī ìĪłìĤ¬
ë§Ī ìĿĦ
ë§Ī ì¹¨
ĠìĦłìĪĺ ëĭ¨
Ġë¶ģ êµ¬
ëĵľë ŀĺ
ìĭľ ëĭ¤
Ġíĺ¸ ì¶ľ
ĠíĨł ìĺ¤
Ġëª¨ëį ĺ
Ġìĭľ íĺ¸
ëĮĢ ê¸°
ĠP ower
ĠìĿ´ê²ĥ ìłĢê²ĥ
Ġëĵł ê°Ģ
ĠìļĶë¦¬ ìĤ¬
Īëª¨ íĨł
Ġì¹ Ļ
Ġë¬´ ì£Ħ
Ġë³¸ ê±°ì§Ģ
ĠìĤ¬ìĿ´ ë³´ê·¸
Ġëĳ¥ ê¸Ģ
ì§Īë ŀľëĵľ
Ġëħ¸íĬ¸ë ¶ģ
Ġìľł ëĤľ
ĠìķĦ íĥĢ
ĠìĨĲ íĨ±
ĠëĶĶ íİľ
Ġê´´ ëł¥
ëłĪë ¯¸
ĠìŀĲê²© ì¦Ŀ
Ġê¹Įë ĭŃ
Ġë¬´ê¶ģ íĻĶ
Ġìĺµíĭ° ë¨¸ìĬ¤
à ¤
ç Ĳ
ľë ¯¼
Ġìĺ¤íĥĢ ì¿ł
ã Ĥ¬
Ġë¡ľ íħĮìĿ´ìħĺ
Ġë³´ íĬ¸
ĠíĽ ħ
ĠêµŃ ë¯¼ëĭ¹
ĠíĽĦë ĮĢ
ĠìĤ¼ ì´Į
ìĬĪ íĬ¸
ĠíĶĮëłĪ ìŀĦ
ĠìĨľ ìĶ¨
ìĥģê°Ģ ìĥģ
Ġëĭ¤ ì¤ĳ
Ġìĸĳ ë³´
ìĦľ ë¦°
ĠìĦ ¹ìĬ¤
ĠìĤ¬ ìĬ´
ìĤ¬ ê´Ģ
ìľ ½
Ġìļ° ë¬¼
ĠìĦ¤ ìĥģê°Ģìĥģ
Ġë³µ ë©´
Ġë¯¸ë ħ¸
ĠìĬµ ê´Ģ
ĠëĮĢìĤ¬ ê´Ģ
ĠíķĺìĿ´ ë¸Įë¦¬ëĵľ
ĠAr m
Ġìĭľ êµ¬
ĠíĮ Ł
Ġìłķ ìłķ
Ġêµ¬ ìłĪ
Ġì¹´ ëłĪ
Ġë¨¹ íĬĢ
Ġì¦Ŀ ê¸°
ĠìĹĺ ëįĶ
Ġì£¼ ìŀĳ
Ġìļ° íĮĮ
ĠìĻķ ê´Ģ
ĠR E
Ġ196 3
ĠëıĻìĿ¸ ì§Ģ
Ġìŀ¥ íĴį
ĠêµĲ ìŀ¬
Ġ10 7
êº ¼
ĠëĿ¼íĭ´ ìĸ´
Ġëĭ¤ ê¸°
Ġìľł ê³ł
ìķ¼ ìĥ¤
ìĸ ¼ë
in a
ìĬ¤íĭ° ëĭĪ
Ġë¹ ¼ëĤ´
Ġìłķ íģ¬
ê±´ ìĦ¤
Ġì´Ŀ íĥĦ
ĠìĪĺìĺģ ë³µ
Ġëª¨ ë²Ķ
ìĿ¼ ê¸°
Ġë¦¬ ë¶ĢíĬ¸
ĠíĻį ì¤Ģíĳľ
ìģ ¨
Ġì¸ł ì¹´
Ġê¶¤ ìłģ
Ġê³µ ìĨĲ
íĭ° ì§Ģ
ĠìĬ¹ ëł¤
ĠìĿ¸ë §¥
ĠìķĶ ìļ¸
ĠìłľìĿ´ ìĬ¨
g r
Ġì§Ģ ë¯¸
ĠìĬ¤ ì¼Ī
ĠíĨµ ìĪĺ
íĦ ±
æĸ ĩ
Ġìĭ¤ íĻ©
ĠíĶ¼ ê³ł
íħĮ ì¸ł
an e
ìķł ëĤĺ
ĠëĽ° ì¹ĺ
íģ´ ëŁ½
Ġì½ĺ ìĬ¤íĥĦ
Ġì»¬ ëłīìħĺ
Ġë³´ ë¦¬
Ġìľł ê°Ģ
ĠìĦ± ë²½
ĠìĹ¬ ë°°ìļ°
Ġê·¸ë¦¬ ëĵľ
Ġë°ķ ì°¬
ìĨĮë ĭĪ
Ġìĥģ ìĩĦ
ìłķ ì¹ĺ
ĠìĿ¼ ìłĪ
ĠìĺģíĻĶ ê´Ģ
ì½ ķ
Ġc l
ĠìĥĪ ìļ°
åį ģ
Ġìĺ¤ì¼Ģ ìĬ¤íĬ¸ëĿ¼
Ġì°¨ ê´Ģ
ĠìķĪ ìł¤
ĠìĺĪ ì§Ģ
Ġì²ľ íĻ©
20 11
ĠJ oh
Ġíľ´ ìĬ¤íĦ´
Ġíħľ íı¬
Ġle ft
ĠìĹ°ê¸Ī ìĪł
ĠìĿ´ íĺ¸
Ġë§Ĳ ëħĦ
Ġì¼Ħ ì§Ģ
ĠìĤ¬ ëĭ¹
êµ¬ ìĹŃ
Ġê°Ĳ íĸī
Ġ10 4
Ġë¶Ħ ìŀĲ
Ġëıħ ìĪĺë¦¬
ĠëįĶìļ± ìĿ´
Ġ196 7
ä¸ Ĭ
Ġìľł ì½Ķ
Ġì¡° ëł¥ìŀĲ
Ġë¯¸ ìĪĺ
ê³µ ì£¼
Ġå ¯
ê°Ģë¥´ ëĵľ
8 7
Ġê¸° ìģ¨
ĠìĤ¬ ëª¨
ĠìĬ¤ ëĦ¤
Ġìľł íĥĢ
ĠìĨĮ ê°Ĳ
ĠìĤ ¿
ĠìĦĿ ìĤ¬
ĠìĪł íĥĦ
Ġìĥ¤ ìĽĮ
ê° ±
ëĭĪ íģ´
ĠíļĮ ê³Ħ
ĠëĨį ëĿ½
ĠSS R
íĬ¸ ë¦¬ìĬ¤
Ġìľł ë°©
ëįĶ ëĿ¼
Ġìķ¼ë§ Īëª¨íĨł
Ġ `
ĭ Ĳ
Ġë¡ľ ì»¬
ĠìŀĲ ë¬¸
ĠìĬ¤ ëĭĺ
Ġìļ° ìĬµ
Ġíı¬ íĨł
Ġë§¤ ëĭ¬
íĿ ĺ
ĠK ing
Ġë§Īë Ĭĺ
ëĦĲ ëĵľ
Ġíķ¸ë ĵ¤
ë¨ ¸ë
Ġì¶ķ ìłģ
ĠìķĦìĿ¸ ì¦Ī
Ħ ¬
ĠìĹĲ ëıĦ
ĠìķĪ ìĦ±
ëŀĢ íĬ¸
Ġë½ Ĳ
ĠìķĦë©Ķ ë¦¬ì¹¸
ĠìłĲ ê±°
ë³´ ê¸°
ĠC he
Ġê·¸ëŁ¬ ëĭ¤ê°Ģ
Ġíķĺëĵľ ì½Ķìĸ´
ĠëĦ¥ ìĦľìĬ¤
ĠìĿ´ ì¤Ģ
Ħë Ŀ¼
Ġíĥ Īë
Ġìĭ¤ ëªħ
ĠìĦľë ¯¼
Ġì¦Ŀ ë°ľ
Ġd is
Ġíĳ¸ë ¥¸
ë¿ Ķ
° ľë
Ġê³µ ë¡ľ
Ġë¬´ ìĦł
Ġì°¨ ë¡ľ
ĠìķĪ ì²łìĪĺ
Ġë¶Ī ë¥ľ
Ġìķł ìĭľ
ĠãĤ ·
ĠìĿ¸ì²ľ ê´ĳìĹŃìĭľ
Ġìķ¼ë§ Į
9 2
ë¶Ģ ì§Ģ
ĠB C
ĠV PN
ion s
Ġë°ĺ íķŃ
Ġíĥľ ì¡°
ĠëĵĢ íģ¬
Ġíķĺë°ĺ ê¸°
Ġìĺ¤ ìĭľ
ë¡ľ ëĤĺ
ë¡ľ ë§Ī
Ġìŀ¬ ëĤľ
ĠìºĲ ë¡¤
Ġç ľ
ĠíĥĦ íĥĦ
ĠíĥĢì¹´ íķĺìĭľ
ĠìĬ¤íģ¬ ë¡¤
ĠëıĻ ê°ĳ
Ġë¦¬ ìķ¡
Ġë°ĺ ê°ĳ
ĠëĤ¨ ë°ľ
ĠD X
Ġì¤Ģ ìļ°
íĶĮë ¡ľ
Ġìķ¼ì¿ł ìŀĲ
° Ģë¦¬
Ġìĭł íķĻ
Ġìłľìŀĳ ë¹Ħ
Ġì½ľë ¡¬
ĠëĪķ íŀĪ
8 2
Ġìĭ¤ ìĹħ
Ġë°Ľ ì¹ĺ
ë¹Ħ íĬ¸
ĠíĶ¼ ìĸ´
ĠìºĲ ìĦľë¦°
ë¬´ ëĦ¤
ĠíķŃê³µ ìĤ¬
Ġìłķê·ľ ì§ģ
Ġíķ´ì¹ĺ ìļ°
Ġë¹ł ëľ¨ë¦¬
ĠíĹĪ ìĦ¸
Ġè ¨
Ġä ¿
Ġê²½ìŁģ ìŀĲ
Ð º
ĠìĦ ¼ë
ĠM a
Ġë©Ķ ìĿ´íĬ¸
ĠìĻķ ì¢Į
ì§ķ ìĸ´
ĠìŀĲ ì¿ł
ĠìĬ¤ ì»¤
ìĦ¸ ê¸°
íĶ¼ ìĸ´
ĠD is
ter n
ł ģ
Ġìłľ ëĭ¨
Ġêµ¬ ì²Ń
Ġë¶Ī íĻĶ
ĠD NA
ĠK S
ĠìĬ¤íĥĢ íĮħ
le ss
ĠëĨį ë¯¼
íĶĮë Ł¬ìĬ¤
Ġë µ
ë³ ¶
ĠëķĮ ë§Īì¹¨
Ġê·¸ë¦¬ íķĺìĹ¬
Ġë©Ķ ìļ°
Ġê±´ ìĿĺ
ĠëŁ° ëĭĿ
ìı ł
Ġë¡ľ ìłĢ
ë§ ·
Ġë² Įë
Ġëª» ì§ĢìķĬ
ĠíĬĢ ê¸°
Ġê°Ĳìĭľ ìŀĲ
ìķĪë ¶Ģ
íĶĦëĿ¼ìĿ´ ì¦Ī
Ŀ¼ë ¯
Ġìĭł íĿ¥
Ġê°ľ ê°ľìĿ¸
ĠìĦľ ì¹ĺ
ĠB A
Ġê±¸ ìĿĮ
ì¶ķ êµ¬
ì§Ģ ëĮĢ
ìŀĲ ìŀ¬
Ġëĭ¹ êµŃ
ĠìłĦë ²ķ
Ġë°Ģ ëłĪ
Ġì« Ħ
Ġë°Ķ ëŀĺ
ĠíĻĶ ìķ½
íİ «
ìĭ¬ ìŀ¥
ĠG irl
Ħì² ł
ĠëłĪë ª¬
Ġì±Ħì ·¨
ê¸ į
Ġë°ĺ ëĭ¬
Ġê±´ ìŀ¬
ë°Ķ ìĭľ
§ ĭ
ìķ µ
ĠìŀĲ ì¼ĵ
Ġì¤ĳ íĽĦë°ĺ
Ġìĭ¤ ìłķ
ĠëĤ¨ ìŀĳ
Ġìľłì§Ģ ë¹Ħ
Ġãĥ ŀ
ĠìŀĦì ĽĲ
å¥ ³
Ġì£¼ ê³µ
Ġë¬´ ìłĦ
ĠìĹ¬ ê´Ģ
ĠSC P
Ġ u
Ġê¸° ë²ķ
ĠëĮĢ ì¶ľ
Ġê´Ģ ì§ģ
íĶĦ ìĬ¤
ì½Ķ ìĬ¤
ĠB ar
ĠI V
ĠíĽĦë £¨
¹ Ļ
è ı
Ġë¦¬ ë¯¹ìĬ¤
ĠB D
ĠìĦľë Ĥ¨
on s
ĠN O
Ġëī´ ì§Īëŀľëĵľ
ĠìĿ¼ëŁ¬ìĬ¤íĬ¸ë łĪìĿ´íĦ°
2 000
£ ¼ë
Ġìľł ëª©
ĠìĿ¸ ìŀĲ
ĠíĶ¼ë Ĥľ
Ġë¶ĢìĤ¬ ê´Ģ
a ir
Ġìĭľ ìĺ¤
ĠìĽĶ ê¸ī
Ġëĭ¨ ìłķ
ëłĪ ìĬ¤íĬ¸
Ġë³ĳ ìĤ´
Ġë°ľë Ŀ¼ëĵľ
ĠìĦľìļ¸ë ĮĢíķĻêµĲ
Ġë¶ĦíĻį ìĥī
e st
ĠìĿ¸ ê³¼
ĠíĮĮ ìĬ¤
Ġì§ģ ë¬´
Ġìķ¼ ìĭ¬
Ġë³µ ìĭ±
Ġë¹ħ íĨłë¦¬ìķĦ
ĠìĦ¸ íĥģ
Ġê²° ìŀ¥
Ġíĩ´ ìĤ¬
ĠíŀĪë¡ľ ìĭľë§Ī
ĠìŀĦì ĥģ
AR D
Ġì ĳ¤
ê´Ģ ì´Ŀ
ĠA s
ĠìĿĮ ìĥī
Ġíĭ° ìłĢ
Ġíį¼ ìĦ¼íĬ¸
ĠìłĢíķŃ ëł¥
Ġì¢ģ íŀĪ
Ġì¶ĺ ì²ľ
6 3
íĻ ī
ĠëıĻ ìķĦìĭľìķĦ
ĠíļĮ ìĺ¤ë¦¬
Ġê±¸ ìŀĳ
Ġw as
Ġëĺĳ ëĺĳ
¥ µ
ìŀ Ń
Ġìĺ¤ ìĿ¼
ĠìĬ¤ ìĿ´
ĠìłĪ ê·ľ
Ġì ©Ķ
ĠëĤĺ ìĹ´
ĠìŀĲ ì§Ħ
íħĮ ìĿ´ëĦĪ
ĠëĦ¤ ëª¨
re t
Ġë§Ī ì¼ĵ
ìĸ ¼ë¦¬
ĠíĮĮ ìĤ°
ĠìłĦì Ĥ°
Ġê°Ħ ìŀ¥
ëįĶ ìĬ¨
Ġë¹¼ë ıĮë¦¬
ĠëıĦ ê²Ģ
ĠìĬ¤ íĮħ
Ġìĭ¤ ë¬´
Ġë°ľ íķĺ
Ġë§Įë ħĦ
ĠíĽĦ íĥĢ
Ġì¶ľ ê·¼
ë©Ķ ìĬ¤
Ġê·¸ëŀĺ íĶĦ
Ġíĩ´ ì¶ľ
Ġë¶ī ìĿĢìĥī
Ġë³Ħì ¹Ń
ĠìĿ´ëĪĦ ìķ¼ìĥ¤
ĠìĦ¸ì»¨ ëĵľ
ĠìĽ Įëĵľ
£¨ ìħĺ
Ġíı¬ íļ¨
Ġë§¤ ìĪĺ
Ġì¶ľ ì¤ĳ
ĠíĻķ ë¦½
ëª¨ ëħ¸
ĠR ock
ĠU F
ĠíĻĢ ëĶ©
ĠAT K
ĠåĲ Ľ
Ł ĵ
Ġìŀ ¼
ĠíĮ į
Ġì°¨ íĽĦ
Ġê´´ ìĥģ
n a
¸ë ¹Ħ
Ġë¡ľ íĶĦ
ĠìĦł ìļ°
ĠìĹ° ë£¨
ãĥ ł
e k
Ġëª¨ ì¹ľ
ĠëıĻ ì²´
Ġìŀ¥ ìĽĲ
Ġë¦¬ ì¿ł
Ġë°° ìľ¨
Ġì½Ķ íĥĢ
ĠìłĢ ëŁ¬
ĠìĽĮ ì¹ĺ
Ġìķ¤ ëĶĶ
Ġê³Ħë ŀĢ
ĠíĶĮëłĪ ìĸ´
Ġê¹½ íĮĲ
E X
ĠíĮ¨ ê¸°
Ġì§Ħ ë¦¬
ë¬´ ìĬ¤
ĠP VP
Ġë²ķ íķĻ
Ġê¸°ìĪł ìŀĲ
Ġë§¨ ì²´ìĬ¤íĦ°
å ĥ
Ġìŀ¥ ìĿ´
Ġæ Ģ
ç µ
êµŃ ìĸ´
Ġìłľ ìļ°ìĬ¤
Ġë°© ê³µ
ĠS ec
Ġìŀ¬ ë¦¼
Ġíİĺë¥´ ìĭľìķĦ
Ġ am
Ġëł ¨
Ġìĥ ¹
Ġì½ ķ
ĠGS L
t r
Ġë©´ íķĺ
Ġìłģ ì§Ħ
ì¹´ ëĿ¼
ìĦ¸ íĬ¸
Ġêµ° ê¸°
Ġê¸ī ê¸°ìķ¼
ĠO ver
Ġì§ķ íģ¬ìĬ¤
ë¡ľ íĶĦ
ĠìĽĶ ìļĶìĿ¼
Ġìĭł íķľ
ĠëĶĶ ëłīíĦ°
ĠE RA
Ġì½ ľëĵľ
ĠìĹ¿ ë³´
¦ Ŀ
å Ĵ
Ġê°Ģ ì¶ķ
ĠìŀĲ ì²ĺ
Ġê°ķ ìłĦ
ĠíĨµ ì§¸
ĠìĨį ë°ķ
Ġë³µ ì¢ħ
ìĿ¼ë ĭ´
Ġìłķ ë²Į
Ġë¬´ ëªħ
Ġë¦¬ íĦ´
Ġë¹Ħ íıī
Ġíı¬ ìĭĿ
Ġìŀ¬ ìŀĦ
ĠìĤ° ì±ħ
Ġé ĸ
ĠãĤ ģ
Ġë°ĺëĮĢ íİ¸
ĠìłĦë°ĺ ìłĦ
§ £
re ak
ĠíĶĦë¦¬ ì¦ĺ
Ġì¡°ìĦł ìĿ¸
Ġë¨¸ ìĬ¤
Ġì£Ħì Ĩ¡
è Ī
Ġíĺ¸ë ¬´ëĿ¼
ĠìĤ¬ë§Ŀ ìŀĲ
ĠYou r
ĠíĶ¼ì¹´ ì¸Ħ
Ġë§Ī ì°¨
Ġíĳľ ì°½
Ġç ı¾
ĠíĥĪ ëĭ¹
ĠíĻį ì§Ħíĺ¸
íģ´ ë¦°
íģ´ ëłĪìĬ¤
Ġë±ħ ê°Ģëĵľ
åŁ İ
Ġê·¸ë ŀľ
Ġìĭł ì¶ķ
Ġìĸĳ ëĮĢ
Ġãģ ¤
ìĻķ íĽĦ
ĠU FC
Ġíķľë ¯¸
ĠëĨį ìĤ¬
íĺĦì Īĺ
ĠìķĦë ŀĳ
Ġìľł ìĦł
ëĭĪ ìĭľ
Ġë°ķ ìĥģ
ĠìĹ´ ëĵ±
Ġì½ĺ ìħīíĬ¸
Ġìķ¤ ëĵľ
ëī´ ìĬ¤
ĠíĬľ ëĭĿ
6 1
ç Ļ
Ġë³´ ìŀī
ì¹´ ìłľ
ĠíĽĦ ìĿ¼ëĭ´
Ġìŀħ êµŃ
ĠM ax
ĠH igh
ãĥ¼ ãĥ«
ìł ĵ
Ġëĭ¹ ëĤĺëĿ¼
ĠìļĶ ë¥´
ĠA F
Ġëħ¸ ìķĦ
ĠP v
ĠëŁ¬ ëĦĪ
Ġìĸ´ë¦¬ ìĦĿ
Ġìį ¸
Ġíĺľ ìĦ±
Ġëĭ« íŀĪ
Ġíģ¬ë£¨ ì¦Ī
ĠëĤ´ ìĹŃ
Ġë°ľ ìķħ
ĠíļĮ ê·Ģ
Ġì²ľ ì£¼êµĲ
ĠíĽĦë ¬¸
ĠëĤľ ê°Ĳ
Ġêº ¼
ĠìĿ´ì¹ĺ ë¡ľ
ĠìĻĢìĿ´ë²Ī ìĬ¤
¡ ´
Ġìłķ ìĦ¸
ĠìĬ¤ íħĮë
ĠìĿ¼ë łĪë¸Ĳ
Ġìļ´ ìļ´
ĠK B
ìĿ¼ë °ĺ
íĺĦì §Ħ
Ġ us
ĠìĦ± íĺķ
ĠìĦł ë°©
ĠìĥĿ ìĤ¬
ĠíĻĶ ìŀĲ
ĠíĤ¤ ëħ¸
Ġë¯¸ìĤ¬ íĤ¤
AC K
Ġë¶Ħê¸° ìłĲ
7 3
¾ °
Ġìľł ë¬´
ĠìĦ± ìĦľ
ĠíĥĢ ëĤĺì¹´
Ġë¶Ī ìĭł
Ġë³¸ ìĦ±
ë²ķ ìĽĲ
ĠíĻĪ ì¦Ī
Ġê³ĦìĹ´ ìĤ¬
Ġ196 6
Ġê³ł íĨł
Ġê¸° íķ¨
Ħì Ļ
Ġì§Ģì§Ģ ìŀĲ
ĠêµŃìłľ ê³µíķŃ
Ġìĭľ ê¶ģ
Ġë¯¸ ìľłíĤ¤
Ġë¦¬ ë¦¬
ĠM in
ĠB O
Ġë²ł ìĿ¼
Ġì§Ħì Īĺ
Ġêº¾ ìĿ´
ĠGT A
Ġë¯¸ìĬ¤íĦ° ë¦¬
Ł¼ë ¸Ķ
C E
ĠíĻĶ ìĹ¼ë
Ġíı¬ íĥĳ
Ġê°Ĳ ìłĦ
Ġìĸĳ ëħĲ
Ġìķħ ìļ©
ĠëĵĿ ìĭ¤
ĠìĬ¤ì¼Ģ ìĿ´
ĠìĿ´ ìĬ¤íĬ¸
Ġê°Ģ ì°½
ĠëĶ ©
Ġë§Ĳ ë¯¸
Ġê²° ìĤ¬
ì°¨ ë¡Ģ
Ġë°ķ ì¹ĺê¸°
ĠL ight
ĠâĢ ł
ĠíķŃ ìķĦë¦¬
ë²ł íĬ¸
ĠìĪĺë¹Ħì §Ħ
Ĺ ¤
Ĺ ĺ
Ġê±° ëĬĲë¦¬
Ġëªħ ê³¡
Ġíı¬ ëĭĪ
Ġë°° ê¸°
ĠíĤ¤ ë¯¸
ĠíĶĦë¡ľ ìĿ´ìĦ¼
Ġä¸ Ĭ
ëĥ ħ
£ ¬
¬ µ
Ġìĺ¤ ì¿ł
ìĸ´ ë¶Ļ
ë¹ ¡
ĠS u
ĠëĶ° ëĤ´
Ġëª© ì°¨
Ġë£¨ ìĬ¤
Ġr d
ĠêµŃìłķ ìĽĲ
Ġê°Ģ ëªħ
Ġëĭ¨ ìĪ¨
Ġíħľ íĶĮ
Ġë§Į íļĮ
Ġë¯¸ ìķĦ
ĠA FC
Ġå Ĩ
Ġìķħ ëł¹
ĠìĨĮìĦ¤ ê°Ģ
Ġëį© íģ¬
ëłī íĬ¸
AN I
Ġëĭ¨ìĪ¨ ìĹĲ
L A
Ġíķĺ íĸī
Ġìĭľ ìĭľ
Ġìĸ ķ
Ġë¦¬ ì¸ł
Ġì½Ķ ë¯¹ìĬ¤
ĠêµĲ ê´Ģ
Ġíĺ¸ê¸° ìĭ¬
Ġê³ł ìķĦ
ĠìĪĺ ë³µ
Ġìĥģ íļĮ
ĠìĹ¬ ëĭ¹
ĠëıĻ ì°½
ĠìĦł ëĮĢ
ãĥ ĭ
ĠG N
ĠìĦĿ ë°©
ĠìķĦë¥´ ì¹´
Ġë¸Į ë¦¿
íĶĮëł ī
Ġë°ľëłĮ íĥĢìĿ¸
Ġì¹¸ë Ĥĺ
Ġìĸ´ ì²ĺ
ĠìĿĺ ìļķ
Ġê¸° ìŀ¥
ĠìĤ¬ ê³¼ë
Ġìĺ¤ íį¼ë
Ġì£¼ ê³ł
ìĨ Įë¬¸
Ġê²½ ìĿĺ
Ġë§¤ ì§Ħ
Ġë©Ķ êµ¬
Ġ11 3
íĺĦ ìŀ¬
ìłĦë ł¥
ĠíĻ©íĥľ ìŀĲ
Ġë½Ĳ ëĤ´
ĠìĬ¤ íĬľ
ĠëĿ¼ë Ĥĺ
ĠìĹ¬ ìłķ
Ġëħ¸ë ¸Ķ
Ġëª©ìłģ ì§Ģ
ĠìĬ¤íĮĮ ìĿ´íģ¬
Ġì¹´ë¥´ ë§Ī
åİ Ł
Ġìŀ¥ ìłľìĬ¤
ĠìĽĶ ê°Ħ
Ġë°ľ íĺĦ
Ġë¦¬ ëī´ìĸ¼
ĠíĶĦë¡ľ ëª¨
ë³ĳ ìĽĲ
ëłĪìĿ¸ ìłĢ
ê¿Ī ì¹ĺ
ĠìĿ´ ìĺ¤
Ġê°Ģ ê¸ī
ê¸° ë¦¬
Ġëķ Įë¡ľ
ĠN P
ĠìĦŃ ìĻ¸
Ġì¡° ëĭ¬
Ġì°¸ íĮ¨
ĠìĺĪ ë¦¬
Ġ11 8
ĠíĶĮëŀĺ íĭ°ëĦĺ
Ġì¶¤ ì¶Ķ
ıĮ íĶĦ
Ġì§Ģ ëĤľ
ĠìĪĺ êµ°
ĠìĨĲ ëħĢ
Ġëĸł ëĵ¤
ĠìĬ¤íħĮ ìĿ´ìħĺ
©ìĿ´ ëĤĺ
Ġê¹Ģìĺģ ìĤ¼
ì½¥ íĦ°
ê³ł ëŀĺ
ìĤ¬ ê³ł
ĠìĬ¤ ì¹ĺ
Ġ4 50
ĠH y
Ġíģ¬ë¦¬ìĬ¤ íĨł
ĠëĪĪë ¹Ľ
íĹ¤ ëĵľ
Ġê¹Ģìŀ¬ ê·ľ
Ġìĸ´ ìĮĶ
ë§ Īë¬´
ĠëĤĺ ê³ł
Ġìĭľ ë¶Ģ
ĠìĦ± ì§ģìŀĲ
ĠíŀĪ ìĬ¤
íķ´ ëĭ¹
ê²½ ì°°
ĠìĬ¤íģ¬ ë¦½íĬ¸
ë§ ¡
Ġæ °
ĠíĹĪ êµ¬
ëħĦ ìŀĲ
Ġì¹ł ëłĪ
Ġê½Ĥ íŀĪ
ĠíĽĦìľł ì¦Ŀ
Ġê°Ģê¸ī ìłģ
ľë įĶ
Ġê²½ ëŁī
ìłĦ ìĦł
ĠìĨĮ ìĭ¤
Ġë¦¬ ìĸ´
Įëł Į
Ġê¹Ģ ë³ĳ
ĠìĿĮ ì£¼
ëľ ©ìĿ´ëĤĺ
Ġìŀłìŀ¬ ëł¥
âĸ ł
Ġ ro
Ġìł Ŀ
ìł ¯
Ġê¸° íķĺ
ìĿ¸ ìłĢ
Ġê·¸ë ĭ¥
Ġëĵ± êµĲ
Ġìĭł ê³¡
ĠìĽĲ íĻľ
ì¹´ íĥĢ
íĪ¬ ë¥´
ĠìĤ¬ë¡ľìŀ¡ íŀĪ
Ġìłģ ìŀ¬
Ġê°ķ íĸī
ĠíļĮ ìĭ¬
Ġëĭ¬ ì½¤
ĠíĪ¬ ìĭł
ĠìĬĪ íĦ°
ĠìĹĲìĿ¼ë¦¬ ìĸ¸
Ġì ĳ¥
Ġë°Ķ ë°Ķ
Ġë°Ģ ì§ĳ
ì´Ŀ ë¦¬
ìī Ĳ
Ġê³µíĻĶ ëĭ¹
H T
Ġê°Ģ ëľ©ìĿ´ëĤĺ
ìł ľëıĻ
Ġê³ł íĶĦ
Ġì§Ģ ë¬¸
ĠëıĦ ìļĶ
Ġë¡ľ ëłĮ
Ġìłľ ë¥´
ĠìĿ¼ë ł¨
Ġíķ© ëĭ¹
Ġì§Ī íĴį
Ġë¡Ŀ ë§¨
ĠâĨĵ âĨĺâĨĴ
ģ «
ë¯¸ íĦ°
ĠêµĲ ìĭľ
ĠìĦ¤ ë¹Ħ
Ġíĺ¸ íĪ¬
Ġìĭ¬ íķ´
ìĸ¸ ìłķ
ĠíĹĪ ê³µ
Ġëĳĺ ëŁ¬
ĠíĹ¤ ë§¤
ĠFe at
k y
ĺ ¥
íĶ ¼ë¦¬
Ġë°ľ ì¹¸
Ġë°ĺ ì¹Ļ
er n
Ġë¸Įë ¡ł
Ġê¸Ģ ëŁ¬ë¸Į
ĠëĶ°ëĿ¼ ìŀ¡
Ġìł¤ ëĭ¤
Ġìĸ´ì²ĺ êµ¬ëĭĪ
o j
Ġë°Ķ ìĬ¤
Ġ19 40
ĠìĹ´ ìķħ
Ġë°± ê³¼
ĠEX P
åħ ¬
EC T
Ġì´Ŀ ê´Ħ
ĠãĤ ī
ĠíĤ¬ ë¡ľ
Ġê¸°íļį ìĤ¬
a u
ĠëĤĺ ìĤ¬
ĠëıĻ ìļĶ
Ġëĭ¨ ê³¨
Ġê²° íķ¨
ĠA b
ĠìŀĲì£¼ íı¬
¦ Ļ
ĺ ìĸ´
Ġíĺ¸ ìłĦ
Ġíħ ĮëłĪ
ëĶ ¸
Ġì¢Į íĳľ
Ġëĥī ê°ģ
ĠìĹĦ íıĲ
ĠíĬ¸ë¡ľ ìĿ´
ĦìĻ ľëŀĢ
ĠëĮĢ ë³¸
Ġìłģ ë¦½
Ġìľł íķ´
Ġë°© íĺ¸
ĠíĶĦë ł
Ġì°½ ìĹħ
ĠìĺĪë °°
Ġë© §
ĠìĪĺ ëħĢ
Ġë§Ī ì´Ī
ìĻ Ħë
Ġíķł ëĭ¹
ĠII DX
Ġ 000
ëį ľ
ãĤ ¨
Ġíĺ¸ë ¥´
íį¼ë Ł°ìĬ¤
Ġíĸīë°© ë¶Īëªħ
íĶĦëŀĢ ìĭľìĬ¤ì½Ķ
íķĺ ëĭĪ
Ġìľł ìľł
ĠëĦ ¬
ĠìĥĿ ìĦł
Ġê°ķ íĮĲ
Ġç ī
ĠëĬĲëĥĲ ê³ł
ãģ£ ãģŁ
Ġë¸Įë£¨ ìĬ¤
ĠìŀĲ ìľĦ
Ġìĺ¤ ëĦĪ
ê¸ Ģë¦¬
ĠêµŃ ìĤ°
Ġëħ¸ ìĹĺ
ĠëłĪìĿ´ ë¸Ĳ
ĠëĤĻ ìĿ¸
AN D
Ġíį¼ë ¸Ķ
ĠëĮĢ ëĮĢë¡ľ
Ġë§Ī ìļ´ëĵľ
Ġë°ĺ íĻĺ
ĠëĳĲ ë¶Ģ
ë¬´ ìĨĮ
Ġìłľë Ŀ¼
Ġê¶ģ ì§Ģ
ĠìĹĲìĿ´ ë¯¸
Ġì²© ë³´
ĠíĶĦë¡ľíĨł íĥĢìŀħ
Ġê°Ģ ìľĦ
Ġìłģ ë°ľ
ìħ ¸
Ġíİ¸ ìķĪ
ĠìĪĻ ìĿ´
Ġë¡¤ ë§ģ
Ġâħ ĵ
ĠìĦ± ìĿĺ
ĠìķĦ ê¹Į
Ġë©Ķ ê¾¸
ĠìĬ¤í Ĥµ
ë©Ķ ëĭ¤
ĠëĬ¦ ì¶Ķ
ĠìĬ¤ìľĦ íĬ¸
Ġìĥģ íĸī
ëŀ ´
ĠëıĻ ë¬¸
Ġê¸Ģ ëŀĺ
Ġê´´ ìĿ´
ĠëŀŃ ì»¤
¸Ķ ë¦¿
ìĿ´ì¹ĺ ë¡ľ
ë¶Ģ ìĿ¸
Ġíı¬ íĻĶ
Ġê·¹ ìĨĮìĪĺ
Ġ13 5
ĠìĬ¬ ë¡ľìļ°
íĮĮë Ŀ¼
ë¯¸ëĦ¤ ìĿ´íĦ°
ìķĦë©Ķ ë¦¬ì¹´
Ġìĭľ ê·¸ë§Ī
ĠìŀĲ ë°Ķ
ĠëĶ ķ
Ġì§Ħ ìŀĳ
Ġìķ¼ ìłĦ
íģ´ ëĿ¼
ĠëĶ¸ ê¸°
Ġë¦´ ë¦¬ìĬ¤
ĠëıĦì¿ł ê°ĢìĻĢ
ģ Ī
Ġëį «
ĠìĻ ĵ
ĠìĨĮ ìĤ¬
Ġì¼Ģ ìĿ´ì§Ģ
Ġë®¤ íĥĪ
att le
ĠìĨ¡ë³ĳ êµ¬
Ġì½Ķ ë§Ī
ĠíĶĦë Ł°íĬ¸
Ġìķł ë¡ľìļ°
ĠìĬ¬ ëŀ¨
Ġë°°íĭĢ íķĦëĵľ
Ġì´Īìĥģ íĻĶ
ĠìĿ´ ì§Ī
¹Ħë ħ¸
ĠìĤ¬ìļ° ëĶĶ
Ġëĭ¤ìĿ´ìĬ¤ ì¼Ģ
ĩ ª
Ġìĺ¤ ì§ķìĸ´
Ġìĺ¨ ëª¸
Ġë¹Ī ìĤ¬
ĠìĬ¤íĶĮëŀĺ ìĭľ
ĸ ç
ĠìķĦë ª¬
Ġë¯¸ íĮħ
Ġì¹´ ìĹĲ
ãĥ Ĳ
ĠL i
Ġìĸ¼ ìĸ´ë¶Ļ
re d
ĠíĻį ìĦ±
EM ANI
ĠWi i
ĠìĬ¤ ëĥħ
ĠëłĪë² Ħ
ë§ģ íģ¬
om b
ĠëĤĺì¹´ ë¬´ëĿ¼
Ġì¹´ìĬ¤ ë¯¸
Ġíķĺ ìĿ´ëĵľ
ìĸ´ ì°Į
Ġíķľ ìĭ¬
Ġì¹´ ìļ°
ĠìķĦìĿ´ ì¦Ī
Ġì²ľ ê³µ
ë²Ī ìĹĲ
ë²¤ íĪ¬ìĬ¤
ĠìĹ¼ë ł¤
ĠìĤ¬ ë£Į
ì£¼ ì¹´
Ġíıī ì°½
Ġíĺ¸ ìĬ¤
ĠëĿ¼ìĿ´ ëĵľ
Ġì¹´ì¦Ī ìķ¼
ĠíĶ ¼ë¦¬
Ġ3 20
Ġìľł íķľ
Ġ19 30
Ġì§ĳì¤ĳ ëł¥
ĠRA W
ħ ¼
Įë ¶Ģ
ĠìķĪ ìĤ°
Ġë²Ħ ìł¼
ĠìļĶ íķĺ
Ġë§ī ë°Ķì§Ģ
ëģ Ŀ
ĠíĽĦë°ĺ ìłĦ
ĠìĤ¬ ì¶ľ
Ġíıī ë¯¼
ìº ¡
ĠìĥĮ íĶĦëŀĢìĭľìĬ¤ì½Ķ
ĠìŀĦì§ ĦìĻľëŀĢ
a f
ĠìĿ¸ ìĸ´
Ġê½¤ ëĤĺ
ĠíĮĮìĿ´ ë¸Į
ĠìĿ´ìĬ¹ ë§Į
Ġê·¸ ìłľ
ĠëĿ¼ë §Ī
Ġì¹´ ìĺ¤ë¦¬
ĠëĶĶ ìĺ¤
Ġìķħ ëŀĦ
ĠU R
ëĪ Ī
Ġì±Ħì ĨĮ
ĠBl ue
ãģ¾ ãģĻ
ĠëĮĢ ìĹ¬
Ġë¯¸ íĺ¸
Ġíı¬ ë§·
Ġì§ģ ê²°
ĠK ore
Ġê°Ħë ŀµ
ë½ Ģ
ĠæĶ ¹
ĠìĬ¤íĢ ĺìĸ´
ĠìķĪ ëıĦ
Ġìķ¼ ìĻ¸
ê¶ ¤
ĠíĺĦì §ģ
Ġíĸ Ħë²Ħ
ĠìĿ´ ìĿĢ
Ġë°ľ ê´ĳ
Ġë§Įë £Į
ĠA g
Ġìĸĳ íĺ¸
ĠK n
Ġê´ĳ ë²Ķ
ìº £
ë¦¬ìĺ¤ ìĬ¤
ĠìĬ¤ìºĶ ëĵ¤
ê·¸ëĿ¼ ìļ´ëĵľ
ĠëıĦ íĶ¼
ê°Ģ ëĤĺ
Ġìłķ ë¦½
Ġë¦¬ íĤ¤
ĠëĦ¤ ë¡ľ
ĠìĪĺì¤Ģ ê¸ī
ĠíĺĦì Īĺ
ĠëĮĢìĥģ ìŀĲ
ĠìķĦì§Ģ íĬ¸
Ġìłķ ëªħ
ìłľ ìĿ´
ĠìĽĲ ê³ł
Ġë°± ìĪĺ
Ġíĺ¼ íķ©
Ġê¸° íķ©
ĠíĶ Įë¦¬
ĠëĤ´ ê±¸
ĠìĻ¸ ì¶ľ
Ġë²ł ìĿ¸
ĠíĶĮëłĪ ìĿ¸
ĺ ¬
ĠìŀĲ íģ¬
ĠìĦ¸ ìĦ¸
ĠL ife
ĠìĻķ ê¶ģ
ĠëĦ¥ ìĬ¨
Ġë Ł¼
Ġìĭľ ëª¬
ĠëĤ´ ìķ¼ìĪĺ
ìĸ ¸ë
Ġë¿ Į
ê·¹ ìŀ¥
Ġë¶ĢëĮĢ ìĽĲ
Ġì½ľë¡ľ ëĭĪ
è ĳ
ĠM K
ĠH ar
Ġëĵ¤ìĿ´ ëĮĢ
Ġì¥ °
íĺĳ íļĮ
Ġë¹ħ ë±ħ
Ġíĳľê¸° ë²ķ
ĠìĽ¬ ëĶĶ
Ġê¶Įë Ĭ¥
ĠìĹ£ ì§Ģ
ĠìĤ¬ê³¼ë ¬¸
ĠíĮĮ ìļ°
íĨł ìĭľ
Ġë§Įë ¥ĺ
Ġë¨ ¸ëĭĪ
ĠìĨį ëł¥
ë¬´ ëĭĪ
ë£ ½
Ġì§ĳ ìłķ
íĬ¸ë ŀĻ
Ġëª° ìŀħ
Ħ ¥
ĠìŀĲ ìŀĺ
ìĺ Īë
Ġê°ķ ìĦ±
ĠíķĻ ìĪł
ìĦ¼ íĦ°
Ġíģ¬ë¡ľ ëĭĪíģ´
Ġê±°ë¶Ģ ê°Ĳ
Ġê³ł ìĿ´
Ġìľł ë²¤íĪ¬ìĬ¤
Ġê°ķ íĮĢ
Ġìŀĳ ìĤ´
Ġ12 4
Ġå ±±
Ġíĳľ ìĭĿ
Ġë¬¼ ê°Ģ
Ġìıł ìıł
Ġ out
ĠëĮĢ ì§Ħ
Ġì´Ŀ ìĹ´
Ġì·¨ ì§ģ
Ġì¤Ħ ê±°ë¦¬
Ġs o
Ġëħ¼ íķĺ
AT E
Ġìĺ¤ë¡ľ ëĿ¼
ĠìłĦëĿ¼ë Ĥ¨ëıĦ
iel d
Ġë¯¸ íķĺ
Ġå ĳ
Ġç Ħ¡
íĢ Ħ
ĠëĦµ íĬł
ĠëĮĢ íĮ¨
ĠìŀĲ íļĮìĤ¬
ĠíĮ¨ ë¯¸
ĠíĪ¬ íķĺ
ĠëĦ¤ ëĨĪ
ĠE v
Ġê³łìĨį ëıĦë¡ľ
ëĭ¨ ì´Ŀ
Ġê¹Ģ íĺķ
Ġê¸Ī ìĦ±
Ġl l
ìĬĪ íĥĢ
ĠPl ay
ĠìĿĺ ëĮĢ
ĠìĹ¬ ìĤ¬
Ġêµ¬ ë¡ľ
Ġê¸ Ģë¦¬
Ġë°° ë¶Ħ
ë¹Ħì ĹĲ
Ġê¼Ń ëĳĲ
Ġíķĺ ë¶Ģ
ì¹´ ì¦Ī
ĠS um
Ġë°ķ ìļ©
Ġ25 00
Ġëĥī ìłĦ
ëĵľëŀĺ ê³¤
Ġë¦¬ íĦ°
ĠìĦľ ìłķ
íĶĦ íĦ°
Ġì¹ĺ ìĤ¬
Ġì§ĳ ê²°
Ġì½ §
ì§Ī ê¸°
ĠO h
Ġê²© ì¹¨
ĠìĨ¡ ì¶ľ
ĠìĿ¼ìĸ´ íĮĲ
Ġë¡ľë§¨ ìĬ¤
Ġë³´ ì¦Ŀ
Ġë¯¸ ìĬ¤íĬ¸
Ġì¹´ ë¶Ģ
ĠíĶ¼ë ĵľë°±
ĠìĹĲìĿ´ ìłĦíĬ¸
ĠëĴ¤ì§ĳ íŀĪ
ĠìĿ¼ìĸ´ ìĦľ
å³ ¶
Ġìĭľ ì¤ĳ
Ġëį° ìĬ¤íĭ°ëĭĪ
Ġìŀħ ë§Ľ
Ġë³ĳ ìŀ¥
Ġê¸°ê´Ģ ëĭ¨ì´Ŀ
ëĭµ ìĭľê³ł
íģĲ ë¦¬
Ġíĥľë ¸Ķë¦¿
U T
Ġ ð
Ġë° §
Ġëıħ ìĦľ
ĠìĶ ģ
Ġìĸ¼ íķı
Ġë§ĪìĿ´ ëĦĪìĬ¤
ĠíĶ½ ìĹħ
ìħĶ ì¸ł
ĠLC K
æ ®
æ Ģ
ë§Ī ëĭ¹
Ġìķł êµŃ
Ġìķħ ìĪĺ
ĠëĤľ ìŁģìĿ´
Ġë´ī íĻ©
ĠìĥĿìĤ° ëŁī
¸ë§ ¨
íŀ Īë
ĠëģĪ ì§Īê¸°
b o
Ķ °
¯¸ ìĬ¤
ĠíļĮ íĻĶ
ĠêµĲ ìĦŃ
Ġì£¼ë ²Ķ
³´ ìĿ´
ĠêµŃë¯¼ ìĿĺëĭ¹
Ġë¹¨ ê°ķ
Ġë¹Įë Ŀ¼
Ġìŀ¥ìĭł êµ¬
r en
Ġë¶Ģ ì¶Ķ
ë¶ Ħì
Ġê²½ ê°Ĳ
Ġêµ¬ ëĳĲ
ĠêµŃ ëł¥
Ġë°©ìĸ´ ìĦł
Ġ196 5
ĠëłĪìĸ´ ëıĦ
Ġâĸ ²
ĠìĬ¤íı° ì§Ģ
ĠìĻĦì Īĺ
Ġíķłë¦¬ ìļ°ëĵľ
Ġë§Īëª¨ ë£¨
9 00
ĠìĿ´ íĻĶ
íĮ Ŀ
Ġê³µê²© ê¸°
ãĥ ĸ
ì´ ¬
20 10
IC E
ĠCom m
Ġì¹´ë¥¼ë¡ľ ìĬ¤
ìĬ¤ ê°Ģ
ĠìĪĺ ê³ł
Ġë¬´ ì§Ħ
ĠìĨĮ ìļ°
ëĭĪ íĺ¼
ĠëĤ¨ ìļ©
Ġìķł ëĭ¹ì´Ī
ĠíĶĦëŀĳ íģ¬
9 4
Ġì§Ģ ì£¼
Ġìĸĳ êµŃ
ĠíĹĪ ìľĦ
Ġëĭ¤ìĿ´ ìĸ´íĬ¸
ĠìķĮë Ŀ¼ë
ĠëĴ· ë©´
ĠíĶĦë¦° ìĬ¤
B I
ëł Īë²¨
ëĿ¼ë Ķĺ
ãģĭ ãĤī
Ġë§Ī ê°Ģ
ĠëıĻ ì°¸
ĠíĬ¹ íĽĪ
ìĦ¸ ìļĶ
ìĥ µ
Ġë²ł ìĬ¤
ĠíĽĦì ĺĪ
ĠëĮĢëªħ ìĤ¬
Ġë°Ķ ì£¼ì¹´
Ġìĭł ì£¼
Ġíķ© ì°½
ĠìĬ¬ ëĿ¼ìĿ´
Ġìľ¡ ì§Ģ
Ġíį¼ ìĭľ
ĠìŀĲìľł ìŀĲìŀ¬
Ġíĩ´ ê·¼
Ġìłķì²´ ë¶Īëªħ
ìł¤ ëłĪìĬ¤
X T
Ġ Ê
Ġë°© ë¹Ħ
ĠìĦľ íĥľ
Ġë°° ì§Ģ
Ġë°± ìĭł
ëĿ¼ë ĵľ
ĠíĴĢ ìĿ´
ĠëıĦìĭľ ëĿ½
Ġ196 2
Ġì¹ĺëªħ ìĥģ
Ġìĸ´ë¦° ìķĦìĿ´
ĠëĳĺëŁ¬ ìĭ¸ìĿ´
ĥ ¤
Ġê´Ģ ëħĲ
Ġì¢ħ ìĤ¬
ĠíĮĲ ê¶Į
ì§ģ ìĽĲ
Ġì´Īë ŀĺ
Ġè ¿
Ġì§ķ ì§ķ
ĠCC TV
Ġìľ¼ëĿ¼ë ĬĶ
ĠìĬ¤ëĦ¤ ìĿ´íģ¬
ĠìĽ ľ
Ġë¶Ģ íļĮìŀ¥
Ġë¬¼ë¦¬ íķĻ
äº Į
ĠíĽĦì¿ł ìĺ¤ì¹´
Ġì£¼ê³ł ë°Ľ
Ġë¶Ģ ìłľ
Ġìľł íı¬
ì¦ Īë²ł
Ġìļ° ë¯¸
ìĦ¸ ìŀĲ
ĠëĴ¤ íĭĢë¦¬
ìĿ´íĦ° ìĬ¤
ĠìĤ¬ ìŀĦ
ĠìľĦ íĻĶ
ëĤ´ ê¸°
Ġì§ģ ìĹŃ
ĠF R
Ġ196 1
Ġê´ĳì£¼ ê´ĳìĹŃìĭľ
Ġëŀ¨ íĶĦ
å Ĩ
Ġê³ł ë¦´ëĿ¼
Ġ11 4
Ġì¶ľìĹ° ì§Ħ
ìĦĿ ë¯¼
Ġì¤Ģ íķĺ
ì¹¸ ìĦ¼
Ġì¸łë°Ķ ìĤ¬
Ġíķ´ìļ´ ëĮĢ
ħ ìĿ´
Ġìķ ¼ë§Ĳë¡ľ
ìĬ¤ íĥ
ëĭ ·
Ġìļ° ì§Ħ
Ġ19 20
Ġë§¤ ëĦĪ
íĪ¬ íĳľ
¸Įë Ŀ¼
ĠëĿ¼ëĵł ì§Ģ
ĠëĤ ľëıĻ
Ġëª¨ ëĭĿ
íĶ¼ ìĺ¨
ĠL et
Ġæ ģ
ìĶ ©
Ġê²¨ ëĪĦ
Ġì§Ģìĥģ íĮĮ
ĠìĻ¼ íĮĶ
Ġìĸ´ì°Į ìĸ´ì°Į
9 7
ĠìĤ¬ ìĹĲ
ĠìĦ± ì²´
ĠìĹ° íķĺ
Ġì¹´ ëĶĶ
ĠíĮĮ ìŀ¥
Ġìĭ¬ ìĥģ
ĠìĦľë ıħ
.. ..
ĠíĨµìĭł ìĤ¬
Ġë¹¡ ë¹¡
ĠëĮĢ ë¶Ģ
ĠìļĶ ëıĻ
ĠêµĲ íĸ¥
Ġì£¼ë £¨
ĠìĤ´ ìĥģ
Ġë¹Ħì ¦Ī
ĠR ec
Ġê²© ë¦¬
ĠìĿ¸íĦ° íİĺìĿ´ìĬ¤
Ġf e
Ġë²łìĿ´ ë¹Ħ
ĠìĬ¤ì¹¼ë łĽ
´ Ī
ìĭľ ëĵľ
Ġìĺ¤ ìŀ¬
Ġë§Ī ìŀĳ
ĠíŀĪ ìĤ¬
Ġìĺģ ì°½
Ġì¦Ŀ ìĦ¸
Ġíİľ ìĬ¤
Ġë²ļ ê½ĥ
ï ½
ĠìĿ´ ì°½
ìĤ¬ ëŀĮ
Ġìĺ¤ ìĿ¸
Ġìłķ ëıĻ
ëħ¸ íĬ¸
Ġì²ľ ë§Ī
Ġíľ´ ìĿ¼
Ġì£¼íĻ© ìĥī
ìĭľ ë¦¬
ëıĦ ë¡Ŀ
ĠìĿ¼ ìŀĲë¦¬
Ġìŀ¥ ë³ĳ
ëĭĪ ëĭ¤
ìĨĮ ìĬ¤
Ġc c
Ġê°Ģì¹ĺ ê´Ģ
Ġë İĢ
ĠìĪĺ ìŀĳ
Ġìĸ Ħì
Ġê´Ģ ëıĻ
ê°ģ ìĭľ
Ġê´ĳ ìĭł
ĠëłĪë °Ķ
åľ ĭ
Ġì½ľë¡¬ ë¹ĦìķĦ
Ġë§Ī íĭ°
ĠìłĦ ìĿ´
ĠìłĦ êµĲ
Ġëĭ¹ ë¶Ħ
ĠìĦľ íķ´
ĠíĽĦ ê¶ģ
u al
ĠìŀĲ ìĿĺ
ìŀ¥ ëĤľ
Ġëĭ¨ ì¡°
Ġì½Ķ ì§Ģ
Ġì´Ī íĨł
ĠL E
Ġå ĥ
Ġìĸ¸ íĸī
ĠìĹ°êµ¬ ìĭ¤
ĠíĹĮë į°
ĠìĻĢíĥĢ ëĤĺë²ł
Ġëĭ īìĬ¤
ìĭľ ì¹´
ëĤĺ íģ¬
ë¡ľ íģ¬
ĠìĪ ı
Ġìłľë ¹Ħ
ĠìĿ¼ë³¸ ìĭĿ
ĠíĮĶ ì°Į
ìĪľ íĻĺ
ĠìĿ´ ëł¥
ĠìĿ¼ ê°Ī
Ġæ ±
ĠV o
ĠìĬ¤íħĶ ëĿ¼
ìĦľ ìķ¼
ê³ ĦëıĦ
ĠE V
ar i
ĠìĿĺë¯¸ ìĭ¬ìŀ¥
ìĦ¸ë ¥´
ĠìĿ´ ìķ¼ë§Ĳë¡ľ
Ġíķĺ ë¦¬
íķĺ íķĺ
Ġìĭľ ëł¥
Ġìłľ ìĬ¤
Ġì½Ķ ìĿ´
ĠA f
Ġì´Ī ìĭĿ
ĠëĬĲ ëĭĪ
ĠW E
ĠV R
Ġë¹Įë ³´ëĵľ
ĠìļĶì½Ķ íķĺë§Ī
Ġíķĺ ìĽĮëĵľ
ê° ĵ
ĠëĿ¼ íģ¬
Ġë§Ī ê·¸ë
Ġìĭł ì¹¸ìĦ¼
ĠíĮĮ ê¸°
Ġë§Įë ĳĲ
ĠíĽĦ ìĿ¼
ë¬´ íĬ¸
Ġì²´ ìĿ´
ĠH G
Ġ15 5
Ġíı¬ìĬ¤íĬ¸ ìĭľì¦Į
ĠìĨĮìļ© ëıĮìĿ´
ì§Ģ ìķĦ
ĠìĿ¼ ìĳ¤
ìĭł ë¬¸
Ġë¦¬ ë°ĶìĿ´
Ġë¶Ī ìĥģ
Ġë°ķ ìŀ¬
Ġíĸī íĥľ
ĠëŁ¬ ëĭĿ
ĠO ut
Ġë§Ŀ ìŀĲ
ĠìŀĶ ëĶĶ
ĠíĶĦëłĮ ì¦Ī
Ġë²¡ íĦ°
ĠìŀĲíĮĲ ê¸°
Ġìľł ìłķ
ìĦ± ìłĦ
Ġìĵ ¸ëį°
Ġë²ł ëĭĪ
Ġì½ °
ĠìĬ¤íĭ° ì»¤
å£ «
Ġìĭľëħ¸ë ¶Ģ
æ ł
é ĩĮ
Ġê²Į ë¦´ëĿ¼
Ġëªħ ìŀĳ
ĠìłĢ ìĦľ
ĠHe art
Ġê±°ë¶ģ ìĿ´
s on
Ġíı¬ ëĮĢ
Ġì±ħìŀĦ ìŀĲ
ĠìºĶ ëĶĶ
Ġíķĺì¸ł ëĦ¤
ĠíĪ¬ê¸° ìŀ¥
í Ĥ´
Ġì² ľëıĦ
Ġìĺģ ëıĻ
ĠìĤ¬ìĿ´ íĥĢë§Ī
an a
ĠG D
Ġì¹ľ ìľĦëĮĢ
Ġt e
ìĿ¸ë įĶ
ĠGam ing
Ġ259 200
ĠìķĦë ĭĪë
ĠA E
ĠìĬ¹ ì²ľ
ĠíĨł ë¡ľ
Ġê·¹ ì°¬
Ġì¼Ģ ë¡ľë¡ľ
Ġì¶ľë ª°
ĠìĿĢ ë°Ģ
ĠíĤ¤ ìĤ¬
Ġê²© ìłĦ
Ġì¿ł íĮĮ
Ġìĥ¤ íĶĦ
Ġìķ¡ ìħĢ
Ġ196 4
ĠìľĦíĤ¤ ëŁ¬
C H
Ġë°© ê¸Ī
Ġë©Ķ íħĮìĺ¤
Ġìĸĳ ì¸¡
ĠE A
ĠE B
ĠE nd
íĶĦë ĭĿ
íĶ¼ë ĵľ
ĠTh is
ĠìľĮë¦¬ ìĹ
Ġì£¼íĮĮ ìĪĺ
U R
Ġì¹´ íĨł
ĠíĶ¼ ìĹĲ
Ġë§ī ë¶Ģ
Ġì²ľ ìłģ
Ġë³Ħ ìĿĺ
ìķĦë ŀĺ
ol le
ent al
Ġêµ°ìĤ¬ ëł¥
ë³¼ íĬ¸
íĳ¸ ìĬ¤
ĠëĤĺì¸ł ë¯¸
Ġë·° íĭ°
n er
ĠíĻĶ ìĿ´
ĠìĦ¸ ê°Ħ
ĠE L
ìĹ¬ íĸī
Ġì¦ī ê°ģ
ĠëĨĢ ë¦¼
í ŀĺ
Ġë§ ´
ĠìĤ¬ ëĭ¤ë¦¬
ĠP e
ĠìĺģêµŃ êµ°
ĠëĤĺíı´ ë¦¬
ĠON E
ª «
Ł ¥
ìłķ ìĭĿ
Ġìĭł ìĽĲ
ìĹ° êµ¬
ìĤ° ìĹħ
ĠëłĪ ìķĦ
ëįĶ ê¸°
Ġìķķ ìĤ´
Ġêµ´ ë³µ
ëłĪë ¹Ħ
ĠëĵľëĿ¼ êµ°
é ļ
ĠáĨ« ëĭ¨
Ġìł ĵ
ìĭ ¹
ĠìłĦ ìĦ¸
Ġìĭł ëĮĢ
Ġë§¤ ìĬ¤
ĠìºĲ ìĬ¤íĬ¸
Ġë¬¼ë ĵ¤
ĠìĻķ ëĶ°
Ġì¶© ë¶ģ
Ġìķħ ê³¡
íĮ¨ ëĵľ
ĠO R
ation al
Ġê¹Ģíĥľ ê·ł
Ġëĭ¤ ìłķ
Ġì§Ģ ì¹¨
Ġìłģ ìĿĺ
ãģ Ŀ
Ġ0 11
Ġì´Ŀ íļĮ
Ġíļ¨ê³¼ ìĿĮ
Ġ14 5
ë°ķ íŀĪ
Ġíķľë ª«
ĠíĹĮ ìĭł
ĠìĿ´ ê³¼
Ġê¸° ë°Ģ
ĠëĮĢ ê°ģ
Ġìłķ ìŀ¬
ĠìľĦ ìķĪë¶Ģ
ĠìķĦ íħĮëĦ¤
Ġêµ¬ ê¸ī
ĠìĨĮ íĶĦ
ĠA ct
Ġì§Ħ êµ°
ĠíķĦ ê¸°
ĠíħĮ ìĿ¼ëŁ¬
us h
Ġìŀ¥ê¸° ê°Ħ
Ġë¯¸ëģĦë Ł¬ì§Ģ
ĠìĶģ ìĵ¸
Ġê²½ ìĦ±
Ġëĭ¨ ë²ĪìĹĲ
Ġíıī ìĽĲ
ĠíıŃ ëıĻ
Ġì¤Ģ ê³µ
ł Ĥ
Ġí Ĥ·
ĠìķĦ íĻī
ĠH K
Ġì²ł íļĮ
Ġb ut
ĠìŀĦì °½
ĠíĬĢ ê¹Ģ
Ġìĩ¼íķĳ ëª°
ĭ ±
ĠëıĦ ëª¨
Ġê³µ ë¦½
Ġìłľ íĶĦ
Ġì¹´ ëįĶëĿ¼
íĬ¸ë ĭĪ
ëłĪ íĶĦ
ĠíĽĦë³´ ìŀĲ
ĠëĬĲëĥĲ ëĬĶ
ĠMus ic
Ġì§ĳìłķ ê´Ģ
b e
ìĬ¤ ëŁ½
Ġìĭľ ìĻ¸
Ġìĺ¤ ìĤ¬
ĠêµŃ ê¸°
Ġì²Ń ìĽĲ
ŀĢ íĬ¸
ĠìĬ¤íĥł ëĭ¤ëĵľ
ĠíĺĦë ªħ
Ġä» Ĭ
ĠìĪĺ ëĿ½
Ġê³¼ ìĭ¤
ìŀĲ ì²´
Ġìĭ¤ ë°Ķ
Ġíķ¨ ìŀ¬ê¸°
Ġíĥľ ìĹ°
ĠíĹĪ ìĺģ
Ġë°Ģ ëŀĢ
ĠìĿ´ìłģ ë£Į
Y P
ëĮĢ êµĲ
Ġíķľ ìĪ¨
Ġì¡° ìĿ¸
Ġë¯¸ íĻĶ
Ġë¬¸ ìĸ´
Ġìµľ ìĥģ
Ġêµ° ë³µ
Ġì²´ ìĬ¤
Ġíĳľ ì¶ľ
Ġì°½ ëĭ¹
ë°ķ ìĿ´
ĠìĽĮ ì¦Ī
Ġê·¸ëłĪìĿ´ ëĵľ
Ġì§Ģ ë§Ŀ
ë¡ľ ìĿ´ëĵľ
Ġëĭ¹ ì²¨
Ġë°± ë¯¸
Ġê¸Ī ìłĦ
ĠëłĪìĿ´ ëĤĺ
ĠíŀĲ ë§ģ
Ġ194 4
Ġ194 6
ĠìĦ±íıŃ íĸī
Ġê´ĳë²Ķ ìľĦ
ĠìĸĦì §¤
¹ ¡
ì ¤Į
Ġìľł ìĦľ
Ġë²Ħ ê±°
Ġ7 50
ĠC y
Ġê´´ ë¦¬
ìºĲ ë¦¬
ĠAn g
Ġíİĺë¥´ ëĶĶ
ĠìĬ¤ìľ ķ
ĠìĬ¤íĶ¼ ì»¤
ìķĦëĭĪ ìķĦ
ĠìŀĲ ëĭĪ
ĠëıĻ íĥģ
ĠëĭĪ ì½ľë
ĠìĹ´ ëŀĮ
Ġì´Ŀ ê²©
Ġæ ķ
Ġì¤Ħ ê³§
Ġìĥ¤ ìķĦ
Ġê²½ì°° ê´Ģ
ĠìĬĪíį¼ ìķĦë¨¸
ë§Īë ±Ģ
Ĳ ľ
ĠìĹĲ ë¦¬ì¹´
Ġ20 3
Ġì¹´ ê²Į
Ġìķł ìĻĦ
Ġìľ¡ ë°ķ
ut ion
ë¹ł ë¥´
Ġê¹Įë ¨¹
ĠëĤĺê³ł ìķ¼
ĠìĤ¬ ë°Ķ
Ġë³´ íĸī
ĠìĪĺ ë°°
ĠëĿ¼ ìļ°
ĠëĿ¼ ê±°ëĤĺ
ĠìĦł êµ¬
ĠíĦ° ëłĽ
at ic
Ġì°½ ìĭľ
Ġê½ Ŀ
ë²Ķ ì£Ħ
Ġë§ĪìĹĲ ëĭ¤
Ġì§Ģ íĳľ
ĠìĦ± ì±Ħ
ĠìķĦ ìłľ
Ġë°ľ ìĥģ
Ġê´Ģ ìłľ
ë¸ ĮëłĪ
ìķĦë ĵľ
ĠU I
ĠìĦ¸ ì¸ł
Ġìĸĳ ëıĦ
en c
Ġì²« ëĤł
ĠíĶĦë¡ľëª¨ ìħĺ
8 1
¢ Į
Ð ²
íħ ģ
ìļĶ ìĽĲ
Ġì§Ħ ê°Ģ
Ġê¹Ģ íĺĦ
ĠíķĺëĤĺ ëĭĺ
ĠíĤ¤ íĬ¸
on y
ĠíĻĺ ê°ģ
ĠíĥĲ ìļķ
ĠíĹ¬ ìĬ¤
è ¿
Ġì¤ĳ ìĸ¼
Ġìĺģ ëĿ½
ëĭĪ ìĬ¤íĬ¸
ĠêµĲ ì£¼
Ġìĩ¼ íĬ¸
Ġì»¨íĬ¸ë ¡¤ëŁ¬
Ġì²ľë ĳ¥
Ġíĵ¨ ìĸ´
Ġìĭľëĵľ ëĭĪ
ĠçĻ ½
Ġ6 000
Ġì¦Ŀ ìĽĲ
Ġìĩł íĩ´
I K
Ġìľłëªħ ìĦ¸
Ġl ike
Ġëŀ© íĦ°
Ġì¹´íĥĢ ë¥´
ĠëĤ´ ìħĶëĦĲ
ãģ ļ
Ġì§ģ ê´Ģ
ĠëŁ¬ ìħĢ
ë°Ľ ì¹¨
Ġê°Ģ ë¯¸
Ġìľł ë°°
Ġíģ¬ ë¦½
ĠìķĦì Ĥ°
Ġìļ© ë§¹
Ġëıħ ìĦ¤
ĠãĤ ª
ad y
ER S
ĠíĹ¬ë¦¬ ì½¥íĦ°
Ġë¶Ģ ëıĦ
Ġìłķ ê³Ħ
Ġì¹ĺ ìĿ´
Ġê¹Ģ ëªħ
Ġëħ¸ë Ŀ¼
Ġãħ ¡
æĿ ĳ
ĠML B
ĠìķĦíı´ ë¡ľ
ıĻ ë¬¼
ĠìĻĢ ìĿ´ìĸ´
ĠìĹ¬ ì¹ľ
ĠìķĦìĿ´ ë¦¬ìĬ¤
Ġë¯¸ìĬ¤ íħĮë¦¬
ĠìĪĺìĪĺ ë£Į
Ġë¯¼ë³ĳ ëĮĢ
ĠìķĦëĭĪë ©´
ĭ Ľ
Ġìłķ ìŀĲ
ĠìĽĲ ëĤ´
ĠíıŃ ìĤ¬
ĠëŁ° ì²ĺ
Ġìĭłë¢° ëıĦ
ĠìĿ´ ê³Ħ
Ġìĺ¤ ê¸°
Ġë§Ĳ ìĨĮ
Ġê°ľ ìĹħ
Įëł Īë
ĠìłĦë ¥ĺ
Ġêµ° ìĤ°
ê¹ ½
ĠG R
Ġë¯¸ë ł¨
ĠìĦ¼ íĬ¸ëŁ´
Ġëĭ¤ìĿ´ ëĤĺ
ĠIn f
ĠìĬ¤íĨ ¡
âĸ ¡
à ¸
è Ģħ
Ġë°Ķ íĭ°
íĽĦ êµ°
Ġëĭ¨ íħĮ
Ġëĺ ĺ
ĠíĨł ìĺ¤ë£¨
ë°Ķ íĤ¤ìķĦ
íİĺ ìĸ´
ĠëĤĺìĿ´ ì¸ł
ìĬĪ ìķĦ
Ġìĭ± ìĸ´
ìłĦì Ĭ¹
Ġë°ľìłĦ ê¸°
ĠPS P
æ³ ķ
I O
ì ¤
ĠìĤ¬ ë¥´
ĠìĤ¬ ìľĦ
ĠìĤ¬ ìĦ¤
ĠìŀĲ ìĨĲ
ëį ®
ĠëĤ¨ êµ¬
Ġë¶ģ ë°©
w e
Ġë° į
Ġê¸° ë¯¸
ĠìĤ¬ êµĲ
íķĺ ìļ°
Ġê³¼ ê¸Ī
ĠìĿ¼ ì§Ħ
ĠíļĮ ê³ł
ĠM O
ĠìĹ´ ê¸°
ëħ¸ ìĺ¤
Ġì»¤ íĦ°
ìĬ¤íģ¬ ë¡¤
Ġì±Ķ ìĬ¤
ĠìĽ¨ íı°
Ġìļ° íİ¸
ĠìĦľ íĤ·
Ġë§¤ ì¹Ń
ĠA ir
ëª¨ ëĭĪ
Ġìłĳ ìĭľ
ëįĺ ì§Ģ
¤ ¾
² ħ
ĠìĪĺ ìĭĿ
Ġë² ħ
ë¹ ħ
Ġì¹´ ë°Ģ
Ġìĭ¤ ë¡Ŀ
ĠëłĪ ìĬ¤íĦ°
Ġê° Ń
ĠëıĦ ì²Ń
Ġë³´ ëĭµ
Ġìĺ¤ ìĦ¸
Ġì¡° ìľ¨
ĠêµĲ ê°Ĳ
ĠB ig
ĠF i
ĠG old
ĠíķŃ ìĦ±
Ġê¸Ī ìĥī
ri st
ĠWh at
ĠáĨ« ëĭµìĭľê³ł
Ġê¹ ģ
ĠìłĦ ìłĦ
Ġìľł ìĺĪ
Ġë°© íĻ©
ĠM r
ĠëĴ¤ ëį®
Ġê³µì¤ĳ ìłĦ
ĠìĬ¤íİĻ íĦ°
Ġíį¼ë ľ¨ë¦¬
ab y
ìŀĲ ìĿ´
ĠìķĦ ìķĦ
ĠëĭĪ íĬ¸
Ġìĭ¬ ìĬ¨
Ġ16 5
t on
Ġê·¸ ìª½
ë¥´ ê¸°
Ġë¶Ģ íĺ¸
ĠìĹ¬ ìķ¼
ĠìĦ¸ ìĿ´ì§Ģ
Ġì²´ ì§Ī
ĠG ood
ëĬ Ħ
ĠíĨ¡ íĨ¡
ĠëĶĶíİľ ìĬ¤
Ġê³ł ì¡°
ĠìĤ¬ ìĿ¼ë
Ġê²½ ë¹Ħì
ĠìĨĮ ìĭ¬
Ġì¹ĺ ì¤ĳ
Ġëħ¸ë ¹Ħ
ê·¸ë Ł¬ì§Ģ
ĠO PS
ĠX Y
ĠíģĲ ë²ł
íģ¬ë¦¬ íĬ¸
ĠëĮĦ ìĦľ
ĠìĿ´ íĺĦ
ĠëıĦ ë³´
ĠìŀĲ ìĦĿ
Ġê³¼ íķĺ
Ġìłģ ìĥī
êµ¬ ìĬ¤
Ġíı¬ ê³ł
Ġì¢Ģ ì²ĺëŁ¼
Ġë°Ķë Ĭĺ
Ġì¹¨ ìĭĿ
ĠíĴį ìŀĲ
Ġ194 2
Ġë³¼ë ¥¨
Ġë£¨ì¹´ ìĬ¤
pl ay
Ġê¼ŃëĳĲ ê°ģìĭľ
ĠìľĮë¦¬ìĹ ĦìĬ¤
ĠëıĻ ë¡ľë§Ī
Ġíı¬ ìĥģ
Ġë¥´ ëħ¸
Ġëª½ ëķħ
Ġë¹Įë ¯¸
ĠìĤ¬ë§Ī ìĿĺ
ìĿ¸ ìĤ¬ìĿ´ëĵľ
ĠíĥĢ ìļ°
Ġì²ĺ ëĭ¨
ë³´ ìĬ¤
Ġì´Ŀ íĨµ
ĠN ot
²Ħ íĬ¸
Ġìķ¼ë§Ī êµ¬ì¹ĺ
ĠâĻ ¡
Ġâħ Ķ
ĠëĤ´ ëħĦ
ĠìķĦ ìļ¸ëŁ¬
Ġëªħ íĴĪ
Ġìŀĳ ë³Ħ
Ġê²ĮìŀĦ ê¸°
ĠëĬĲ ê¸ĭ
ĠìŀĦ íİĺë¦¬
ëĳ ĺ
ìĬ¤íħĮ ìĿ´ìħĺ
Ġêµ¬ë¯¸ íĺ¸
ĠìĬ¤ì¼Ī ëłĪ
c k
ĠìĿ¸ ìĬ¤
ĠëĿ¼ë ¹Ħ
ĠíĥĢ êµŃ
Ġëħ¸ ìĿ´ì¦Ī
Ġíģ´ë¡ľ ì¦Ī
ĠLe g
Ġhe ll
A A
Ġê¸° ìĿ´
Ġê³µ ë¯¼
Ġì¡° ìŀ¥
ĠìĥĿ ìķł
ĠìĽĲ ì²ľ
Ġë²ł ì§ĢíĦ°
Ġíĳľë °©
Ġë¯¸ì§Ģ ìĪĺ
ĠìīĲ ëıĦìļ°
ĠCE O
Įë ķ
ĠìĬ¤ íĶĦ
Ġì¹´ ë¦°
Ġì§Ģ ëł¹
ì¹ ¼ë¦¬
ìĺ Į
Ġìŀ¬ ê³ł
ĠíķĻ ìĹħ
ĠA ss
ª¨ ìĬ¤
Ġê¸Ī ê¸°
°ķ ìĬ¤
ĠìŀĲë³¸ ì£¼ìĿĺ
íĥĢ ê¸°
Ġë¹Ħ ìķĦë
íı ¿
ĠâĢ ķ
Ġíĸ¥ ìĪĺ
ĠìłĪ ëıĦ
Ġa b
ĠíħĶ ëłĪë¹Ħ
Ġë¡ľ ëĶ©
ĠëķĮ ìļ°
Ġë¹Ħ íĥĢ
ĠM od
Ġì£¼ë °©
ì¼ Ħì
Ġëĵł ëĵł
Ġì¡¸ ê°ľ
ĠíĿ¡ ìĹ°
ìºĲ ìĬ¬
od y
ìļ ĺ
ĠìĨĮ ê·¹
ĠìķĮ íĮĮë
íĨł ë¡Ŀ
éĥ ¨
ĠìĤ¬ìĹŃ ë§Ī
Ġê±° ëĭĪìĻĢ
ĠíĥĢ ëĿ¼
Ġì£¼ë Ĳĺ
ĠìľłëĭĪ ìĺ¨
ĠíĶĦë¡ł íĬ¸
Ġë ¾°
ìŀ İ
Ġì£¼ ì£¼
Ġë²Ī íĬ¸
Ġìļ´ ìłĦìŀĲ
Ġíı´ ëįĶ
ĠëĵĢ íĭ°
Ġë¯¸ëĿ¼ íģ´
Ġìĥ¤ìĿ´ ëĭĿ
Ġì¹´ë¬´ ìĿ´
Ġìĭľ íĿ¥
ĠìĪĺ íıī
ê±° ìŀ¥
ĠìĻķ ê±´
Ġì¹ľ ìĿ¼
ĠìĤ° ìĦ±
ĠíĹ¤ ë¸Ĳ
Ġìľ¡ ìĭĿ
Ġì½ĺ íĭ°
ĠëĤļ ìĿ´
íĽĦë ¯¸
ĠìĿ´ê´ĳ ìĪĺ
Ġìłķì¤Ģ íķĺ
ĠìĪĺ ëŁī
ĠëĤ´ ìķ¼
ë¹ Įë
Ġìķł êµĲ
ĠI G
ĠíħĮë £¨
Ġì¤ĳê²¬ ìĪĺ
ĠëĤĺ ìĬ¤
ĠìłĦ ê°Ī
ëĿ¼ ìĭľ
ìĺģ íĻĶ
ëĿ¼ë ĭĪ
íĽ ¼
ĠíĴĢ ë°±
Ġíı´ ë¦¬ìĬ¤
ĠìłķìĿĺ ëĭ¹
ĠíĥĢì¿ł ë¯¸
íĭ¸ë Ł¬ìĬ¤
©ĭ ëĮĢë¡ľ
Ġëĵ± ìĤ°
ìłĢ íĬ¸
Ġë§¤ ë³µ
Ġê¹Ģ ìĽĲ
Ġì¢ħ ìĿ¼
Ġë§ŀ ì¶¤
Ġì²Ń ìĥī
ì¼Ģ ìĿ¸
st em
ĠãĤ Ī
ĠíĶĦë¦¬ ìĬ¤íĬ¸
ë¹Ħì ĭľ
ĠGr and
ĠNE W
ëĤĺ ê¸°
Ġë¶Ģ ê³¼
Ġíķľ ìĬ¤
ĠìĦ¤ ìĤ¬
ì¤Ģ íĺģ
ĠëĮĢíĳľ ìŀĳ
Ġíĳľë ³¸
Ġì¶©ìĦ± ìĭ¬
Ġíģ´ëĿ¼ ìļ°
ĠìĻĢíĥĢ ë£¨
Ġë¸Ķëŀĺ ìĬ¤íĦ°
ĠíĸĦë²Ħ ê±°
Ġíı¬ ëŁ¼
Ġ11 7
ê³¡ ëıĻ
ĠìŀĦ ìļ©
Ġëį°ë·Ķ ìłĦ
Ġë¬´ìĤ¬ ìĭľ
Ġíľ© ìĵ¸
Ķ ¨
Ġíķĺ ëłĺ
ì²ľ ìĹŃ
ĠíĽĦë ©´
ë©Ķ ëŀĳ
Ġ13 8
ir st
Ġë¶ĢìĹ¬ êµ°
ĠíĺĦìĥģ ê¸Ī
Ġíķĺìĸ Ģ
Ġê¹Ģìłķ ìĿĢ
Ġê²½íĺ¸ ìĽĲ
oth er
ìŀĲ ì¹ĺ
Ġìłľë ©ĭëĮĢë¡ľ
Ġìķħ ìĦ±
ìĿ¸ë ¯¼
Ġì¹´ìĿ´ íĨł
ĠìĹ¼ ìĨĮ
Ġê±´ì¶ķ ë¬¼
Ġíķĺ ìŀĲ
Ġìĥģ ìłķ
00 00
ĠíĻ© ìŀĲ
ĠìĬ¬ ì©į
Ġé £
Ġì¤ Į
ĠìłĦëĿ¼ë ¶ģëıĦ
Ġëĭ¨ë§Ĳ ê¸°
ĠUF O
¬ ¬
Ġìŀ¥ íİ¸
ĠN T
ĠíĬ¹ìĿ´ ìłĲ
ĠìĦ¤ëĵĿ ëł¥
ĠíķĦë Ŀ¼ë
Įëķ Įë¡ľ
Ġìĭľ ìķĪ
ĠëĮĢ ìłģ
ĠìŀĲ ë°ľ
Ġìłģ ê¸°
ê²© íı¬
Ġë°© íĥĦ
Ġì¦Ŀ íĽĦêµ°
íĻį ì²ł
ĠëĮĢê°ģ ìĦł
· °
ĠìŀĲ ìĿĮ
ĠìĹŃ ìłĦìĬ¹
Ġì½Ķ ëħ¸
ĠãĤ Ń
ĠëĴ· ë°Ľì¹¨
ĠìŀħíķĻ ìĭĿ
Ġë£¨ìĭľ íį¼
Ġìĭľê¶ģ ì°½
t ra
» ´
Ġíı¬ íĦ¸
ĠìļĶ ê±´
Ġ12 2
ĠíĤ¤ ë°Ķ
ĠëĪĦ ìĿ´
Ġë³¸ë ¬¸
ë¹Ħì ĸ´
ĠëĵĢ ìĹ£
Ġíļ¡ ëĭ¨
s c
Ġì¡° ëĭĪ
Ġëĭ¹ ìĽĲ
Ġìļ° ì²´
Ġìļ© ê°Ĳ
Ġíķ© ë°©
ĠíĬ¸ ë¦¼
Ġë½ ķ
Ġê¹Ĭ ìĪĻ
Ġì§Īë Łī
ìĦ¸ë į°ìĬ¤
ĠëıĮê²© ìĨĮì´Ŀ
ãĥĥ ãĥĪ
Ġíģ´ëĿ¼ ìļ°ëĵľ
Ġìĺ¬ìĬ¤íĥĢ ìłĦ
h am
Ġíķĺ ëĤ¨
ĠëıĻ ì§Ģ
Ġëį° ìĬ¤íģ¬
ĠìĦľ ìŀ¥
ë¬´ ì§Ħ
Ġíĥľ ìĦ¸
Ġì»¤ ëĦ¥
Ġì±ħ ëŀµ
Ġê¸°ê´Ģ ì°¨
ĠâĹ Ĩ
íĬĢ ê¸°
Ļ ķ
Ġê¸° ê²ģ
Ġë¶Ģ ë©Ķëŀĳ
Ġìŀħ ì²´
ĠëģĿ íĮĲ
Ġê´´ ëıĦ
Ġê²½ìŁģ ëł¥
Ġê°Ģ ì¶ľ
ê°Ģ ëĦ¤
ĠS V
ĠíĨł íĥĪ
ĠíĥĪ ìĺ¥
ĠìĨ¡ êµ¬
ĠìĤ¬íļĮë ³µ
r ing
¶ ©
ĠìŀĲ ì·¨
ĠìĦ¸ íĨł
Ġãģ ¦
ĠW in
Ġãĥ ı
ëįķ ìħĺ
¯¸ë ĦĪ
Ġìľ Įë
Ġì°¨ ìĦ¸ëĮĢ
ĠìķĦì ĹŃ
ãĥ ī
ëł¹ ê´Ģ
Ġs m
it ch
ĠìĹ¬ìĿĺ ëıĦ
Ġì£¼ë¬´ ê¸°
ĠìĿ´ ì¹´
Ġê³ł ì§Ī
ĠìĿĢ ê°Ģ
Ġë¬¸ ê³¼
ĠëĳĲ íħģ
ĠL ED
Ġæ ³
Ġì±Ħ êµ´
íĶĦë łĪìĬ¤
Ġ195 8
Ġë¹¡ ìĦ¸
ĠìĦ¸ë¥´ ë¹ĦìķĦ
b l
c o
Ġì² ¸
ĠìĦ± ìĪĺ
ĠíŀĪ ìĿ´
ĠíĥĢ ìŀĦë
Ġìŀħ ìĪł
ĠìĨĲ ë°Ķëĭ¥
íĺ¸ë ıĻ
Ġìľłë¹Ħ íĬ¸
Ġê° Ħì²
Ġëĭ¤ ëĭ¤ë¥´
ĠìĬ¤ ë¦¬
ĠìĹ¬ ê¶Į
Ġë³ĳ ìĺģ
Ġì§Ħíĸī ìŀĲ
ĠãĤ µ
ro p
ĠìĪĺìĥģ ìŀĲ
Ġìľłíĸī ìĸ´
æĺ İ
íĶĮë¦¬ ì¼ĢìĿ´ìħĺ
Ġê¸° ìĦ±
Ġë°ķ ê²½
Ġì¦ī ìĦĿ
Ġê¸Ģ ëłĮ
Ġë²¨ ëĿ¼
ëħ¸ìļ° ìĹĲ
ĠNH K
Ġëĭ¤ ëĤĺì¹´
ĠìĿĺ ìĦĿ
Ġë¬´ ìĭ¬
ĠíķĻ ì°½
ĠT E
ĠD rag
Ġëħ¸ ê¸°
ĠR ob
it s
ol og
Ġ194 3
ĠìĿ´ ë³Ģ
ìŀ¥ êµ¬
ĠìĦł ë¹Ħ
Ġë°° ìĹ´
Ġìļ´ íķŃ
Ġë£¨ ìĿ´ì§Ģ
Ġë¯¸ë Ŀ¼ìĿ´
Ġíķ© ê¸Ī
Ġë³¸ë ĶĶ
Ġì¸łì¹´ ìĤ¬
n y
Ġêµ¬ ìĬ¤íĥĢ
ĠìĹ° ë¹Ħ
Ġì§ģ êµ¬
ãĥ ¢
ĠP L
ë§Ŀ ìĿ´
ĠìĨ¡ ëıĦ
ĠìĻ¸ë ŀĺ
ìĥĪ ìĭł
ĠìĬ¤íģ¬ ëŀĺ
Ġê²ī ë³´ê¸°
ĠìĪĺìĺģ ìŀ¥
Ġìĺ¤ë§Ī ì¥¬
Ġìłģ ìĿ´
ì° Įë¥´
ĠìľĦ íĥģ
ë§Ī íĬ¸
Ġíķ´ ì»¤
ĠìĦľ ì§Ģ
Ġì¹ĺ ë°Ģ
ĠìķĦì £¼ë
ĠK D
Ġì»¨ íħĮìĿ´ëĦĪ
Ġìłķê¸Ģ ëŁ¬
Ġëĭ¤ ê±°ëĤĺ
ĠìĽĲ íĺ¸
ĠìĦ¤ ê³ĦëıĦ
ĠT ype
Ġ18 00
ou se
Ġíķĺìķ¼ íĨł
Ġë»¥ íĬĢê¸°
Ġìľ¼ë¦¬ ëĿ¼
ìľ½ ê³ł
r ac
æ Ķ
ë§Į íģ¼
Ġê²½ ë§¤
Ġë°ĺ ë§Ĳ
ĠM V
Ġê´ĳ ìĦĿ
ìķħ ê¸°
Ġm an
ĠO ff
ĠíĮĶ ê¿Īì¹ĺ
Ġìĺ¨ ê±´
Ġê´´ ëŀĦ
Ġê³ł ë¶Ħ
ëį ¸ë§ģ
Ġìĺģ ë¯¸
Ġì¹´ ë§Ī
Ġë¶Ī ìļ´
ëª¨ ìĤ¬
ëłĪ ìĸ´
ĠìĥĿë¬¼ íķĻ
ãĤ¹ ãĥĪ
íĶĦë¦¬ íĬ¸
Ä ±
Ġëª¨ ìĬ¤
ĠìĬ¤ íĶĮë¦¿
Ġê±° ë¬¼
ìĽ ¹
Ġìľł ìĪĺ
ĠíĶ¼ ê³¤
ĠC T
ĠC an
Ġì§ģ ê°Ĳ
Ġë¹Ħì Ī
ĠW ith
ĠO K
ëĳ ĺë¦¬
íĿ¥ ë¯¼
ĠìĨĮëĭĪ ìķĦ
Ġë§ ı
Ġì§Ģ ìŀĲì²´
Ġê¸° ë§Ī
ĠìĦ¸ ê³Ħì
ĠëĤ¨ ëıĻ
ĠìĿĮ íĸ¥
ĠìĻķ ëħĢ
ĠìĿ´ë² ł
ĠìĺģíĻĶ íĮĲ
Ġë¹ħ íĦ°
all y
ł ¬
Ġ3 30
Ġë²Ħ ê¸Ī
Ġì¶Ķ ì¶ľ
ĠíĮ¨ ê±°ë¦¬
ĠìłĬ ìĿĢìĿ´
Ġê³łìĬ¤ ëŀĢ
Ġê²Į ìŀĦë
Ŀ¼ë ıĦ
ĠìĦł ì²ľ
ĠíĮĮ ìĹħ
ĠíĨł íħľ
ĠíĶĮëłĪìĿ´ ìĬ¤íħĮìĿ´ìħĺ
ĠíĦ° ë¯¸ëĦ¤ìĿ´íĦ°
ĠO M
ĠíħĮ ìĿ¼
ĠìķĮë £¨
ĠAr t
ãĤ¿ ãĥ¼
Ġë¸ĮëĿ¼ë įĶ
Ġë¹ĦìķĦë ĥ¥
Ġê°Ģ íĺ¸
Ġìĥģ ì²´
ĠìķĦë ¶Ģ
Ġìľł íĨł
Ġìĸĳ íĤ¤ìĬ¤
ĠìĤ° ìķħ
ĠíħĮ ìĬ¬ëĿ¼
ĠìĦ¬ ìĦ¸
Ġíģ¬ë¡ľ ìķĦ
Ġìºł íķĳ
Ġë± ĥ
ëĵľë¦¬ íŀĪ
oun t
Ġì§Ģ ëıħ
ëŀ «
ĠìĽĲ ê²©
Ġì½Ķ ë¸ĮëĿ¼
ì»¤ ëĭĪì¦ĺ
Ġìª½ ì§Ģ
Ġë¶ģ ê·¹
Ġíĺĳ ìķ½
Ġë§ĪìĤ¬ ë¬´ëĦ¤
MA X
Ġì¤Ħì¤Ħ ìĿ´
ĠìŀĲë¶Ģ ìĭ¬
Ġìĸ´ìĮĶ ìĭł
ĠìĿ´ ìľ½ê³ł
ĠëıĦ ë§Īë±Ģ
ĠìĬ¤ ìºĲ
ĠëıĻ ëħĦ
Ġìļ° ì§Ģ
íħĮ íģ¬
Ġíŀĺ ìĵ°
Ġìķħ íĶĮ
Ġíİĺ ìĿ¸íĬ¸
ĠíĺĦì ¡´
Ġë©Ģ ë¦°
Ġíľĺ ëĳĺë¦¬
ê·ł ê´Ģ
ëĭĪë °ľ
ëĪĦë ¥´
ìĻĦë ıĻë¬¼
Ġìĭľ íĥĢ
Ġìľł ìĦ¸
Ġë¬´ ìŀĳ
ìĸ ¸ë§¨
Ġê°ķ ìĹ°
ĠíĶ¼ ì²ĺ
ì¸ł êµ¬
ĠëĶĶ ëĶĶ
ê·¸ë Ł¬
Ġì¹Ń ìĨ¡
Ġë¥´ ëĦ¤
íĬ¸ë¡ľ ìĿ´íĬ¸
ĠìĺĪìĸ¸ ìŀĲ
ĠìľĦíĻĶ ê°Ĳ
¹ µ
ç ķ
ìĺ¤ íĶ¼ìĬ¤
ë¯¸ ì½Ķ
Ġìĭł ëĶĶ
ĠìĦľ ìĤ¬
Ġì¶Ķ ìĦĿ
ĠìĨĲ íĿ¥ë¯¼
ĠíĦ° ë¬´ëĭĪ
ĠíĻ© ë¬´ì§Ģ
ĠO CG
Ġê·Ģ ì¤ĳ
ĠëıĦìłĦ ìŀĲ
ĠìħĢ íĶĦ
Ġìľłë¡ľ íĮĮ
Ġë©Ķë¥´ ìĦ¸ëį°ìĬ¤
Ġëħ¸ì¡° ë¯¸
ĠìļĶë¯¸ ìļ°ë¦¬
Ġìĸ´ ìĥĪìĭł
Ġëĭ¤ ëĤĺ
Ġê²½ ê³¼
Ġìŀ¥ ëıĻ
ĠëĭĪ íĤ¤
ĠãĤ «
ĠëĨį íĺĳ
ëħ¸ë ¯¸
ì¦Īë ħ¸
ĠìĹĩ ê°Īë¦¬
Ġë°ĶìĿ´ìĺ¬ ë¦°
ë¦¬ ìļ°ìĬ¤
Ġìĥģ íĳľ
ĠëĤ´ ìĭ¬
ì¡° íķ©
íĮĮ ì¹ĺ
ĠL ive
Ġê³¡ ìĦł
íĨłë¦¬ ìĸ¼
ĠìĦľìļ¸ ìĹŃ
ĠìĬ¤íĬ¸ë łĪ
Ġëªħëł¹ ìĸ´
ĠíĶ½ ìħĢ
Ġê¸¸ë ĵ¤ìĿ´
Ġë¦¬ëª¨ ëį¸ë§ģ
è £
ìļĶ ë¦¬
Ġíħ ħ
Ġìĸĳ ìķĦì¹ĺ
ĠíĶĦë¡ľ ëįķìħĺ
Ġæ °´
ĠìĨĶ ëĿ¼
ĠëĶ± ëĶ±
ĠíĿĲ ë¦¬
Ġë¶Īê°Ģ ë¦¬ìķĦ
ê³ł ë¥´
ê³ł ì¿ł
Ġê³µ ìĦ±ìłĦ
Ġíķľ ìĦ±
Ġëł Ĳ
ĠìĦľ ì´Ī
ëłĪ ëĵľ
ìĻĢ ë¥´
Ġè ģ
ĠìĿ¸ê¸° íĪ¬íĳľ
itt le
Ġê·¸ ê°Ħ
ĠìłĦ íĥľ
Ġì°¨ íģ¬ëĿ¼
Ġê°ķ ëĭ¹
ìĦ¸ ìļ°ìĬ¤
Ġì´Ī ìĽĲ
Ġì§Ħ ê³µ
ĠìĦ¸ë °Ķ
ĠìľĦë ĤĺëĿ¼
ec ial
å ĵ
Ġê³ł ëıħ
ìĹ ĳ
Ġìĥģ ê¶Į
íĺ ¼ë
Ġ19 2
Ġíıī ìłķ
ĠìºĲ ìĬ¬
ĠíĤ¤ ì¿ł
Ġê¸Ī íĻĶ
ĠíĤ¤ë¦¬ íĨł
æĿ ¥
ĠëĽ°ìĸ´ ëĭ¤ëĭĪ
Ġë²¼ë Ŀ½
ĠìĿ´ë°© ìĽĲ
Ġì´ĪëĬ¥ ëł¥
ĠìĿ´ ëª©
Ġë² µ
Ġë¯¸ ì½ĶíĨł
Ġì¹´ ê°Ģ
ì¡° íĬ¸
ĠìĨį ìĺ·
Ġìĺ¬ ëĿ¼
Ġì¦Ŀ ê¶Į
Ġãĥ ©
ĠíĥĿ ë°°
Ġìŀ¬íĮĲ ìĨĮ
ê¾ ¼
æµ ·
ĠìĬ¤ìĻ ĳ
ĠìĿ¼ ê°ľ
Ġë§Ī ì¡±
ĠìĨĮ íĶ¼ìķĦ
Ġë°ķ ê²©íı¬
ĠëĴ¤ ë°Ķ
Ġå ¸
ĠíĽĦë ł¤
un e
ë§Īë ¸Ķ
ĠìĭŃ ìĥģ
ĠëŁ°ëĭĿ ë§¨
ĠìĤ¬ íķĺ
ê³ł ë¡ľ
Īë ¶Ģ
Ġìłľ íľ´
Ġìĺģ ìŀ¬
ĠìĬ¤íĥĢ íģ¬
ĠíĹ¤ ëĶ©
Ġë§Īë¥´ íģ¬ìĬ¤
åľ °
ĠìĿ´ìĹĲ ìķ¼ìĬ¤
Ġìļ°ë£¨ ê³¼ìĿ´
ìĽĲ ëŀĺ
Ġíĥľ ê³ł
ĠëĿ¼ìĿ´ íĶĮ
ëłĪìĿ´ íģ¬
ĠìľĦë ıĦ
Ġë±ħ íģ¬
į°ìĬ¤ ë¦¬ê°Ģ
Ġè¦ ĭ
ĠJoh n
Ġìĸ´ íĶĮ
Ġê°Ģ ëĵł
ĠìłĢ ìĥģ
íĺ¸ ì¿ł
Ġìķł ìĻĦëıĻë¬¼
ĠìĤ¬ìĿ´ ë¹Ħ
íĩ´ ê·¼
ĠCh ar
ĠêµĲíĨµ ìĤ¬ê³ł
ĠLO VE
ĠëĤĺ ëĤł
ĠìŀĲ ìĪĺ
ĠìķĦë ŀĢ
ĠìĦ± ê·łê´Ģ
Ġë³¸ êµŃ
Ġå ĩº
Ġì§ķ ë³ĳ
Ġë¸Ķë£¨ ìĬ¤
Ġì±Ħì §ĳ
Ġì¹ľë °Ģ
ĠëĿ¼ìĿ´ìĸ¸ ìĬ¤
Ŀ¼ ìĿ´íĬ¸
Ġë¬¸ íĹĮ
Ġì¶ľ ìĦ¸
Ġì¡´ ìĨį
Ġíİĺ ìĿ´íĬ¸
Ġæ ĦĽ
ĠV IP
ĠíĨłëĦ¤ ìĿ´ëıĦ
ì į°
ìĦ± êµ°
ĠìĦł ê³¡
Ġê±´ ìłĦ
ĠO B
ìķĦë ĵ¤
Ġì§Ģ ë¦Ħ
ĠìĨĮ ì§Ħ
íĭ° ìĺ¤
ĠìĤ¬ìļ© ë²ķ
ĠíĺĦ ìłĢ
ĠíĿĳ ë°±
ĠìĽ¨ ìĿ¸
ì°Į ê°Ĳ
ĠìĬ¤ì½Ķ íĶĦ
åħ ī
Ġìıł ë¦¬
íĪŃ íĬĢ
ĠìĿ´ ë¥Ļ
ĠìĿ´ ëĨĪ
Ġâ ī
ĠêµĲ ëŀĢ
Ġìŀĺ ìĥĿê¸°
ĠëĶĶ íĬ¸ë¡ľìĿ´íĬ¸
Ġç «
ĠìŀĦ ê´Ģ
ëħ¸ë ¯¸ìķ¼
Ġ194 9
ĠíĪ¬ìĤ¬ ì²´
Ġì¤Ģìļ° ìĬ¹
Ġëĭ¹ë¶Ħ ê°Ħ
7 00
Ġìľł ì¶Ķ
ĠìĹ¬ íķĺ
Ġíķ´ ìŀĦ
Ġìĥ ´
ĠA LL
ĠìķĦìĿ´ ìĸ¸ë§¨
ĠëĴ¤ ì¹ĺ
Ġëħ¸ íĻįì²ł
ĠP o
ĠìĹŃìłĦ ìŀ¬íĮĲ
ort s
g a
íķĺ ìŀĦ
ĠíĻĶ ì§Ī
ìĿ¼ ê´Ģ
íĴ ĭ
ĠB ro
ĠìķĦìĿ´ ì¹´
ĠíĤ¤ íĥĢë¡ľ
ĠìĹ´ íĴį
Ġë§ĪìĿĮ ê»ı
Ġê°Ģê¹Į ìĬ¤ë¡ľ
Ġë¶Ģì¶Ķ ê¸°
M C
Ġê³ł ëĤľ
Ġì§Ģ ì¤ĳ
ìĤ¬ ìĻĢ
ĠìĦ¸ ìĿ¸
Ġê°ľ íĻĶ
íķ´ ë¨¸
Ġë¶Ħë į°ìĬ¤ë¦¬ê°Ģ
ĠíĶĦë¦¬ ëĵľë¦¬íŀĪ
ëĤł ëĵľ
¼ë§ Ŀ
Ġì½ĺ íģ¬ë¦¬íĬ¸
Ġ195 5
Ġíĳľë ªħ
Ġëŀľ íĦ´
Ġæľ Ī
ĠëŃī ê°ľ
ĠíħĶëłĪë¹Ħ ìłĦ
è ģ
Ġê³ł ì°¸
ĠëıĦ ëıĦ
Ġìĭł ëĵľë
Ġë¯¸ ìĦ±
Ġìĭ¤ ì²ľ
ê±° ì§Ħ
Ġê·¸ëŁ¬ ìŀĲ
Ġ194 8
ĠíķĻë¶Ģ ëª¨
ë¥ ¼ë
Ġìĺ¤ íĶ¼
Ġë§Ī ì½Ķ
Ġì°¨ ë§Ī
ĠíĨµ íķĻ
ãĥ İ
Ġì´Ŀ ìŀ¬
ì¿ł ë§Ī
Ġì²Ń ë¬¸
Ġk anc
ë°± íĻĶìłĲ
ĠìłĪë ¬ĺ
Ġëĭ¤ìĿ´ ë¸Į
ä¸ ī
Ġê·¸ëłĪìĿ´ ìĬ¤
ĠíĨłë¡ł íĨł
ìŀĲ ë¥´
Ġíı¬ ìĦ¸ìĿ´
Ġìĺ¬ ìĿ¸
ĠíħĮ ìĿ´íģ¬
Ġs c
ĠëŃ £
Ġë¹ħ íĨłë¥´
Ġâĸ ¶
Ġâħ ł
Ġê²Ĳ ì§Ģ
ĠB ut
Ġ14 4
ic ro
ĠëĤĻ ìĽĲ
Ġê³µë°© ìłĦ
Ġkanc olle
Ġìĸ´ ì¤ĳê°Ħ
Ġë¡ľ ë¸Į
Ġë¡ľ ë§Ŀ
Ġìłģ ìłķ
Ġìŀ¬ íĺ¼
ĠìĻķ ìĦ±
ĠR S
ĠëĦĺ ìĤ¬
Ġìķŀ ë©´
Ġë¹Ħíĸī ìĦł
Ġê°Ħì ĭĿ
T C
· Į
Ġê°Ģ ì°¨
ìĪĺ ëıĦ
Ġì¡° ë¥ĺ
Ġì¹´ ë°Ķ
Ġëĭ¨ ìĭł
ĠíĺĦ íĸī
ĠìĻĦ ìłĦì²´
Ġë´ī ê¸°
ë§¹ ìĿ´
ĠìķĦì¹´ ë¦¬
ĠëłĪì§Ģ ìĬ¤
ë°ľë ¬¼
Ġìĥģ ìŀ¥
Ġìĸ ¸ë¦¬
ëı ¼ì§Ģ
Ġë³´ìľł ìŀĲ
ĠìĦľë¶Ģ íĦ°
Ġì¹´êµ¬ ëĿ¼
ĠëĮĢë³Ģ ìĿ¸
ŀ ©
ĠìĤ¬ ë³ĳ
Ġëĵ¤ íĨµ
ĠìĦ± ëħĢ
ë¹ Ħëĵľ
ĠíĶ¼ ê²¨
Ġé ¢¨
ĠìŀĶ ëĭ¹
Ġë¥ĺ íĺĦì§Ħ
íĳ ¼
Ġì²¨ ê°Ģ
Ġë¶ĢëĶª ì¹ĺ
ĠìĸĢ ëį°ëłĪ
ĠUnivers ity
íķĺ ëĵľ
Ġë² ¼
Ġê·¸ íĨłë¡Ŀ
Ġæ ¸
ë©Ķ ë¥´
ĠëĤľ íķ´
ĠìĿ´ ëį°
ĠìķĦë į¸
ë¯¸ ìķĦ
ĠT W
Ġíĺ¸ ìĦ¸
Ġì²´ ë¦¬
Ġìķ¼ íķĺ
Ġë¹Ħë §Į
Ġì¹ľ ê·¼
Ġíĺ¸ë ¡ľ
et t
Ġëĭ´ëĭ¹ ìŀĲ
ìĬĪ íĥĢìĿ¸
Ġë§ĪìĿ¸ íģ¬ëŀĺíĶĦíĬ¸
Ġë²łëĦ¤ ì¹ĺìķĦ
ĠìĤ¬ìĤ¬ êµ¬
Ġtv N
ĠìĪĺ ìļĶìĿ¼
ĠìĪ Ģ
Ġì¶ľ íĩ´ê·¼
ìķł íĭĢ
ĠìĬ¤íħĮ ìĿ´íĦ°ìĬ¤
ĠìķĦì¦Ī ìĤ¬
Ġìĺ¤ë²Ħë ¡ľëĵľ
ìĿĦë ²ĦìĬ¤
Ġð Ł
r is
u x
ĠìłĦ ë¦¬
Ġìĺģ ë¦¬
Ġìŀ¬ ìľĦ
ë²Ħ ë¦ĩ
Ġê¸Ī íĺ¸
Ġë§Ŀ ê°Ģ
ĠìĺĪë ªħ
ĠìĹ°ê³ł ì§Ģ
Ġíķĺ ë¹Ħ
ìĺ¤ ìļ°
¬´ ê²Į
ĠìĪľ ì¡°
ĠW H
Ġìĸ¼ íĦ°
Ġå¤ ª
Ġ195 4
Ġë¶Ģ íķ©
ĠìĹ¬ ê±´
Ġë°Ķ ë¥¸
Ġë°Ľ ìķĦì¹ĺ
ĠëĤĺìĺ¤ íĨł
Ġë¹Ħ ìķ½
Ġì²´ ê¸ī
Ġê±´ ë¦½
ĠëĦ¤ íĥĢ
ar a
Ġ16 00
Ġìĥ¤ íģ¬
ìĵ ¸ë¦¬
ĠìļĶìĭľ ëĭ¤
Ġê²½ìĥģ ëıĦ
ĠCom p
ìŀĲ ìĬ¤
ĠìĦ¤ ëłĪ
ĠìĦľë ¬¸
Ġë²ł ê°Ģ
Ġê´´ ë©¸
ĠíĻĪ ê²½ê¸°
Ġíģ¬ë¡ľ ëħ¸
Ġì¼Ī ë¦¬
Ġìľł ìĹĶ
Ġë¬´ ì°Įë¥´
Ġë©° ëĬĲë¦¬
Ġë°ľ ê°Ħ
ĠB W
ĠíıŃ ë°ľë¬¼
ĠìĪľ ìĪľ
Ġë¶ģ ìľłëŁ½
ë¸Įë Ł¬
Ġëį´ ëħ¸
Ġíľ© ìĵ¸ë¦¬
ĠëĮĢ ì¹Ń
íĤ¤ ìĺ¤
ĠìĹ° ìĦ¸ëĮĢ
Ġëĭ¹ ê·¼
ĠíĥĢìĿ´ ê°Ģ
ĠíŀĪë ħ¸
ĠâĹ İ
Ġë¶ķ ëĮĢ
Ġë´ Ħë
ĠST R
Ġì£¼ìĭĿ íļĮìĤ¬
Ġë§¤íĬ¸ ë¦ŃìĬ¤
ì§ ļ
ĠíĥĢ íĺĳ
ĠíĬ¹ ì¶ľ
ĠíĶ¼ íģ¬
ĠìĹħ ìŀĲ
ë¦° ìĬ¤
ĠìĤ° íĻĶ
Ġè µ
Ġ195 6
Ġë¡ľ ìĿ´ëĵľ
ĠìĬ¤ ë§¥
Ġê·¸ë ŀĢ
ëĭĪ ë¥´
Ġíķ´ ìĪĺ
Ġìµľ ìĺģ
Ġì¹ĺ ìķĦ
ĠìłĢ ê²ĥ
Ġìķł íĭĢ
ĠëĶĶ íħĮìĿ¼
Ġê°ĳ íĪŃíĬĢ
ĠìĦ¼ íĬ¸
ĠìĹ°ê¸° ìŀĲ
Ġë¸Ķëŀĺ ìĬ¤íĬ¸
Ġëª¸ë ¬´ê²Į
ĠìĹĲë°ĺ ê²Į
Ġ Ë
ë° Ł
Ġìŀ¥ ëŀĺ
Ġìļ° ìĥģ
Ġìļ° ì¸ł
ĠìĦľ ì§Ħ
ĠíĮĮ ìĪĺ
Ġìŀ¬ íĮ¬
ìķĪ êµ°
ĠK C
Ġë¹Ħë Ĭĺ
Ġë°± ìĥī
Ġì¤ĳìķĻ ìĦł
Ġê³µëıĻ ì²´
OR E
ĠìĿĢì§Ģ ëĿ¼
éĿ ¢
Ġê°Ģ ëĤĺ
Ġë¶Ģ íıī
ì¹ĺ ì¹´
Ġìĺģ ìŀ¥
Ġë°ĺ ëĭ¤ìĿ´
er g
ĠE MP
ĠíķŃ ë¡ľ
Ġëįķ íĥĿ
Ġé ŃĶ
Ġì¤ Ħë
9 1
Ġìľł íĭ¸
ĠìłĲ íı¬
ê²½ ìłľ
Ġì§ģ ì§Ħ
ĠëĿ¼ìĿ´ íĦ°
Ġìĺ¬ë¦¬ ë¸Į
ot t
Ġê²¸ ìŀĦ
ĠìĿ¸ë²¤ íĨłë¦¬
ë¦¬ ëĭ¤
Ĥĺ ê¸°
¸ë łĪ
Ġìłķ ìľł
ĠìķĦë £¨
Ġë¬´ íĺĳ
Ġëħ¸ íĽĦ
Ġê°ģ ê¸°
ĠëıĻë¬¼ ìĽĲ
ĠìĤ½ íĻĶ
ìĿ¼ë¦¬ ìķĦ
ì°Įê°Ĳ ì¹ĺ
å ±
Ġìĸ´ íľĺ
Ġê°Ģ ë³Ģ
ĠìĤ¬ ìĬ¤ì¼Ģ
Ġëķ ľ
ĠíĻĶ ëĤĺ
ĠëĳĲ ëĵľë¦¬
ĠìĨį íİ¸
ĠëĭĪ ì½ľ
ë£ »
ìķĦë ¹Ħ
ìºĲ ë¦Ń
ëĨĢ ìĿ´
Ġë© ±
Ġê²½ íĿ¬
ëį° ê¸°
Ġì°¨ ëĤ¨
Ġì¹´ íĦ°
Ġë¹Ħ ìĦĿ
Ġêµ° ë²Į
Ġìķħ ì§Ī
el f
Ġëĵľë¦¬ íĶĦíĬ¸
Ġíģ´ë¡ľ ë²Ħ
ĠíĶĦë¡ľê·¸ëŀĺ ë°į
ĠëıĻëĮĢ ë¬¸
è ·
ìŀ ¼
Ġë§Ĳ ìŀ¥ëĤľ
ë¶Ģ ëĮĢ
Ġíı¬ ì»¤
ĠS il
Ġì½Ķ íĮĮ
ãĥ ĩ
Ġë°± íĺ¸
ãģ£ ãģ¨
sh ip
ĠëĶĶìĭľ ìĿ¸ìĤ¬ìĿ´ëĵľ
é Ĥ
ĠìĿ´ ê´Ģ
¡ľ ìļ°
ĠìĿ¼ ìĦł
Ġìľł ìĺģ
Ġìľł ë¯¼
ëĭĪ ì§Ģ
ĠíĬ¹ ë³Ħìĭľ
Ġìº ĺ
Ġê²© ëħ¸
ìķł ë¯¸
ĠìłĦìļ© ê¸°
Ġìº¡ ì½¤
Ġìĸ´ë¦° ìķł
ãĥ¼ãĥ Ī
ê¿ Ģ
ĠìĻĢìĿ¼ëĵľ ì¹´ëĵľ
¨ ¸ë
í Ĳģ
ĠìĿ´ ëħ¸ìļ°ìĹĲ
Ħì ĸ´
Ġã Ĥ¨
ĠìĿ¼ë ŀĮ
ë¶Ħ íķ´
Ġëħ¸ ìĿ´
ĠìĦľë ĮĢ
ĠI B
ìĬ¤íĭ° ìķĦ
¸ Įë¦¬
Ġì£¼ ìĭľ
ĠìķĦ íĤ¬
Ġëĭ¨ ìłģ
ĠìĦľ ìĬ¤
íĭĢ ë§ģ
Ġë²Į ì¹Ļ
ĠìĤ¬ìĹħ ìŀĲ
ĠáĨ«ëĭ¤ëĵł ê°Ģ
Ġê² ¸ë¹Ħ
ĠìĿ¸ ìĭł
ĠëıĻ ë´ī
ĠìĦľ ì»¤ìĬ¤
ĠD B
ĠP ol
ëĿ¼ë ĭ¤
ĠíĻĺ ìĽĲ
ĠíķĦì Ĭ¹
ĠIn st
ĠìĪĺë¦¬ ê²Ģ
ìį ¹
ĠìĬ¤ ì½§
Ġìľł ëĿ¼
Ġì¹´ ëħ¸
ĠìĦľ ìĽĲ
ì¿ł ëĭĪ
Ġç §ģ
ĠìĦĿ íĥĦ
Ġìĩ¼ íĥĢ
ĠíĻĶìŀ¥ íĴĪ
Ġë¯¸ì¹´ ìĹĺ
Ġê°Īë ŀĺ
Ġë¹ĦìĪ į
° ·
æ Ĺ
ĠìĹĲ ëį´
Ġìĸ´ ìļ°
ĠëĮĢ ëĭ´
ĠëıĻ ê±°
Ġìĺģ ê¸°
ìŀ¬ ìļ±
Ġìµľ ìĦ±
Ġìŀħ ë²ķ
ĠíĶ¼ ìĹĲë¥´
ĠF N
Ġíİĺ ë£¨
éĻ ¢
Ġë§Ī ëĭ´
Ġë§Ī ê·¸ë§Ī
ì² «
Ġìłľ ìĭĿ
ĠíĮĮ ìĹ´
Ġë°ķ ë³ĳ
Ġê´ĳ ìĨį
Ġìµľë ©´
ìºĲ ìĬ¤íĬ¸
ĠXX X
o ot
ç ¥
Ġ q
ëıĦ ìĬ¤
ĠìĿ¸ íĶĦëĿ¼
Ġì¹ĺ íŀĪë¡ľ
Ġì¶Ķ ìĽĶ
ĠëłĪìĿ´ íģ¬
ĠíĽĦì ĹĲ
äº ĭ
Ġë¯¸ëĦ¤ ëŀĦ
ĠìĬ¤ì¼ĪëłĪ íĨ¤
G M
ĠìĤ¬ ì£Ħ
ĠìĿ¼ ì§ģ
ĠëĤ´ ìĭł
Ġë¯¸ ìĭľ
in c
Ġê³Ħì ¢Į
Ġìŀł ë³µ
į¸ íĶ¼ìķĦ
ĠìĿĢ ë©Ķëĭ¬
Ġë°ĺ ì£½
ĠS O
ĠíĶ¼ ìĭł
ĠT A
ìĥ Īë
ĠëłĪìĿ´ ì¹´
Ġê²© ëıĮ
Ġìłķë³´ ìĽĲ
Ġì§¤ ë§ī
ĠìķĦìķ¼ ì¹´
ĠGP U
åĥ ı
Ġì§Ģ ê°ĳ
Ġìĭľ ìķłíĭĢ
Ġìŀĳ ëł¬
ĠëıĮ ìķĦê°Ģ
ĠìĪľ ì§Ħ
³´ ëĿ¼
Ġìµľë ¯¼
Ġb b
Ġìĥ¤ ë¥´
ĠíĬ¸ë¦¬ ìĺ¤
ĠíĶĮëĿ¼ ìŀī
Ġê³ĦìĬ¹ ìŀĲ
Ġíı¬íĬ¸ ë¦¬ìĬ¤
ĠíĶ¼ê³ł ìĿ¸
9 3
n ing
Ġ <
ĠìĪĺ ìĤ°
ìĭł ê¸°
ĠëıĻ ëŀĺ
Ġëĭ¹ ëĩ¨
Ġê°ľ ìłĦ
Ġì¹´ ìĿ¸
Ġë§¤ ì§Ģì»¬
Ġì½Ķ ì¹´
ĠT ri
Ġíĸī ê°ģ
ĠìĭĿ ìĿ¸
Ġìĸ´ì©Į ëĭ¤
Ġìķ¼ë ĵľ
ĠìķĮëłīìĤ° ëĵľ
ĠìĿ¸íĶ¼ëĭĪ íĬ¸
Ġìĥģë°ĺ ê¸°
ĠìĹĲë¡ľ ê²Į
ëıĦ ë¦¬
Ġëķ ĮëķĮë¡ľ
êµŃ ìŀ¥
ìĹĲ ìĬ¤
ĠìķĦìĿ´ ì½Ķ
ĠP A
ĠìĥģëĮĢ íİ¸
Ġãģ ĺ
ĠK E
®¤ ì§ģ
Ġëĭ¤ìĿ´ ëħ¸ìĬ¤
ĠìķĦíĤ¤ íķĺ
å· ŀ
Ġìĸ´ ìĽĮëĵľ
Ġë¦¬ íĶĮëłī
Ġì§ĳ ê²Į
ĠìĨĲ ìĪĺ
ĠëĤľ ìŀ¥
Ġf l
ë²Ħì ¦Ī
ĠìĻĦì £¼
Ġê±°ë¯¸ ì¤Ħ
ĠìķĦíĭĢ ëŀĢ
ĠìķĮíĮĮë ²³
Ġë¾° ì¡±
v ent
Ġê° ĪëĿ¼
Ġê² Ķ
Ġê¸° ê°ģ
ê¸° ìĸ´
ĠìĤ¬ íķĻ
Ġì¹´ ëħ¼
Ġë¶Ī íĹĪ
Ġíģ´ ëĿ½
ĠH ell
Ġìķłëĭ Īë
Ġê³Ħë ³´
Ġê» Ħë
S S
é Ł³
ĠìĿ´ ìķĪ
ĠìĿ¼ íķĺ
ĠìķĮ íĶĦëłĪ
ĠìłĢ ìĬ¤íĭ´
ĠíĨµ ìļ©
Ġê¹Ģ ëıĦ
ĠëĭĪ ëĤĺ
ĠD es
Ġíĺĳ ê³µ
ĠìŀĶ ìĹ¬
Ġì¡¸ ì§Ģ
ìłľë ª©
ìķ¤ ìł¤ëłĪìĬ¤
ĠìĹ½ ê¸°
ĠëģĿíĮĲ ìĻķ
Įë Ŀ½
íĥ ľë
ìĤ¬ ìłĦ
Ġìłķ ìŀ¥
Ġì¤ĳ ìĤ¬
Ġìľł ì£Ħ
Ġë¬´ ë¸Į
Ġë°ľ íķ´
ĠìłĢ ê°Ģ
ĠìłĦë ³µ
ĠìĨĲ ìķĦ
Ġìķŀ ë§Īëĭ¹
Ġì´Īë Ķ©
ì¼Ģ ìĿ´ëĵľ
Ġë¹Į íĹ¬
Ġë¹µ ë¹µ
³ ¼ë
Ġìĭľ ë°ľ
Ġìĺ¤ ì¤Į
Ġìłķ ì§ģ
Ġì¡° ìĽĲ
ĠìķĪ íħĮëĤĺ
ĠíĶĦë Ŀ¼ë
Ġíĺ¸ íĻĶ
ëª¨ ìŀĲ
ĠìĨĮë Łī
ãģĹ ãģ¦
ì±Ķ ìĬ¤
d e
æ ±
Ġ ac
ĠìĿ´ ìĹ°
ĠëĲĺ ëıĦë¡Ŀ
Ġìĺ¤ ë³´
ĠíĮĮ ìĽ
ĠìļĶ ìļ°
Ġë§¤ ìłĲ
ĠE M
ĠE lect
Ġë¶Ħì Īĺ
ĠìĮį ë°©
ĠìĿĮìĭĿ ìłĲ
ìŀĲ ë£¨
Ġìłķ ê±°ìŀ¥
ìĨ Ł
ĠëıĻ ìĦł
Ġëªħ ìĿ¸
Ġë§ī ë¡ł
Ġ18 5
Ġì¿ł ìĤ¬
ĠìĬ¬ ëŁ¼
ĠìķĦìĬ¤ ëĤł
IG HT
ĭ¤ ìĿ´
Ġê²Į ë¦¬
Ġì¡° íĺķ
Ġìº ī
Ġìķ¼ ê¸°
ĠíıŃ íı¬
íİĺ ìĬ¤íĬ¸
Ġê°ĳ íĮĲ
Ġd es
Ġì±Ħë ¬´
ĠíĥĢì¹´ ìĭľ
Ġäº Į
ĠíĹĺ ìķħ
Ã ¡
Ġë§Ī ì·¨
Ġê²° ë³Ħ
ĠT op
ĠëłĪ ê³ł
ĠíķľêµŃ ìĤ¬
íĿ Ļ
ĠìĿ¼ëłī íĬ¸ë¡ľ
ĠíķĦëĿ¼ë į¸íĶ¼ìķĦ
Ĩ ĵ
Ġê¸° ê°Ģ
Ġìĭľ ìłĢ
ĠíĻĶ ìĨĮ
ĠS W
Ġì¶Ķ ì¶ķ
Ġìŀ¬ ë¹łë¥´
ĠM R
ĠC B
Ġìķħ ë³´
Ġìĺģìĸ´ íĮĲ
ĠìĬ¤ì¼Ģ ì¹ĺ
ĠëĿ¼ê·¸ëĤĺ ë¡ľíģ¬
ĠìĿ´ ë³µ
Ġê³ł ìĤ°
ĠìĬ¤ ë¡ľ
ĠëĿ¼ë °Ķ
ĠíĬ¹ íĹĪ
Ġì¹ĺ ë¶Ģ
ĠìłĢ ëĦĲ
Ġ15 2
ar s
Ġê¸´ìŀ¥ ê°Ĳ
ĠìĤ¬ìĿ´ì½Ķ íĮ¨ìĬ¤
Ġë¸Įë¦¿ ì§Ģ
ĠëıĮìķĦê°Ģ ìĭľ
íķĺ ìļ°ìĬ¤
Ġì¤ĳ ìłĦì°¨
ĠëĤ¨ ì§ĵ
Ġìŀ¬ ê·ľìĸ´
ĠíķĻ íļĮ
ĠëıĮ ìĿ´
Ġê¶Į ìĹŃ
ĠíĻ© ì¡±
ë§Īë ħ¸
Ġë§Ī ìĿĦë²ĦìĬ¤
Ġì¡° ëĤĺ
ĠìĦł ì§Ģ
Ġêµ¬ ìķł
ĠF L
ĠíĻĺ ë¶Ī
Ġìļķ êµ¬
ĠìĦ± íĴĪ
Ġë°© ëŀĳ
ìĭ¤ ìŀ¥
ĠëĤ¨ íķ´
Ġë§¤ ê±°ì§Ħ
ë¸Ķ ëŀĳ
Ġíĳľì¤Ģ ìĸ´
è¡ Į
Ġíľ´ê²Į ìĨĮ
i ous
n ess
Ġê°Ģ ì¸ł
Ġìĥģ ê³ł
ĠëĿ¼ë ¯¸
ĠíĪ¬ ëŁ°
ĠF X
Ġë§ĪìĿ´ ìķłë¯¸
Ġìĭľì¢ħ ìĿ¼ê´Ģ
Ġìĸ´ëĵľë°´ ìĬ¤
ã Ħ·
Ġìĥģ ë¥ĺ
Ġê±° ìĬ¬ë¦¬
Ġë¸Įë ŀľ
ĠíĮĮê´´ ìŀĲ
as y
ĠìĿĳ ì§ķ
ĠíĮ© íĨłë¦¬
ãģ§ ãģĻ
¸ ĮëłĪ
Ĥ Ļ
Ġê°Ģ ìĨĶ
ĠìŀĲ ë©¸
Ġìłķ ëł¬
ĠìłĦë ħĲ
Ġìĸĳ ëıĻ
íİĺ ìĬ¤
ĠíĻľ ì£¼ë¡ľ
ĠíĻį ëĮĢ
Ġê²¬ ìĿ¸
Ġê°Ħë §Į
ë¬ »
Ġ194 1
ëļ ľ
Ġë§ĪìĤ¬ íĤ¤
if t
ĠìĤ¬ ìĤ¬íĤ¤
ĠëĮĢ ëĳĲ
Ġê²½ ìĭł
íĶ Īë
ìŀ¬ ë£Į
Ġëĭ¨ íĥĢ
Ġìŀ¬ ìĥģ
ĠF re
Ġ12 6
ëĿ¼ë °Ķ
Ġìĭ¤íĹĺ ìĭ¤
ä¸ į
Ġë¡ľìĬ¤ ìķ¤ìł¤ëłĪìĬ¤
Ġê²©íĪ¬ ê¸°
ĠìĬ¤íģ¬ëŀĺ ì¹ĺ
ĠìĹĲë°ĺê²Į ë¦¬ìĺ¨
Ġê²½ ìľĦ
Ġê²½ ìĪľ
Ġìľł ì¾Į
ĠìĨĮ íĸī
Ġì½Ķ ë°Ķìķ¼ìĭľ
ĠìĿ´ëĤĺ ì¦Īë§Ī
at ed
Ġë§Īë įĶ
Ġê°ľìĿ¸ ìłĦ
Ġì§ķ ì§ĳ
ä¸ ĭ
ì»¨ ëĮĢ
ë ķĮ
ì ¯Ķ
Ġê°Ģ ìĦ¸
Ġìĭľ ìĺģ
ĠìĹ¬ ëªħ
Ġëĭ¨ ë°±
íĭ° íĭ°
íĬ¸ë Ŀ¼ë
Ġ13 7
Ġì¼Ģ ëĭĪ
Ġl ove
Ġãħ ĩ
Ġï½ ľ
ëĸ ¨
app y
Ġë¡ľ ë§Į
ìłķ ìĹŃ
ĠëıĻ ë©Ķëĭ¬
Ġìķħ ìĿ¸
Ġì¹ľ ìĦł
Ġìī Ķ
it a
Ġç İĭ
Ġì§ĵ ë°Ł
Ġë¦ ¿
íı´ íĬ¸
ì¹´ìĿ´ ìłĢ
ãĤĪ ãģĨ
Ġíķĺ ìķ¼ë
ĠëĤĺ ê¸°
Ġì°¨ ì¶ľ
ë¯¸ ì¸ł
ĠìĺĪ ë§¤
ë²ł ë¦¬ìķĦ
ĠíļĮë³µ ëł¥
ĠìĿĮë ŀĢ
ĠâĻ ¬
ãģĹ ãģŁ
ĠìłĦë¦¬ íĴĪ
ìŀ Ħëĵľ
ìĭľ íĤ¤
ë² ¨ë¦¬
ê³µ íķĻ
Ġíĸī ìĦ¸
íģ´ ëŀľëĵľ
âĹ ı
Ġì¢ĮìĿµ ìĪĺ
Ŀ¼ë¯ ¸ëĵľ
¹Ħëħ¸ ê¸°
u ra
ê¸° ìĪł
ĠìĤ¬ ì£¼
Ġë³´ íĥľ
Ġìĭľ ëıĻ
Ġë§Ī ê²Ģ
ìĭł ëıĦìĭľ
Ġëĭ¤ëĬĶ ëį°
ĠìłĢ ë¦¬
ĠC or
Ġìĺ¨ íĻĶ
Ġê´Ģê´ĳ ì§Ģ
ĠìĿ¸ íĬ¸
ĠìĹ° ìĦ±
Ġíĳ¸ ìī¬
Ġë´ Ĳ
ĠRem ix
³ ĩ
Ð ¹
ĠìĿ´ íĺķ
Ġìĸ´ íį¼
Ġìĺ¤ íĶ¼ìĬ¤
Ġ20 2
Ġìľł ê°Ĳ
ĠìĦ± ê¸ī
Ġë¦¬ ìķĪ
Ġìŀħ ìĥģ
ë¦° ëįĶ
ĠW ill
Ġ22 2
Ġíģ¬ë¡ľ ëħ¸ìĬ¤
íĬ¹ ë³Ħ
Ġ195 9
ĠíĥĢì¹ĺ ë°ĶëĤĺ
Ġê·¸ìłľ ìĦľìķ¼
ç ¦
ĠìĿ´ ìĦ¸
Ġê²½ ìĿ´
ĠëĤľ íıŃ
Ġë²Ķ ì£¼
ĠÂ °
Ġn ow
Ġë®¤ íĦ´íĬ¸
Ġë¦° ëĭ¤
ĠíĶĦë¡ľëĵĢ ìĭ±
t ro
ì² ľëıĻ
íĥĢ ì¼Ģ
ĠìĻ¸ ìķ¼
ĠíĤ¤ ìĽĮëĵľ
Ġë§ĪìĿ´ ìĬ¤íĦ°
Ġbe at
ĠìĦłì§Ħ êµŃ
Ġëĭ¤ ì¼Ģ
ë¥´ ë°Ķ
Ġìļ° íĥĢ
Ġì¹ĺ ê³¼
ë¸Ķ ëŀľëĵľ
Ġê´´ ëĭ´
em ent
Ġì£¼ìłľ ê°Ģ
ĠCh amp
ĠëŁ¬ìĭľ ìķĦìĸ´
Ġëĭ¨ ìĹ°
ĠêµŃ ë¬¼
is m
ëŁŃ ìĬ¤
ri end
Ġêµ¬ëĭ¨ ì£¼
Ġ193 8
ĠëŀĦ íĶĦ
Ġë²ķë¬´ ë¶Ģ
Ġëª¨ë¹Į ìĬĪíĬ¸
Ġìłķíĺķ ëıĪ
oj o
U E
ä ¾
ĩ ¨
İ ī
Ġê³ł ìĸ´
Ġìĭł ëł¹
ĠìĦ¸ ì¡°
Ġìļ° ì²ľ
ĠíĹ Īë²
ìĹĲ ë¦¬
ĠíĮĢ íĤ¬
Ġë°ķ ì¤Ģ
ĠìľĦì ĥĿ
Ġê´ĳ ìĸĳ
Ġëª° ìĿ´
Ġíĭ° ëĿ¼ëħ¸
ĠíĬľ íĨłë¦¬ìĸ¼
ĠåĮ Ĺ
N G
ĠìĿ´ ëĶ°
Ġê°Ģ ì¤ĳ
ĠëıĦ ì¿
Ġë§Ī ìŀ¥
ĠìĨĮ ë§Ŀ
Ġìĭł ê²©
ĠíĻĶ ëĤ´
Ġê´Ģ ëĮĢ
ĠìĹŃ ë³ĳ
ãĥ ķ
Ġd on
ĠìĥĪ ìłķì¹ĺ
Ġì£Ħ ìĿ¸
Ġì§Ģíľĺ ìŀĲ
AR T
Ġë²łìĿ´ìĬ¤ ë³¼
ĠëŀĦ ê¹Į
Ġë¸Įë¡ł ì¦Ī
ĠìĤ¬ ì°°
ĠìĿ¼ ì°Įê°Ĳì¹ĺ
Ġì¤ĳ ëł¹
Ġìłľ ê°ģ
ĠìĦ¸ ìĬ¤
ĠC at
Ġë²ł íĴĢ
Ġì±Ħ ê¶Į
le y
th er
Ġì¿¼íĦ° ë°±
ĠìłľëĦ¤ ìĭľìĬ¤
èī ²
Ġë°° ì²Ļ
Ġë§¤ ìŀħ
ĠìĨį ê³µ
Ġì²´ ëĤ´
ĠìĤ° ìĤ°
Ġ18 2
ĠíĻĺ ìĪĺ
Ġê°ľë°ľ ìĤ¬
ĠSt r
ĠìĹİ ëĵľë¦¬
ĠìĿ¼ì§ģ ìĦł
Ġ qu
ĠìĿ´ ì§Ħ
Ġë²Ī ê±°
ĠT er
ĠìĿ¸ë Ĥ´
ĠíĶ¼ë Ŀ¼ë¯¸ëĵľ
ĠìĬ¤íĬ¸ë łĪìĿ´íĬ¸
ĠìĹĦ ì§Ģ
ĠíĮĮìĿ´íĦ° ì¦Ī
éĸ ĵ
åĴ Į
a us
ĠìĿĺ ë¦¬
ë¬´ ìļĶìĽĲ
ĠK G
Ġê³łëł¤ ëĮĢ
ĠíĥĢìĿ´íĭĢ ê³¡
ĠEn g
r ic
Ð ´
Ġ im
ĠìĿ Ĭ
ĠëĬĶ ì»¤ëħķ
ĠëĤĺ ì§Ħ
ë¡ľ ìĿ´
íĺ Ĳ
ĠíĻĶ ìļĶìĿ¼
Ġë¯¸ë ĶĶ
Ġë¹Ħë ²Ķ
Ġíİĺ ëĭĪ
Ġê·¼ë ŀĺ
Ġp e
ĠíĤ¹ ìĬ¤
äº ķ
AM E
Ġì§± êµ¬
Ġê¸¸ê°Ģ ë©Ķ
Ľ Ķ
Ġìŀ ½
ĠëĮĢ ë¶ģ
ĠìĽĲ ëıĻ
Ġì¹´ ì¹´
Ġì¹´ ì¼Ģ
Ġíķ´ ìłĢ
ĠS he
ĠíĬ¸ëłĪ ìĿ¸
íĺ ĦëĮĢ
Ġëĭ¨ ìłĪ
Ġê¹Ģ ì°½
Ġíıī ì¤Ģ
ĠìĹ´ ìłĦ
ĠH S
Ġìķŀ ìŀ¥
Ġt ime
Ġë¯¼ ìĺģ
Ġë°©ìĸ´ ìłĦ
įĶ ë§ģ
ĠíĥĢì¼Ģ ìĭľ
Ġë¬´ê¶ģíĻĶ íĺ¸
² ¡
¹ ¨
ã Ħ
å ī
è ¼
ì§Ģ ê¸°
ê³ł ë£¨
ĠëĤ ľëıĦ
ĠìĹ° íĿ¬
ì¡° ê°ģ
ìĹĲ ëĿ¼
ĠC re
Ġë¹Ħì ĺ¬
ĠëĤľ íĥĢ
Ġé Łĵ
ĠíĿ¬ ë°ķ
ĠêµĲìľ¡ ì²Ń
Ġ27 0
ë¸Įë ¡ľ
Ġë¶ĪìķĪ ê°Ĳ
Ġíķĺë°ĺ ìĭł
íĬ¸ëłĪ ìĿ¼ë¦¬ìķĦ
Ġìŀ¥íķĻ ê¸Ī
Ġíģ¬ë¡ľìķĦ íĭ°ìķĦ
ĠëĦĺìĤ¬ ë²½
Ġë°© ê³¼
Ġìĭł ë¹Ļ
êµĲ ëıĦ
Ġìŀ¬ íĻĶ
Ġì§ģ ê³Ħ
ì¶Ķ íĸī
ë¯ Ģ
ĠY OU
Ġë²łìĿ´ ëįĶ
ĠìĤ¬íļĮë³µ ë¬´ìļĶìĽĲ
ìľł ë¦¬
Ġì½Ķ ë¦¬
Ġê¹Ģ íĿ¬
ëĳĲ ë¦¬
ĠíĽĦì ¹´
Ġd ay
Ġë°ķìĬ¤ ìĺ¤íĶ¼ìĬ¤
AL O
Ġíģ´ë¦¬ ë¸Ķëŀľëĵľ
ĠìķĦëĿ¼ ìĭľ
§ ĺ
Ġì İĦ
Ġíķĺ ëĿ¼
Ġìĺ¤ ì»¬
Ġìľł ìĬ¹
ĠìĦł ë³Ħ
ĠíĥĢ ëĭ¤
Ġì¹ĺ ì¹´
ìħ Ī
Ġêµ° ìļ©
Ġë²ł ëģ¼
Ġê³¨ ìĪĺ
Ġê³Ħìķ½ ìĦľ
ĠëĤ© íĴĪ
ĠëĵĿíĳľ ìĪĺ
Ġë¥ ¼ë¥´
Įë ĳ¥
Ġìłķ ìĦł
Ġìĥģ ìĽĲ
Ġì½Ķ ë¯¸
ĠM ark
ĠC ap
Ġì§ģ íķł
Ġë°ķ ëıĻ
ìķĦì ĽĲ
Ġì§Ģêµ¬ ìĿ¸
ĠìĿ¸êµ¬ ìĪĺ
ìĦ¸ë Ŀ¼
ĠìĿ´ìĬ¹ ìĹ½
ĠíĴĭ ë³¼
ĠíĬ¹ê³µ ëĮĢ
Ġê²Įë¥´ ë§Į
ĠPv P
ĠìĬ¤ì¼ĢìĿ´ íĮħ
U C
å Ŀ
Ġê¸° ìĹ¼
ĠìĬ¤ íĦ°
Ġìĭ¤ ìĭł
ë°Ķ ë¦¬
íħĮ ìļ°ìĬ¤
Ġë¨¹ ë°©
ĠìĿ¼ë¶Ģ ë¶Ħ
ĠìĿµ ëªħ
ĠìĬĪíį¼ ìĬ¤íĥĢ
ĠìĿ´ ë¬¸
Ġìľ ³
ìłķ ë³´
Ġì²ľ ìŀĲ
ĠíĹĪ ìĪĺ
ìĽĮ ì¹ĺ
¯¸ë ¥´
ĠæĻ Ĥ
ĠåĽ Ľ
ìĦ ¸ë¦¬
Ġê°Ģ ëŀĮ
ìĦľ ë¦¬
ĠìĤ¬ êµ¬
ĠëĤĺ ì¸łíĤ¤
Īë Ł¼
Ġë¶Ģ ì¸ł
íĤ¤ ì¹ĺ
íĻĶ ë¬¸
ĠìĦł ì²´
ĠìķĦìĿ´ ìŀĳ
Ġì¶© ëıĻ
Ġìħ ī
Ġë³¸ë ĵľ
Ġ28 0
Ġìĺģë¬¸ íĮĲ
ĠìĿĢìĭł ì²ĺ
Ġëªħìŀ¥ ë©´
ĠìĤ¬ ëĮĢ
ĠìĤ¬ ëĤ©
Ġìĭľ ëħĢ
Ġìľł ëħĦ
ĠëĤ¨ ìķĦ
Ġì¶Ķ ì²¨
Ġìŀ¬ ë¬´
ì½Ķ ë¯¸
ĠM oon
Ġìĭ¬ ë¶Ģ
Ġë¶Ħ íĻĶ
Ġì§Ħë ²Ķ
Ġê±°ì£¼ ì§Ģ
Ġê¾Ģ íķĺ
Ġë¦¬ìķ¡ ìħĺ
ĠìĦł ê¸ĢëĿ¼ìĬ¤
Ġìĭ¬ íı¬
ĠìĤ¬ìĿ´ ë¨¼
Ġê°ģ ìĥī
ĠF BI
Ġë¯¸ëĭĪ ê²ĮìŀĦ
ĠBl ock
Ġê³ģ ëĵ¤ìĿ´
ç ·
ĠëıĦ ëĦĲëĵľ
ĠìĦł ëıĦ
Ġê°ľ ì¹Ń
Ġë°° ìĨį
ĠíĮ¨ íĬ¸ë¦Ń
Ġë£¨ ëĭĪ
ĠR C
ì± Ħì
ĠìĬ¬ ëĿ¼ìĿ´ëįĶ
Ġë¶Ħì Ĥ¬
Ġíĸ¥ ê¸°
Ġw ay
ĠíħĮë Ŀ¼ìĬ¤
Ġë³¼ë ĵľ
Ġëıħìŀ¬ ìŀĲ
ĠìĤ¬ê´Ģ íķĻêµĲ
ê°Ģ íĤ¤
Ġëª¨ ë°©
ĠìĦ± ê°Ģìĭľ
Ġë¬´ ëĭ¹
ĠëĤ´ ë¥Ļ
íĨł ëĿ¼
ĠM et
Ġë³Ģ ì¢ħ
Ġë°ķ ì£¼
ĠP O
Ġì´Ŀ ìĤ¬
Ġìŀł ìĭĿ
Ġì¿ł ëĭĪ
ĠëĨį ëıĦ
Ġì§Ģíķĺ ìĭ¤
Ġê°Ģì°½ ëł¥
n et
x t
ĠìĻĢ ìļ°
Ġëª¨ ìĸ´
Ġë¬´ ëª¨
íĮ Įëĵľ
ĠìķĦ íĶĶ
ĠìłĲ ìĤ¬
Ġëĭ¬ ë¹Ľ
ĠT ra
ë¬¸ ìĦľ
Ġëĭ¤ë¥´ íģ¬
Ġì¼Ģ ìĿ´íĬ¸
ĠíĽĦì §Ħ
ĠìĿµ ìĤ°
Ġì§Ħë £Į
Ġì¹¼ë ¡ľ
Ġìłķë¥ĺ ìĨĮ
ĠëĮĢ ë¬¸
ê°Ģ ëĭĪìĬ¤
ĠëĿ¼ êµ¬
Ġì¹ĺ ìĸ´ë¦¬
ĠS ound
ĠìļĶ ìĸĳ
ĠìĬ¹ ê³Ħ
Ġë°± ë§Ī
ĠíĽĦë ł´
Ġìķħ ìŀ¥
Ġì»¤ ë¸Į
Ġê³¨ ë¦¬
ĠìķĶ ê¸°
íĥķ ìĬ¤
Ġíķ´ê²° ì±ħ
å¤ ª
ĠíĥĢì¿ł ìķ¼
Ġä¹ Ŀ
Ġíķĺìĭľ ëª¨íĨł
b y
ĠìĿ´ ìĨ¡
Ġìłķ ìĭľ
ĠìĦ± ëł¹
ĠìĦ± ì¶Ķíĸī
ĠíĻĶ ëŀĳ
Ġíģ¬ ëŁ¬
ĠíĮĮ íĤ¤ìĬ¤íĥĦ
Ġë°ķ ê¸°
Ġìłľë ªħ
ëĿ¼ë ¹ĦìķĦ
Ġíİĺ ëĭ¬
Ġof f
Ġi f
ãħ ĩ
Ġëħ¸ìĪĻ ìŀĲ
Ġìļ°ì²´ êµŃ
è Ĺ¤
ĠìĹĲ ìļ°
Ġìĭľ ìĺ¤ë¦¬
ìļ° ê°Ģ
ĠíļĮ ìŀĲ
íĶ¼ íĥĪ
ĠãĢ ľ
ĠíĻ© ë£¡
Ġ17 7
it ed
le d
ĠJ ust
Ġìłķë¶Ģ êµ°
Ġï¼ ½
Ġëį°ë¯¸ ìķĪ
Ġì²´ìĿ´ ìĦľ
Ġë§Į ìļ°
ĠëįĶ ìĬ¤íĬ¸
Ł¬ ê¸°
ĠêµŃ ìĪĺ
ĠêµĲ êµ¬
Ġêµ° íķ¨
ĠëĴ¤ ëĶ°ë¥´
ëłĪ íĭ°
Ġ12 7
Ġë²ł ìķĦ
ìķĦë ĵ¤ìĿ´
Ġï¼ »
²ł ìĿ´
Ġë¹¨ ìķĦëĵ¤ìĿ´
ĠìĹ°ë°© êµ°
P A
½ ĺ
ï ¾
ĠìĿ´ ìĹ¬
ĠëĤ´ ëł¤
Ġë°Ķ ë¹Ħ
Ġëª© ìļĶìĿ¼
Ġè ¶
ĠìĹĳ ìĨĮ
å¥ Ī
Ġê¼¼ ì§Ŀ
ĠMag ic
ĠìķĪíĨłëĭĪ ìĺ¤
Ġåĥ ķ
ĠìĬ¤ ìĤ¬
ìłķ ëıĻ
Ġìŀ¥ ëħĢ
Ġíı¬ ì§Ħ
Ġë°° ë°ĺ
ĠB attle
ĠH ard
Ġë°± ì§Ģ
Ġëĭ¤íģ¬ ëĭĪìĬ¤
Ġì²łëıĦ ìĹŃ
ĠåŃ Ĳ
ĠìŀĲ ë©°
Ġíķľ ê²°
ĠìĦ± ì£¼
êµĲ íļĮ
ĠëĤ¨ ê·¹
ĠS G
íİ Ħ
ĠC ent
ĠìķĦìĿ´ ë¦°
ĠD T
Ġì¶© ìĽĲ
ìĬ¤íĥĢ ìĿ¸
Ġa p
ĠíĥĢê²© ê°Ĳ
ĠEX T
Ġê³ł ëĩĮ
Ġê¸° ì´Ŀ
Ŀ¼ë ħ¸
ìĥģ ìĬ¹
Ġì´ Ľ
Ġë©Ķ ëĳĲìĤ¬
ì¿ł íĨł
Ġê´ĳ íķĻ
Ġê³¼ë ĭ¤
Ġì¹¼ë Ł¼
Ġ194 7
íı´ ë¦¬ìĬ¤
Ġë³¸ë¶Ģ ìŀ¥
ìĪŃ ìķĦ
Ġì»¤ë§¨ ëįĶ
ĠëĤ¯ ìĦ¤
Ã ¶
Ġê³ł ìķĦìĽĲ
ëĵ ĪëŁ¼
ìŀĲ êµŃ
ĠìĬ¤ ë¯¸ë
Ġíķľ ì§Ģ
Ġìĭł ê²Ģ
ĠìķĪ ì¹ĺ
Ġíĥľ ìĪĺ
ĠìĬ¬ ë¦¬
ëª» ë¯¸
Ġë¬µ ì§ģ
ĠìķĦíĭĢ ëĿ¼ìĬ¤
Ġ et
íķ Ħì
Ġê³µ ë³ĳ
Ġë¯¸ ìłķ
Ġê´Ģ ê±´
Ġìķ¼ ìĿ¸
íĬ¸ë ³¼
ĠìĬ¤íħĮ ìĿ´íģ¬
ĠìŁģ íĥĪ
ĠìĤ¬ì¿ł ìķ¼
ĠSum mer
Ġí Ĳģ
Ġì° ľ
Ġìłķ ëª½
ĠëĿ¼ë ©ĺ
Ġë°© ëĮĢ
ĠìĦł íĴį
ĠìĹ° íĺ¸
ê³¼ ê±°
Ġíķ¨ íı¬
Ġë£¨ íĦ°
Ġë§Ŀ ëł¹
Ġë©ĶìĿ´ íĤ¹
Ġë®¤ ë¹Ħ
Ġìħ° ìĿ´
Ġê±´ëĦĪ íİ¸
Ġë°Ķë¦¬ ìĹĲìĿ´ìħĺ
Ġì´ĿìĦł ê±°
ĠìľĮ ìĬ¨
ĠSk y
Ġìļ°ìĿµ ìĪĺ
Ġì§Ģ ëª»ë¯¸
Ġìłķ íĺ¸
ĠíĮĮ íĥĦ
ĠíĽĦ íĥĢë¡ľ
Ġ19 00
ĠìłĦë ĭ¨
ĠT D
ĠíĤ¤ ë©ĶëĿ¼
ĠG Hz
ĠíĥĪ ì£¼
ĠìĮ Ī
ut e
Ġë¡¤ ì±ĶìĬ¤
ĠëĤĺì¸ł ë©Ķ
Ñ ĥ
Ġê·¸ ì§Ģ
Ġíķ´ ì§Ģ
ĠìĿĮ íĮĮ
ĠëĪĦë Ŀ½
Ġë§¥ ëıĦ
Ġë¹Ħì¦Ī ëĭĪìĬ¤
Ġìľł ì²´
Ġê¹Ģ íĺľ
Ġëıħ ëĭ¨
ĠìĻĦ íĮ¨
Ġëį°ë·Ķ ìŀĳ
Ġ193 9
Ġìļ¸ë ¶Ģ
ĠAM D
è» į
ìľĦìĽĲ íļĮ
ĠìĿ´ ì¸łíĤ¤
Ġìĺ¤ ëįķ
Ġëª¨ ê±´
ê¸ ¸ë
ĠíĨł íĨł
ĠíĤ¤ ë¦¬ì¹´
ĠìĭĿ ë³Ħ
ĠëĦ¤ ìŀĦëĵľ
Ġ15 3
ëĦ¤ ì¦Ī
Ġëª° ìķĦì¹ĺ
Ġíĭ° ìħĶì¸ł
Ġíĺĳ ê³¡
ĠìĭłìĦ¸ ê³Ħ
íĶĪë ®¤ì§ģ
ħ ì§Ģ
¼ë ³ĳ
ĠìĿ¼ ì§Ģ
ĠíļĮ ìľł
ĠM ay
ìĺģ ìĽħ
Ġì²´ êµ¬
Ġë¶Ħ ìłĦ
ĠìĻ¸ íĻĺ
Ġì²Ń ëıĻ
st yle
Ġíŀ Įë
Ġëį°ìĿ´ ë¹ĦìĬ¤
Ġìĭ¬ë¦¬ ìłĦ
ĠìķĪëĵľë¡ľ ë©Ķëĭ¤
I E
Ġìĸ´ ë¥´
ĠëĿ¼ ì¿ł
ë§Ī íĤ¤
Ġë§¤ ê°ľ
Ġë²ķ ì¡°
Ġíı¬ë¥´ ëħ¸
ĠìĨĮìĿĮ ê¸°
ª ¸
Ġ ad
ĠëĿ¼ íĮĮ
Ġë¶Ī ê±°ì§Ģ
ĠëĳĲ ê»ĺ
Ġíķ¨ ê²½
Ġìļ© íĴĪ
Ġê°Ħ ìĦł
Ġìķħ íıī
ĠìĹĺ ëłĪ
Ġo ver
Ġy ul
oc al
ĠìļĶìĭľ ëħ¸
Ġê¸¸ë ıĻ
Ġìļ¸ë¶Ģ ì§ĸ
z e
Ġì ¨
Ġë¬´ ìĦ±
ĠëĤ´ ìĪĺ
Ġë°Ķ ìļ°
Ġêµ¬ ìŀĲ
Ġì¹´ íĬ¸ë¦¬
Ġê¶Į ê³ł
Ġê¸ī ìĥģìĬ¹
ĠíıĲ êµĲ
un d
Ġë²Ħë ĭĿ
ĠìķĦìķ¼ë ©Ķ
Ġìĺ¥íĥĢ ë¸Į
Ġhell ojo
Ġê³ł ê°Ī
Ġìĭľ ìĹ°
ĠëĮĢ ë¨¸ë¦¬
ĠìĪĺ íĺľ
ëıĦ ëĭĪìķĦ
ë° ´
Ġë¬´ ìĬ¬
Ġë§¤ ëıĦ
ĠM iss
ĠB ack
ĠíĤ¤ ìĭľ
ĠG od
ì½ °
ĠíĥĪ íĥĪ
Ġìļ°ë¦¬ ë§Ĳ
Ġë°ĶëŀĮ ì§ģ
ĠëĨį ë¶Ģ
Ġìĸµ ìķķ
Ġíķµ ë¬´ê¸°
Ġë¶Īê°Ģ íĶ¼
200 9
Ġâĳ ¢
ìķĦìĭľ ìĬ¤
ĠíĶĦë¦¬ë¯¸ìĸ´ ë¦¬ê·¸
Ġìĭľë¶Ģ ìķ¼
Ġë§Įìļ° ìłĪ
Ġì§Ģ ê¸°
ìĤ¬ ëĿ¼
Ġìŀħ ëĭ¹
ĠëıĮ íĴį
ĠìľĦì ¡°
Ġëĥī ë©´
Ġëŀį ìĭľê³ł
ĠKore a
Ġê²½ë¹Ħì ĽĲ
Ġë¥¼ë¥´ ìĬĪ
ĠìĹĲ ëŁ¬
Ġê°Ģ ëĬĺ
Ġìłķ ìĬ¹
Ġë°ĺ ëł¤
ĠíıŃ ìĸ¸
Ġì´Ŀ ìķł
Ġì»¤ ìĬ¤íĦ°
Ġë§Īë Ī
ëłĪë ©ĺ
Ġì¥¬ ìĸ¼
ĠíĺĪìķ¡ íĺķ
ìĦ¸ìĦľ ë¦¬
è Ĭ±
ĠìĨĮ ë¦Ħ
Ġë°ľ ìĤ°
ì½Ķ ë§Ī
ĠC al
Ġë¹Ħì Ĺ´
Ġìĸĳ ë©´
ĠìĤ¬ìĿ´ íį¼
Ġì¤Ģ ìŀ¥
ë¸Ķ ë£¨
Ġëī´ ë¹Ħ
ĠìĨ¡ ê³³
ìĹĶ ëĶ©
å® ¶
Ġë¶ĪìĤ¬ ì¡°
ĠìĺĪë¹Ħ êµ°
¬ ¸ëĮĢ
¯ ¹
ł ĩ
ìĦľ ìª½
ë³ Ħë
ë¯¸ ì¦Ī
Ġë¦¬ íĨł
ĠëĤ¨ ìĽĲ
ëħ ¹
Ġì²´ ì¡°
Ġë²ł ë¡ľ
Ġì²ľ ì²´
ou d
Ġa g
Ġíİł ë¦¬
å »
Ġê³ł ëĵľ
ĠìĤ¬ ì¸łíĤ¤
ĠìĻĢ ìĿ´ëĵľ
Ġê²½ ë¹Ħë
íĭ° ëī´
ĠM Hz
ĠB F
ĠíĨł ìĿ´
Ġë¸Ķ ëŀŃíģ¬
Ŀ¼ìĿ´ ì¦Į
Ġì¹¨ ì²´
Ġë²½ ëıĮ
ëħ¸ë ¥´
ĠìĿ´ìĸ´ íı°
ĠëĤĻíķĺ ìĤ°
ìĬ¤íĥ ¯
Ġë´Ĳ ì£¼
í ĵ
ĠìĦ £
Ġê¸° íĮĲ
Ġë² ¨ë¦¬
ĠíĻĶ ëģĪ
ê³µ ìĭĿ
Ġì¢ħ ìŀĲ
ĠíĶĮëłĪìĿ´ íĬ¸
Ġë³µ ë¶Ģ
ĠìĤ° ì¶ľ
Ġê°Ī ê³łë¦¬
ë© Ī
ĠìķĦë¥´ ë©Ķ
ĦìĬ¤ ì¼Ģ
ê¼ Ń
Ġê¸¸ë ª©
Ġê¹ĢìĿ¼ ìĦ±
ĠìķĦë ²¨
ĠìĹ¬ ëĬĲ
Ġë§Ĳ ìĤ´
Ġì°¨ ì¢ħ
ĠìĹ´ ëł¬
Ġ23 0
Ġì¢Į ìĻĦ
Ġë³¼ íĶĦ
Ġë§µ ìĿ´
ĠìĹŃìłĦ íĮ¨
Ġë¯¸ì¸ł ë£¨ê¸°
ëĮ ķ
ĠìŀĦíİĺë¦¬ ìĸ¼
Įë ıĻ
Ġìłķ ë¬´
Ġë¯¸ ìľł
Ġê¶Į íĺģ
ãĤ ±
ĠíĪ¬ ìĹ¬
ĠìĨĶ ë¦¬ëĵľ
ĠíĮĲëĭ¨ ëł¥
Ġíģ¬ë¦¬ ëĵľ
Ġìĺ¤ìĬ¤ íĬ¸ëłĪìĿ¼ë¦¬ìķĦ
Ġì«Ĵ ìķĦ
Ġìĸ´ êµ¬
Ġìłľ ëĵľ
ìĤ° ë©´
ĠM D
ĠM T
ìĺģ íĸ¥
ĠìĥģëĮĢ ë¡ľ
Ġì¤Ħ ìŀĦ
Ġì§Ģìĥģ ìĹŃ
ĠìľłíĿ¬ ìĹ´
Ġì²łê°ĳ íĥĦ
ĠìĬ¬ëĿ¼ìĿ´ ëĶ©
Ġë¹ ½
ìłľ ë¦¬
ĠìľĦ íĥľ
ĠìĥĿ íı¬
ĠìĨĮ íĶ¼
ĠìĹ° ìķĪ
Ġë¯¸ ìķ½
ĠëłĪ ìĬ¨
Ġíİĺ ê°Ģ
Ġëª¸ ì§ĳ
ĠíķĺìĿ´ ë¸Į
ĠëĮ Īë
ĠëıĦìŀħ ë¶Ģ
ĠáĨ¸ ìĭľëĭ¤
ĠëĽ°ìĸ´ ëĤ´ë¦¬
Ġì¶©ì²Ń ë¶ģëıĦ
ìłĦì² ł
ĠìłĦìĹ ¼ë³ĳ
ĳĺ ê¸°
ĠìĦ± ëıĦ
ĠëĤ´ ì«ĵ
ìĿ¼ ìĬ¤
ĠM X
Ġå ¦
Ġíľ´ ìłĦ
íĢ ¸
Ġíİľ ëĵĪëŁ¼
ĠìĨĮìĪĺ ìŀĲ
ĠëĭĽ ìĤ°
Ġbb q
f ul
ìĦ ¹
ê°Ģ ë©´
ĠìĬ¤ ìĻĦ
ĠìķĦë ĵĿ
ĠìļĶ ì§Ģ
Ġì§Ħ íĿĻ
ĠâĢ Ķ
ĠëĶĶ ìħī
ĠëĿ¼ìĿ´ ëį´
Ġì½ĺ ëıĦ
Ġì§Ģë°© ëıĦ
ĠíŀĪíĬ¸ ê³¡
Ġì¶Ķê²© ìłĦ
ĠíĶ¼ëĭĪ ìĭľ
¥ ¬
Ġìĺ¤ ìķĦìĭľìĬ¤
Ġë¬´ ë¦¼
ĠìłĢ ëł¥
ĠíĮĲ ëıĦëĿ¼
ìĥ ¨
ĠëĬ¥ ëıĻ
ĠíķľêµŃ êµ°
íİł ëŁ¬
Ġê¸°ìĸ´ ìĿ´
Ġê°ķëĤ¨ êµ¬
ĠíĶĦëĿ¼ìĿ´ ëĵľ
ĠìĹ´ëĵ± ê°Ĳ
I ST
ê² ľ
ĠìĪĺ ìķĦë
Ġì¤ĳ ìĤ°
ìļ© ì°¨
Ġì£¼ë ¶Ģ
ĠìĦľë ©´
Ġë¹Ħë °©
ĠìĤ° ì§Ģ
en e
ĠíĿī íĦ°
íħį ìĬ¤
ĠìĤ¬íĨł ìĭľ
Ġì¡° ê°ľ
ĠìķĮ ë§ŀ
Ġíŀĺ ê²¹
ĠE R
ëĿ¼ë ¯¸
Ġë¸ĶëłĪìĿ´ ì¦Ī
å® ®
ê³¼ë ĮĢ
Ġê¹Ģì¢ħ êµŃ
Ġì¤ĳìĨĮ ê¸°ìĹħ
Ġê¹ľë ¹¡
Ġë©§ ëı¼ì§Ģ
Ħ ĮíĬ¸
Ġìĥģ ëĶĶ
Ġê³µ ìĭľ
Ġë°© ê´Ģ
Ġê´Ģ ìłĦ
ìĿ¼ë ĭ¨
ĠëĤĻ ìĦľ
ĠìķĦìĬ¤ ê°Ģë¥´ëĵľ
Ġä¸ į
Ġëį© ëĭ¬
ëĬĲ ëĭĪ
Ġì¹´ë©Ķ ìĺ¤
ãģŁ ãģĦ
ĠìĦĢ ëıĦ
ĠìĥĮë ĵľë
Ġë©± ìĤ´
Ġê¸° íĺķ
ëĤĺ ìĭľ
Ġëª¨ ê¸°
Ġêµ¬ ìĦ¸
Ġë¦¬ íĶĮ
ĠìĦľ ëĵľ
Ġë¶Ī ìĿĺ
ĠíĤ¤ íį¼
Ġìķħ ìĦ¸
Ġê°Ī ë¦¬ìķĦ
Ġëī´ íĥĢìŀħ
Ġãĥ Ĳ
ëľ ¯
ë¹Ħì Ĭ·
ãĤĵ ãģª
Ġìłľìłķ ìĭł
Ġë¸ĶëĿ¼ëĶĶ ë¯¸ë¥´
Ġì§Ģì¤ĳ íķ´
Ġê°Ħë§Į ìĹĲ
¯ Ģ
ĠìĬ¤ íĬ¸ëĿ¼
Ġê±° ìķ¡
Ġìľł ì¡±
Ġíİ ĦìĬ¤
ìĬ ĺ
Ġë¦¬ ìĹĲ
ĠíĬ¹ ì´¬
Ġì¹ĺ íĨł
Ġê³¼ë °ĺ
Ġíļ¡ ëł¹
Ġì¸łì¿ł ìļĶë¯¸
Ġë¬´ìĬ¬ ë¦¼
Ĺ ¬
Ġê°Ģ ìķ¼
ĠìĤ¬ ë©´
ĠìĪĺ ë²ķ
Ġê²Į ìŀ¬
Ġíķľ ì¤ĳ
ë¶Ģ ìĤ°
Ġã Ħ´
Ġíĺķ ë²Į
Ġìķķ ìĪĺ
ĠìĥģìĬ¹ ìĦ¸
ĠìĦ¹ íĦ°
ĠìĿµìĬ¤ íĶĦëłĪìĬ¤
éĸ Ģ
Ġíģ´ëĿ¼ìĿ´ ìĸ¸íĬ¸
æĽ ¸
ë¯¼ì£¼ ìĹ°íķ©
ì§Ģ ë¦¬
íĻ Ī
Ġê°ķ ë³Ģ
ĠíĽĦ ìŀĳ
Ġíİ¸ ì°¬
ĠíĮ¨ ìĬ¤íĬ¸
ëłĪ ìķĦ
ĠëĶĶ ìĹĲ
ĠíĶĦë¡ľ ìĦ¸ìĦľ
Ġê³¨ ê³łë£¨
Ġë§Īë ¹Ħëħ¸ê¸°
Ġì¤ĳìĭ¬ ë¶Ģ
ĠìŀĲìĹ° ìĪĺ
ê±¸ ìĿĮ
Ġ195 3
ĠBl ood
ĠìĦľë°ĶìĿ´ ë²Ħ
Ġìĭľ ìĭĿ
Ġì¤ĳ ëŀµ
ĠìĦ± ìĹŃ
Ġì²´ ë¥´
ĠìĪľ íķŃ
Ġìķħ ìĺģíĸ¥
ĠëłĪìĿ´ ë¬´
Ġì°© ìĪĺ
Ġì¡± ìŀ¥
Ġê¸°íĥĢ ë¦¬ìĬ¤íĬ¸
å® ĺ
ìĤŃ ìĿ´
Ġêµ¿ ì¦Ī
i am
ĠìĹĲ íħĮë¥´
ĠëĤĺ íĥĪë¦¬
ĠìŀĲ ìŀ¬
ë§Į íĻĶ
ĠìĦ± ëª¨
Ġì¡° ê·¸ë
Ġë¦¬ íı¬íĬ¸
Ġì¶© ê³µ
ĠJ e
Ġì½ĺ íħĮ
ĠìĪĻ ëªħ
Ġíģ¬ë¦¬ ì²ĺ
Ġìĺ¤ë¦¬ì§Ģ ëĤł
æī ĭ
ĠëłĪì§ĢìĬ¤ íĥķìĬ¤
Ġê°ĢìĨĶ ë¦°
ĠìĿĺ ìķ½
ê³µ ëĭ¨
ĠB ra
íı¬ ë¡ľ
ë©Ķ ìĿ¸
Ġìľ¤ ì¢ħ
Ġv e
ĠìĽ¨ ëĶ©
Ġê³łìĸĳ ìĭľ
Ġì¹ł íĿĳ
Ġìľłìļ° ê¸°
Ġìĺ¤ì»¬ íĬ¸
l er
è Ń
ìĦľ ê´Ģ
ĠìĤ¬ ìĦľ
Ġìĭľ ìĦ¸
ĠìŀĲ ê°Ŀ
Ġì¤ĳ ìĦ±
Ġì¡° ìĺģ
Ġë°© ë§ĿìĿ´
Ġë¦¬ ìĸ¼ë¦¬
ĠC OM
ĠR ain
Ġæ ·
Ġìī ĺ
ìķĦë ĪĦìĬ¤
Ġì¿ł íį¼
Ġì°© ê³µ
ĠìĽĮ ë§Īëĵľ
et s
Ġ26 0
ĠìħĶ ì¸ł
T H
ì ĳ¥
Ġíķĺ ëĭ¤
ĠìĹĲ ë¦¬ìĬ¤
Ġë° ¸ë¦¬
ĠìĤ¬ ìĥĿíĻľ
ĠìĪĺ ëĭ¤
ĠíĶ¼ ì¸ł
ëłĪ íĥĢ
Ġíķ© ìĤ°
Ġíĭ° ëĤĺ
ĠãĤ Ħ
Ġë°´ íĶ½
Ġë¹ħ íĨłë¦¬
ĠíĥĦì ĨĮ
Ġíİľ íĥĢ
Ġë¸Įë¦¬ íķĳ
éĻ ½
ĠDE F
ĠTS M
Ġì²Ńë¬¸ íļĮ
ì§Ģ ìĬ¤
Ġë¶Ģ ëħĢ
Ġì¤ĳ ì¶Ķ
Ġëĵ± ìļ©
Ġíİ ¸ëĮĢ
Ġëĭ¹ ì£¼
Ġìĭł ê³µ
íŀĪ ìĤ¬
Ġìµľ íĺķ
Ġì¿ł ìĬ¤
Ġè Ĭ±
ĠìĿ¼ìłķ ëŁī
æĸ ¹
Ġìķłìĭľ ëĭ¹ì´Ī
Ġìłķëªħ íĽĪ
o le
ĠìĹĲ ëłĪë
ë¦¬ íŀĪ
Ġê¸° ìĻĢ
Ġìłķ ìłľ
Ġê²½ íķ©
Ġë¬´ ë¹Ļ
ĠìĪľ íĻĶ
Ġì¹ľ íĻĶ
Ġê¼ °
ë¦¬ìķĦ ìĬ¤
ĠíĮĮë ³ĳ
Ġì¸ł ë£¨
Ġë¦° ì¹ĺ
Ġì¹´ìļ´ íĭ°
Ġå¤ ¢
Ġì°Į ì§Ī
ĭ Į
ĠìĹ¬ ë¦¬
Ġë°ĺ ìŀħ
Ġìŀ¬ ì£¼
ĠM ed
ëĤ ®
Ġíĺ¸ ìĬ¤íĬ¸
ë£ Įë
Ġì²« ìĤ¬ëŀĳ
Ġì»¨ íį¼ëŁ°ìĬ¤
ëĭ¥ ì¹ĺ
Ġìķ¤ ëįĶìĬ¨
ĠÎ ±
Ġëļ± ëļ±
Ġë Ĳľ
Ġë°ķ ì§Ħ
ĠëĨį ì´Į
Ġìĩ¼ ì½Ķ
ĠìķĮë Ŀ¼
ê¼ ¼
Ġëŀľë ĶĶ
ê²½ê¸° ëıĦ
ĠëıĻëĤ¨ ìķĦ
Ġë³´ìĤ´ íĶ¼
ì¼Ħì ĬĪ
Ġëĭ¤ íķĺ
Ġê²Į ìĺ¤ë¥´
Ŀ¼ë ¦¬
Ġì¤ĳ ë¡ł
ë² ¡
Ġê²° ëĭ¨
ĠìķĦì ĥ¤
ĠìĿĮ ìĸĳ
Ġíĺ¸ ê°ģ
Ġëħ¸ë ŀĳ
ĠíķŃ ìŁģ
Ħì² ľ
Ġë°°ìļ° ìŀĲ
ãĥ³ ãĤ°
Ġìłł ì§Ģ
ud e
ĠPro ject
Ġë¯¸ìķ¼ ìŀĲíĤ¤
ĠíĶĮëŁ¬ ê·¸
ë° ĸ
Ġë§Į ìĦ¸
Ġì¡° ëĶĶ
íĥĢ ëĭĪìķĦ
ĠìĥĿ ê³Ħ
ĠìĨĮ íĥķ
ĠìĦ¸ íĦ°
Ġìŀ¬ íĥķ
Ġê¹Ģ ìĦ¸
ĠC IA
ãĥ ĵ
ĠR ad
ĠW CS
Ġë¯¼ ìĭ¬
ĠëłĪìĿ´ ë¸Į
Ġë§Ŀ ìĽĲ
Ġì§Ī ì§Ī
ĠWh ite
éĥ ½
ĠëĤĺ ì£¼
Ġìĭľ ê²Įë
ĠíĬ¹ ê¶Į
ìļĶ ì½Ķ
ì½Ķ ë¥´
ĠA G
Ġë©Ķ ìķĦë¦¬
Ġë²ł ëĨĪ
ĠN S
ĠëĤľ ìłĦ
íıŃ íĥĦ
Ġíĺ¼ë Ĥĺ
ìºł íĶĦ
ĠëĤľìŀ¥ íĮĲ
ĠíĹĪë² ħì§Ģ
¼ë ¯¸
ìĭľ ê³Ħ
ìĭľ ì¦ĺ
Ġë§Ī ì¹´ìĺ¤
ê²Į ìĿ´íĬ¸
ĠëıĻ íı¬
íģ¬ ë£¨
ĠìĦ¸ ë¦¬ì¹´
íĸī ìľĦ
Ġë°ĺ ìŀĲëıĻ
ĠìĨį ìĤŃìĿ´
Ġê¹Ģ ì²ľ
Ġë³ĳ ë§Ľ
Ġå º
ĠG K
Ġæ Ľ
Ġë°Ģ ìłĳ
Ġíĸīìłķ ë¶Ģ
ĠíĿī ê¸°
ĠHe av
ĠIM F
Ġê³µë¯¼ ìĻķ
I V
æ Į
ìĦľ ê¸°
Ġìĭ ¸ë
Ġë§Ī íĨł
Ġë¬´ ë²ķ
ĠëįĶ ë¹Ħ
Ġë¯¸ ìħ¸
ìĦ¸ íı¬
ĠG ra
ĠìĦ¸ë ĭ¨
Ġç ķ
Ġë¸Ķë¡ľ íĤ¹
Ġëĭ¤ ëĵ¬
ĠìŀĲ ë°±
ĠíĮ »
Ġìĭł ì¢ħ
ĠìłĦíĪ¬ ë³µ
ĠìĦ¸ë ¬´
ĠíĬ¸ë łĪë
ìĽĮ ìĬ¤
Ġíĭ° ìķĦ
ĠGr ad
ĠíĹ¤ëĿ¼ íģ´ëłĪìĬ¤
w ard
é ķ·
Ġëĭ¤ ìľĹ
ìłľ íĶĦ
Ġíı¬ ìĿ´
ìĿĮ ìķħ
ĠìĹ´ ëĮĢ
°ľ ë¦¬
ĠìĬ¤íĥĢ íĤ¹
Ġìĵ¸ ìĵ¸
ĠìĿ´ëĭĪ ìħľ
Ã ¤
ĠìĿ´ íĦ°
Ġê¸° ë§Į
ĠëĮĢ ëĤĺë¬´
ĠìķĦë łĪìĬ¤
ĠìķĦë ıĮíĶĦ
Ġâ Ħ
ĠëĺĲ ëŀĺ
Ġê·¸ëŁ¬ ëĭ¤
ĠíĨł ëĿ¼
ĠëłĪ ëĭĪ
Ġì¸ ³
ĠíĹĪ ìĪł
Ġì§ĵ ê±°ë¦¬
Ġëĭ¤ìĿ´ ëłīíĬ¸
ĠëĮĢíķľ ìłľêµŃ
Ġåį Ĺ
u ch
ĠìĿ´ ìŀ¥
ĠëĲĺ ê²Į
Ġì§Ħ ìĦ±
ĠB ad
Ġ13 1
Ġìħ §
Ġëª¸ ì²´
ĠëĪĦë ĭĺ
Ġp p
ĠëĿ¼ ìŀĲ
ìĽ į
ĠìĦľ ìłĲ
Ġì½Ķ ëĭ¤
Ġê¹Ģ ìĿ¸
Ġìĭ¬ íĶĮ
íĮĮ ì¸ł
Ġ16 8
Ġ22 5
Ġn ight
Ġìķ¡ ìĪĺ
Ġ195 7
Ġê°± ëĭ¨
Ġíĥľê·¸ íĮĢ
Ġíģ¬ëłĪìĿ´ ì§Ģ
z z
Ġíķĺ ê°ķ
Ġë¶Ģ ë¡Ŀ
Ġìĥģ ê²½
Ġíĥ ¤
Ġë§Ī ì»¤
Ġìŀ¥ ëĭ¨
ĠìĥĿ ë¦¬
Ġ8 000
ĠíķĦ ìłģ
Ġíĥĳ ìĨĶ
Ġè ª
ĠíİĺìĿ´ íį¼
Ġë· Ķ
å¸ Ĥ
Ġë°ķë³ĳ íĺ¸
Ġê³¼ ìŀī
Ġ3 40
ĠìķĪ ìŀ¥
Ġíķ´ íĶĦëĭĿ
Ġìļ° ìĹ¬
Ġë¹Ħ ìļ´
Ġíİ¸ ìłľ
¯¼ ì£¼ëĭ¹
Ġì²´ ë¥ĺ
Ġíĸī ìĦł
ĠëĦ¤ ë©Ķ
ĠìĦłë°ľ ìłĦ
ĠìĨĮëª¨ íĴĪ
Ġìłł ìķ¼
Ġê¸īìĨį ëıĦ
Ġìĭłíķľ ìĿĢíĸī
ĠêµĲíĸ¥ ê³¡
ĠìĬ¤ ëª°
Ġìĭł ëĤĺ
ĠìĦ¸ ìħĺ
íĺ¸ íģ¬
Ġì§Ħë ĤĺëĿ¼
ä» £
ë³¶ ìĿ´
ĠìĿ´ ìłľëıĻ
Ġê°Ģ íĨł
ĠëĮĢ ê´Ģ
Ġìłķ íĺĦ
Ġì¡° ì§Ĳ
ĠëıĻ ìľłëŁ½
Ġë°Ķ íķĺ
ĠìĨĮ ìĿ´
Ġëĭ¨ ê±°ë¦¬
ĠS ong
Ġê²Ģ ê±°
Ġk now
ë¯¸ë ĬĦ
ĠëĮĢì¤ĳ êµĲíĨµ
Ġì´ī ì§Ħ
ĠYou T
## ##
Ġíķ ¸
ĠìĪĺ ìĨĮ
ĠìĨĮ ìĭľ
Ġë¯¸ ì²ĺ
Ġë¬¼ë Ł¬
ĠK N
ê³¡ ìłĪ
ĠíĻĪ êµ¬ìŀ¥
Ġì§ľ ìĿ´
íĮĶ ë¡ľ
op h
ë» Ķ
íĬ¹ë³Ħ ìŀĲì¹ĺ
ALO ID
é º
İ ģ
ĠìĿ´ ë¶ģ
ëĤĺ ëĵ¤
Ġìĺ¤ ìĿĺ
Ġìĭł ë´ī
ĠìķĦì ¹ĺ
íİ ľë
ĠíĹ ĮëĤ
Ġå £
Ġê³¼ê±° ìĤ¬
Ġìĸµ ìĸĳ
ĠìķĦëŀĺ ìª½
ĠìĽ¨ ìĸ´
Ġê¼Ń ëĮĢê¸°
ĠíĹ¤ìĸ´ ìĬ¤íĥĢìĿ¼
ĠíĹĮëĤ ©
ç Ī
Ġê¸° ë¡ľ
ĠìĹ¬ ì£¼
Ġìŀ¬ íķ´
ĠB ur
ĠíĨł ìļ°ë§Ī
Ġë¬¼ ìĿĮ
ĠìłĦíĪ¬ ìĽĲ
ĠìĦĿ íĻĶ
Ġë§¹ ìĪĺ
ĠQ ue
Ġì²ľë ªħ
Ġì¹´ìĹĲ ëį°
ã Ģ
ë ¼Ī
ĠìĿ´ ë¸Ķ
Ġë¡ľ ëĿ¼
Ġìĭľ íĶĦíĬ¸
Ġìŀ¥ ëĭ´
Ġìĺģ ëıĦ
ĠíĻĶ êµĲ
Ġëı Įëł¤
ĠìĦ¸ ìĿ¼
ë§Ī ëĭ¤
ìĤ° ëĵľëĿ¼
at a
Ġê²© ëĤ©
Ġì°© ì·¨
ĠíģĲ ìĬĪ
ĠìķĶíĿĳ ê¸°
Ġíģ¬ë¦¼ ìĬ¨
Ġæµ ·
Ġë§ŀëĮĢ ê²°
ĠìĬ¤ì½ľ íĶ¼ìĺ¨
Ġìĳ ¨
ĠYouT ube
ĠìĤ¬ ìĥ¤
Ġìĭ¤ ê°Ĳ
Ġë¦¬ ì¡°íĬ¸
ĠA mer
ĠíĺĦ íĻ©
Ġíļ¨ ëł¥
ĠíĹĪ ëĭ¤
ĠíĬ¸ ìĿ´
un k
Ġì£ł ìħī
ì¦Īë ª¨
ìķĶ ëıĻ
ĠíĮ¨ë¯¸ ì»´
Ġì¶©ê³µ ê¹½
ĠìĿ´ ìĬ¤íĦ°
Ġë©´ ìĦ¸
Ġë§Ī ìļĶ
ĠìĹ¬ ìļ´
ĠëŁ¬ ë¸Ķë¦¬
ĠíĢ ĳ
ĠÂ· Â·Â·
ĠíĹ¬ ë¡ľ
Ġë¡¤ëĵľ ì»µ
Ġç¾ İ
é ¢¨
ĠëıĻ ìĤ°
ĠíĨµ ìĹŃ
Ġì¡ ¸ë
íĬ¸ë ¥¼
ĠíĪ¬ íķŃ
Ġì¦Ŀ ê°ķ
ĠW C
Ġë²¨ ë²³
Ġ,, ,
Ġ193 6
AS S
Ġìļ°ìĹ¬ ê³¡ìłĪ
Ĥĺ íĭ±
ìļ° ë¨¼
Ġìłľ íĽĦ
ĠìĽĲ ëħĦ
Ġì§Ħ ìłĦ
íı¬ íĦ°
ĠìĬ¹ íķĺ
ëª¨ íĶĦ
ĠìĹ¬íĸī ìŀĲ
Ġìłķê·ľ êµ°
ĠíĮĿ íĶĪë®¤ì§ģ
ĠæĪ ĳ
Ġìĥ¬ ë¡¯
Ħ ¤íĬ¸
Ġìłķ ì¤ĳ
Ġìłķ ì¢ħ
ĠíĮĮ ìĿ¸
ĠìĹŃ ìĦ¤
ĠS am
©Ķ ìĿ´
Ġ12 9
Ġë¹Ħë ĳĺê¸°
ĠH er
ĠíĨłìļĶ íĥĢ
ĠíĽĦëł¤ ì¹ĺ
Ġë¹ĮíĹ¬ ë¦Ħ
» ¤
ĠìĿ´ ìĿ´
Ġíķĺ ê³Ħ
ìĿ´ ìĭľ
Ġë¡ľ ìĤ¬
Ġë¡ľ ë¯¸
ĠìĤ¬ ëĭ¤
ĠìłĦ ìļ°
Ġëł ĺ
ĠìĨĮ ìĿ¸
Ġê´ĳ ìłĢìļ°
Ġë°Ģ ê°Ģë£¨
ëĬ ł
Ġì§ģìĹħ êµ°
Ġì±ħìŀĦ ê°Ĳ
å īį
Ġë¯¸ ìļ©
Ġëıħ ê³ł
Ġíİĺ ëįĶ
ĠìłĪ ê°Ĳ
ĠìĤ¬ìĥģ ìŀĲ
ìĭľë¦¬ ì¦Ī
Ġìľ³ ì¿łë¦¬
ĠíĥĳìĨĶ ëŁ¬
o e
ĥ ½
Ġê³ł ë²ł
ê¸° ë³ĳ
ĠìľĦ ìĿ¸
ĠëıĻ ëıħ
Ġëªħ ìĭ¤
Ġíķ´ ë¶Ģ
Ġì½Ķ ë¡ľëĤĺ
ĠìłĦë ł¹
Ġè ©
ĠìłĪ ìķ½
ì´Ŀ ìŀ¥
ëłĪë ħ¸
ĠìĬ¤íģ¬ ë¥ĺ
ĠìĨĶë¡ľ ëª¬
ãģĵ ãģ¨
Ġì§Ģ ì²´
ĠëĮĢ ìŀħ
Ġìłķ íĽĪ
ĠìĿ¸ íħĮ
ĠM aster
ë¬¼ ìĩł
ĠëĦĺ ëĤĺëĵ¤
ĠìĦ¸ë ¯¸
ĠìĿ´ë² Ķ
Ġë¹Ħíķĺ ìĿ¸ëĵľ
ĠëĨį ìĸ´
Ġìľ¤ ìĦ±
íļ¨ ê³¼
ĠíĥĢì¼Ģ ë£¨
ìĤŃ ìĬ¤
ĠìĻ¸ëŀĺ ìĸ´
Ġê°Ģ ìĤ°
Ġê³ł ëª¨
ëĤĺ íĥĢ
ĠìĽĲ ìłľ
Ġìļ© ëĤ©
ãĤ §
ëħ¸ ì½Ķ
ĠëłĪë² ł
ĠV OC
ĠìķĮë ª¸
ĠíĶĮëŀĺ ëĭĽ
Ġëĭ¨ë°± ì§Ī
Ġê²½ë¹Ħë ³ĳ
Ġë¬¼ëŁ¬ ìĦľ
Ī Ħë
ĠìŀĲ ë¬¼ìĩł
Ġì§ Ĭ
Ġìĺģ ìĪĺ
ì§Ħ êµ¬
ãĥ ĳ
ĠìĬ¹ ê¸°
Ġæ Ĺ
ĠíĻį ìĪĺ
ĠìłľêµŃ ì£¼ìĿĺ
Ġê¼¬ ë°ķ
Ġêµ¶ ì£¼ë¦¬
ĠìķĮë£¨ ë¯¸ëĬĦ
ĠìĪĺ ëł´
Ġë¶Ģ ì¹ĺ
Ġê³µ ìĦĿ
Ġìŀ¬ ì°¨
ĠM ix
art h
ĠíķľêµŃìĸ´ íĮĲ
å® Ĺ
ĠìŀĲì¹ĺ ëł¹
ãĥ³ãĥ ī
ĠëĥĲë©´ ìĦľ
ĠìĿ´ ìĦł
ĠìĤ¬ ìĥĿ
ìķ Įë
ĠìĬ¤ ë¦´
ĠëĦ ¨
Ġë¦¬ ë²¤
ĠS ide
ĠìļĶ ì¸ł
Ġì´Ī ìĤ¬
Ġëħ¸ë ĵľ
Ġê¸°ë³ĳ ëĮĢ
ĠìĥĮë ĶĶ
ë½ ķ
Ġë§Īìļ´ íĭ´
ĠDrag on
é ¦Ļ
ĠìŀĲ ìłķ
Ġê±° ìľł
ĠìĦ¸ ìĭ¤
ĶĶ ìĬ¤
Ġë¯¸ë ĭ¬
ëĿ¼ë ¥´
ĠN FL
Ġì°½ ì¶ľ
ĠìĬ¤íĥ ¬
ĠEX E
ĠìľĪ ìĬ¤íĦ´
ĠíĶĮë¡ľ ë¦¬ëĭ¤
ĠìĤ¬ ë³µ
ĠëĮĢ êµĲ
Ġ5 50
Ġëį° ìĿ´ì§Ģ
ĠìĦ¤ ë¬¸
Ġìĭ¬ ë³µ
Ġæ ĥ
Ġì°¬ ìĤ¬
Ġë»Ķ ë»Ķ
Ġê³łìĨį ë²ĦìĬ¤
Ġ195 2
Ġë©Ķê°Ģ íĬ¸ë¡ł
ĠOr der
ìı ĺ
Ġíĸĩ ë¹Ľ
Ġë «
Ġê·¼ íĻ©
Ġëª¸ ìĭ¸ìĽĢ
ë© ľë¡ľ
Ġë§ĪíĤ¤ ëĤĺ
éĥ İ
ĠìĿ´ëĮĢ íĺ¸
Ġì¹ĺìĸ´ë¦¬ ëįĶ
ĠìĪĺ ë¶Ħ
ĠìĨĮ íĻĢ
ĠíĽĦ ìķĪ
ĠíĮ¨ ìĻķ
ĠìłĦë Ŀ¼
ĠC A
íĮĮ ìĿ´íĬ¸
ĠíĹ¤ ì§Ģ
ĠíĿĳ ë£¡
ĠìĹ°íķ© ëī´ìĬ¤
Ġìĸ¸ë¡ł ìĤ¬
Ġwh at
¹ Ķ
Ġë Ł¼ë¸Ķ
ĠìĿ´ ìĤ°
Ġê°Ģ ëĬł
ëĭ Īë©Ķ
ĠëĤ´ ë¹Ħì¹ĺ
Ġë°Ķ ìĿ´ìĬ¤
Ġêµ¬ ê¸°
ĠëĤ¨ ê¶ģ
ĠìļĶ ëł¹
ĠíĮĲ ë³¸
íļ ¡
Ġ18 3
ë¶Ī ë¦¬
ĠìķĦì¹´ ì¸łíĤ¤
ĠëłĪë ¯¸
Ġëĸ¡ ë³¶ìĿ´
Ġìĭľì¦Ī ì¹´
æ ģ
Ġìłķ ê²½
ë¶ ĵ
ĠíŀĪ íĨł
ĠìĽĲ ìĦ±
Ġëĭ¬ ëłī
ĠíĮĲ ëªħ
Ġìłľë ³µ
ĠìĨĮë ŀĢ
Ġìĺ¬ë¦¬ ë²Ħ
Ġë§ģ ì»¨
¼ë§ ¤
Ġp art
Ġê¼¬ ìĭľ
Ġë©ĺ íĨł
ĠíħĮíģ¬ ëħ¸
ĠìĿĺë¢° ìĿ¸
k a
ĠëıĦ ìĬ¤
Ġë¡ľ ì½Ķ
ĠìĪĺ ëĩ
Ġì½Ķ íĮħ
Ġíıī ì§Ģ
ãĥ į
Ġìļ© ìŀĲ
ìĻ¸ ìĦł
Ġì»¤ íĬ¸
ĠíĹ¤ ìĿ¼
Ġë°ĳ ë°Ķëĭ¥
Ġë²Ħë ĶĶ
Ġâħ ¢
ĠìĪĺëĩ Įë¶Ģ
d a
æ °´
ħ ĺ
Ġì Ń
Ġë³´ ìłĦ
Ġê±° ìłľ
Ġìľł ë¶Ģ
Ġë¯¸ ìĵ°
Ġë¬¸ íĺ¸
Ġë²Ī ìĻ¸
Ġì½Ķ ëĤĺë¯¸
Ġíĸī êµ°
ĠR F
ĠëĤ´ìļ© ë¬¼
ì§ľ ê¸°
ĠìķĻ ë¦¬
ĠìłĦëĿ¼ë ıĦ
ì ĮĢ
ĠìĿ´ ë°ĺ
Ġê°Ģ ê°Ģ
Ġìĺ¤ ìĽ¬
Ġëĭ¹ ë¶Ģ
Ġ13 2
Ġì¿ł íı°
Ġë¸Įë £©
Ġíĺ¸ë ¬¸
ĠíıĲ íķĺ
Ġë°¤ ì¤ĳ
Ġë³´íĺ¸ ìŀĲ
ĠíĥĦë ĳĲ
Ġì§Ĭ ìĸ´ì§Ģ
b oo
Ń ìĿ´
ĠáĨ«ëĭ¤ ëįĺì§Ģ
ĠìĬ¤ ë²ł
ĠíĥĢ ë¸Ķ
Ġì½Ķ íĨłë¦¬
íĪ¬ ìĤ¬
ĠB BC
ĠB EMANI
Ġë°ķ ì°¨
Ġë³ĳ íķ©
ê½ ģ
ëĸ ¼
Ñ ĭ
Ġíķĺ ì½Ķ
ĠìĿĢ ìĥī
ĠìłĦ íıŃ
Ġìłľ ìĿ´ìĬ¤
Ġêµ¬ ìĿ´
ĠìĹ° íļĮ
ĠíĶĦë Ĥĺíĭ±
Ġì´Ī ìĭ¬
ì¤Ģ íĺ¸
ìĬ¤íĬ¸ ë¦¼
ĠëĬ¥ ìļķ
Ġãģ ²
ì¼ ľ
Ġë§¨ ëĤł
íıī ê°Ģ
Ġíķĺë£¨ ëĤĺ
Ġë¬´ë¦¬ ìĪĺ
Ġë§Īì¸ł ëª¨íĨł
BO X
Ġj ust
ĠID OL
Ġìĸ´ ëĭ¤ê°Ģ
ĠìŀĲ ê²°
íĬ¸ ê°Ģ
ĠíķĻ ê³Ħ
Ġê°ģ ë³Ħ
ë¸Ķ ëŁ¬
Ŀ¼ìĿ´ ìĸ´
is ion
ìĿ¸ë °©
ĠTh at
åŃ ¦
iz e
Ĭ Ģ
Ġê¹ į
Ġê²½ ë³µ
Ġì°¨ ê³ł
ĠêµĲ ìłľ
ĠêµĲ íĽĪ
Ġê´ Ħ
Ġê¶Į íķĺ
Ġë°ķ íķĺ
ĠëłĪ ëĵľë
Ġæ Į
ĠìĦ¸ë łĪë
ë©Ķ ìĿ¼
Ġì§Ī ì±ħ
Ġì°© ìĭ¤
ĠëıĦë¡ľ ìĭľ
Ġë³µìĪĺ ìĭ¬
ĠìĬ¹ë¶Ģ ì°¨ê¸°
ĠEX O
Ġê¸°ìĥĿ ì¶©
Ġê´Ģ ìļ©
ìĦ¸ ê³Ħ
ĠìĨĮë ħ¸
ĠíķŃ ìĨĮ
am es
ĠíĸīëıĻ ëł¥
Ġë¶Īë °ľ
íĮĶ êµ¬
ĠìĺĪìĪł ê°Ģ
Ġì¡°ì§Ģ ìķĦ
ĠëĽ°ìĸ´ ìĺ¤ë¥´
man ia
ĠìķĦì¹´ìĿ´ ë¸Į
Ġæģ ĭ
Ġë¯¸ìĦ± ëħĦìŀĲ
ê°ĢëĭĪìĬ¤ íĥĦ
ĠìĬ¤ë¯¸ë łĪ
é ł
Ġëĭ¤ ëįĺê°Ģ
ĠìĪĺ ëĤ©
Ġë§Ī ë§Ī
Ġìľł êµĲ
ĠëĤ´ ì¹ĺ
Ġì¹´ ëĿ¼ìĬ¤
ì¤ĳ íĮĶêµ¬
ĠíĶ¼ ì¹Ń
Ġìļ© ìĿĺ
Ġëª© ì¡°
ĠI F
Ġê´ĳ ìĹŃìĭľ
ĠH A
²Ħ ê·¸
Ġë§ĮíĻĶ ì±ħ
Ġê²¬ ìĬµ
Ġh is
ĠìĿ´ëģ Įë¦¬
Ġê³łëł¤ ëĮĢíķĻêµĲ
ĠìĭŃ ì¤ĳíĮĶêµ¬
Ġë¸ĶëŁ¬ ëĶĶ
Ġì±Įë¦° ìłĢ
ìŀĦì Īĺ
ĠíĶĮëŀľ íĬ¸
Ġè¡ Į
Ġë¡ľ ìłł
ĠëĤ´ ëłĪìĿ´ìħĺ
Ġë°Ķ ìĺ¤
ĠëĤ¨ ìĤ°
ĠêµĲ ë¬´ìĭ¤
ĠëĭĪ ë§Įíģ¼
ãĥ ¯
Ġê·Ģ ê°Ģ
ro ss
Ġg r
ĠâĨĵ âĨĻâĨĲ
ĠíĹ¥ íĨłë¥´
Ġíķĺ íĥĢ
ĠëĮĢ ìļ©
ì²´ ìĬ¤
ĠëĤ¨ ì¹ľ
ĠT G
Ġëŀ Įë
Ġìķ¼ ì±Ħ
ĠR K
Ġì°½ ìĦ¸ê¸°
Ġp r
um p
ĠìľłíĤ¤ ì½Ķ
ĠíħĶëłĪ ì½¤
Ġæĸ ĩ
åĽ ½
Ġëĥħ ëĭ¤
Ġë°§ ì¤Ħ
ĠìĦľìĬ¤ íİľ
ĠìĥĮëĵľë °ķìĬ¤
å ¦
Ġìĺ¤ ëĵľ
Ġë¶Ģ ìĭĿ
Ġë§Ī ìĦĿ
Ġìłľ ìĿ´ëĵľ
ĠíĥĢ ëĤĺ
ĠìķĪ íĨ¤
ĠíĮ¨ ê¶Į
Ġë³Ģ ëª¨
Ġìĸĳ ì§Ģ
Ġê°Ħ íİ¸
ĠR G
Ġê¸ī ìĬµ
ì²ĺ ìĿĮ
íģĲ ë²ĦìĬ¤
ĠìĿ¸ì²ľ êµŃìłľê³µíķŃ
ĠíĭĪ ìĥĪ
ĠíĽĦì§Ģ ìĻĢëĿ¼
Ġìĭľ ê²Į
Ġìľł ëħ¸
ĠìĦ± ì·¨
ĠìĦ± ìĬ¤ëŁ½
Ġìŀ¥ ìķĪ
ĠíĻĶ ë£¡
Ġì²ĺ ë°©
ì¡° ëĤĺ
ĠìĬ¹ ëĤĻ
Ġë°ķ ìĦ¸
Ġíĸī ëł¬
Ġëħ¸ ìĽĲ
ĠìĪľ ìłĦ
Ġë¶ģ ëıĻ
ĠëĦĪ êµ¬ë¦¬
Ġ13 6
ëĵľë Ŀ¼ë§Ī
ìĺĪ íĶĦ
Ġê·ľ ìľ¨
ĠëŁ° ì¹Ń
ĠíĶĦëłĪ ëĵľ
ĠSk ill
a ut
é ŃĶ
Ġì§Ģ ìłĢ
íĥľ ì»¤
ĠëĦ¤ ìĿ¼
íķŃ ëª©
Ġì²ł íĩ´
ĠíĹĪ ìķ½
ĠíĶĮë Ŀ¼ë
ĠìĮ ©
Ġì§Ģìĥģ êµ°
Ġìŀ¥ê¸° ìłĦ
Ġíģ´ë¦¬ íĶĦ
Ġas ia
ì į½
ľë ¯¸
ĠíĽ Į
Ġìŀ¬ ëŁī
ĠN L
ĠìłĪ ìĭ¤
Ġë¥ĺ ì§Ģ
ĠíĺĦì§Ģ ìĿ¸
ĠLC D
ãģ¡ ãĤĥ
ĠíĭĢìĸ´ ë§ī
Ð ¼
ç ©º
ĠìĹĲ ëĵľë
Ġê¸° ë¦°
ĠìĤ¬ ì²´
ĠìĪĺ ë°ķ
ìĤ¬ íı¬
ĠìĦ± íĿ¬
ë¶Ģ ìĪĺ
Ġíı¬ ìĦŃ
ĠìĦľ ìĬ´
ë£¨ íĨł
Ġë³µ íĮĲ
Ġê°ľë įĶë§ģ
Ġì¤Ħ ë¦¬ìķĦ
Ġìŀł ê¸Ī
ĠìłĦìŁģ íĦ°
ìĬ¬ ë§ģ
ĠìĤ¬ì¿ł ëĿ¼ìĿ´
ĠìĿĮë£Į ìĪĺ
Ġíģ¬ë¦¬ìĬ¤íĨł íį¼
è °·
Ġë¡ľ ìłĢìĬ¤
ĠìĪĺ ë£Į
ìĪĺ ìĪĺ
Ġìľł íķĺ
Ġìľł ìĭľ
ê²Į ìĬ¤
Ġë¬´ ë¡Ģ
Ġêµ¬ ìĭĿ
Ġìĭł ìłķ
ì¢ħ íķ©
ĠN AS
Ġè ¥¿
Ġíĩ´ ì§ģ
ĠìķĦíĶĦ ê°ĢëĭĪìĬ¤íĥĦ
ãĤĵ ãģł
ìļ´ëıĻ ìŀ¥
Ġë§¤ê·¸ë ĦĪìĬ¤
Ġíģ´ëŁ¬ ì¹ĺ
ĠìĿ´ ë¡ľ
Ġê¸° ê¶Į
Ġìĺ¤ ìĪĺ
Ġì£¼ ìŀĦ
ĠìĿ¼ íĮĮ
ë² ħ
ĠìĽĲ ìĪł
ĠìĦľ ìľłëŁ½
ë°Ķ ëĭ¤
Ġãģ ¸
Ġãģ Ľ
ĠG ame
Ġìķŀ ìª½
Ġìĭ¸ ìĿ¸
Ġ13 9
ĠU M
ĠíĪ¬ìĪĺ ì§Ħ
Ġë¯¼ì¡± ì£¼ìĿĺ
ĠìĿ¼ê¸° íĨł
Ġì£¼ íķľ
ëį Ł
ĠìĽĲ ìĸ´
ĠìĽĲ ì¢ħ
ĠíĬ¹ ê²Ģ
Ġíİ¸ ìķł
ĠìłĢ ìĪł
Ġìŀ¬ ìĿ¼
ĠêµĲ ë¬ĺ
Ġë°ķ ë¯¼
ĠD AY
ĠìĨĲ ë°ľ
Ġì§Ħì ²
Ġì²Ń ìŀ¥
Ġíĭ° ê²©
ĠìŀĶ ì¹ĺ
Ġê³§ ìŀ¥
ĠëıĻëĤ¨ ìķĦìĭľìķĦ
Ġíĳ¸ë¥¸ ìĥī
Ġ ri
ħ ¸ë¦¬
ĠìĤ¬ íĮĮìĿ´ìĸ´
ìłľ íĬ¸
Ġìłľ ì¸ł
ĠìĽĲ ìĥģ
Ġë¯¸ ì½Ķ
ĠM er
ĠëłĪ ì½Ķ
Ġë£¨ íĮħ
ĠR X
Ġê²Ģ ì¶ľ
ìĤ´ ìĿ´
íħĮë £¨
Ġë¸Į ìĿ´
ĠíĶĦë¡ł íĭ°ìĸ´
Ġë§ĪìĿ´íģ¬ë¡ľ ìĨĮíĶĦíĬ¸
Ġì£¼ìľł ìĨĮ
Ġì¹´ë¶Ģ íĨł
Ġìĭľ ìĪł
Ġìłķ êµŃ
Ġã Ĥ¤
Ġë¯¸ ìĥģ
Ġê³¨ ìłĪ
ĠíĽĪëł¨ ìĨĮ
ĠëıĮë ³Ģ
Ġê»Ħë ģ
á Ĩ
ľë ¡Ŀ
Ġë²Ħ ê²ģ
Ġìŀĳ ë¬¼
Ġì¹ĺ íĥĢ
ê°ģ íĺķ
ĠìĻķ ëıĦ
ĠìĦľë ıĻ
ĠíĿ¬ ë¯¸
ĠíĿ¥ íķĺ
Ġå® ¶
æĪ Ĳ
ëķ ¡
Ġì¡° ìĬĪìķĦ
Ġë¹Ħ ê²ģ
ĠíĬ¹ ìĥī
ëĶĶ ìļ°ìĬ¤
Ġë°©ìĨ¡ ìĿ¸
ĠíıĲ ìĹħ
id er
Ġë¨¸ íģĲë¦¬
çĶ º
ĠìĹĲê·¸ ìłľ
Ġë§Īìļ´ íĬ¸
Ġë§Īì§ķ ê°Ģ
Ġê¼° ëĮĢ
O K
ĠìĿĺ ë¥ĺ
Ġê³ł ìĿĮ
ĠíŀĪ íĨłë¯¸
ĠìķĦ ìĦľìĬ¤
Ġë¬¸ ìĦ±
Ġìº ĩ
Ġì´Ī ê¸ī
Ġê³Ħ íĪ¬
ĠëłĪ íĶĦíĬ¸
Ġì²Ń ëŁī
ëıĮ íĶĦ
Ġë°Ģ ëŁ¬
un t
ĠìĬ¤íĬ¸ë ¡ľ
ir d
ĠìĹł íĮĮìĿ´ìĸ´
Ġê¸¸ë ŀĺ
æŃ £
å Ģ
ĠëĬĶ êµ¬ëĤĺ
Ġê³ł ìķĪ
ĠìĿ¸ íĶĮëłĪ
ëĭĪ ìĹĦ
Ġê¹Ģ ìĨĮ
Ġë§Īë ¬¼
ĠV al
ëĪ Ħì
ĠíĺĪ ìķķ
ĠâĹ ĩ
Ġíİ¸ì§ĳ ìŀĲ
ĠìĿĺì¡´ ëıĦ
Ġæĺ Ł
£ ¸
ħ ĦëıĦ
Ġê³µ ì§ģ
Ġìľł ì°½
Ġíķľ ê°Ģ
ĠìĦ± ì¢ħ
ĠìĦł íĺ¸ëıĦ
Ġì¦Ŀ ì°¨
ĠíĻ© íķ´
ĠíĴį ìĨį
ë¹Ħë ¥´
ĠíĹĮ íĬ¸
ĠDe ath
Ġíķĺìķ¼ íħĮ
Ġì°½ìĽĲ ìĭľ
lect ion
Ġìĸ´ ë¹ĦìĬ¤
Ġì§Ģ íĥ±
Ġë² ħìĬ¤
Ġê±° ì²ĺ
Ġê²½ ìłĦì²ł
íĥĢ ëĿ¼
ì¡° ë¦¼
ĠP M
Ġê²Ģ ëıĦ
Ġê¸ī ê°Ĳ
Ġìŀł ìŀĲ
ĠíĻĺ ìľ¨
ĠíĹ¤ ëįĶ
ĠãĤ ³
ĠíĶĦë¦¬ ì¦Ī
ĠìĪĺíĺ¸ ìĭł
ĠìłľëĿ¼ íĪ´
Ħ ¨
ìĬ¤ ê¸°
Ġëª¨ íĦ°ìĬ¤
Ġê³µ ì±Ħ
ĠìłĦ íĻ©
ĠìĿ¸ ìĤ¼
Ġì¡ ¸ë¦¬
ĠF E
ĠíķŃ ìļ°
ëħ¸ íĶĦ
Ġ15 1
íĽ ¤
Ġè ĩª
ìĭŃ ìŀĲ
ĠíĶĮëĿ¼ ìĽĮ
Ġ193 5
ub l
ĠìĿĳìĽĲ ê°Ģ
íĺĦë ¯¼
Ġê»Ħëģ ĦëŁ½
Ġíķĺ ë¥´
Ġê³ł ìĽĲ
ĠëĤĺ ëıĮ
Ġìĥģ ì¸µ
ĠìłĦ íĮ¨
ĠëĿ¼ë ¦¬
Ġì¢ Ĩ
Ġì¡° ìĦ¸
ĠíĽĦ ìĦ¸
Ġë©Ķ ìĤ¬
Ġì§ģ íĨµ
ĠíĨł ì¿ł
ĠN G
Ġëĭ¤ìĿ´ ë¹Ļ
ëª» íķ´
ĠìĪĻ ì§Ģ
Ġì§ĢìĭĿ ìĿ¸
ĠâĻ ¥
íĺĦë ıĻ
Ġë¯¼ì²© ìĦ±
Ġìĭłì£¼ ì¿ł
ĠìķĦíĭĢëŀĢ íĭ°ìĬ¤
ĠìĻĢ ìĭľì¦Ī
Ġê²½ ìĭľ
ĠëĤ´ íķľ
ĠìĹ° íĻĶ
ĠíĪ¬ ëįľ
ĠìĨĲ ê²¬
ĠK ar
ì¿ł ë²Ħ
Ġê·¹ ëıĻ
Ġë§¨ ìħĺ
ĠìĹ°êµ¬ ìŀĲ
ĠìĪĺëıĦ ìĽĲ
Ġì»¬ ë§ģ
Ġë¯¸ëĤĺ íĨł
EN T
ĠìĦ¼ë ĭ¤ìĿ´
ĠìĹĲ ë²Ħ
ĠìĪĺ ì¡±
ĠìĿ¼ ê´Ħ
ĠíĻĶ íķ©
Ġë¦¬ ê·¸ë
Ġë§¤ ë§¤
ĠC U
ãĤ »
Ġì¶© ì£¼
Ġë´ī íķĺ
Ġì¡°ê¸Ī ìĶ©
Ġê¶ģ ê¶Ĳ
Ġê´Ģë¦¬ ìĿ¸
Ķ© íģ¬
Ġíķ©ê²© ìŀĲ
ĠìķĦìļ° ëĿ¼
Ġëľ¯ ê¸°
ĠìĬ¤íĬ¸ ë¦¼
Ġíķĺëĭ¤ ëª»íķ´
Ķ ľ
Ġì§Ģ ê°Ģ
ĠìŀĲ ì´Ī
Ġì¡° ê³µ
ìĨĮ íĨµ
Ġ19 14
ĠëĬĶëĭ¤ ë©°
Ġì§ĳ ìļĶ
ĠG un
Ġëľ ¸
Ġæ Ľ°
ëĤł ë¦¬
ĠìĥĪ íķ´
Ġíĳ ¸ëĵľ
²ł ëĭ¤
ê¼ ´
íı´ ë¦¬
Ġë¸Ķë¦¬ ì¸ł
Ġìķ½íĥĪ ìŀĲ
Ġæĺ İ
Ġì¾ ĮëĿ½
ľ »
Ħë ¹Ħ
Ġì£¼ ìĬ¤
Ġë¶Ģ ìĦ¤
ĠìĹ¬ ì¤ĳ
Ġìĭ¤ íĥĦ
Ġìĭ¤ ë¦°ëįĶ
Ġëħ¸ íļį
ĠF ree
ĠíķŃ ìĨį
Ġê´ĳ íĻĶë¬¸
ĠíĽĦì ¶Ķ
Ġë³¼ ìĿ¼
ĠìķĮë ¡ľ
Ġìķī íŀĪ
Ġ193 1
Ġíģ¬ë£¨ ìĦ¸ìĿ´
Ġë¸Įë¡ľ ëĵľ
Ġì¾Į ìĨį
ĠíĮĮëĿ¼ ìĺ¤
Ġê¸°ë¬ĺ íķľ
Ġåľ °
ĠìĿ´ëĿ¼ë ĵł
ĠëıĦ ë§¡
Ġë¡ľ ëĵľë¦¬
ëĤĺ ìĬ¤
ìĤ¬ íĨł
Ġë§Ī íı¬
Ġìľł ìĽĲ
Ġíķľ ë¥ĺ
ĠìĿ¸ íİĺë¥´
Ġë°ĺ ëĤ©
Ġìŀĳ ìĿ¸
ĠíĶ¼ ì³Ĳ
ĠP op
Ġë²ł ê°ĢìĬ¤
Ġê°Ħ ìłĪ
ĠK A
ĠR AM
Ġì´Īë Ŀ¼
Ġç ©º
Ġé ķ·
Ġì°¨ìĿ´ ëĤĺ
ĠãĤ ¯
Ġìĸµ ëĪĦë¥´
Ġìķ¼êµ¬ ë¶Ģ
ê¼ ½
ĠëĿ½ ìĬ¤
ĠRe v
Ġíķĳ ê±°
Ġ193 7
ãĥ¼ãĥ ī
Ġì¸łë°Ķ íĤ¤
ĠAng el
ĠìķħìĦ¸ ìĤ¬ë¦¬
ĠìĿ´ ëĵł
Ġê±° ë¨¸
ìĪĺ ìĹĺëĿ¼
êµ¬ ë§Ī
Ġê°ľ íĭĢë§ģ
Ġë¹Ħ ê²¬
Ġíı¬ ì§Ģ
ĠëĳĲ ê°ľ
Ġíļ¨ ìļ©
ĠìĦ¸ë ł¨
ĠíŀĪë Ķ©íģ¬
íħĮë ©´
ĠAn t
ĠWW F
Ġê¹ĢìĹ° ìķĦ
ķãĤ ¡
Ġì´Ľ ë¶Ī
æ ¸
ë ĢĮ
Ġê¸° ì¦Ŀ
Ġìĺ¤ ìĹ´
ëį° ë¯¸ì§Ģ
Ġë°Ķ íĿĲ
Ġìļ° ìķĦ
Ġë°° ëĦĪ
ìĤ° ë¬¼
ĠêµĲ ìĽĲ
ĠU nd
į° ìĿ´
Ġãĥ ª
ê°Ļ ìĿ´
ĠìķĮë ²łë¥´
Ġëŀĺ ë¹Ĺ
ĠìĹĲìĸ´ ë¦¬ìĸ´
Ġå½ ¹
ĠVOC ALOID
Ġê±°ë¨¸ ì¥Ĳ
ĠìĿ´ ë¥¼
ĠëĮĢ ìĿĺ
ĠìĹ° ë§Ī
ì£¼ ê³¡
ĠíĮĮ ìļ´
Ġì§Ħ ìĿĺ
ĠD ance
ĠD own
ĠíıŃ êµ°
ĠìŀĶ ì¡´
ĠíĿ¡ ìŀħ
ĠìĹł ë§Ī
Ġì¤ĳíĻĶ ê¸°
H C
Ġë³´ ìĦ±
Ġìłķ ìĦ¤
ĠëıĻ êµŃ
ĠìķĦ ìĬ¤íĥĢ
Ġìļ´ ìŀĦ
Ġëıħ ìĨĮ
ĠH el
Ġë³Ħ ìŀĲë¦¬
ĠìĿĺìĤ¬ ìĨĮíĨµ
Ġì´ī êµ¬
ĠëĬĳëĮĢ ìĿ¸ê°Ħ
Ġì¤ĳëĮĢ ìŀ¥
ĠãģĹ ãģ¦
OC K
Ġìļ°ìĬ¤ ê°ľ
ĠìĿ´ë¥¼ íħĮë©´
é ¾į
Ġëĭ¤ ëŁī
ĠìĿ¸ ìĬ¤íĦ´
Ġëį° ë°Ķ
Ġë²Ī ìĺģ
Ġìĸĳ ì¡°
Ġë³µ ê¶Į
or i
Ġê·¹ ìĦ±
ĠíĶĮë ŀĳ
ìĬ¬ ë¡ľ
ĠëĨį ìĦ±
AT ION
ĠçĶ Ł
ĠíĬ¸ëł Įëĵľ
ĠãĦ ±
ĠìĥĮëĵľ ìľĦì¹ĺ
Ġì½ľëĿ¼ë³´ ëłĪìĿ´ìħĺ
ĠëĮĢ ìĦľ
Ġìĺ¤ ë¹Ħ
Ġíĺ ¼ëĤ´
ĠëĿ¼ë ²¨
Ġìĭł ìĺģ
Ġëģ Ħë
ĠìĹ´ ê´ĳ
ĠR un
ath er
one y
ES S
ĠìĿ´ìĭľ ì¹´ìĻĢ
ħĦë ĭ¨
ĠìĿĢ ë¹Ľ
Ġë°Ķ ê°Ģì§Ģ
ëĭĪ ì»¬
Ġìļ° ìĻķ
ĠD el
ĠìĨĲ ëĭĺ
Ġãģ ©
Ġìħ ľë¡Ŀ
Ġì¼Ģ ë¥´
ĠíĶĦë¦¬ íĢĦ
200 8
Ġë£Į ë§Ī
ĠíĺĦë ¬´
ĠìĿĺ ê±°
Ġìĥģ íķ´
Ġìĭł ìĺĪ
Ġì½Ķ ëŁ¬ìĬ¤
ĠìłĢ ë²Ī
Ġì´Ī íļĮ
ĠìĻ¸ ì§Ģ
ĠU l
ĠìĦ±ìļ° ì§Ħ
Ġê·¼ë °©
ĠìĺĪë ¯¼
ĠìĤ¼êµŃ ìĤ¬ê¸°
Ġë§Īì¸ł ëĭ¤
å¹ ³
y a
Ġëĭ¤ íĬ¸
Ġê¸° íĨµ
Ġëª¨ íĺ¸
ĠìĬ¤ íĶ¼ë¦¬
Ġë°° ëŁ´
ì½Ķ ìĿ´
ë°Ķ ìĬ¤
ĠëĪĪ ìĹ¬ê¸°
Ġç ģ«
ĠíķĺìĿ´ ë°Ķ
Ġíģ¬ë¦¬ ìĹĲìĿ´íĦ°
íĺĦì ¤Ģ
ĠDe f
Ġdis play
Ġìĺ¤íį¼ë łĪìĿ´íĦ°
ĠìĪĺìķĦë łĪìĬ¤
v il
è ²
ë Ń
ìĬ¤ ë¶Ģë¥´íģ¬
íĥĢ ì¹ĺ
Ġìķ¼ ìŀĲ
Ġìĺ¬ë¦¬ ë¹ĦìķĦ
ĠíĶĦëŀĳ ì¼ĦìĬĪ
Ġì½ĶìĬ¤ ëª¨ìĬ¤
Ġê» ´
Ġê¶¤ ë©¸
Ġê²Ģìĥī ìĸ´
ĠìĻĦì Ĭ¹
Ġë³´ì¢Į ê´Ģ
L S
è ĩ
Ġëĭ¤ ë¬¼
Ġìĭł ì´Į
ìĿĺ ìĤ¬
Ġìļ° ë©Ķ
ìĪ ²
íĥľ ê²©
íķ´ ìķ¼
ĠM I
ìĨį ìĦ±
Ġ13 3
Ġì»¨ ë²Ħ
el y
Ġthe y
Ġë¦¬ëįĶ ìĭŃ
ĠíĬ¸ìĻĢ ìĿ´ìĬ¤
ĠëĤ´ëł¤ ì¹ĺ
u ro
Ġíķĺ ë£»
Ġê³µ íĻ©
¬¸ íĬ¸
ìĿĺ ìłķ
Ġëį° ì¹´
ĠìłĲ ì¹ĺ
ĠëĦ¤ ìĿ´íĬ¸
Ġì¶© ë¬´
Ġì²ľ ìĻķ
Ġê¸ī ìĹ¬
Ġ16 2
Ġë°Ģ ì§ļ
ĠìŀĶ ìĨĮë¦¬
Ġãĥ ķ
ĠìķĦë¥´ íħĮë
ĠIn d
ĠìĤ¬ëĭ¨ ìŀ¥
íĥĦë ³µ
éĢ ł
æ° ı
åĳ ½
ĠìĬ¤íĥľë ¯¸ëĦĪ
Ġìĺ¤ë°Ķ ë§Ī
âĸł âĸł
§ ī
íķĺ ì¹ĺ
Ġê³µ íıī
Ġìłľ ìĿ´íģ¬
Ġìŀ¥ ë¯¼
Ġìļ° ëĮĢ
Ġìļ° ëĿ¼ë
ĠìĦľ ìķ½
ĠE p
ë°ĺ ìĤ¬
Ġë¶ģ ë²Į
le x
°© ìĤ¬ê¸°
Ġë§Ŀ ê°ģ
Ġë¶Ģìĥģ ìŀĲ
id ae
Ġëĥī íĺ¹
ĠìĤ°ìĤ° ì¡°ê°ģ
Ġìµľíĺķ ìļ°
b s
m in
ĠìĿ´ ë¦¬ìĬ¤
Ġëĭ¤ ëŀĮ
ëĵ ¯
ĠìķĦë ©ľ
Ġ19 19
Ġì¶Ķ ëĮĢ
ĠF F
Ġê°Ħ ê³¼
ĠW ay
Ġ14 8
Ġç ¦
Ġì»¬ ì³Ĳ
ĠìĿ´ìŀ¬ ëªħ
į ľ
Ġë§Ī ì»¤ìĬ¤
ĠìķĦë ¡ł
ìľł íĿ¬
ĠD a
ĠìĬ¬ ë§ģ
Ġ21 8
ĠY e
Ġê¸°ëĮĢ ê°Ĳ
ìŃ Ī
ĠìĽĲë¡ľ ìĽĲ
ĠíĪŃ íķĺë©´
ĠìĺĲë¡ľ ìļ°
ãĤĩ ãģĨ
Ġíĭ°ê²© íĥľê²©
ĠìĿĢ ìĿ¸
ëĭ¤ ëĵ¬
¸ë ¡ľ
ĠìĤ¬ ìĺ¤ë¦¬
ĠëıĻ ê°ķ
Ġê°ķ ìłģ
ĠëĳĲ ê°ģ
Ġì½Ķ ì¹Ń
ĠP a
ëĿ¼ë į°
ĠíĻľ ê¸°
Ġì²ł ë²½
Ġìľ¡ ìĭł
Ġëĵ¤ìĿ´ ëĭ¥ì¹ĺ
Ġìłķì¹ĺ ëł¥
ĠëĮĢê¸° ìĭ¤
Ġ193 3
Ġ193 4
Ġì²¨ ë¶Ģ
str um
ĠëĮĪë Ł¬ìĬ¤
Ġ em
Ġíķĺ ëį°ìĬ¤
Ġê°Ģ ì¦Ī
ĠìķĦë Ĥł
íĥľ íĽĦ
ìĬ¹ ìŀ¥êµ¬
Ġìķ½ ìĪĺ
Ġìĸĳ ìľ¡
Ġç Ī
Ġíĭ° ë¹Ħ
Ġãĥ İ
Ġë¶ģíķľ êµ°
ĠìĬ¤íĥ¯ ìĿ´
ç¾ ©
Ġì½Ķë¯¸ëĶĶ ìĸ¸
ĠEP L
ĠìĬ¤íĬľ ìĸ´íĬ¸
ĠëĴ¤ë°Ķ ëĢĮ
ĠGrad ient
ĠìĤ¬ ì¹Ń
ĠëĤĺ ìļ°
Ġê³µ êµ¬
ĠìĦľ íı¿
ĠìķĦì ¢ħ
Ġë©Ķ ê°Ī
Ġìĺ¬ ëłĪ
Ġê¸ī ì¦Ŀ
ëĶ §
ĠìķĶ ë¬µ
ra ft
ĠìĹĶíĦ° íĶĦëĿ¼ìĿ´ì¦Ī
Ġíķ´íĶ¼ ìĹĶëĶ©
Ġì¼Ī íĬ¸
ĠëĦ¤ë©Ķ ìĭľìĬ¤
ĠìĹĲ ë³¼ë
ĠìŀĲ íĸī
Ġìĺ¤ ì°¨
ì½Ķ ìĬ¤íĦ°
Ġëª© ìŀ¥
ìļ¸ íĶĦ
ìķĦë Ŀ¼ë
Ġë°ľë ŀĦ
ëĿ¼ë¦¬ ìĬ¤
ĠìĤ¿ íı¬ë¡ľ
ham mer
ë ®
Ġëĭ¤ ëįĺ
£¼ ìĿĺ
ĠìĦ± ë¬¸
Ġë°© íĥĦë³µ
Ġìļ° ëĵ±
ĠìĬ¹ ìĬ¹ìŀ¥êµ¬
Ġìķł ë¡ľ
Ġìķł íĶĦíĦ°
Ġê·Ģ íĻĶ
Ġë°Ģë¦¬ íĦ°ë¦¬
ê± ±
Ġê°Ģë¡ľ ì§Ģë¥´
Ġíĥģ êµ¬
Ġìĭ¬ë¦¬ íķĻ
¹Ħì ĹĲ
ĠìĪĺìĨ¡ ê¸°
ĠìĪĺìĨ¡ ìĦł
ĠìĿ´ë§Ī íĬ¸
ĠëıĻê¸ī ìĥĿ
Ġìĸ´ë¥´ ìĭł
D D
Ġí ıĦ
ĠìŀĲ íĥĿ
ĠìķĪ ìĭĿ
ìķĦ ìĿ¼ëŀľëĵľ
ëħ Ħì
ĠìĨį ì¶ľ
Ġì¢ħ ì°©
ì¿ł ë¥´
Ġíĺ¸ë Ŀ¼ìĿ´ì¦Į
ĠìŀĶ ìŀ¬
ĠíıĲ ìĿ¸
ĠëłĪë ¹Ħ
Ġìĸ´ì§Ģ ëŁ½
Ġæľ ¬
ëłģ ìĿ´
ĠíĬľë ¸Į
ĠíĻĶìĹ¼ë °©ìĤ¬ê¸°
Ġìĸ´ìļ° ëŁ¬ì§Ģ
U G
d ay
i w
Ġê°Ģ ê´Ģ
ĠëıĦ ìĤ´
ĠìĤ¬ ë³´
Ħì »´
Ġë¦¬ ê°Ģ
Ġëĭ¨ ëĭ¤
Ġê°Ĳ ìĨį
ĠíĤ¤ ë¥ĺ
ìĻĢ ë¦¬
en a
ĠëĪĪ ìį¹
Ġë¶Ħì ĸĳ
ìķĦì ¦Ī
ĠíĶ¼ë ħ¸
ĠìķłëĭĪë©Ķ ìĿ´íĦ°
Ġë°¸ë ¸Į
Ġìĸ´ ìłķ
Ġëĵ ¬
Ġêµ¬ ë¹Ħ
ĠíĥĢ ëıĦ
ĠìĦ¸ ê·ł
Ġìŀ¬ ë°ľ
ĠP OP
Ġíģ´ ëłĪë©ĺ
Ġê´ĳ ëıĻ
Ġëĭ¤ìĿ´ ëħ¸
Ġëĵľë¡ľ ìĿ´ëĵľ
Ġåį ģ
ç« ĭ
Ġìłłìķ¼ íĥĢ
º Ĳ
Ġëª¨ ëħ¸ë
ĠìĦ± ìĨĮ
Ġë¯¸ ìĽĢ
íĭ° ì¹´
Ġëŀ ´
Ġë§Īë °©
Ġíį¼ íĶĮ
Ġë©ĶìĿ´ íģ¬
Ġì¡± ì¡±
Ġë°´ ìĭľ
Ġë¸Ķë£¨ íĪ¬ìĬ¤
Ġë²łìĿ´ ì»¤
Ġêµ°ëĭ¨ ìŀ¥
ĠìĹĲìĸ´ ì»¨
Ġì¶ĺ ì¶Ķ
Ġë²łëĦ¤ ìĪĺìĹĺëĿ¼
L D
T ER
u ff
ĠìĤ¬ ëħĲ
Ġìłķ ì£¼
Ġê±° ìĭľ
Ġëªħ ê³Ħ
Ġë§¤ ë£Į
ĠA W
ëĤ ľëĵľ
Ġìŀ¡ ìĿ´
Ġíĳľ ë¥ĺ
Ġëĵ£ ë³´
Ġëĸ¨ ë¦¬
ĠâĨ ĺ
ĠíĻĺ ìŀ¥
ĠìķĶ ìĦĿ
ĠíĻį ëł¨
Ġìľ¤ íļĮ
ĠìĪĻ ìłľ
ĠìĪĺìĤ¬ ê´Ģ
ĠíĹĪë¦¬ ì¼ĢìĿ¸
Ġëĭ¤ íħĮ
Ġë¡ľ ë§ĪìŀĲ
ĠìĪĺ ê¸°
ëıĦ ìĦľê´Ģ
Ġìłķ ìĿ¸
ĠìĬ¤ ê°Ģ
Ġë§Ī ìļĶìĿ´
ĠìĽĶ ê´ĳ
Ġìĺģ ëł¹
Ġë§ī ë§Ĳ
Ġæ ľ¨
Ġê³¨ ëĮĢ
Ġëĭ´ ê·¸
Ġì¼Ģ ìĸ´
¼ë§ Īë£¨
Ħ¤ ìĬ¤
ĠëĮĢìłĦ ê´ĳìĹŃìĭľ
Ġë¹ĦìĦľ ê´Ģ
ëĸ¨ ìĸ´ì§Ģ
r al
æ ¼
Ķ ´
Ġê°Ģ ìĭł
ĠìĹ¬ ì°¨
Ġë°Ķ ìĭ¤
ĠS im
ĠS ur
Ġì¼Ģ ë¯¸
Ġíľ´ ì§Ģ
Ġw iz
Ġë°ľë ³ĳ
Ġíģ¬ë£¨ìĦ¸ìĿ´ ëįĶ
ĠíĶĦëŀĳì¼ĦìĬĪ íĥĢìĿ¸
r or
ìŀ ĸ
ĠëıĦ ìĪĺ
Ġì£¼ ê¶Į
ĠëıĻ ëĸ¨ìĸ´ì§Ģ
ĠíĻĶ ë³´
Ġìĭ¤ ì»·
Ġì½Ķ ìĿ´ì¹ĺ
ĠíħĮë ¥´
ĠíĮ¨ì¹ĺ ë¡ľ
Ġíģ¬ë¦¬ ì³Ĳ
Ġì¥¬ ëĿ¼ê¸°
åĪ Ģ
Ġë¹Īë ¯¼
ĠSy stem
Ġì¹¼ë¡ľ ë¦¬
Ġë¦¬ê·¸ë ²łëĭ¤
é «ĺ
Ġê³ł ìĦ±
Ġë§Ī ì¡°
Ġë§Ī ìĵ°
ĠìłĦë ħĦëıĦ
ĠìĹ´ ëıĦ
ëª¬ ìĬ¤íĦ°
Ġï ¿
Ġë§ĪìĿ´ íĭ°
Ġê¼¬ ë§¹ìĿ´
ĠCh rist
ĠìĹ°ì£¼ ìŀĲ
ëłĲ ë¦¬ìķĦ
ĠìĤ¬ë§Ī ê·Ģ
Ġíķĺìķ¼ ìĭľ
æĺ Ł
ì²łëıĦ ê³µìĤ¬
ĠìķĦëĤł ë¡ľê·¸
l ing
ĠìĿ´ ëıĦ
íķĺ ëĬĺ
Ġë¶Ģ ëĳĲ
Ġìľł ëĤĺ
ìŀĳ ê°Ģ
Ġì¹´ ëª¨
Ġë¬¸ íķŃ
Ġì¹ĺ ìĨŁ
Ġì½Ķ ëłĪ
ĠD A
Ġìĸĳ ìŀ¬
Ġìķħ ìĹ°
ĠìĤ¼ ìŀ¥
Ġ14 1
Ġs k
ĠìĬ¬ ëĿ¼ë
ĠíĴĪ ì¢ħ
ĠìĽĮëĤĻ ìĹĲ
íĺ¸ë ĮĢ
ĠMA STER
ìłĦë įĶ
ĠST AR
ĠìĬ¤ëłĪ ëĵľ
ĠìĦ±ëĤ¨ ìĭľ
Ġê°ķëĮĢ êµŃ
ĠíĶĦëł Įëĵľ
ìĿ¸ë¯¼ ê³µíĻĶêµŃ
ĠìĿ´ëĶ° ê¸Ī
ìłĦ íĪ¬
Ġíķľ ìĿ¸
Ġì¹´ ì¿ł
ìĨĮ íĥĢ
Ġì¹ĺ ìĦ¸
ĠS ing
ê²½ ë¯¼
Ġëĵľë Ĥĺ
ĠH ot
Ġì²Ń ì·¨
Ġë´ī íĪ¬
Ġì¡°ê°ģ ìĥģ
Ġ* *
ĠêµŃë¬´ ì´Ŀë¦¬
Ġë¯¸ìĭĿ ì¶ķêµ¬
g in
i us
ìłķ ëĭ¹
Ġìŀ¥ ëĮĢ
ì½Ķ ì§Ģ
Ġì´Ī ìĹ°
Ġì£¼ë ĭĪ
ĠT EC
Ġë¹Ħë £¡
Ġë°± ê²½
Ġë¸Ķ ë£¸
ĠìĦ¸ë łĪëĤĺ
Ġìŀł ê·¸
ĠìĬ¬ ë¦½
ĠíĿ¬ íķľ
ĮëłĪ ìĿ¸ìłĢ
ĠíĻĢ ìĪĺ
Ġì§Ŀ íīģ
ĠëĤŃ ë§Į
ĠíĥĢì¸ł ë¯¸
Ġçľ Ł
Ġì£¼ ìłĲ
ĳĲ ë¦¬
Ġëı Īë
ĠìĿ¼ë ĵ±
ĠìķĦìĿ´ ëį´
Ġìķħ ìŀ¬
Ġíİĺ ëĿ¼ë¦¬
Ġìŀł ìłģ
ëª© ìłģ
Ġê´´ ì§ľ
Ġãĥ Ī
ap e
ON E
Ġë²Ħì ¦Ī
ë²ĦìĬ¤íĦ° ë¯¸ëĦĲ
Ġë³ĳìĤ´ íĥĢ
į ©ìĿ´
ë§ £
Ġëª¨ ë¦¬ìĬ¤
Ġë°Ķ íĤ¤
Ġìŀ¥ ìŀĳ
Ġì°¨ ëıĦ
ĠíĶ¼ ìĿĺìŀĲ
Ġëª© íĳľë
į° ë¥´
ë°± íĺ¸
ìĹ´ ì°¨
Ġìłķìĥģ ê¸ī
Ġìĸ´ìĦ¤ íĬ¸
f er
ĠìĹĲ ëłĪ
Ġìĺ¤ ìĦ±
Ġìłķ ìłģ
ìĽĲ ìŀĳ
Ġìļ° ë§Ī
Ġì¶Ķ ê¸°
Ġì¶Ķ ìľĦ
ĠìĨį ìŀĦìĪĺ
Ġíĺ¸ ìļ°
Ġìķł ë¦¬
Ġ15 6
ĠíĻĺ ìĤ°
Ġê²© ë¶Ħ
ĠíĶĦë¦¬ ëĵľ
ìķĦì ĻĢ
Ġë®¤ ì¦Ī
ĠìĹ°íķ© êµŃ
ìĤ¼ ìĦ±
Ġì»¬ íĬ¸
ell a
ae boo
Ġì²ľìĹ° ê°ĢìĬ¤
ĠPart y
ĠìĬ¤íĥľë ¯¸ëĤĺ
ĠëıĦìļĶ íĨłë¯¸
ĠìķłíĭĢ ëŀľ
Ġì£¼ ìĦł
ĠìľĦ ìŀĦ
ĠìĨĮ íĭ°ìĬ¤
ĠS ol
Ġ19 11
ĠìĺĪ ê±°
Ġìķł íĶĮë¦¬ì¼ĢìĿ´ìħĺ
ì¿ł ìĤ¬
Ġ15 8
Ġì²ł ìłľ
ĠìĹĺ ëłĪëĤĺ
Ġë¶Ħì ĭ¤
Ġíĺĳ ìĿĺíļĮ
ĠãĤ ¸
ë¿ Ĳ
Ġë¸Įë¡ľ ë¦¬
Ġì¾Į ìłģ
ĠìĽĮë ĦĪ
Ġê¸°ê»ı íķ´ìķ¼
çĲ Ĩ
ĠíķĺìĸĢ ìĥī
ĠìĿ´ ë©ĶìĿ¼
Ġê°Ģ ë¹Ħ
ìĦľ ëĭĪ
ì¹ ¼ë¦
Ġì£¼ ìŀ¬
Ġ20 21
ĠìĨĮ íıŃ
ĠìķĪ ì¦Ī
ĠíĶ¼ ìĬ¤íĬ¸
or th
Ġ13 4
ĠíĺĦì ¢ħ
ëŀľ ìĦľ
Ġìľłìļ° ìķ¼
íĺĦì ¢ħ
Ġë°©ìĤ¬ ìĦł
ĠTe ch
ĠìŁģíĥĪ ìłĦ
Ġíķĺ ìĽĲ
Ġì¤ĳ ê°Ħì
ìĺ¤ íĨł
ĠìĦł ëŁī
Ġë¯¸ ìļ°ëĿ¼
Ġíı¬ ê´Ħ
ĠìĤ´ ìľ¡
Ġìĭ¬ ê¸°
ĠíĨł ëĵľ
in o
Ġå »
Ġì´Ŀ êµ¬
Ġãĥ Ł
ĠìĻ¸ë ıĻ
ì¿ µ
Ġx x
ĠìĹłë¸Ķ ëłĺ
ĠìĬ¤ìĤ¬ ëħ¸ìĺ¤
ĠìĦ±íĿ¬ ë¡±
æ ¬
ĸ ¡
ĠëıĦ ë¯¸ëĭĪ
Ġìĺ ħ
Ġë°Ķ ìļ´ëĵľ
Ġêµ° ì¤ĳ
Ġíıī ë©´
Ġëŀ ł
ĠâĨ Ĺ
ĠìĨ¡ íĮĮ
ëĿ¼ìĿ´ ì¦Ī
ĠìĦ¬ ëľ©
Ġìķ¼êµ¬ ëĭ¨
ĠëĮĢë¦¬ ìĿ¸
ĠSE ED
ĠAA A
Ġê°Ħì² ©
Ġì ıĻ
ĠìĿ´ ë§¤
Ġì§Ģ ì¶ľ
Ġì§Ģ ëŀĦ
ìĹ İ
ê°Ģ ê²©
Ġìĺ¤ ëĤĺëĿ¼
Ġì¡° ë¶Ģ
ĠìĦł ëªħ
Ġëª» ìĥĿê¸°
Ġì°¸ ìĪĺ
ĠC aeboo
ĠìºĲ ëŁ¬
ĠíĪ¬ ìĦĿ
ĠG A
ĠíĴĢ íĥĢìŀĦ
Ġ195 1
Ġëº ĳ
ann a
Ġìķ½íĺ¼ ìŀĲ
Ġë§ĮëħĦ íķĦ
Ġìĭł ìĭľ
Ġë¯¸ ê²Ķ
Ġê±´ ëĮĢ
°Ķ ëĵľ
ĠíĿĳ ê¸°ìĤ¬
ĠíĺĪ ê´Ģ
ĠëłĪë ³¼ë
ĠìķĮíĶĦëłĪ ëĵľ
Ġdisplay style
á ł
Ġíķĺ ëĦ¤
Ġê²½ ìłĦ
ĠëįĶ ëĵ¬
ë£¨ ëĤĺ
ĠìłĢ ì§Ī
Ġìŀħ ìłĲ
ĠA ut
íĮĮ ìĬ¤
Ġæ ¯
Ġë³Ħ ìŀ¥
íį¼ë łĪìĿ´ìħĺ
ĠìĽ¬ ë¦¬
Ġê°± ìĥĿ
ĠìĬ¤íģ¬ë¦° ìĥ·
ĠìĪľë ¡Ģ
y r
Ķ ±
ĠìĦ± ë²Ķì£Ħ
Ġë°Ķ ìķĮ
ì²´ ìľ¡
Ġë°ĺ ìª½
Ġíı¬ ëłĪìĬ¤íĬ¸
ĠC ity
Ġì´Ŀ íķĻìĥĿ
Ġë¸Įë ŀĢ
ĠìĹĺ ìĨĮëĵľ
Ġíĩ´ ìŀĦ
ĠSp ace
ĠAR M
Ġë® ĲëŁ¬
Ġìķ° íĶĦ
ĠëĶĶìħī íĭ°ì½ĺ
ã Ģħ
Ġë³´ ë¥ĺ
Ġìĺ¤ ìĤ°
Ġìŀ¥ ë°ľ
Ġìŀ¥ ìĭľê°Ħ
Ġìĺģ ì¡°
ĠìĿ¼ë £¨
ìĦł ë°ľ
Ġëª© ìĦ±
ĠíĻ© ëħĢ
ĠìķĶ ì¦Ī
Ġë§Ŀ ìĭł
Ġw orld
Ġì§ĢëıĦ ë¶Ģ
æĪ ĳ
Ġê»į ëį°ê¸°
Ġìĺ¤ìļ° ê±°
Ġë³´ë£¨ íĨł
Ġìłľê°ģ ê°ģ
Ġìłķ ìĹ°
Ġìłķ ìķ¡
ĠìĦ± íĻĶ
Ġë¬´ ìĺĪ
Ġì¡° ìĺĪ
Ġìŀ¥ ìłķ
íİ Į
ìĹĲ ëĤĺ
íĶ¼ ìĺ¤
ëª¨ ëĵł
ëĵ± ìŀ¥
ĠíĶĮë ¡¯
Ġíį¼ íĬ¸ë¦¬
ĠìŀĦì ¢ħ
Ġë¹Ļ ê¸Ģ
ĠíĭĪ íĥĢ
ĠBe st
Ġì²´íģ¬ ì¹´ëĵľ
Ġê·¼ë¡ľ ìŀĲ
ĠìĦľíĥľ ì§Ģ
Ġê³¨ë¦¬ ìķĹ
Ġëĭ¤ ë¶Ħ
ĠëĲĺ ë¬»
ĠìĦ± ë¬¼
ĠìĨĮ ë¦¼
ë§Ī ìĿĮ
Ġì¹´ ê²Įë
ĠíĮĮ ì¶©
Ġ~ ~
Ġ18 7
it al
ĠìĨ¡ ìłķ
Ġëĭ¤ìĿ´ ëĦĪ
ĠíĺĦëĮĢ ìŀĲëıĻì°¨
Ġëĵ±ë¡Ŀ ê¸Ī
ĠíĬ¸ëł Īë²Ħ
Ġëª©íĳľë ¬¼
^ ^
ë¦¬ ìķĦìĸ´
Ġìĭľ ìĹĺ
Ġìľł íĴĪ
ĠíĶ¼ ìħĶ
Ġê²½ê¸° ê´Ģì´Ŀ
ĠH ARD
ìĪľ ê°Ħ
íıī êµ°
ĠíķĺëĬĺ ìĥī
ĠìłľíĴĪ êµ°
Ġê·¼ìľ¡ ì§Ī
Ġì¿łë£¨ ë¯¸
Ġìľ¤ì¢ħ ìĭł
H D
¼ë ¹Ħ
ë¦¬ íĭ°
Ġê²½ ê´Ģ
Ġë°© íĥĦì
ĠíĥĢ ëĭĪ
ìĨĮ ìĹ°
ë²Ħ ìĦ¯
ĠìĭĿ êµ¬
Ġë¸Ķ ëł
Ġê¸Ī ìĦľ
Ġè Ļ
ĠíĶ¼ë ²Ħ
and er
ĠìķĦë¦¬ ìĤ¬
ang er
ire ct
Ġëª¨ìĿĺ ê³łìĤ¬
ĠëıĻíĺ¸ íļĮ
Ġíİĺê°Ģ ìĪĺìĬ¤
Ġì ģĺ
Ġê¸° ìĥī
Ġìĺ¤ ìłķ
Ġìĥģ ìŀĦ
ĠìĿ¸ íħĮë¥´
Ġêµ¬ ìĭ¤
Ġë°ľ ëł¹
ëıĻ ë¬¼
ĠìĻ¸ ìŀ¥
Ġ15 4
Ġæ ´
Ġê²ĮìĿ´ ì¸ł
ĠëĤĺëĤĺ ë¯¸
Ġãģ§ ãģĻ
åĬ Ľ
Ġíı¬íħĲ ìħľ
ĠëĤĺ ìĦł
Ġëª¨ ê¸Ī
Ġê³µ ìłģ
ìŀĳ ì¤ĳ
Ġë¦¬ ìłł
ĠìķĮ ì½Ķ
Ġë¬¼ë ¥ĺ
ĠìĻķ ê¶Į
Ġìłľë ķĮ
Ġìĺ¤ë¥´ ì¹´
ëıħ ìĬ¤
Ġíİĺ ëĵľë¡ľ
Ġë¯¼ ìĤ¬
ħ¸ ì¹´
Ġìķķ ìĬ¹
Ġëľ» ë°ĸ
ĠìĪĻ ë°ķ
íĹ¤ ì¹ĺ
Ġì½ľ ë¦°
Ġìłľìĭľ ì¹´
Ġ04 18
Ġìĸ¼ë £©
åĲ Ľ
Ġå° ĳ
Ġë¶ĪëŁī ë°°
Ġë§Īìĺ¤ ì¹´ìĿ´
ê·¸ëĿ¼ë ĵ¤
Ġíĺ¸ë¥´ ëª¬
ĠìĿ´ ê²¬
ĠìĪĺ ì°¨ë¡Ģ
Ġìľł ê´´
ëĮĢ ìŀ¥
ĠìĦ± ë£¡
ĠìĿ¼ë ¥ĺ
Ġë°ĺ ì£¼
ĠìĨį ì£Ħ
ĠìĬ¹ ìļ©ì°¨
Ġíİĺ ìĬ¤
Ġëĵ¤ìĿ´ ë°Ľ
Ġëª¨ìŀĲ ìĿ´íģ¬
ĠæŃ ¦
ĠEd ition
Ġë²¼ ìĬ¬
ì¹¼ë¦ ½
m on
é £
Ġê³ł ì¡¸
ìĸ´ ëľ¨ë¦¬
Ġëį° ëĭĪìĬ¤
Ġìĵ ¸ë¦¬
ĠíĮĮ ì£¼
ĠT T
ĠìĻ¸ íķł
ìĹ¬ ëĮĢ
íİĺ ë¦¬ìĺ¨
ìĬ¬ ì©į
Ġf rac
Ġê²¨ ëĥ¥
Ġë§Īë²ķìĤ¬ ëĵ¤
ĠSp ecial
ĠæĿ ¾
Ġë¸Ķë¦¬ ì¹ĺ
Ġì£¼ìłĢ ìķī
ĠìķĦìľł ë¯¸
Ġìķ¤ëĵľ ë¥ĺ
ĠíĮĮìĽ ĮëłĪìĿ¸ìłĢ
ĠíĽĮ ì©į
æ Ħ
Ġìĺ¤ ë¯¸
ĠìĹ¬ ëįŁ
ĠìĦł ìĹŃ
Ġìµľ ì¤Ģ
ĠíĶ¼ íĮĮ
ĠD O
Ġë¶ģ ëĳĲ
¼ë§ Į
Ġê²¬ íĽ¤
Ġë¸Įëŀĺ ëĵľ
ĠìĤ¬ëĤĺ ìĹĲ
ĠCL G
ĠëĤ¨ìķĦ ê³µ
Ĥ ª
ĠëĮĢ ìŀł
Ġë°© ë²½
ìķ¼ íĤ¤
Ġê°ķ êµŃ
Ġê°ķ ì¢Į
Ġëªħ ìĭ¬
ë£¨ ê°Ģ
Ġëĭ¬ ëŀĳ
Ġëıħ ìĤ´
Ġê²Ģ ë²ķ
Ġ14 6
Ġ14 00
Ġì¡°ìĦł ìĿ¼ë³´
ĠìĹ¬ê°Ŀ ê¸°
ĠëıĮìĿ´ íĤ¤
ĠìĿĺ êµ¬
Ġ3 10
ĠìĦł êµĲ
Ġê°ľ ëĵľë¦½
ìĻ Ī
Ġìķ½ íĴĪ
ĠL ast
ĠK ill
ëŀĳ ìĿ´
ad er
Ġëį°ìĿ´ ë¸Į
Ġë¹Ļ íķĺ
Ġê°Ħì Ĥ¬
Ġìķ¼ë§Ī ìŀĲíĤ¤
åį Ĺ
ĠëıĻìķĦ ìĿ¼ë³´
ĠìĿ¼ ìĥĿ
Ġë¬´ ë§Ī
ĠìĨĮ íĴĪ
ĠìķĪ ê±´
Ġë¬¸ ê³ł
ĠìĦ¤ êµĲ
ĠíĮĲ ìŀĲ
Ġì²´ ë©´
Ġëħ¸ ìŀ¥
Ġê·¸ëł Īë
Ġì½ ´
Ġë¶Ħë ³Ħ
Ġë¶Ħì ĭĿ
ĠìĨ¡ ìĭł
ĠìĪ¨ ì§Ģ
Ġìľ¤ íĺ¸
ĠHe y
Ġë³´ìķĪ ê´Ģ
ĠìłĦë©´ ìłĦ
ê²Įë įĶ
Ġë¡ľìĸ Ħë
ĠëıĻìĦ±ìķł ìŀĲ
ĠìĹĲìĿ¸ ìłĪ
y l
Ġìĸ´ ìį°
Ġìĺ¤ ìħĺ
ĠíĨµ ì¡°ë¦¼
Ġìĸĳ ìĿĺ
ĠíĶĦë¡ľ íĮĮ
ê¶ Įë
ĠëŀĢ ëĭ¤
Ġì°© ìķĪ
Ġì²Ļ ì¶Ķ
ĠìĮį ìļ©
ë¿ Įë¦¬
Ġ86 400
ĠíĨ° ìĬ¨
ëĤľë į°ìĬ¤
ĠSw e
ĠOp en
Ġíĥ¤ ëŁ°íĬ¸
u el
Ī Ļ
ĠìĿ´ ìģĺ
ĠìŀĲ ìĬµ
Ġê³¼ ìĹ´
ĠìĦł ìĥ¤
Ġíİ ©
Ġì¹´ íĬ¸ë
Ġë¶Ī ìĬ¤
Ġìķ¼ ìľł
Ġê°ģ ê´ĳ
Ġê³¨ ì§ľê¸°
Ġì¿ł ë§Ī
Ġè »
Ġãĥ ī
ĠíħĮë ĳĲë¦¬
íŀ ĪëĿ¼
Ġåħ ī
ĠíĬ¸ëĿ¼ ìĽĥ
Ġë°Ģì§ļ ëª¨ìŀĲ
i et
Ã Ĺ
ìĿ¸ ìŀĲ
êµ¬ ëıĻ
ĠìĽĶ íĦ°
ĠìķĮ ë¦¼
Ġ6 50
ĠìļĶ ìĿ¼
ìĦ¸ ìĽĢ
Ġ9 000
Ġì§ģ ë©´
íĮĮ ìĽĮ
ĠíĨł ì°©
Ġì¦Ŀ íĳľ
ĠíĻľëıĻ ëŁī
Ġíķľë ĪĪ
ĠìĤ¬ìĹħ ê°Ģ
Ġë¹Įë Ł°
Ġìĸ´ì¨ Į
å¿ ĥ
ĠìĿ´ ë©°
ìĦľ ë¶Ģ
ĠìĤ¬ ë¶Ģ
ëĮĢ íĳľ
Ġê´Ģ ìĬµ
Ġì½Ķ ìĬ¤íĥĢ
ĠD ec
Ġì¦Ŀ ìĭĿ
ê·¸ë ĵľëĿ¼
Ġì§Ħì ¤ĳ
Ġæ °¸
ĠëĿ¼ìĿ´ ìĦł
Ġê·ľë ªħ
ĠìĤ¬ëĥ¥ íĦ°
Ġì¹ł ê³¡
Ġíķĺëĵľ ìºĲë¦¬
Ġíķ´ìĦ¤ ìŀĲ
Ġìį¨ ëĭĪ
åı £
ĠSN K
ĠSou l
ĠìĤ¬ìĿ¼ë Ł°íĬ¸
Ġìĺ¬ëĿ¼ íĶĦ
ĠëĵľëĤĺ ëĵ¤
ĠìĿĺêµ¬ ìĭ¬
a j
Ã ¨
Ġëĭ¤ ëª©ìłģ
ĠëĤĺ ëŀĺ
Ġëĭ ³
ĠìĪĺ ë¡ľ
ìŀĲ ìľł
Ġê±° ì°½
ìĸ´ ëľ¯
Ġë§Į ìĦ±
Ġìľł ëĭ¤
ĠìķĦ ìŀ¬
ê±° ìĬ¨
ìŀħ êµ¬ìĹŃ
ëłĪ ìļ°ìĬ¤
ĠR PM
ëĵľë £¨
ĠíĿĳ ë°ľ
Ġëĥī ì²ł
ĠìĬ¤íĥł ëĶ©
Ġê°Ģ ì¹Ń
ìĿ´ ìķ¼
Ġìĭľ ì»¤
Ġìłģ ìĭľ
Ġìĺ¤ íģ´ëŀľëĵľ
Ġê²½ ìĿ¸
ĠìķĪ ì¤ĳ
Ġìļ° ëĶĶ
ĠëĤ¨ ìºĲ
Ġë§Įë ĭ´
ë¸ ĮëłĪìĿ´
ê±´ ìļ°
Ġíĺ¸ íĥĢ
Ġë²ł íĨł
Ġì¿ł ëĿ¼
Ġì§ĢìĽĲ êµ°
Ġë°°íĭĢ ê·¸ëĿ¼ìļ´ëĵľ
Ġê°Ģë¥´ ìĭľìķĦ
Ġíı° íĬ¸
Ġë³´ê¸ī íĴĪ
Ġì¶ľìŀħ êµ¬
Ġíİ¸ë ıĦ
ĠìĬ¬ëŀĺ ìĭľ
ĠìľĦëıĦ ìļ°
å ´
ì ¸°
Ġìĺ¤ ëĭĲ
Ġì§ ľë
Ġì¹ĺ ê¸°
Ġì¹ĺ íĶĦ
ĠíķĻ ëıĻ
ĠA BC
Ġê¹Ģ ìĭľ
¶Ģ ìĭľ
in i
Ġëħ¸ë ł¨
ĠG X
ë°ľ íĬ¸
ĠN AT
Ġë²ķ ê´Ģ
ĠÂ ¥
Ġì¹¸ ìŀĲíĤ¤
Ġê³µìĹ° ìŀ¥
ag ue
ìĦ¸ë ĮĢíķĻêµĲ
Ġìĸ¼ë Ŀ¼
ĠìĦłëıĻ ìĹ´
Ġê°ķìĦľ êµ¬
Ġì¡°ê·¸ë §£
Ġê³ł ì²ł
ì§Ģ ìĹŃ
ë¥´ ìĬ¤
Ġì£¼ êµ°
Ġê²½ ë©¸
ĠëıĻ ê²°
ë¶Ħ íĪ¬
Ġë§¤ íģ¬ë¡ľ
ìĦ¤ ìĪĺ
Ġìłľë ıĻ
ĠìĦľë ¶ģ
ĠR ED
ê³¡ ëªħ
Ġìĥī ì±Ħ
ĠíĮĮìĿ´ íĮħ
ĠìĨ¡ ìĿ´
ĠìŀĲìľł ì£¼ìĿĺ
Ġh er
Ġì´Į ìŀ¥
ĠìĨĮëĮĢ ìŀ¥
Ġì£łì£ł ìĿĺ
ĠíĤ¤ìĤ¬ ëĿ¼ê¸°
b ps
ĠëıĦ íĺ¸ì¿ł
ìĿ¸ íĦ°
Ġíĥ ¬
Ġìľł ìĬ¤ì¼Ģ
ë¶Ģ ìĥģ
ãĥ ı
ì» ¥
ĠëłĪ ëĭĮ
Ġë¯¼ ìĪĺ
ìĻķ êµŃ
Ġíĭ° íĥĢ
ĠìĬ¬ ê¸°
ë²ł ë¥´íģ¬
Ġë§ĪìĤ¬ íĨł
Ġ00 7
ĠìľĻ ìĸ´
ĠìĦľìĬ¤íİľ ìħĺ
Ġê²Į ìľ
Ġë¶Ģ íĮħ
ìĿ¸ ì§Ģ
Ġëĭ¨ ê°Ģ
Ġì¹ĺ ëĭ«
Ġ7 000
ì½Ķ ì¿ł
ãĥ ľ
ë¦½ ìĬ¤
ĠëĪĪ ê¸¸
Ġëª° ìĪĺ
íĽ Ħëĵľ
ĠìłĪ ìłľ
ĠìĦĿ íĮĲ
Ġìľ¤ ìĦĿë¯¼
ĠAP K
Ġê²½ìĺģ íķĻ
Ġë¹¼ë Ĩĵ
Ġìļ¸ìĿĮ ìĨĮë¦¬
Ġëĭ¤ ë°ĺìĤ¬
ĠìĤ¬ ìłĪ
Ġìĭľ ëĿ¼ë
ĠìĻĢ íķ´
ĠìĨį ì´Ī
ĠìĻķ ìłķ
ëħ¸ ìĿ´
Ġh p
Ġê²½ìłľ ëł¥
ĠìĤ¬íĨł ë¯¸
ĠLC S
ĠID C
Ġì°½ìĭľ ìŀĲ
Ġì½ĺíħĮ ìĬ¤íĬ¸
H P
Ġìļ° ë¡ľ
Ġë²Ī ì©į
íĻ© íĽĦ
ê·¸ë Ł½
Ġæ ¬
ĠíĹĪ ì¤Ģ
Ġp er
Ġì£¼ë³Ģ ìĿ¸
Ġì¤ĳìķĻ ìĿ¼ë³´
Ġë©ĺ ìħĺ
Ġìĺ¤íĨł ë´ĩ
ĠâĻ Ĥ
Ġê²ī ëª¨ìĬµ
Ġmath b
Ġìķ¼ìĬ¤ ìĺ¤
Ġë¯¸ëĦ¤ ìĨĮíĥĢ
ĠíİĮ ìĽ¨ìĸ´
Ġë²Īê±° ë¡Ń
¤ ¼ë
å ¡
ìĹ Ħì
Ġìľł íĪ¬
êµ¬ ë£¨
ĠìķĦ íģĲ
ĠìĦ¸ ìĿ¼ëŁ¬
Ġë°Ľ ì¹¨
ìĻ ģ
Ġìĸĳ ìĸĳ
ĠE r
ëĦ¤ ì½Ķ
Ġëĵľ ëłĪìĿ´íģ¬
ĠìĪ¨ ê²°
ĠíķľíħĮ ìĦľ
ëįĺ íĬ¸
Ġì£ł íĥĢë¡ľ
Ġë³¼ë §ģ
Ġê°ķë¯¼ íĺ¸
2 50
U B
é ¡
Ġ act
ê°Ģ ìŀ¥
Ġìłķ ë¯¼
Ġë§Ĳ ëļĿ
ĠìĨĮ ìĹ°
Ġë²Ħ ìĬ¤íĦ°
Ġë¦¬ ìĭľ
Ġê´Ģ ìķħ
Ġë§¤ ì§Ģìħĺ
Ġìŀ¬ ìĦł
ĠìĤ´ íı¬
ĠìĺĪ íķĺ
ĠìķĦìĿ´ ìĺ¤
ĠL K
Ġìĭľê°Ħ íĳľ
Ġë³ĳ íĴį
Ġå ī
ĠìĭĿ ìļ©
Ġë¹Ħë ĪĦ
ĠH appy
ì²ĺ ë¦¬
en n
re at
Ġ17 8
Ġë°ĺëĮĢ ìª½
ol ution
Ġì§ľ ìŀ¥
ĠìķĻ ì¥¬
åŃ ¸
ì¿¨ ë£¨ìĬ¤
Ġì¹´ëĤĺ ì½Ķ
ĠìĹ°ëĮĢ ê¸°
ĠëĽ°ìĸ´ ëĤľ
íĭ°ìĺ¤ íĶ¼ìķĦ
Ġë²łë¡ľ ëĭĪì¹´
ĠëĳĲê°ľ ê³¨
ĠìĿ´ ê³ł
ĠìĿ´ ëĿ¼ëıĦ
Ġê¸° êµĲ
ëĵ £
ĠëĿ¼ ìļ´
Ġëªħ ìĪĺ
ĪìĿ´ ì¹ĺ
ĠìĹŃ ìłģ
Ġì§Ħ íķ´
ĠíĨł ë¹Ħ
ĠìĹĺ ë¦Ń
Ġëī´ ìºĲìĬ¬
Ġì±Ħì ĭĿ
ìĬ¤íĤ¤ ìĬ¤
æĺ ¥
ĠíĶĦëŀŃ íģ´ë¦°
ĠìķĦìĿ´ëį´ íĭ°íĭ°
Ġìĭľ íĺĦ
ĠëĮĢ ëł¨
ĠìŀĲ ê·¸ë§Ī
Ġë¶Ģ íĻĶ
Ġíı¬ ì»¤ìĬ¤
ìľł ê¸°
Ġìŀħ ì°°
ĠG PS
ĠìĤ° íĺ¸
ĠìĨĶ ìł¸
Ġìĸ¸ë ľ»
Ġìļķ ë¨¹
ĠRe al
ĠìĪĺìĽĲ ìĭľ
Ġê¼¼ ê¼¼
Ġë¶ĢìĤ¬ ìŀ¥
Ġê³µëª¨ ìłĦ
z y
ĠìĿ´ ë¶Ī
Ġìĭľ ê·¸ëĭĪ
íĥĢ ê³ł
ĠìķĪ ìłĦë
Ġìļ° ëıĻ
Ġìµľ ìŀ¬
Ġë°° ëĭ¹
Ġ19 27
Ġìº Ħ
Ġì¶ľ êµŃ
ĠD L
ĠáĨ«ëį° ëĭ¤ê°Ģ
Ġê·¼ ìľĦëĮĢ
ìłĦì ĹŃ
ĠíĺĪ ìĹ°
Ġë¡ľìĬ¤ ì¿¨
ĠDe ad
Ġåħ ¨
Ġëª©ê²© ìŀĲ
ĠCl ass
ë±ħ íģ¬
ĠíĥĲíĹĺ ê°Ģ
ìĹ¬ìŀĲ ê³łëĵ±íķĻêµĲ
Ġëĭ· ì»´
å łĤ
ëł īìĬ¤
Ġíķľ ê¸°
ĠìĿ¸ ìłľ
ĠìĦł ëįĶ
Ġê°ľ íĹĮ
ìļĶ íĻĺ
Ġë§¤ ì¶ĺ
ĠíĪ¬ ì§Ģ
Ġ11 00
ĠH OT
ìĬ¬ ëŀĢëĵľ
ot s
um an
op e
±ħ íģ¬
ĠíĥĳìĬ¹ ìŀĲ
Ġêµ¬ìĽĲ ìŀĲ
ĠíĹĪë ¬¼
ĠëĳĶ íķĺ
Ġä½ ķ
ĠíĶĦëłĪëį° íĦ°
Ġíį¼ìĭľ íĶ½
Ġë±ĥ ì§Ģ
ë Ńī
ĠëĮĢ ê°ķ
ì¹ ¸ë
ë¡ľ íĬ¸
Ġì¤ĳ ìļ©
ĠìĦł ëįķ
Ġë¦¬ ìŀĲ
Ġìļ° ìĤ¬
ĠíĮĮ ì»¤
Ġê°Ĳ ë§Ī
Ġì´Ī ìĦł
ĠìĻ¸ ì¹¨
ĠíĶĦë¡ľ íİłëŁ¬
ĠíĥĢìĿ´ ë¨¸
ĠJ U
ĠìĹ°ìŀ¥ ìŀĲ
Ġìķ¼ë§Ī ëĭ¤
ĠìķĮëł Į
Ġre d
Ġ!!! !
ĠæŃ £
ĠSH OW
ĸç ķĮ
ĠíĶĮëłĪìĿ¸ ì¦Ī
é Ń
ĠìĤ¬ ë¹Ħ
Ġë³´ ë¦¬ìĬ¤
ĠëıĻ íĥĦ
ĠìĨĮ ê³ł
Ġê°ķ ë°±íĺ¸
Ġìĭ¤ ê¸°
ì¡° ëħ¸
Ġì½Ķ ì§Ģë§Ī
Ġê°Ĳ ê²©
ĠëĭĪ ì¼Ģ
Ġìķł ì°©
Ġå Ĵ
Ġëıħ ëıĦ
ħ¸ ìĬ¤
ĠíĶĦë¦¬ ëį¤
Ġë°©íĸ¥ íĤ¤
im es
Ġë°´ ì¿łë²Ħ
Ġìº¡ ì³Ĳ
Ġãħ İ
ĠìĿĢê·¼ ìĬ¬ì©į
ĠSM G
ëĸ ¡
ĠBM W
h a
è ³
Ġìĺ¤ ë¸Ķë¦¬
ĠìĨĮ êµ´
Ġë²Ħ íĮĶë¡ľ
Ġ7 20
ĠíĨµ ê³¡
¶Ģ íĤ¤
ëįĶ ìĬ¤íĬ¸
Ġì¼Ģ ëĦ¤
ou l
ì´Ŀ ìĤ¬
Ġì§ķ ìĪĺ
Ġ38 0
Ġ193 2
¯ ¸ëĭĪ
Ġìĺ¤ ìĬ¹
Ġëª¨ íĥĪ
ìłľ íĴĪ
ĠìĦł ìłĲ
Ġì¹´ ì¦ĪíĤ¤
ĠêµŃ ìĤ¬
ĠíĨµ ìĺģ
Ġì§ģ ì¢ħ
Ġ+ +
ëĶĶ ìĺ¤
Ġíİĺ ë¡ľ
Ġê¸Ī ìĦ¸
íĶĦë ŀĳ
ìĬ¬ ëĿ¼ë¹ĦìķĦ
Ġê¶ģ ìłķ
ê²Ģ ìĤ¬
ĠìĬ¤íĥł ìĬ¤
Ġì§¬ ë½ķ
Ġì£¼ë¦ ½
ĠíĮį íĮį
èĳ ī
e e
ĠëĿ¼ë ¯¸ë
Ġì¹´ ëıĦ
Ġëĭ¨ ìĪĺ
ĠìĨį ì¹Ń
Ġê±´ ë§Į
Ġìķ¼ ìļĶìĿ´
ĠN A
Ġè ²
Ġíķľë ³µ
ĠìĥĪ íĦ´
Ġë¦° ì½Ķ
Ġë²¤ ì¸ł
ĠìĬ¤ìº ĩ
Ġíĳľì§Ģ íĮĲ
ĠìķĦìķ¼ë ħ¸
Ġì¹´ìŀĲ ë§Ī
ĨĮë ħĦëĭ¨
Ġë¡¤ëŁ¬ ì½ĶìĬ¤íĦ°
Ġë°ķì°¬ íĺ¸
ĠìķĮì½Ķ ìĺ¬
Ĳ ì§Ģ
Ġë¡ľ ë²łë¥´
Ġìłķ ì§Ħ
Ġìŀ¥ ë§ī
ìĬ Ĳë¦¬
Ġë°ľ ìŀĳ
ĠìļĶ ëĤĺ
ãĥ Ģ
ĠH ero
Ġë°± ìĦ¤
Ġê¸ī ìĦ±
ĠëĮ ģ
ĠìķĦë¥´ íĥĢ
ĠZ ero
ĠSK E
ĠìłĢê²© ìĨĮì´Ŀ
ĠRe g
Ġíģ¬ë¡ľìĬ¤ ìĺ¤ë²Ħ
Ġì§Ŀ ìĪĺ
Ġê²½ìĪľ ìĸĳíķ¨
Ġì¶Ķê¸° ê²½
Ġìķłë¦¬ ì¡°ëĤĺ
ìĿ´ íĽĦ
ĠëĤĺ ìĹ°
Ġë§Ī ëĭĪìķĦ
ê¸ Ģë¡ľ
ĠS n
Ġì½Ķ ìļĶë¯¸
ĠìĬ¹ ìĦł
Ġëĸ Ħ
Ġíŀĺ ëĤ´
Ġë³µ ìĦľ
at ter
Ġê¶ģ ìĪĺ
ĠSt ud
ĠìĭłìĦ¸ ê¸°
ĠíŀĪê°Ģìĭľ ëĭĪíĺ¼
ìķĦëĿ¼ë ¹ĦìķĦ
Ġìĸ´ìłķ ì©¡
é ¤
Ġê³ł ë¹Ħ
Ġê³µ ìķĪ
Ġê²½ ë¹ĦëĮĢ
ĠëĤ´ ë¬´
Ġë©Ķ ì»¤ëĭĪì¦ĺ
Ġëħ¸ íĥľìļ°
Ġëħ¸ íķĺìļ°
íĬ¸ë Ł¼
íħĮ ìĺ¨
ëĦ¤ ìĿ´íĦ°
ĠëĿ¼ìĿ´ ìĬ¤
Ġì²Ń íĺ¼
ĠìĨĮëħĢ ìĭľëĮĢ
ãģĦ ãĤĭ
ëħ¸ë ¶Ģ
iv al
ä½ ¿
Ġì´ĿìĤ¬ ëł¹ê´Ģ
Ġ end
ĠìĹĲ íĭ°ìĺ¤íĶ¼ìķĦ
Ġêµ¬ ìľĦ
Ġìĭł íĥģ
ĠìĽĲ êµ°
Ġë§¤ íĺ¹
ì°¨ ëĵľ
ìĬ¤íĬ¸ ë¦¬
Ġìłľë ĦĪë
Ġë³µ ìĪŃìķĦ
ë©Ķ íģ¬
Ġì²ł ìŀĲ
Ġì¿ ĦìĬ¤ì¼Ģ
ì¦Īë Ŀ¼
ak a
ì¹ł ë¦¬ìķĦ
Ġíĥľë °ĺ
Ġìľłê³ł ìĬ¬ëĿ¼ë¹ĦìķĦ
Ġì¸³ ì½Ķë¯¸
ĭ¤ ìĿ´ìĬ¤
ĠìĤ¬ ì¹´ìĿ´
ìļ° íĥĢ
ĠìľĦ ìĬ¤
Ġë¦¬ ëħ¸
ìĹ° ëıĦ
ĠìłĢ ìĨį
ê´Ģ ë¦¬
ĠM ad
ëı Ķ
ĠíĤ¤ ì¹ĺ
ª¨ ë¦¬
ìĹ¬ ìĻķ
ĠíĻľ ëł¥
ì± Ħë
Ġë¶Ħì ¶ľ
Ġíĺ¼ ìŀ¡
ĠëĪĪë ³´ëĿ¼
Ġë¶ī íŀĪ
Ġíĳ¸ ìĭľ
Ġíİĳ íİĳ
ĠìĿ´ë¯¼ ìŀĲ
ĠSU V
Ġíİĺë¯¸ëĭĪ ìĬ¤íĬ¸
ĠíħĮì¸ł ìķ¼
strum ental
ĠëĿ¼ìĿ´ìĦł ìĬ¤
d y
Ġê±° ëĿ¼
Ġê·¸ë ĨĪ
Ġë§Ī ìĬĪ
ĠìĦ± ìļ´
ĠíĮĮ íĮĮ
ĠíĽĦ ë¦¬
ĠëłĪ íĶĮë¦¬
ĠìĪľ ì°¨
Ġê´ĳ ë¶Ģ
Ġë¶Ħë ĭ´
ou p
ĠX BOX
Ġê·¸ë¦¬ìĬ¤ ìĸ´
Ġìĺ¤ìĬ¤ ì¹´
ĠëıĻë°© ìĭłê¸°
ĠëĳĶ ê¸°
ä¼ ļ
Ġë¯¸íķĺ ìĿ¼
ç Ŀ
Ġê° ¸ë
ìĦ ŀ
ìĭľ ìķĪ
Ġì°¸ ì¹ĺ
ĠíĮ¬ íģ´ëŁ½
Ġ14 9
Ġo h
Ġíį¼ ê±°ìĬ¨
Ġë¡Ŀ íĤ¤
Ġê°ĲìĹ¼ ìŀĲ
ĠMS I
Ġë§Īêµ¬ ìŀ¡ìĿ´
Ġê´ĢëŀĮ ê°Ŀ
è ©
ë Ńĩ
Ġëĭ¤ ë¹Ħëĵľ
ĠìĿĺ ë³ĳ
ĠëıĦ ëĦ¤
Ġì¹´ ëĭĪë°ľ
ĠC O
ĠëĴ¤ ìĦŀ
ĠF all
Ġê³Ħì ±ħ
Ġì²Ń ì£¼ìĭľ
ë¯¸ë ĶĶìĸ´
ĠìŀĦ ìļĶíĻĺ
Ġìłķì¹ĺ ê°Ģ
ĠY G
Ġìĺ¤ë¦¬ ì½ĺ
íŀ Į
ĠìķĶìĤ´ ëĭ¨
ĠíĮĮìĿ´ìĸ´ ë³¼
Ġê¶Įëł¥ ìŀĲ
Ġë¼Ī ìķĦíĶĦ
ĠìĿ´íĥľ ìĸĳ
ë¸ĮëŁ¬ ë¦¬
ĠëĮĢ ë°ķ
ëŀ ı
ĠìłĦ íİ¸
ĠìľĦ ìłĢëĵľ
ĠìĦł ìľ¨
ë¶Ģ ë¥´
ë§¤ ì¹ĺ
Ġë°± ëĳĲ
Ġ25 6
Ġë§ĪìĿ´ ìĸ´
os h
Ġë¹Ĺ ëĮĢ
ĠìłĦê´ĳ íĮĲ
Ġê¼¬ë°ķ ê¼¬
ĠìŀĲ íķ´
¤ĳ ê°Ħ
Ġë¶Ģ ëŁ¬
êµ¬ ëª¨
Ġëį° ìĿ¼ë¦¬
ĠM ac
ĠM em
ãĥ Ħ
Ġë³Ģ ì¹Ļ
ĠëĴ¤ ìĹİ
Ġê±´ íĶĦëĿ¼
Ġìķł ìĽĲ
ëłĪ íĬ¸
Ġë²ł íĮħ
ĠëĿ¼ìĿ´ ì§ķ
ĠëĤĺê°Ģ ëħ¸
ĠW OR
ĠíĮĮë Ĥĺë§Ī
Ġh as
ĠìķĦëĤĺ íĤ¤
ĠSh ad
Ġì¿łë¡ľ ì½Ķ
ĠìĬ¤íĶĦë łĪìĿ´
Ġìļ¸ë ²Ħ
Ġíı¬íĦ° ë¸Ķ
ëłĪíĭ° ì½Ķ
Ġê¼¬ë°ķê¼¬ ë°ķ
ĠìĿ´ íģ´
ë£¨ ë£¨
Ġì½Ķ ìĿ¼
ĠíĮ¨ íĬ¸
ìĺģ ìĪĺ
Īë² Į
ĠìĤ¬ìĿ´ íĤ¤
ĠíĴ Īë
ĠG et
Ġëª¸ ê°Ĵ
Ġé ł
ĠëıĦìĭľ ìłĦìĦ¤
ìłĦì Īĺ
²ł ë¥´íģ¬
Ġì¹¼ë į°
ĠìĹ°ìŀ¥ ìłĦ
IN E
Ġê²ĮìĿ´ ë°į
æľ ī
OW N
ĠìĬĪë °Ķ
ëĪĦë §Ī
Ġë§Ŀê°Ģ ëľ¨ë¦¬
F F
Ġê³ł ìĺ¨
ê° Ķëĭ¤
ĠìĻ Ķëĭ¤
Ġê³µ ìĨĮ
Ġì¡° ë¹Ħ
Ġë°© ìłķìĭĿ
ĠëįĶ íķĺ
Ġë°ĺ ìĹ´
Ġìĸĳ ë¶Ħ
Ġìĸĳ ë¯¼
ĠF inal
Ġë¯¼ ì§Ģ
ĠìĺģêµŃ ìĿ¸
ìĥ¤ ìĺ¤
ĠáĨ¯ëł¤ ë©´
æĪ ¦
Ġì¹´ëĶĶ ëĦĲ
ĠëłĪë³¼ë £¨ìħĺ
Ġê³ł ìķķ
ê¸° ìĪĺ
ĠìĪĺ ì²©
Ġë©´ íļĮ
Ġê·¸ ë¦´
Ġìĺ¤ ëĳĲ
Ġìľł ë¦°
ĠíĥĢ ì½Ķ
Ġíıī ìĺ¨
íı¬ ì¸ł
Ġìĸĳ ë§Ĳ
íİĺ ìĿ´ì¦Ī
Ġæ ²
ĠìĦ¤ë¦½ ìŀĲ
ìĺ¬ ë¦¬
Ġäº Ķ
íĶĮëłĪìĿ´ ìħĺ
ĠìĦłìłľ ê³¨
âĨĵ âĨĺâĨĴ
Ġì²ľë¬¸ íķĻ
ĠìĻĶëĭ¤ ê°Ķëĭ¤
º «
ĠìĿ´ ë©´
Ġì£¼ ìĭ¬
Ġë¶Ģ ìĺģ
Ġíĥ Īëª¨
ìłĦ ê¸°
ĠìĨĮ ê³łê¸°
ĠìĽĲ ìĤ°
Ġìĭ¤ ê²©
ĠíĬ¹ ë¡Ģ
Ġ19 10
Ġê°Ĳ ëªħ
ĠìĺĪ ì»¨ëĮĢ
ĠìĿ´ìĥģ ë¯¼
Ġê´ĳ ìŀĲ
Ġì¶ķ ì¶ľ
ĠíĴį ìĬµ
íĽĪ ëł¨
ĠìĿ½ íŀĪ
Ġê³µì¤ĳ íĮĮ
íıĲ íķ©
Ġä¸ ĭ
ation s
II I
Ġë£¨ë¦¬ ìĽ¹
ĠìĿ¸íħĮ ë¦¬ìĸ´
Ġì¤ĳê°Ħì ¤ĳê°Ħ
Ġê¸° ìķķ
Ġë¡ľ ìĸ´
Ġìłķ ìľ¤
Ġëª¨ ìĤ¬
ĠìĿ¸ ê³Ħ
ĠìĨĮ ìĸĳ
ë¶Ģ ë¦¬
Ġã Ħ·
Ġë¯¸ ì¸łíĤ¤
íĭ° ìĬ¤íĬ¸
ĠíĨµ íĨµ
Ġíķ¨ ë¶Ģë¥´íģ¬
ĠC ur
Ġê·Ģ ê±¸ìĿ´
ĠíĻį ì°¨
ìĺĪ ìĪł
ĠìłĪ ë¥ľ
Ġd er
Ġìľ¤ íķĺ
Ġë¹Ī ìĦ¼íĬ¸
Ġìĺµ ìĬ¤
Ġë®¤ì§ģ ë±ħíģ¬
Ġëª¨ë¦¬ ìĬ¨
Ġìķ¼ë§ Īë
Ġíİł ë¦ŃìĬ¤
Ġë³µìĿĮ ìĦľ
Ġë¦¬ìĸ´ ê°Ģëĵľ
Ġë¬´ìŀĳ ìľĦ
ĠëĿ¼íĮĮ ìĹĺ
Ġê»´ ìķĪ
Ġë°©íĥĦì ĨĮëħĦëĭ¨
t or
ĥ ī
Ġê° ī
ê°Ģ ìļĶ
Ġìłķ ìĺ¤
Ġíİ ľë
ĠìĨĮ ì£¼
ĠìĨĮ ìĻ¸
ìĦł ìĪĺ
ĠìķĦìĿ´ íĶ¼
ĠR et
Ġì²ł êµ¬
ĠìĪĻ ë¶Ģ
Ġê°Ħì §ģ
Ġë§¤ê·¸ë Ħĺ
ëİ ħìĿ´
ĠíĮĮëĿ¼ë ĭ¤ìĿ´ìĬ¤
Ġì½ĺìĬ¤íĥĦ íĭ°ëħ¸
Ġíı¬ìĦ¸ìĿ´ ëıĪ
ĠìĬ¬ëŁ¼ íĶĦ
Ġì§Ģ ê²¹
Ġê²½ ìłĦì°¨
ĠìĿ¸ ìŀ¥
Ġë°Ľ ëĵ¤
ĠS ay
Ġì½Ķ íį¼ëłĪìĿ´ìħĺ
ë¸Į ìĬ¤
ĠP ark
ĠL ittle
ĠìĨĲ ì±ħ
ĠH al
Ġë¸Ķ ëŀĳ
Ġê³¨ ê²©
°Ķ íĢ´
ĠìĦ¬ ë¨¸
ĠìĿĮìķħ ê°Ģ
ë§Īë ª¨íĨł
Ġê³¼ë ¬µ
ĠìĬ¤íģ¬ ë¦¼
Ġê¹Ģìŀ¬ íĻĺ
ĠìķĦíĭĢ ëłĪíĭ°ì½Ķ
Ġìĥģë°ĺ ìĭł
Ġê° ¸
ĠìĪĺ ë°ĺ
ëĤĺ ì½Ķ
Ġê±° ëĵ¤
ĠìĦ± ìĽĲ
ĠìķĦ ê·Ģ
ĠìĥĿ ìĨĮ
Ġëĭ¨ íĺ¸
ĠíĽ ¤
ĠB aby
íĮĮ ìĭľ
Ġê¶Į ìĨį
íħĮ ë¦¬ìķĦ
ĠF ore
ĠíĮĶ ëĿ¼ëĶĺ
Ġ17 2
ĠíĹ¤ ìĿ´ì¦Ī
Ġëª¬ ëĵľ
Ġì§Ħë ªħ
íĶĮë Ŀ¼ìĿ´
Ġë¬µ ë¬µ
ë¿ Į
ĠíĨłëª¨ ì½Ķ
Ġê²Ģì°° ì²Ń
ãĤ· ãĥ§
æŃ ¦
íĮ½ ìĿ´
1 50
Ñ ı
æ ¨
ĠëıĦ ëĦĽ
ĠìĤ¬ ëĵľ
ëıĦ ìĤ¬
ĠìĹ° ëª»
Ġìĭ¤ ë¬¼
Ġ19 28
ĠíĮ¨ íĭ°
ĠM ir
ĠT K
Ġíĺ¸ íĶĦ
Ġê¶Į íĪ¬
ëłĪ ìĬ¬ë§ģ
Ġì²ľ ìĪĺ
ĠH ol
Ġë§Īë¦¬ ëĤĺ
ĠìĻĦë ł¥
Ġëĺĳ ë°Ķë¡ľ
ĠìĽ¨ ìĿ´íĬ¸
ì§ľ ê³ł
ak er
Ġìĺ¤íĨł ë©Ķ
Ġì¼Ħ íĥĢ
æĿ ±
ĠíŀĲëŁ¬ ë¦¬
ĠìĿ´ëĭĪ ìĭľ
Ġìľłëª© ë¯¼
ĠëłĪë²ł ì¹´
ĠíıĦ íķĺ
Ġë²łíĨł ë²¤
Ġì¼ĢëĦ¤ ëĶĶ
s y
¹ Ĺ
ã Ĥ´
ĠëıĦ íĥĢ
Ġë³´ ëĭĪ
ĠëĤĺ ìŀĲ
Ġê²Į ìŀĦì¦Ī
Ġëª¨ ìĦ±
Ġì½Ķ íĥĢë¡ľ
ĠìķĦìĿ´ ìĬ¬ëŀĢëĵľ
Ġìŀł ìłķ
Ġê·Ģ ìĨį
ê´´ ìĪĺ
Ġ17 3
Ġíĺ¹ ëıħ
Ġìĸ´ì© Ĳì§Ģ
íĺģ ëªħ
Ġth ere
íĥĢë¡ľ ìĬ¤
ãħ £
ãĥª ãĥ¼
Ġíķĺ ë²Ħëĵľ
Ġëĭ¤ ì§ľê³ł
¼ë °ľ
Ġë³´ ìķĦ
Ġìłķ ê·¼
ĠìĹ° ìĦ¸ëĮĢíķĻêµĲ
ĠíķĻ íĮĮ
ë³´ ëĿ¼
Ġm ore
ĠíĻ© ê¶ģ
Ġì²ł íķĻìŀĲ
ĠíĿĲ ì§Ģ
Ġìłķìĥģ ìĿ¸
Ġë¸ĮëĿ¼ ìļ°
Ġì½© ê³ł
Ġë£° ëłĽ
ìĵ¸ ìĿ´
Ġì²© ìŀĲ
ĠìłľëĦ¤ ëłĪìĿ´ìħĺ
Ġë¡ľë¯¸ ìĺ¤
ĠìķĦë¥´íħĮë ¯¸ìĬ¤
ç ¤¾
ĠìĿ´ ë£©
Ġë¡ľ ê±´
ĠëĿ¼ë ª¬
ĠìľĦ ìĬ¤íĤ¤
íģ¬ ë¡ł
Ġì¹´ ìķ¼
Ġë°ĺ ì°¬
ĠêµĲ íĻľ
Ġëħ¸ë £¨
ĠG L
ĠíĿ¬ ìĨĮ
Ġk e
Ġì£ł ìĬ¤ì¼Ģ
ĠSK Y
200 7
ĠìľłíĤ¤ ëħ¸
ĠíĶ¼ëĭĪ ìī¬
Ġê¹Ģêµ¬ ëĿ¼
ĠìķĦíı¬ ì¹¼ë¦½
Ġå¿ ĥ
Ġbeat mania
Ġëĭ¤ì§ľê³ł ì§ľ
ŀ ľë
ĠëıĦ ìļ©
Ġìĭľ ê¸ī
ĠìŀĲ ê²½
ê°Ģ ìķ¼
Ġê°ķ ë¶ģ
Ġê°ķ ìºĲ
Ġëĭ¨ ì´Ŀ
Ġìº ¬
Ġì½Ķ ë°Ķ
ãģ µ
ĠëĪ Įë¦¬
Ġìłľë ĦĪ
Ġì´Ŀ ìĪĺ
ĠíĦ° íĶĦ
Ġíĥľ íĽĦ
ĠíĻ© ìĨĮ
ĠíĻ© íıĲ
Ġëĳĺ ë¦¬
Ġãĥ ĩ
ĠìĻ¸ë ¬´
Ħìĭľ ë¡ľ
Ġê¹Ģê¸° íĥľ
ĠKe y
çī ©
Ġìķ¼ìĿ¸ ìĭľëĮĢ
u ction
æ ·
Ġ our
Ġë© ©
ĠìĪĺ ìłľ
Ġìĺ¤ ê±°
ĠìĹ¬ ëª½
Ġë¬¸ ìĿ¸
ĠêµŃ ë³´
ìĦ¸ íĤ¤
ãĥ Ĺ
Ġë¹Ħë ĭĲ
íį¼ íĬ¸
Ġo p
Ġå® ī
ĠìĬĪíį¼ë ³¼
Ġì½ľë¡ľ ìĦ¸ìĽĢ
ĠìĿ´ëª¨ íĭ°ì½ĺ
Ġìļ°ì¹ĺ íķĺ
ĠìķĦíĤ¤íķĺ ë°ĶëĿ¼
é »
Ġìĭľ ìĨį
ĠëĮĢ ê¾¸
ìĤ¬ ì¿ł
ìłĦ ìŀĳ
Ġì¤ĳ ëĵ±
Ġíķľ ê²¨
ĠìĹ° ìłķ
Ġìĭ¤ ìĦ¸
Ġë°ľ ìĿĺ
Ġëį° ìļ°ìĬ¤
ĠíĬ¹ íĺľ
ì¡° ëĿ¼
ë³´ ëłĪ
ë¬´ ìŀ¥
Ġì´Ŀ ê²Ģ
Ġë²ł ëĿ¼
Ġæ Ħ
Ġê¸Ī ìłķ
ë¹Ħì ĸ¸
ĠëĪĪë ¶Ģìĭľ
Ġì½ĶìĬ¤ ëª¨
Ġëı¼ì§Ģ ê³łê¸°
D ER
Ġíķ į
Ġì§Ģ íļ¨
Ġê±° ëŀĢ
Ġ20 5
Ġíİ¸ íĸ¥
ë³´ ë³ĳ
ĠT om
ĠE very
Ġíĺ¸ë £¨ìĬ¤
ĠìĨ¡ ì§Ģ
ìº Ķ
ĠìķĦìĬ¤ ëĤĺ
íŀ Īëª¨
ĠìķĦíĤ¤ ìķ¼ë§Ī
Ġë²Ħë ĭĪ
Ġìłķì°© ì§Ģ
ĠíĥĦë ł¥
Ġíģ° ìĿ¼
Ġë§¤ì¶ľ ìķ¡
ĠëĦ¬ ìĬ¨
Ġë°Ķë¥¸ ìłķëĭ¹
Ġëŀł ë¦¬
Ġ Ï
ĠìĿ´ ëĤ¨
Ġê³ł ìļĶ
Ġë¬´ ìĨį
ĠìĦł íĺķ
ĠìĨĮ ìħľ
Ġë¯¸ ìļ°
ĠC ry
Ġë°± ë£¡
Ġæ ®
Ġíĭ° ë²łíĬ¸
Ġé ¡
ìĩ ¼ë§Īë£¨
Ġëļ ľë
ĠíĪ ¼
Ġë©ľ ë¦¬
Ġëµ Ī
ĠìĤ¬ìļ°ëĶĶ ìķĦëĿ¼ë¹ĦìķĦ
ĠLeg end
Ġê´Ħ íĺ¸
Ġï¿ ¦
ĠìķłíĭĢëŀľ íĥĢ
ĠíĿĲì§Ģ ë¶Ģì§Ģ
Ġìĸ´ íĥľì»¤
ĠëıĦ ëŀĺ
ëĭ Ń
Ġë§Ī ìĿ´íĬ¸
Ġë¶Ī ê³°
Ġìŀ¬ ìļ°
ĠíĨµ íıĲíķ©
íķ´ êµ°
íĮĮ íĭ°
ìĥ ¤íĬ¸
ë°Ķ ëŀĮ
Ġë¹ł íĬ¸ë¦¬
íĺĦ ìķħ
ì´Ī êµĲ
Ġì¿ł ë¦¬
Ġ17 6
Ġì¡°ìĦł ìĨĮ
Ġë§¹ ëł¬
Ġë¥´ ë¸Ķëŀĳ
Ġì»¤ë®¤ ëĭĪ
ĠOr ig
b r
ìĿ´ ëĿ¼
ĠìĤ¬ ìĭľ
Įë Ĥĺ
ìŀĲ ìĦ¸
ĠìĬ¤ íĪ¬
Ġìľł ìĥģ
ĭĪ ìĹĺ
ĠìĦ± ëıĻ
ĠìľĦ ìĦł
Ġì¹´ ë£¨
Ġë°ľ íĬ¸
Ġëªħ ëıĻ
Ġê´Ģ ë¡Ģ
ëŁ¬ ë¯¸
Ġíİ¸ ì°¨
Ġìŀ¬ ëŀĺ
ĠìĤ´ ë²Į
ĠëĴ¤ ëıĮ
ìĥ ĺ
ĠíĶĦë¡ľ íİĺ
ìĨ¡ ìĿ´
ĠëĿ¼ìĿ´ ë¸ĮëŁ¬ë¦¬
ĠíĻ© ìĤ°
Ġ16 7
Ġãĥ ¬
ĠìŁ ¤
Ġíĺ¹ìĭľ ëĤĺ
Ġíģ´ëłĪ ìĺ¤
ĠìĹĲëĶĶ íĦ°
Ġíķ¸ë ĶĶ
°Ģë¦¬ ìķĦ
Ġìĺ¤ ëłĪ
ĠìĬ¤ ëħ¸
ë² Ļ
ĠìľĦ ìļ©
Ġê°ľ ìĿĺ
íĥľ ìĿ¸
ĠM c
Ġìķ¼ ìĺ¤
ĠL ong
ê¶ Ī
Ġæ ļ
Ġìŀł ìŀĲë¦¬
ĠíĿĳ ìĥī
il y
Ġe very
ĠëĴ· ëĭ´
ĵľë Ĥĺ
ĠìķĻ ìĥģ
ĠìĤ½ìŀħ ê³¡
ĠíĶĦëŀĢ ì¸ł
¨¸ë¦¬ íĮĲ
è· ¯
ĠìĿĺìķ½ íĴĪ
ĠIDOL M
ĠíĴĪë ª©
Ġíķĺ ìĿĺ
ì§Ģ êµ¬
Ġê¸° ìłķ
ĠìĤ¬ ë¶Ģë¡ľ
íķĺ ìŀĲëĵľ
Ġìĭľ ëĿ¼ìĿ´
Ġìłģ êµŃ
ìĥģ ìĬ¤
ĠìķĦ íĨł
Ġì¹´ íĪ°
Ġì¹´ ê°Ģë¯¸
ĠëĤĺìĺ¤ íĤ¤
ĠìĪ «
ĠM IX
Ġì´Ī êµ¬
ĠíĶĦë¡ľ ëłĪìĬ¬ë§ģ
Ġìķŀ ë¨¸ë¦¬
Ġê°ľë ¨¸ë¦¬íĮĲ
Ġ13 00
Ġ14 3
Ġíĺ¸ë ħ¸ì¹´
Ġb ack
Ġê°Ħì Īĺ
Ġ48 0
íĶĮë Ŀ¼
ĠìķĦíĭ° íĮ©íĬ¸
ë§Įë ³Ħ
ĠëĶĶìĹĲ ê³ł
Ġíķĺë£» ë°¤
ìľłíĿ¬ ìĻķ
Ġì§Ģ íıĲ
ê° ľë°ľ
ĠìŀĲ ìĦľ
Ġë°ĺ ìĭł
ĠìĦľ ëĵł
ì°¨ ë§Įë³Ħ
ë£ °
Ġê± Ķ
ĠP ER
ĠëłĪ íĢ´
ìĬ¬ ëŀ¨
ĠíĽĦì Ĥ¬
Ġg et
ut ure
ì¶ĺ ê¸°
Ġê¹Ģìłķ ìĿ¼
Ġìłķì°° ê¸°
ĠSch ool
ĠáĨ«ëĭ¤ëĵł ì§Ģ
Ġì¹ĺíķĺ ìķ¼
ĠKn ight
ĠìķĦë¥´ë©Ķ ëĭĪìķĦ
u ct
ĠìĿĺ ê²°
Ġë¥ ľ
ĠëıĦ êµĲ
ĠìĪĺ ëª¨
Ġëª¨ íĥľ
Ġìłľ ê³±
Ġìĭł íĮĲ
Ġêµ° ìļĶ
Ġê¹Ģ íĺ¸
Ġìĸĳ ì¤Ģíĺģ
Ġì¸ Ħ
ĠíıŃ ëĿ½
Ġì²ľ ì°¨ë§Įë³Ħ
ĠX P
ĠíĢ Ħì»´
am a
Ġìķ¡ ìĦ¸ìĦľë¦¬
Ġëħ¸ë¦¬ ì½Ķ
Ġê¾ ¹
Ġ00 00
å® ī
Ġì°¨ê¸° ìŀĳ
ug h
Ġì¹´ì¹´ìĺ¤ íĨ¡
Ġìĭľê·¸ë ĦĪìĬ¤
F T
S t
Ĥ ©
ĠìŀĲ ìŀĲ
Ġë§Ī ìŀĲ
êµŃ ë¯¼
Ġëĵ± ê¸°
Ġêµ¬ ê±¸
Ġê¹Į ì¹ł
ĠêµĲ ëªħ
ãģ Ķ
Ġê¹Ģ íķľ
Ġíıī ìķ¼
Ġì¢ħ ìĨį
ĠìķĦìĿ´ íĮ¨ëĵľ
ĠD em
Ġìķ½ ì´Ī
ĠìĻ¸ ê²¬
ĠíĶĦë¡ľ íħį
Ġíĥľ ìĿ¼
Ġë§Īëĭ¤ ëĿ¼
Ġìľ¡ ìĪĺ
Ġê²°ìłķ ëł¥
ĠëĶ± ì§Ģ
Ġêµ³ ê±´
å¤ «
ĠíĨµíĭĢ ìĸ´
olog y
Ġë¦¬ìĸ¼ë¦¬ íĭ°
ìłĦëįĶ ë¦¬
E E
f l
¥ ½
ìĿ´ ìĥģ
Ġëª¨ íĭ°
Ġìŀ¥ íĻĶ
Ġì°¨ ìļ°
ë¶Ģ ì¡±
ĠìĽĲ ìĤ¬
er al
ë§¤ ë§¤
ĠëĶĶ íı´íĬ¸
Ġë¬¼ ìĸ´ëľ¯
ì²ĺ ìĬ¤
ĠO O
Ġì¼Ģ ìĬ¤
ĠìĨĶ ëŀŃ
Ġê²¬ ê³ł
ìĺ¬ ë¡ľ
ĠNC R
ä¹ Ł
Ġëŀ¨ ì§Ģ
Ġì¹´ìļ´íĬ¸ ëĭ¤ìļ´
Ġì£¼ë¦ Ħ
ĠìĿ´ë²ł ë¦¬ìķĦ
± ìĿ´
Ġê¸° ì¡°
Ġìłľ ëł¨
ĠìĽĲ ê°Ģ
Ġê°ķ ëł¹
Ġê³µê²© ì§Ħ
ĠìłĦì ľĦ
Ġë§¤ íĬľ
ĠìĦ¤ ë¦¬
Ġì§ģ ê¸ī
Ġìĺ¬ ë§ĪìĿ´íĬ¸
Ġì²Ń ê°ģ
Ġ16 3
Ġì»¨ íħĲ
ĠìĿµ ìĤ¬
Ġëģ¼ ìĸ
ĠìĿ´íĥĪ ë¦¬ìķĦìĸ´
Ġê²°ìĬ¹ íĥĢ
ĠIn t
Ġëŀĺ ë¦¬
åı ²
ĠíĹ¤ìĿ´ ìĦ¸ìĿ´
Ġìľ¨ë¦¬ ìļ°ìĬ¤
ĠìĿ´ìĨĮë £¡
Ġìĳ¤ ìĭľ
âĸ¡ âĸ¡
ê·¸ëĵľëĿ¼ ìĭ¤
ĠëıĦ ì§ĢìĤ¬
Ġë¬´ íĪ¬
ĠíĥĢ ê¹ĥ
Ġê°ľ ë¦¬
Ġë¦¬ íŀĪ
Ġë³´ìĿ´ ëĵľ
ĠìĦľ ìŀ¬
ĠS al
Ġ19 26
íĪ¬ ìķĦëĭĪìķĦ
Ġìļ© ìĻķ
Ġì¸ Ħì
Ġæ İ
ĠíĶĦë¦¬ ëŀľìĦľ
ĠìħĢ ì¹´
ĠëĶĶìĬ¤ ì½Ķ
Ġíĳ¸ë Ķ©
ĠìľłíĤ¤ ë¬´ëĿ¼
ĠìĻĢìĿ´ íĮĮìĿ´
Ġê¹Ģìľł ìĭł
Ġìĭľë°ľ ìłĲ
Ġë³¼íĶĦ ê°ķ
ĠìĪĺ ëĭ¹
Ġê²Į ìĿ¼
Ġë¶Ģ ëĶĶ
Ġìľł íĿ¥
Ġì¡° ëıĻ
Ġì¡° ëģ¼
ĠìĦł ì·¨
ĠìĦľ ê²½
ĠìłĦì ¡°
Ġë§Īë ıĻ
ĠíĥĢìĿ´ ìĻĦ
íĶĦë łĪìĿ´
ĠJ C
Ġê°Ī ë§Ŀ
Ġë§Īë¦¬ ì¹´
Ġíį¼ ìĬ¤
ĠíĴį ë¯¸
ĠíĥĪëĿ½ ìŀĲ
Ġê¹Įë °ľë¦¬
åĪ Ĩ
Ġìļ± ìĿ¼ê¸°
íĥĢìļ° ë¡ľìĬ¤
íŀĪë į°
Ġê³ł íķĺ
ĠëĤĺ ì§Ģ
ĠìĪĺ íĶĦ
Ġêµ ī
Ġê·¸ íķ´
Ġìłģ ëĤĺëĿ¼
Ġë¶Ģ íĶ¼
Ġê²½ ìĤ°
Ġêµ¬ ëĿ¼
Ġì¹´ íĥ
Ġ19 25
ĠN XT
Ġë²ķ ëł¹
en g
ĠëĿ¼ìĿ´ íĨł
ĠíŀĪë¡ľ ìľłíĤ¤
ĠìķĪìłķ ê°Ĳ
Ġìĺµ ìłĢ
Ġë¹Ļ ê²°
Ġìħĭ ìĩ¼ë§Īë£¨
ĠìĤ´ìĿ¸ ìŀĲ
ĠìĬ¤íĨ ±
ê³Ħì Ĥ¬
ëĸ ł
ĠæŃ »
Ġì§ģìŀ¥ ìĿ¸
åĮ ĸ
ĠìŃ Ī
ĠìĿ´íģ´ ë¦½ìĬ¤
Ġëģ¼ìĸ ¹
è Ģ
Ġê³ł êµ°
Ġìĭľ ìľĦëĮĢ
Ġë§Ī ëłĪ
Ġì¡° ë§Į
Ġìŀ¥ ëł¤
Ġêµ¬ ìļ¸
ĠíķĻ ìļ°
ĠìĦ¤ ëĤł
ĠëĭĪ ì§Ģ
Ġê±´ ëĭ¬
Ġë¹Ħë ĮĢ
ĠH ow
Ġt w
ĠëĤĺê°Ģ ìĤ¬íĤ¤
ĠíĻ© ìĥī
Ġìľ¡ ìķĦ
ĠëĵľëŁ¬ ë¨¸
ul a
ĠëıĮë °ľ
Ġë¯¸ìķ¼ ì½Ķ
ĠíĬ¸ë¡¤ ë§ģ
ĠìĤ¬ìļ° ë¡ł
Ġì¢ħë¡ľ êµ¬
ĠìĨĮíĶĦ íĬ¸ë
Ġì¹´íĬ¸ë¦¬ ì§Ģ
Ĩ Ĵ
ĠìĹĲ ë¦¬ìĸ´
Ġê°Ģ ëª¨
ĠìĪĺ ëĳĲ
ĠíĶ Įë¦°
ĠëĤ´ íı¬
Ġë°Ķ ëĭĪ
ĠìķĦ ëĭ¤
ĠìĦł ëĭ¨
ĠìĦł êµĲìĤ¬
Ġêµ¬ ë£¨
ĠìĹ° íĸī
ë¹Ħ ê²Į
ĠìķĦì ½Ķ
ĠíĪ¬ íĺ¼
ĠR h
Ġë°Ģ ìĪĺ
Ġê³§ ìŀĺ
Ġê³µíı¬ ì¦Ŀ
ĠìĹ°ìŀ¥ ìĦł
Ġë¯¸ìĬ¤ íĭ±
ĠìļĶë¥´ ëĭ¨
ĠìĪĺìĭĿ ìĸ´
ĠìĬ¤íĶ¼ë¦¬ ì¸ł
ĠìłľëĦĪë Ł´
Ġë¡ľ ìŀĲ
ë§ ĮëıĦ
Ġê³µ ìĥĿ
Ġê³µ ìĸĳ
Ġìľł íĮĮ
Ġìľł ë¦¬ì¹´
Ġìľł ìĨĮëħĦ
Ġìĥ ¨
Ġë©Ķ ê¸°
ëª¨ íķ¨
ĠíĨł ëıĦ
ĠìĹ´ ë¦°
ĠëłĪìĿ´ ìĦľ
Ġíĭ° ìķĦëĿ¼
Ġd own
Ġìłķìĭł ë³ĳ
ĠìĽĮ íİĺìĸ´
ë§Īë ķħ
ch er
ĠìĺĪë £¨
ĠëĮĢìĽĲ ë°©ìĨ¡
ĠëĭĪì½ľë Ŀ¼ìĬ¤
Ġê²©ëĤ© ê³ł
Ġë° ĭ
Ġìĭľ ìļ°
Ġìĭľ ì¹łë¦¬ìķĦ
ĠìĪĺ ëłĪ
ĠìķĦë ĶĶ
ìĥģ ë¶Ģ
ìķĦ íĬ¸
Ġì¹´ ì¦Īë¯¸
Ġë¹Ħ ìļĺ
Ġì´Ī ê³Ħ
ĠìķĦìĿ´ ë¦¬
ĠìĹ´ ìĦ±
ĠëģĿ ë§Īì¹ĺ
ìĤ´ ëłĺ
ĠìķĦë¬´ ë¡ľ
ĠìĬĪ ë¦¬
Ġ17 1
Ġìķ¡ íĬ¸
¨¸ ìĭł
Ġì¼ĢìĿ´ íĥĢ
Ġì¹´ìĿ´ ë°Ķ
Ġëª½ íĻĺ
Ġêµ¬ë§¤ ìŀĲ
ĠìĪĺíķĻ ìĹ¬íĸī
¹Ħì ĸ´
¹Ħì ĹŃ
ĠìĹ°ëł¹ ëĮĢ
Ġëª¨ë¡ľ ì½Ķ
Ġéģ ĵ
Ġìļ°ìļ¸ ì¦Ŀ
Ġêµ¬ìĬ¤íĥĢ íĶĦ
Ġê¸¸ê°Ģë©Ķ ìī¬
ĠìĹĲ íĶĦ
Ġê² Įëĵł
ĠìĿĢ ì´Ŀ
ĠìĤ¬ ì¶ĺê¸°
Ġìĭľ ë²łë¦¬ìķĦ
ĠìŀĲ ê¶ģ
Ġì¹ µ
ìĪĺ ìłĢ
Ġë§Į ìĹ°
Ġìľł ê¶ĮìŀĲ
ë§Ī ëĭĪ
Ġë¦¬ ë¹ĦìķĦ
ëĭ¹ ê¸°
Ġìµľ ëĭ¨
ĠíķĻ ë²Į
ì½Ķ ìļ°
ĠëĴ¤ ì«ĵ
ĠëłĪ ê¸°
Ġå ĭ
Ġë¿ ħ
ê°Ĳ ìłķ
Ġì²ł ìĽĲ
Ġì§Ģê¸Ī ê»ı
ĠìŀĶ ìŀĶ
ĠíĬ¸ë¦¬ ëĭĪíĭ°
ĠëłĪìĿ¸ ìłĢìĬ¤
ĠìĻ¸êµĲ ê´Ģ
Ġ77 7
ëĤĺë¥´ ëıĦ
ĠëıĮëł¤ ë°Ľ
ĠëıĦ ë¯¸ë
íķĺ ë¥´
ìĭľ ë¥´
ĠìĿ¼ ì¹¨
ë¯¸ ìĤ¬
ë¶Ģ ìŀ¥
Ġì¹´ íĥĢë¦¬
ì¹´ ëıĦ
Ġì¶Ķ ìķĻ
ĠìĬ ĪìĿ´ì¹ĺ
ĠëıĮ ê³łëŀĺ
ĠB MS
ĠëĶĶ ëŁŃìĬ¤
ĠR B
en se
ëĿ½ ìĬ¤
Ġ14 2
Ġëª° ëĳĲ
Ġ22 1
Ġìĺ¥ ìĪĺìĪĺ
Ġg ood
Ġì¹ĺìļ° ì¹ĺ
ord s
ì¹¼ë¦¬ ë²Ħ
ĠìŀĲìĦľ ìłĦ
ĠìĪĺ êµĲ
Ġì£¼ ì¶¤
ĠìĿ¸ íĦ´
ĠëĿ¼ë ¬´
Ġìŀĳ ìŀĲ
ĠL S
ĠìĨĲ ì§Ī
ĠìĬ¤í į¼
ê·¸ë ĦĪ
ar m
Ġíķ© ìĪĻ
Ġë§Ŀ ìĸ¸
Ġë°ĶìĿ´ íį¼
Ġë¶ĢìĹ¬ ìĿį
ë¹Ļ ê¸Ģ
Ġì¹´ë¥´ íħĶ
Ġëĭ¤ìĿ´ëĤĺ ë¯¹
Ġìĭ¬ë¶Ģ ë¦Ħ
è «
Ġíķĺ êµĲ
Ġì§Ģ ì½Ķ
ĠìĪĺ ìĻĦ
ìĺ¤ ìĺ¤
ĠìĦ± ìĭł
Ġìĭł íĨµ
Ġë°ľ ê¸°
ĠëĤ¨ ìļ°
Ġì¹ĺ ìĹĲ
Ġìŀ¬ ëł¥
ĠA re
ĠëĭĪ ì½ľëĿ¼
ĠT em
Ġê°Ħ ìĿ´
ê°Ĳ ëıħ
Ġ18 6
Ġ25 5
Ġìĩ Ħ
Ġè ī
ĠìĪĻ ìłģ
Ġëį¤ ë¸Ķ
ĠëıĻë§¹ êµ°
ers on
ĠíĪ °
ĠDJ MAX
ĠíıĲê¸° ë¬¼
ĠìķĦëŀį ìĸ´
ìį ¬
ĠíĶĮë£¨ íĨł
ĠìĥĺíĶĮ ë§ģ
Ġíį¼ë¸Ķ ë¦¬
I VE
Ġíķĺ ì²´
Ġë³´ ìľ¡
Ġì£¼ ì§Ģ
Ġìłķ ìĤ°
íĻĶ íķĻ
Ġìĭł ìķ¼
Ġìĭł ìĿĺ
Ġëªħ ìłĪ
Ġê±´ íĭĢ
Ġìķŀ ëĭ¹ê¸°
ĠìĨ¡ ì°½
ıĪ ëĤĺ
ĠìĥĮë ĵľë°±
ĠìĿ´ìľ¤ ìĹ´
Ġë¹ĦíĤ¤ ëĭĪ
ĠìĦ¸ë°Ķ ìĬ¤
c om
m y
ĠìĿ´ ë¶ĢíĤ¤
ĠìĻ ¼ë°ľ
Ġì¡° ë¡Ģ
ĠìķĪ ì°©
Ġë¯¸ ìĨĮëħĦ
Ġëª» ë§Īëķħ
Ġë§¤ ìĤ¬
Ġë³µ ê°ģ
ª¨ íĬ¸
ëĵľë Ł°
Ġì§ĢìĽĲ ìŀĲ
Ġìľ¡ íĥĦ
Ġãĥ ĳ
Ġãĥ Ĵ
Ġì¹ł ìĦ±
Ġë¿Įë¦¬ ì¹ĺ
ĠAT P
Ġíģ´ëĿ¼ íģ¬
Ġíķĺíķĺ íķĺ
c al
ĠìĿĺ ê¸°
Ġê·¸ ì¤ĳ
Ġìļ ĺ
Ġì§ Ń
Ġìłľ ì²ľ
ìķĦ ìŀħ
Ġë¦¬ ë²Ħë
ĠìĦľ ìĭł
Ġë¶Ī ìĭľ
Ġê°Ĳ ì°°
ĠT L
Ġë³¸ ìłĲ
ĠíĨł ìĤ¬
ĠìĻ¸ ì£¼
ĠE E
ìķĦì ¸ł
Ġë£Į ì½Ķ
Ġìĭ¹ ìĵ¸ìĿ´
ĠíĥĢì¸ł ìķ¼
Ġãģķ ãĤĵ
Ġíģ¬ëĿ¼ìĿ´ ìĭľìĬ¤
ĠPer f
Ġíİĺë¥´ëĶĶ ëĤľëĵľ
ĠíŀĮë ĳĲ
Ġê°Ģ ìĥ¤
ìł Īë
íĤ¤ íĥĢ
ĠìĹ¬ ìłľ
Ġì°¨ ì°¨
Ġìĭ¤ ë¡Ģ
íĨł ëª¨
ĠìļĶ ìłĪ
íĺ¸ ìĭľ
Ġêµ° ì²Ń
Ġì¢ħ íĮĮ
ĠìķĦìĿ´ ìłł
Ġì²´ ìĿ´ìĬ¤
Ġìŀ¡ ëĭ´
ĠíķľêµŃ ìĭĿ
Ġëħ¸ë ³´
Ġë¶ķ ìĸ´
ĠìķĦë¦¬ ë§Ī
Ġê¹¡ íĨµ
Ġê³µê³µ ìĹ°
ë¶Ħë ĭ¹
Ġì¡°ëĤĺ ëĭ¨
ëļľ ê¸°
ĠìĬ¤ë²ł ëĪĦ
Ġëĵ£ë³´ ìŀ¡
O X
W C
Ġëĭ¤ ìĿ¸
Ġëĭ¤ ë°©
ê°Ģ íķĺëĿ¼
Ġëª¨ íķĺ
ĠìķĦë ¡ľ
Ġë°Ķ ìĿ´íĬ¸
ì²´ ìĸ´
ĠìĿ¼ë ©´
Ġë²Ī ìĦ±
ĠíĮĮ íĹ¤ì¹ĺ
Ġì¶Ķ íĥľ
Ġêµ° ìŀ¥
in ce
Ġãģ µ
ëıħ ìĿ¼
ĠJ ack
ĠìĿ´ì¹ĺ ì¹´
ãĥ¼ãĥ ł
ç¾ ħ
Ġê°ģë³¸ ê°Ģ
ĠìĬ¬ë¡ľ ê±´
ĠìłķêµĲ íļĮ
Ġæī ĭ
ĠìĦ¸ì¸ł ëĤĺ
Ġì¿łìĤ¬ ëĤĺê¸°
Ġë¹Ļê¸Ģ ë¹Ļê¸Ģ
å ł´
Ġìłķ ë°ķ
Ġëª¨ ì¹ĺ
Ġê³µ íĮĲ
ê²Į ì¸ł
Ġìŀ¥ ìĺģ
Ġêµ¬ ëį©ìĿ´
ĠìĦľ ìĿ¸
Ġíĺ¸ ì¡±
ĠI f
Ġì²Ń ìĸĳ
Ġ17 9
ĠìĹĺ ëŁ°
Ġíĭ° ëª¨
Ġíĭ° íĥĦ
ãĥ¼ ãĤ¹
Ġë§ĪëıĦ ìĦľ
ĠìĽĲìŀĲ ë¡ľ
Ġë§Īìĺ¤ ì©
Ġë¶ĦëĮĢ ìŀ¥
ĠSU P
Ġíīģ íīģ
B Y
T he
k i
l a
Ġê³ł ì¸µ
ĠëıĦ ë´ī
Ġìłķ ê´Ģ
ĠìĬ¤ íĮ¨
ĠìĬ¤ ìľĦì
Ġìĭł ëħĦ
ĠìķĪ íĮ
Ġëĭ¨ ê³¼
Ġê´Ģ ìĦ¸
Ġìµľ íķĺ
Ġ19 18
ĠG AME
ĠëĬĲ ìĻĢë¥´
Ġíķľë į°
ìĤ ¼ë
Ġëŀľë Ķ©
ĠíĮ½ ì°½
ĠíĮ½ íĮ½
ĠëıĦìļ° ë¯¸
Ġë©Ķêµ¬ ë°į
ĠTW ICE
ĠìĨ¡ê³³ ëĭĪ
Ġìĸ´ìį° íĬ¸
Ġê³łêµ° ë¶ĦíĪ¬
c on
g g
i ence
s m
ĩ ł
ê· ľë
Ġë°Ķ ìļ´
Ġëĭ¹ íķ´
Ġêµ° ëıĦ
Ġíĺ¸ ì¡°
ĠíĺĦ ìĦ¸
ĠìĬ¤í ĳ
or g
Ġì¿ł ë¯¸ì½Ķ
Ġç Į
ëĤ¨ ë¯¸
ĠãĤ ĵ
id d
Ġë¹Ī ìĬ¤
Ġëį°ìĬ¤ ëħ¸íĬ¸
ĠíĬ¸ëłĪìĿ´ ìĦľ
Ġë©¸ ìĭľ
Ġì¶ľìŀħ ë¬¸
Ġêµµ ì§ģ
ĠèĪ Ĭ
ĠìĺĪë£¨ ìĤ´ëłĺ
è ¾
é Į
ĠìĹ ¡
Ġê±° íĸī
Ġê·¸ë Ĭĺ
Ġë¬´ ìłľ
ë¯¸ íĭ°ëĵľ
Ġë°ľ íı¬
Ġíķ´ ë°Ģ
Ġíģ¬ ëłĪìĿ¸
Ġíĺ¸ ìłģ
ë§¤ ê¹Ģ
ĠF ly
ĠìĭĿ ìŀ¬ë£Į
ë³ĳ ìłĦ
ĠìŀĲë¦¬ ë§¤ê¹Ģ
ĠíħĮë ĶĶ
ĠíĻľìļ© ëıĦ
ĠìĿ´íķ´ ëıĦ
Ġæľ Ģ
ĠGre at
ĠGre en
Ġì§Ħìŀĳ ìĹĲ
Ġíķĺ ì¸µ
ë¦¬ ì¦ĺ
ë§ Īë²ķ
ê³ł ë©Ķ
ì¦ ī
Ġë°Ķ ë²¨
ĠìĻķ ì§ķ
ëĵ¤ ëŁ¬
ĠN ow
Ġê·¼ ì¹ľ
ħ¸ íĬ¸
ë¸Įë ¡ł
OR A
Ġì¹´ëĤĺ ë©Ķ
Ġê¹Ģì¤Ģ íĺ¸
ĠíĭĢìĸ´ ë°ķíŀĪ
Ġê·¸ëŀľ íĬ¸
Ġìĺ¤íĶ¼ ìħľ
Ġë§ĿìĽĲ ê²½
H A
ç ¸
Ġ att
ĠìĿ´ ìĭł
Ġê³ł ê¸Ģ
Ġë§Ī ìĦ±
ĠìľĦ ìķķ
Ġìĭł ë£¡
ĠìĹŃ ìŀ¥
íĨł ëĭĪìķĦ
ĠêµĲ ì§ģìĽĲ
Ġì°¸ ìĭł
Ġê¹Ģ ë¶Ģ
ĠíĮĲ ë°ķìĿ´
ĠìĻ¸ ê³¼
Ġë¬¼ ê²°
ëĿ¼ë Ĥĺ
Ġì¹ľ ìĪĻ
Ġ14 7
°© ìĨ¡
ë¦¬ìĸ´ ìĬ¤
Ġê²¨ ìŀĲ
ë¬ ¸ëĮĢ
ë¹Ħì ħĺ
ort e
ĠâĶ Ĥ
ĠíķĺëĿ½ ìĦ¸
ĠìĤ¬ì¹´ ëª¨íĨł
å¸ «
Ġãģĵ ãģ®
çĽ ®
ĠìķĪíĮ İ
ĠìĿĢ íıī
ĠëıĦ ìĤ°
Ġëł ĮëįĶ
Ġì°¨ ì¸°
Ġìĭł ëħ¸ìĬ¤ì¼Ģ
ìŀ¬ ëĭ¨
Ġë°ľ ìŀĲêµŃ
ĠìĹŃ íķĻ
Ġíıī ìĿĺíļĮ
íı¬ ëıĻ
Ġë³¸ ìĹħ
ĠF irst
ĠìĨĮë ¹ĦìĹĲ
Ġê¸Ī ëĭ¨
ê°ķ íķĺ
ì½ ľë¡ľ
ĠãĤ Ĩ
ĠíıĲ ìľĦ
ĠëıħìĿ¼ ìĿ¸
200 6
ĠíĨłëª¨ ìĹĲ
ĠCl ub
ĠìĥĲëŁ¬ ëĵľ
ĠìĿ´ëĿ¼ë įĺ
Ġè¨ Ģ
Ġì»¤ë®¤ëĭĪ ì¼ĢìĿ´ìħĺ
Ġê°Ģ ìļ°ìĬ¤
Ġê¸° ê³µ
Ġëį ¸ë¦¬
ìĤ¬ ì§Ħ
Ġë¬´ ê³¼
Ġì¡° ëł¨
ĠìķĦì ĨĮ
ìĺģ êµŃ
ĠëĭĪ ìķĦ
ĠT C
Ġ18 4
Ġëĭ´ ìŀ¥
Ġì¿ł ëłĪ
Ġë¸Įë ĭĪìĹĺ
Ġç ļ
es e
ĠíĮĮíĭ° ë§Ī
Ġëį© ìĿ´
Ġìĺ¤ìĺ¤ ì¿ł
ĠëĮĢëĮĢ ìŀ¥
ĠíĶĦë¦° íĦ°
Ġëľ¬ ê³µ
ĠëįĶëŁ½ íŀĪ
Ġë¦¬ë¯¸ íĬ¸
ĠíĮ° ë¦¬ìĬ¤
ĠíĮĮìļ° ìĬ¤íĬ¸
i ed
ìŀ ĦìĥĪ
Ġì§Ģ ëŀµ
Ġìĭľ ìĬ¤íĦ°
ìĨ ¥
Ġíı¬ ë°ķ
ĠíĽ Īë
Ġìķ½ ìĤ¬
Ġëıħ ìĦ±
Ġë°± ë³ĳìłĦ
Ġt er
Ġ18 1
Ġë´ī ì§Ģ
íĶĮ ë¦°
ìĹĺ íĶĦ
ìĵ° ê¸°
Ġì¹´ëĤĺ ëį°
Ġìĺ¤ëĿ¼ íģ´
íĢĺ ìĬ¤íĬ¸
èı ¯
Ĺ Ķ
íķĺ íĬ¸
ìĭł ë£Į
íĻĶ ë¬¼
ĠìĽĲ ëĤĺëĿ¼
Ġê°ķ ìķķ
Ġë¦¬ ì½ľ
ĠíĮĮ ìĬ¤íĥĢ
ĠëĤ¨ ìķĦíĶĦë¦¬ì¹´
ãģ İ
ĠP ass
Ġìĸĳ ë³µ
Ġëħ¸ë ħĦ
ĠëŁ¬ íĶĦ
Ġì´Īë ıĻ
ì£¼ë ĭĪìĸ´
Ġëį± ìĿĦ
Ġê» Į
Ġë¯¸ì¹´ ìĤ¬
ĠìīĲ ë³´ëłĪ
Ġìĸ´ë²¤ ìłĢ
ĠíĬ¸ë£¨ íį¼
ĠëĤ¨ìĸĳ ì£¼
ĠSwe et
Ġê²Įìľ ¼ë¥´
v a
ĠìĿ´ íĻį
ìĸ´ ëĵľ
Ġê³µ ì§ģìŀĲ
Ġã ĥģ
Ġë¦¬ íĪ¬ìķĦëĭĪìķĦ
ĠìĹŃ ë¶Ģì¡±
ĠD irect
Ġì²ľ ìĦ±
Ġìĭ¸ ê·¸ë¦¬
ìĻĢ íĬ¸
Ġë¯¼ ìĨį
Ġê²°ìłķ íĥĢ
ĠìĪł ëŀĺ
Ġëĵľëŀĺê³¤ ì¦Ī
ĠíĥĦì Īĺ
Ġë²Ħë Ĥĺ
ĠëĩĮ ê²©
äº ¬
Ġíį¼ë łĪìĿ´ëĵľ
Ġë³Ģíĺ¸ ìĿ¸
ìľĦë ³ĳ
çļ ĩ
Ġìĺ¤ìĤ¬ ë¬´
Ġë¥´ëĦ¤ ìĥģìĬ¤
ë¶Ħëĭ¹ ìĦł
l ine
å ĸ
Ġê¸° ìķĦìĬ¤
ĠëĤĺ ìķ½
ĠìĿ¸ ìľĦ
Ġë¯¸ íĸī
Ġë°ĺ ê³µ
ĠëĳĲ ìĸ´
ĠìķĦì ¦
Ġê¹Ģ ìŀ¥
ĠT B
ĠP et
Ġ15 9
ĠíĹĪ ëĭĪ
Ġé ļ
íĶ¼ë ĶĶìķĦ
ĠRe p
Ġê¸į ì§Ģ
ĠTr ans
ĠëĶĶë°Ķ ìĿ´ìĬ¤
ĠìŁĪ ëĭĪ
Ġê¹Ģê´ĳ íĺĦ
Ġìĺ¤ìŀ¬ ìĽĲ
ĠNAS A
Î ±
Ġëĭ¤ ê¸ī
Ġë¡ľ ìĿ´ìĬ¤
Ġëĵ¤ ëŁ¬
Ġëª¨ ìĦł
Ġë§Ĳ ë²Ħë¦ĩ
ë¯¸ ì¹ĺ
ĠìĹ° ëĳĲ
Ġê°ķ íĺ¸ëıĻ
Ġë¯¸ ìĬ¤íĭ°
Ġë²Ī ìķĪ
Ġì½Ķ íĶ¼
Ġê¹Ģ ìĭł
ĠìĤ´ ëĿ¼
ar g
Ġm A
Ġê³¨ ë¨¸ë¦¬
Ġì§Ī íĥĢ
ĠíĥĦì Ĥ°
ĠIn ter
Ġê³µëŀµ ë²ķ
ĠëĤĺì¹´ ëħ¸
ĠíĥĲì§Ģ ê¸°
ĠãĦ ¹
Ġìĭľê·¸ë ĦĲ
ĠìĮįë°© ìļ¸
ĠëıĦì¿ ĦëıĦ
ĠìĦ£ ë¶Īë¦¬
è µ
ĠìĿĢ ëĳĶ
ĠëıĦ íķĺ
Ġ20 4
ĠìĹ¬ ëĮĢ
Ġë§Ĳ ëĿ¼
Ġë°© ìĪĺ
ìŀ¬ ì£¼
Ġíķ´ íĺĳ
Ġìļ° íĪ¬
Ġ19 17
Ġë²ł ë¥¸
Ġìľ¡ ìĤ¬
Ġìľłë¦¬ ì°½
ë§Īë Ŀ¼
ãĤ¤ ãĥ³
ĠSh ow
ĠìĬ¤ì¼Ģ ìĿ´íĬ¸
ĠìĻ¸ë¶Ģ ìĿ¸
ê¿ į
Ġëª¨ëª¨ ì¹´
Ġíģ¬ëŀĺ ìĭľ
u it
v es
ł Ĳ
ìĿ´ ìļ©
ëĭ¤ ëĿ¼
ê³ł ì¶Ķ
êµŃ ëĤ´
ìĭł ìĪĺ
Ġì°¨ ì§Ī
ĠìĨĮ ìĬ¤ì¼Ģ
Ġíı¬ ì¸
Ġë¯ Ģ
ĠêµĲ íı¬
Ġë£¨ ëıĮíĶĦ
Ġìŀł ìŀł
Ġì¿ł íİĺ
ĠíĥĢìĿ´ ë²łìĿ´
Ġì»´ íĶĮëłīìĬ¤
ë¹Ħì ĺ¤
Ġë§Īë¥´ íĭ°
ä¸ »
Ġì¹ĺë£Į ìłľ
ĠìĽĲìłķ ëĮĢ
ĠAr c
our s
Ġê°Īë ¹Ħ
Ġå¹ ³
Ġë³¼ëĵľ ì²´
w ork
ëĭ¤ ë¥¸
ìĬ¤ íĨ¤
Ġë²Ħ íķı
Ġë¯¸ íĨł
Ġë°ľ íļ¨
ĠìłĢ ìĪĺ
íĬ¸ë ¥´
ĠìĤ¬ìĿ´ ëłĮ
Ġìłľë ģ¼
ĠíĤ¤ ë¬´ëĿ¼
ĠìĹ´ ê°ķ
ĠíĶĦë¡ľ íı¬
ª¨ ëį¸
ê¶ Ĥ
ĠJ ap
Ġë³¸ë ľ¨
Ġë¥ĺ ëħ¸ìĬ¤ì¼Ģ
Ġíģ¬ë¦¬ìĬ¤ íĭ°ëĤĺ
ĠëĮĢìŀ¥ ê°Ħ
ĠìĬ¤ì½Ķìĸ´ ë§ģ
ĠAT M
ĠìĿ¼ìĿ¼ íŀĪ
Ġëª©ìļķ íĥķ
æĥ ³
ìĤ¬ê´Ģ íķĻêµĲ
Ġëħ¸ê¸° ìŀĲì¹´
ìł ľëıĦ
Ġë¡ľ ì§Ģ
ĠìłĲ íĻĶ
Ġì¶ľ ì§Ħ
ĠíĶ¼ ìķĦëĭĪ
ãĤ ½
ĠìĻķ ì°½
ĠëĦ¤ ìĬ¤
ì»¤ ë²Ħë¦¬
Ġì´Īë °¥
ìĿ¸ë ĵ¤
ĠêµŃëĤ´ ìĻ¸
ĠíĮ¨ëŁ¬ ëıħìĬ¤
op le
Ġê¸Īë ¹Ľ
Ġìĺ¤ì¹´ ëĭ¤
æī Ģ
ĠìĨĮëĤĺ ë¬´
Ġë¶Īìĥģ ìĤ¬
ìĹ°êµ¬ ìĽĲ
Ġìĭłëĵľë °Ķëĵľ
Ġìĸ¸ë¦¬ ë¯¸íĭ°ëĵľ
Ġë³´ ì¿ł
Ġë§Ī ê°ľ
ëį° ìļ°ìĬ¤
ĠìłĦì ´Ī
Ġì¶ľ ìĨĮ
Ġìłľë ħ¸ë
ĠíĻ© ìŀ¬
Ġë¶ģ ìķĦíĶĦë¦¬ì¹´
ĠíĮĮë ŀĢ
Ġê°ĸ ê°Ģì§Ģ
Ġíķľë °Ķ
Ġìķķ ëĳĺ
Ġp re
ER T
Ġìĭľíĭ° ì¦Į
Ġãħ ħ
ĠíĹ¤ëĵľ íı°
¹Ħì ¹ĺ
aw n
Ġë°ľëłĮ ìĭľìķĦ
åĽ Ľ
ĠíĥĢìŀĦë ¨¸ìĭł
ĠìĽĲëıĻ ëł¥
Ġíķľê²¨ ëłĪ
Ġíķĺ ìĦ¸
ĠìĪĺ íĳľ
Ġë¶Ģ ìĹŃ
Ġì¤ĳ íĩ´
ĠìĥĿ ìĭĿ
ëĭĪ ìĸ¸
Ġê°ķ ìłķ
ëĦ ĵ
Ġì½Ķ ë§ĮëıĦ
Ġì¢ħ ë°ĺ
ĠR oy
Ġëĥ Ħë¹Ħ
Ġíĺ¸ë ¨¸
Ġï ¾
Ġì¶ķêµ¬ ëĭ¨
Ġë¬´ë¦¬ ëī´
Ġë°¸ë Ł°
ĠíĪ¬ìŀĲ ìŀĲ
Ġíĳľë ²Ķ
Ġìĸ¼ë ¥¸
o id
Ġëĭ¤ ëĭ¨
ë¦¬ ìĸ¸
Ġì§Ģ ëĦ¤
Ġìĭł íĥľ
ĠìķĮ ìłľë¦¬
Ġìŀ¬ íİ¸
ĠB P
ì¸ł ëĦ¤
Ġëħ¸ ìĤ¬
ĠL ike
ĠìĿ¸ë ĮĢ
ì¼Ģ ìĿ´íĬ¸
ì¼Ģ ìĿ´ìĬ¤
ĠíĹĪ ëĭ¹
ĠY es
Ġê²½ê³Ħ ìĦł
åħ ĥ
ĠìŁ Ŀ
Ġë°Ķê¹¥ ìª½
Ġì§ĪíĪ¬ ìĭ¬
Ġìłķê·¼ ìļ°
ç ¿
Ġë ¤¼
Ġê¸° ê³Ħì
ìķ ĺ
Ħì Ĺĺ
Ġìĭľ ë¬´
ĠìĪĺ ë§Į
ĠìĪĺ íį¼
ĠìŀĲ ë¯¼ëĭ¹
Ġìĺ¤ ìĨĮ
ĠìĽ ĮëłĮ
ìĺ¤ ë¯¸
Ġë§Ĳ ìį½
ĠíĻĶ ìĿĺ
ĠM OM
ĠM OD
ĠìĪľ íķĺ
Ġë¬¼ ìĿĺ
ĠE sp
ĠëĿ¼ìĿ´ íģ¬
Ġê´´ ë¢°
Ġê°Ī ìķĦìŀħ
Ġãĥ ¡
Ġìĭłê²½ ìłĦ
Ġì°©ìļ© ìŀĲ
Ġê²ģ ë¨¹
ê³łë¦¬ ì¦ĺ
Ġë§Īì¼Ģ ëıĦëĭĪìķĦ
ĠPR O
ĠìłĦìĤ° ë§Ŀ
ĠìĸĳìĿĺ ì§Ģ
Ġìĺ¤ëĳĲ ë§ī
Î ¿
Ī ľ
Ġê°Ģ ëłĮ
Ġê¸° ìĬ¤
íķĺ ìĬ¤
ĠìĹ° íľ´
Ġìĭł ë³Ģ
Ġã Ĥ¬
ìĬ¹ ë¶Ģ
Ġê·¸ëŁ¬ íķĺ
20 20
ĠíĮĶ ëĭ¤ë¦¬
Ġ17 4
ĠJ G
Ġì¿ ¼ëĵľ
Ġp t
Ġëķħ êµ´
ĠìĤ¬ë¬´ ìĹĺ
ĠìĤ¬ë¬´ ì´Ŀìŀ¥
ĠìŀŃ ìĬ¤
Ġìĺ¤ìĬ¤ íĭ´
ĠìĿĳìĽĲ ëĭ¨
ĠìłľìĿ´ ì½¥
íĶĮëłĪìĿ´ ìĸ´
Ġì½ľë¡ľ ëĿ¼ëıĦ
ĠìłĿ ìĬ¤íĤ¤ìĬ¤
Ġëªħìĭ¤ ìĥģë¶Ģ
ëĭĪë©Ķ ìĿ´ìħĺ
ĠìĿ¸íİĺë¥´ ëħ¸
Ø §
Ĵ ĥ
ĠìĿ´ ëĦĪ
Ġíķĺ ì²ľ
ĠëıĦ ë§Ī
Ġë³´ ê¶Ĳ
ëĤĺ ìĿ´íĬ¸
ìĪĺ ìĹ¼
ìĭł ìłĢ
ĳĲ ê·¼
Ġìĭł ìĿĮ
Ġëªħ ìĥī
Ġíı¬ ìŀĲ
ìłĢ ê³³
Ġì½Ķ ìĭľ
ĠíĹ Ĳë¦¬
ĠìĿĮ ìĹŃ
ĠìĬ¹ íĿ¬
ĠìľĦì ¦Ī
Ġm ax
ìĿ¼ë ¹Ħ
re as
ĠìĶ¨ ë¦Ħ
Ġíı¬ì¼ĵ ìĬ¤
Ġâĺħ âĺħ
ĠìĬ¤íİĻ íĬ¸ëŁ¼
ĠíİĢ ëĵľ
ì§Ħì °½
ħ¸ë ¯¸ìķ¼
ĠìĿµìĬ¤ íĶĮë¡ľ
Ġë¬´ë²ķ ìŀĲ
æ ħ
ĸ ¨
Ġí ģ¼
ë¦¬ ìĹŃ
ìł Īë¡ľ
Ġìĭľ íķľ
ìĤ¬ ìŀ¥
ĠìķĦ ì§Ģë¥´
ĠíĥĢ ìĿ¼ëŁ¬
ìĿ¼ ìłĦìŁģ
ìĭĿ íĴĪ
Ġê´Ģ íĺĦìķħ
ĠìķĮ ê³łë¦¬ì¦ĺ
Ġìº Ħë
Ġë§¤ ëģĦëŁ½
ĠíĮĲ ìĦľ
ãĤ ħ
Ġ16 9
ĠáĨ¯ì§Ģ ìĸ¸ìłķ
ĠSt ri
ĠíĿī ë¶Ģ
ĠíħĲ íĬ¸
Ġë¦´ ëłĪìĿ´
ĠìķĦìĺ¤ íĤ¤
ĠìĤ¬ì¹´ íĤ¤
Ġì¢ħì°© ìĹŃ
ê°Ģ ì§Ĳ
Ġê²½ ìĽĲ
ĠìĦ± ìŀĲ
ĠëĤ´ ê³µ
ĠìľĦ ìŀĲëĵľ
íĨł íĤ¤
ĠìļĶ ìĬ¤ì¼Ģ
ì½Ķ ìĿ¸
ĠáĨ«ëį° ëĭ¤
Ġì¦Ŀ ì¶ķ
Ġ15 7
ìķĦë ¨¹
Ġê¸°ëĬ¥ ìĤ¬
Ġë§¥ ìĭľ
Ġê¸´ ê°Ģ
ĠìĿ´ê³³ ìłĢê³³
Ġë¬µ ìĿ¸
ëħ¸ìļ° ì¹ĺ
ĠCG V
ĠìĬ¬ë¡ľ ë°ĶíĤ¤ìķĦ
ĠìĥĪìłķì¹ĺ ë¯¼ì£¼ìĹ°íķ©
Ġë§¥ëıĦ ëĤłëĵľ
Ġìĳ¨ ìĽĲ
ëŃ Ħ
Ġë§Īìĺ¤ì© Įëĳ¥
Ġê¸° ê¸Ī
ëį ©
ĠìĦ± ìľł
ĠëĦ ĭ
ĠìĽĲ ìĦľ
Ġíģ¬ ëĤĺíģ¬
ĠìĦľ ì½Ķ
ĠìłĢ ìłĪë¡ľ
ĠìķĦìĿ´ ëĭ¤
Ġìĸĳ íĺĦì¢ħ
Ġìķħ ëĭ¨
ĠìĤ¼ ê°Ģ
Ġæ ¼
ĠU A
ĠíħĮ íĬ¸ë¦¬ìĬ¤
Ġëĭ¤ìĿ´ ë²Ħ
if ic
Ġ!!! !!
Ġìļ¸ìĤ° ê´ĳìĹŃìĭľ
ĠíĻĶìĦ± ìĭľ
Ġë°°ëĭ¬ ë¶Ģ
ì ¥´
ì ·Į
ĠìĪĺ ëłµ
Ġìĺ¤ ë¸Ĳ
ìļ© ìĤ¬
ĠìĦ± ë¶Ī
ë² ħìĬ¤
Ġë°ľ ëĭ¨
ëħ Ħë
ĠìĿĮ ìłĪ
ĠíĪ¬ ìĺģ
Ġìķħ ê·Ģ
ĠìĦ¸ë ¹Ħ
ĠìŀĲê¸° ìŀ¥
Ġíĸ¥ ìĭłë£Į
ĠìĦłë°ľ ì§Ħ
ë¹Ħì ĨĮ
ĵľë ª¨íĬ¸
Ġíķ©ìĦ± ìĪĺ
Ġì¹´ëĦ¤ íĤ¤
ĠæĢ Ŀ
Ġêµ¬ìĦ¸ ì£¼
s i
Ġëĵ± ëĮĢ
Ġíĺ¸ ê·¸
Ġë°ķ íĥľ
Ġëħ¸ë ¸Į
Ġë£¨ ë£¨
ĠìĤ¼ ì´ĿìĤ¬
Ġíĭ ¸
Ġë§Īë Ħ¤
ĠëĪĪ ìķĮ
ĠíĹ¤ ì¹ĺ
ìĿµ ìĬ¤
Ġì¡± ë³´
Ġê¹Ķ ë³´
íĮĶ ìĿ´
Ġê¸°ëħĲ ìĿ¼
âĨĵ âĨĻâĨĲ
enc y
Ġëĭ¤ ëĵł
ìĸ´ ìĸ´
ĠìĨĮ ê°ģ
Ġìµ ľëıĻ
ĠìĦľ ìĤ°
ĠìķĦì ĹĲ
Ġíĺķ ì£¼
íı¬ ì¼ĵ
Ġëħ¸ ìĩł
Ġìŀ¡ ìĿĮ
ĠF ight
Ġì²Ń ëĿ¼
Ġ16 6
ĠìĽĮ íķ´ë¨¸
ĠìŀĲìľł íĪ¬
Ġì§ĢëĭĪ ìĸ´ìĬ¤
ĠìĭłìĿ¸ ìĻķ
ĠìĬĪë ¯¸
ĠìĦ¸ê³Ħì Īĺ
ĠíĹĪìĪĺ ìķĦë¹Ħ
y es
º Ħ
ĠìĿ´ ìļ°
ĠìĿ´ ìĭľìĬ¤
Ġìĺ¤ ëıĦ
Ġíķľ ìĬ¹
Ġë°Ķ ìĤ¬ëĿ¼
Ġìŀĳ ëªħ
íĨł ì¿ł
ĠëĤ¨ ë°©
Ġìŀħ ê¹Ģ
ê» Ħ
Ġìŀ¡ ìķĦë¨¹
Ġì¦Ŀ ìłķ
Ġíĥľ ìĤ¬
Ġë¯¼ íĬ¸
Ġìľłëªħ ìĿ¸
Ġê¶ģ ëħĢ
ĠíħĮë ĵľ
ĠìķĮë ŀĮ
ĠìĬ¤íĬ¸ë ¡±
Ġg ot
Ġë²Īíĺ¸ íĮĲ
ĠNe ver
Ġíı¬ìĭĿ ìŀĲ
ĠìĹ¬íķĺ íĬ¼
¼ë¹Ħ ìļ°ìĬ¤
Ġìŀ¡ìķĦë¨¹ íŀĪ
t ain
íķ į
ĠëıĦ ë¬´ì§Ģ
Ġê¸° íıŃ
ìĽ ľ
íĤ¤ ë©Ķ
Ġëı Ĺ
Ġìļ° ìĭľ
ì½Ķ ìĬ¤íĬ¸
ĠìĺĪ ê²¬
ĠëĶĶ ìĸ´
ĠìĪľ ì¢ħ
ĠG al
Ġê´ĳ êµĲ
Ġë³Ħ ê±°
ĠíĥĪ íĶ¼
Ġíĺ¸ë Ĥĺ
ĠìĦ¼ ê³łì¿ł
ĠìĬ¤íħĮ ìĿ´íĬ¸
Ġìķ¤ ìĦľëĭĪ
Ġê³Ħë £¡
ìĤ¼ êµŃ
ĠìĹĳìĬ¤ ë§¨
ĠìĹł ëĦ·
Ġë£° ëŁ¬
AL L
end er
ëļĿ ëļĿ
ĠìĹīë§Ŀ ì§Ħì°½
ĠíĬľë ĦĪ
ìĹĳ ìĬ¤
ĠNAT O
Ġê°Ģ ëıĦ
Ħë ¬¸
ĠìĤ¬ ìĺ¥
ĠëĮĢ ìĿĺìĽĲ
ĠìĪĺ ëĤľ
ê°Ģ ì¡±
ĠíĥĢ ìĤ¬
¬´ ëĬ¬
Ġíı¬ ë©Ķ
ĠìłĦë ²Ķ
Ġë³¸ ìĭ¬
ĠD av
Ġìķł íĺ¸
ĠëłĪ ê·¸
Ġëıħ ê¸°
ĠëĦ¤ íĮĶ
ĠíĦ° ëĦĪ
Ġç Ł³
ĠíĥĪ ê²ĥ
Ġê°ĸ ìĿĢ
ĠìŀĦ ìŀ¬
Ġë¹Ī ê³¤
Ġë¸ĮëĿ¼ ìļ°ìłĢ
Ġë§Īë¥´ ìĬ¤
Ġì¹´ë¯¸ ì¡°
Ġìĭľì¦Ī ì¿ł
Ġëª¨ëĭĪ ì¹´
ĠìĻľëĥĲ ë©´
Ġíĺ¸ìĭľ ëħ¸
ĠëıĻíĺ¸ ìĿ¸
ĠìĿ´ì²ľ ìĪĺ
aus e
Ġëĭ¤ìĿ´ëĦĪ ë§ĪìĿ´íĬ¸
å Ħ
Ġê°Ģ ëŃĦ
Ġê±° ëĦĪ
Ġ20 22
Ġ4 20
ĠíļĮ ìĭĿ
Ġë§¤ íĻĶ
Ġì°¸ íĺ¸
Ġì¦Ŀ ì§Ħ
ĠìľĦì ¶ķ
ìķĦë §Ī
Ġê°ľìĿ¸ ê¸°
Ġa ge
ĠSt orm
Ġê¾¸ ì§ĸ
um e
Ġíı¬ìĬ¤ ì½Ķ
ĠìķĻ íĪ¬
íĺĦì £¼
Ġë¯¸ëĿ¼ ì¥¬
ĠDD R
ĠìĿ´ ë¸Ĳ
ĠìĹĲ ëĿ¼
ìĤ¬ ë©Ķ
ĠìĬ¤ ìĬ¤
íħ Ł
Ġì§ģ ìĦ¤
Ġíģ´ ë¡ľëĵľ
ĠE le
Ġíĺ¼ ìĪĺ
Ġê³Ħìķ½ ìŀĲ
ĠìķĮë ²ł
ĠíĮ¨ìĬ¤ íĬ¸ë³¼
íİł íĬ¸
¯¸ë įĶ
ĠìĹĲìĬ¤ íį¼
Ġìŀłìŀ¬ ìļ°
Ġwh en
ĠéĿ Ĵ
ĠíĨµìĨĶ ëł¥
ĠìłľëĭĪ íį¼
Ġë¸ĮëĿ¼ëįĶ íĽĦëĵľ
Ñ Į
ĠëĤĺ ìĿĺ
ĠëĮĢ ê²Į
ĠìĪĺ ê°ĳ
Ġë§Ī ì§Ħ
Ġë¬´ ëĦ¤
Ġë²Ħ ì§Ģ
Ġëĭ¨ ì¶Ķ
Ġë²Ī íĻĶ
Ġë³´ìĿ´ ì¦Ī
ĠìĦľ ì²ľ
Ġ19 29
ĠC ON
ĠT ur
ìĥ ¬
íĬ¸ë ¡¤
ĠíıŃ íĪ¬
Ġê²Ģ íĪ¬ìĤ¬
Ġì¶© ìĭł
ĠìĹħ ìĨĮ
Ġëĵ£ ê¸°
Ġê·¼ êµĲ
ĠëĪĪ ë§¤
ĠíĥĦ íĶ¼
Ġì¢Į ì²ľ
Ġëĭ¤ìĿ´ ë¬ĺ
Ġê°Ħë ĭ´
ä¸ ĸ
Ġê±°ë¶ģ ìĦł
ĠKG C
ĠìĹĲìĿ¸ìłĪ ìĬ¤
N T
¨ ¸ëĵľ
Ġíķĺ ìĺ¤
ĠìĿĢ íĺ¼
ĠìĦ± ë¶ģ
Ġë¬´ ëļĿëļĿ
Ġìłľ íĮ¨
ĠëıĻ ë©´
Ġëªħ ë§¥
ë³´ íĨµ
Ġë³¸ ì¦Ī
Ġëħ¸ ìĿĦ
Ġê°ģ ì£¼
Ġë¬¼ë °©
ĠëĦ¤ ë·
Ġë°± ìķ¼
ĠìĹ¬ìŀĲ ìķĦìĿ´
ĠëĵĿìłĲ ìĻķ
ĠíĶ½ ìħĺ
ĠUS S
ä½ ľ
Ġíģ´ëŁ¬ ìĬ¤íĦ°
Ġì¨ ©
Ġë« ¼ë¹Ħìļ°ìĬ¤
ĠëłĪíĢ´ ìĹł
R O
Ä ģ
Ġíķĺ íĽĦë
Ġê°Ģ íĿ¬
Ġì§Ģ ê°Ħ
ì§Ģ ë¡ľ
Ġë¶Ģ ë¡ľ
Ġë¶Ģ íĨµëł¹
êµ¬ ë©į
ĠìľĦ íĹĮ
ĠíĥĢ ìĺ¤
Ġë¦¬ ìłľ
ìĥĿ ë¬¼
ĠëłĪìĿ´ ì»¤ìĬ¤
ìĪľ ìĿ´
°Ķ ê¿Ī
ĠìĦ¸ìĿ´ íĶĦ
ĠëłĪë ¹ĦìķĦ
ê±¸ ìĬ¤
ĠìħĢ ëłĪ
ìĵ° ëŁ½
ĠëıĻë§¹ êµŃ
ĠìĦŃ ìłķ
ID E
Ġíĥľë °±
íĶĦëŀĳ ìĬ¤
é ¦¬
Ġíģ¬ ëŀĻ
ĠS on
ĠíĮĲ êµĲ
ìļ´ íĬ¸
ĠìĨĲ ê¸¸
ĠìĬ¤í Ħ
ì²ľ ì§Ģ
Ġê¸ī ìĨĮ
Ġë§Īë ıĪëĤĺ
łĪ ì¦Ī
Ġìłĳ ì°©
ĠìĿ¼ëĭ¨ ëĿ½
ëĿ¼ìĿ´ íĦ°
Ġë¹Ħíĸī ìŀ¥
Ġë³¼ë ĵľëª¨íĬ¸
Ġëŀĺ ëįĶ
åŃ Ĺ
IM E
ê·¼ë ĳĲê·¼
ĠíĥĪë °Ķê¿Ī
Ã Ń
ì İĦ
Ġê¸° ìłĢ
Ġìĺ¤ ëŀ«
Ġê²½ íĻĶ
ìĪĺ ìĽĲ
Ġì¡° ê²½
Ġë¦¬ ì¸łì¹´
Ġ19 24
Ġë©Ķ ìĬ¤
Ġë°ķ ìĽĲ
Ġì¶© ëĭ¹
ĠH R
Ġìĸ¸ ìĬ¤
ëĦ¤ ìĭľìĬ¤
Ġì»¤ ë¨¼
ë©Ķ íĬ¸
Ġs ay
Ġï §
Ġãĥ Ń
ĠìķĦë¥´ íĭ°
Ġì¸ł ì¹ĺ
Ġìĺ¥ ìĬ¤
Ġë§¹ ìŀ¥
ĠíĻĺìĥģ íĸ¥
ĠSe a
ĠWar hammer
ĠæĪ ¦
ĠíĬ¸ìĻĢ ìĿ¼ëĿ¼
ĠìĦłìĥ¤ ìĿ¸
Ġíķĺ íĶ¼
Ġëĭ¤ ëĬĲëĭĪ
Ġë¶Ģ ê¸°
Ġëª¨ ëĿ¼
Ġì¤ĳ ëĤ¨ë¯¸
êµŃ ê°Ģ
ĠíĻĶ ìĪľ
Ġëĭ¨ ê²°
ĠìłĢ ë²Ħë¦¬
ĠêµĲ íĻĶ
Ġê¹Ģ íĺĦìĪĺ
Ġìĸĳ ì²ľ
ë§¤ ê¸°
ĠëĶĶ ì¼ĢìĿ´ëĵľ
Ġë£¨ ì¦Ī
Ġæ ¨
Ġê·¹ ëªħ
Ġë¶Ħë ¹Ħ
ĠíĥĪ ìĺģ
Ġë± Į
ĠíĻ©ê¸Ī ê¸°
r it
ëł Įë
Ġì£¼ ìĦ±
ìĪĺ ìķĦ
Ġëį° ê¿Ģ
Ġíı¬ ì²ľ
Ġë§¤ ëī´ìĸ¼
ĠM il
Ġê¹Ģ ê°ķ
Ġì¢ħ ìĤ¬ìŀĲ
Ġìĭ¬ ìĭł
ĠíĺĦ ìļ°
Ġê±´ ë°ĺ
ĠG i
Ġê²¬ ì£¼
ĠíĦ´ ê°Ħ
Ġ..... ..
ep h
ĠëĤ´ì§Ģ ë¥´
ê²½ê¸° ìŀ¥
Ġíľł ì²´ìĸ´
Ġë¹ĦíĭĢ ì¦Ī
Ġíķĺìķ¼ë ¯¸
ĠíĹ¤ì§Ģ íĺ¹
â Ļ
ĠìĿ´ ìĻĦ
íķĺ ê³ł
ĠìĦ± íĽĪ
ĠìľĦ ìķĦëŀĺ
ë¹ ¼ë¯¸
Ġë¯ ¼ë§Ŀ
ĠìĦľ ê·Ģ
ĠS B
Ġì¶Ķ ë¡ł
ĠB u
ĠìķĦìĿ´ íĮĮíģ¬
ĠìĨĲ ìŀ¡
Ġë£¨ ë¯¸
Ġíĭ° ë¥´
Ġë³Ħë °ĺ
Ġíķ´ê²° ìĤ¬
ĠêµĲëıĦ ê´Ģ
ĠíĥĢë§Ī íĤ¤
âĺĨ âĺĨ
å´ İ
° Ń
ĸ ¼
Ġê°Ģ ëĿ½
Ġë©´ ëĭ´
ĠìĿ¼ ìĥī
ĠìľĦ ê¸ī
Ġêµ¬ ë§Į
Ġìĭł ìĬ¤
ĠêµŃ ê³µ
ê¹ ħ
íĴ Ģë¦¬
ĠB reak
íĹ Ĳ
Ġìĭ¬ ê²½
ĠìĻ¸ íĻĶ
ĠP G
Ġì´Ŀ ì²´
Ġëĭ´ ë³´
Ħì² ´
Ġì¶ľìĭł ì§Ģ
Ġìĩ¼ ìĻĢ
ĠíĹ¬ ìĭ±
em y
IN AL
Ġêµ¬ì¶ķ ìłĦì°¨
ĠìĿ´ì§Ģ ìĬ¤
ĠãģĹ ãģĦ
Ġë¶Ģì§Ģ ê¸°ìĪĺ
Ġë©Ķë¥´ ìĭľ
Ġê°ĢìļĶ ìłľ
Ġì£¼ëĳĶ ì§Ģ
ĠëłĪìĿ¼ ê±´
Ġíķĺ ì²Ń
ĠëĿ¼ ì§Ģ
ĠìķĦ íĬ¸ë
ĠìĦł ìĥģ
Ġì¹´ ìĬ¤íĭ°
Ġëį° ë¹Ħ
Ġíķ´ íĬ¸
íĨµ íĸī
Ġì§ģ ìĤ¬
Ġëħ¸ íĻĶ
Ġë¶Ħ íĪ¬
ĠíıŃ ì£½
ĠH ome
ĠíĮĶ ë¡ľ
Ġãĥ Ģ
Ġh ere
Ġë§ĪìĬ¤íĦ° ì¦Ī
ĠìķĦì¹´ ìĭľ
Ġíİ¸ì§ĳ ìŀ¥
ers ion
æĺ ¯
row n
Ġìĥ¬ ëŁ¿
Ġë°ľëłĪ ë¦¬
ĠëĤĺë¦¬ íĥĢ
Ġíı¬ìĿ´ ì¦Į
Ġì¡°ë§Į ê°Ħ
ĠìĨĮíĶĦíĬ¸ë ±ħíģ¬
ĠëıĦ ê°Ģ
Ġíķľ íĮĲ
ĠëĤ´ ë¶Ħ
Ġìĭł íķ´
Ġì¹´ ë¯¸ëĤĺ
Ġìĭ¤ ë¹ĦìķĦ
Ġíı¬ ìĺ¹
Ġë¶Ī ë¦¿
Ġíİ¸ íĮĮ
ĠíĨµ ì°°
ĠíĨł ë¨¸ìĬ¤
ĠF ull
ĠíĬ¸ë ŀĢ
Ġìľ¡ ìĨĲ
Ġè Ĳ
íĴį ê²½
Ġìĩ¼ ìļ°
ìļķ ìŀ¥
Ġë¹Ļ ë¹Ļ
ĠëĦ¤ìĿ´ ë§Īë¥´
Ġì¹´ë¯¸ ìľł
ĠBL ACK
æ° Ĺ
ĠAt t
Ġë§ĪëĿ¼ íĨ¤
Ġê²½ë³µ ê¶ģ
Ġëĭ¤ëŀĮ ì¥Ĳ
Ġíķĺ ìŀĦ
Ġìķ ³
ĠìĪĺ ê¸į
Ġë¬ ¸ë§
ëĤĺ ì¸ł
Ġë¯¸ íĿ¡
Ġíķ¨ ìľł
ĠíĮĲ ëıĦ
ë°© íĸ¥
ĠìĨĮë ³Ģ
Ġë¶Ħë ĭ¨
Ġíĭ° ê±°
ĠëĪĦë §Ī
ik i
ĠìĽħ ìŀ¥
ë± Ģ
Ġë§¥ìĬ¤ ìĽ°
ĠìľłìĿĺ ë¯¸
ìĹ¬ìŀĲ ëĮĢíķĻêµĲ
ĠìĨĮë¹ĦìĹĲ íĬ¸
Ġê°Ģ ìĺ¨
ĠëıĦ íĶĮ
ĠìĦ¸ ìĨį
ì£¼ êµ°
ĠìĽĲ ë§Į
Ġëªħ ë¬¸ëĮĢ
Ġë¹Ħ ìĿ¼ë¹Ħ
ĠìĹŃ ì£¼
ĠëĤ¨ ëĭ¤ë¥´
ĠêµŃ ë¶Ģ
Ġìŀħ ìĦĿ
Ġê¹Ģ ê±´
ĠB oy
Ġì¢ħ ìļ©
ĠT CG
ĠìķĦìĿ´ ìĥ¤
Ġê±´ ë°©
ĠD an
Ġíķ© ìĦ¸
Ġê²°ìłķ ì§ĵ
ĠíĶ¼ë ĦĽ
Ġìĺ¥ íĨł
Ġëıħë¦½ ìļ´ëıĻ
ĠìŁģ ìŁģ
Ġë¹ĦìĦľ ìĭ¤ìŀ¥
ĠëŁŃ ìĬ¤
íĿĶ ëĵ¤
Ġì§Ģ ìĦĿ
Ġëª¨ ë©´
ĠìĿ¼ ìłĦ
ĠëĤ´ ëŀĢ
Ġë¦¬ ë¡ľëĵľ
ĠëĳĲ ê·¼ëĳĲê·¼
ĠM US
ĠM ach
ĠíĮĲ ë¡Ģ
ĠìĬ¹ íĻĶ
Ġíħ Ł
Ġë£¨ ëĶĶ
al d
Ġ16 4
Ġç ¬¬
ĠJ YP
Ġë§ĪìĬ¤íĦ° ìĬ¤
ãĥ³ ãĥĪ
ĠCh a
200 5
ëĵľëĿ¼ ìĿ¸
åħ µ
éĩ ĳ
Ġë°ĶìĿ´ìĺ¬ ëłĽ
ĠIm p
íĭ¸ë¦¬ ì¼Ģ
ĠNM B
Ġì¶Ķì¶ķ êµŃ
ĠíĮĮì¶© ë¥ĺ
Ġë¹ĦìĿ¼ë¹Ħ ìŀ¬
æ ¯
Ġë ¼
Ġë¡ľ ëį°
Ġë¡ľ ë°į
Ġì° Ŀ
Ġë¶Ģ ìĿĺ
Ġê³µ ì°¨
ëĮĢ êµ¬
Ġíķľ ìĪľê°Ħ
ĠìķĦ íĨ°
ĠìĦ¸ ê³µ
ì¹´ ì¸ł
Ġ/ /
ãģ Ĳ
Ġë³µ ìĭĿ
at ure
ĠëĮĢíĳľ ê³¡
Ġd u
ol f
íıŃ íĴį
ĠìĪĻ ì¢ħ
ĠìĽ¨ ìĿ¼ìĬ¤
Ġë°ľë °Ķ
ĠíĽĪëł¨ ë³ĳ
ĠBe at
Ġì°½ì¡° ì£¼
Ġìĸ¼ë ĸ¨
Ġì½Ķìļ° ì§Ģ
ĠTR PG
ãĥĥãĥ Ĺ
æł ¡
Ġë©´ìĦ¸ ìłĲ
¡ľ ìĿ´ëĵľ
Ġì§Ģ íļĮ
Ġê¹ Ĳ
Ġë¬´ ëįĶê¸°
Ġë°© ëıħ
ĠìĹ° ë¬´
Ġë¯¸ íĥĢ
íĭ° ìĹĦ
ĠíķĻ êµ°
Ġì± Ī
Ġì¢ħ ìĭĿ
ãĥ Ķ
Ġìŀĺ ëĤĺ
Ġìķł ê¸°
Ġë¯¸ë ħ¸ë
ë¦¼ íĶ½
ĠëĤĺê°Ģ íĨł
ĠíĻ© ì²ľ
Ġç Ł¥
ĠëĦĵ ìĿ´
ĠëłĪë Ķ§
Ġå¤ ľ
ëĤĺìĿ´ ì¸ł
ĠìĿ´ìĤ¬ ë²¨
ĠìħĢ ëŁ¬
íı´ ëĵľ
Ġë¶Ģëĭ´ ê°Ĳ
ĠUS A
Ġíİł ëłĪ
Ġon ly
Ġë°ĺìĹŃ ìŀĲ
èª ŀ
Ġìŀ¥ëıĻ ë¯¼
a el
Ġê°Ģ ë°ľ
íĦ° ì¹ĺ
ëĮĢ ìĹŃ
Ġë¬´ ì¸ł
íĨ ¨ë¦¬
Ġê°ľ ì¢ħ
ĠL R
ĠíĶĦë¡ľ ë©Ķ
Ġë°± ìĦĿ
st ro
ĠíħĮ ìĬ¤
ìķł ëĭĪ
íģ´ ë¡ľ
ĠìĦ¸ìĿ´ ìķ¼
ĠíħĲ ìħĺ
Ġåħ ĥ
ĠíĮĿ ì½ĺ
G N
æ ı
è Ļ
é ľ
Ġëĭ¤ ê°ĻìĿ´
Ġë² Īë²Ī
ìŀ¥ ìĨĮ
Ġìľł ìŀī
Ġëĭ¹ ì§ģ
Ġê°ľ ìļĶ
ìĿĺ íķĻ
Ġì¹´ ë©ľ
ĠíĬ¹ ë³Ħë
¶Ģ ë¦¼
ĠìºĲ ìī¬
ĠB el
Ġìķ¼ ìĤ¬
Ġìķ¼ ê°Ģë¯¸
Ġë³ĳ ìŀĲ
ĠG h
Ġê²Ģ ìĿĢ
Ġê´ĳ íıŃ
ê²° íĺ¼
or a
at ive
ĠìĬĪ íĭ¸ë¦¬ì¼Ģ
ìĨĮë Ŀ¼
ur y
Ġìŀ¬íĮĲ ê´Ģ
ĠëłĪìĺ¤ ëĤĺë¥´ëıĦ
Ġë¯¸ìĪł ê´Ģ
Ġìķ° ë¹Ħìħĺ
Ġíĥľê·¹ ê¸°
Ġì¤Ħë¦¬ ìĹ£
Ġë²Īë²Ī íŀĪ
ĠìĿ´ êµŃ
ì¹ ©
Ġëª¨ ìĥī
Ġë§Į ì°¬
ĠëıĻ ë¥ł
Ġìĭł ìŀ¬
Ġë¯¸ íĬ¸
Ġëªħ ìĸ¸
Ġìļ° ì¦Īë²ł
Ġìĵ° ë¡ľ
Ġìŀ¬ ì¹ĺ
ĠíĶĦë ¡¬
Ġíĺķ ì²´
ĠìĨį ë§ĪìĿĮ
Ġì¢ħ ìĸĳ
ĠD oc
Ġëį°ìĿ´ ì¦Ī
ĠSt and
íĬ¹ ê¸°
ĠëłĪìĺ¤ ëĤĺ
ĠLe vel
ain t
Ġne w
Ġë¡ľëĵľë¦¬ ê²ĮìĬ¤
ĠëĮĢìĦľ ìĸĳ
ĠìķĻìĥģ ë¸Ķ
Ġëį°ê¿Ģ ë©į
ĠëıĦ íķĳ
ĠìĹ¬ ì´Ī
ĠëĶ° ë¦Ħ
ĠíĮ¨ íĩ´
ìķ½ ìĬ¤
Ġìĸĳ ê¶ģ
ĠìĨĲ ìŀ¬ì£¼
Ġå ¾Į
ĠìĤ° ì²´ìĬ¤
ĠëĿ¼ìĿ´ ìĹĩ
ìº ī
Ġìĩ¼ ì¼ĢìĿ´ìĬ¤
Ġ29 0
ìłĦì ĥĿ
ĠíĽĪëł¨ ìŀ¥
ĠåĲ į
Īë²Ħ ìĦ¤
Ġê³łê³ł íķĻ
Ġíĵ¨ì²ĺ ìĬ¤
Ġë°ĢëłĪ ëĭĪìĹĦ
Ġì¹´ìļ° ë³´ìĿ´
ĮëłĪë ¹Ħ
ĠëĲľ ìŀ¥
Ġíĺ¸íĥĢ ë£¨
ĠíĶ¼ìķĦëĭĪ ìĬ¤íĬ¸
ĠíĬ¹ë³Ħë ²ķ
l ight
£ ½
Ġê¸° ëĤĺ
ê¸° ìķĦ
ĠëĮĢ ìłľ
Ġêµ ½íŀĪ
ìĤ¬ ìĿ´íĬ¸
ĠëĶ ¸ë
Ġ5 20
Ġ5 12
ĠìĦľ íģĲë²ĦìĬ¤
Ġìļ© ì§Ģ
Ġå ĸ
Ġæ ı
ìĽĮ íĤ¤
ĠãĤ ¿
ĠìłĲëł¹ ì§Ģ
ĠíķľìŀĲ ìĸ´
âĢ »
ĠíĶ¼ìĬ¤ íĨ¤
ĠëĤĺëħ¸ íķĺ
Ġìļ©ìĿ¸ ìĭľ
ĠìĭľíĬ¸ ì½¤
ĠRO X
Ġë¹ĦíĥĢ ë¯¼
ĠìĦľì´Ī êµ¬
ĠìĺµìłĢ ë²Ħ
Ġíı¬ì¸ Ī
Ġê°Ģ ëĭ¥
ĠëıĦ ëĤľ
ĠìĨ ľë
ĠëĤĺìĺ¤ ë¯¸
Ġëĭ¨ ìĦł
Ġë¬¸ ì²´
Ġë°ķ ì§Ħìĺģ
ĠìĿ´ë¦Ħ ê°Ĵ
on der
ĠH i
²Ħ ìĬ¤íĦ°
ĠëĤľ ìĿ´
ĠëĤľ ê°Ħ
ĠìĪł ìŀĲë¦¬
il ity
ĦĪ ëĵľ
Ġíİľ íĭ°ìĹĦ
ĠMA D
ĠìķĦìĤ¬ ë¯¸
ĠìĿ´ìĭľ ëĭ¤
Ġíģ¬ëłĪ ìļ©
åĭ ķ
ĠëıĦë¥´ íĬ¸ë
ìĭľ ìĺ¨
Ġëª¨ ëıħ
ĠìĿ¸ íĶĮëłĪìĿ´ìħĺ
ëıĻ ìĽĲ
Ġëªħ ì¹ĺ
Ġê²° ìĨį
Ġ8 50
ĠB y
Ġë¶Ħ ê°ľ
ãĤ ®
Ġë³ĳ ëĮĢ
ĠI EM
ĠW A
Ġs er
ĠíĹ¤ ìĹĦì
Ġä¸ ĸçķĮ
Ġíı¬ë¥´ íħĮ
ë²¨ íĬ¸
OS S
Ġê·¸ëĿ¼ ê°ĢìĬ¤
Ġan y
ĠíĹĮë³ĳ ëĮĢ
Ġì§ĢëĤľ íķ´
ĠìĬ¤ëĥħ ëĵľëŀĺê³¤
Ġë¦¬ë²¤ ì§Ģ
ĠìķĦíı¬ì¹¼ë¦½ ìĬ¤
Ġíķľë°Ķ íĥķ
ĵ Ģ
ĺ ¨
Ġíķĺ ëıĻ
Ġìĸ´ ìĿ¸
Ġê¸° ìĭł
ĠëĮĢ ë§Ŀ
ë¥´ ëħ¸
ìĺ ´
Ġ5 40
Ġëªħ ëŀĳ
ĠíĽĦ ê²¬
ĠíĶ¼ ìĸ´ìĬ¤
Ġì´Ī ëĭ¹
ĠìĤ´ ë¦¼
ĠìľĦë ĭĿ
Ġp ar
ay er
ĠSt ory
ĠìĿ´ìĤ¬ íļĮ
Ġê°Ħê°Ħ ìĿ´
Ġê³µë°± ê¸°
ë¦¼ë ıĮ
ĠìĹ°ë§ī íĥĦ
Ġëĥħ ëĳĲ
© Ł
å ľ¨
ç ¨
Ĺ ¼
ĠìĹĲ ë¬´
Ġê¸° ìĬ¹
ĠëĿ¼ë ª¨ìĬ¤
ê±° ìĭľ
Ġíģ¬ ëŀŃíģ¬
Ġìĭ¬ ëıĦ
Ġìĭ¬ ë³¼
ĠF G
ĠëĦ¤ ê±°ë¦¬
ĠíĶĮëłĪìĿ´ ë²Ħ
ĠìĤ° ìłģ
ĠìĦĿ ê°Ģ
ĠìĺĨ êµ¬ë¦¬
ir c
âĨ ĳ
ĠìĹĳìĬ¤ ì¹¼ë¦¬ë²Ħ
Ġre m
ĠíĹĺ ëĤľ
Ġíı¬íķŃ ìĭľ
ĠTr ack
ĠëĿ¼ëįĺ ì§Ģ
Ġì½ķ íķı
Ġê¸Ģëŀĺ ìĬ¤
ĠìĦľê·Ģ íı¬
ĠíĹ¤ìĹĦì ¹ĺ
Ġë ¢°
Ġíķĺ ê¸´
Ġëĭ¤ ìĬ¹
Ġê¸° ê³ł
Ġë¡ľ íĦ°ë¦¬
ĠìĪĺ ìĪľ
ìĭľ ë¡Ŀ
ëĵľ ê¸°
ĠìĽĲ íĪ¬
Ġ19 22
Ġë©Ķ ìĨĮ
ëłĪ ìĺ¨
Ġå ±
ĠíĻ© ê¸ī
Ġ16 1
Ġê±¸ ë¦¼ëıĮ
Ġh im
Ġíľĺ ë°ľ
ĠìĹĳìĬ¤ ë°ķìĬ¤
ĠëĤĺì¹´ ì§Ģë§Ī
Ġíģ¬ëĿ¼ ì¼Ħ
ĠëĳĶ íĻĶ
Ġåį ĥ
ĠíĨłë¦¬ ì½Ķ
ĠëĵľëłĪ ëĵľë
Ġê²½ë¶Ģ ìĦł
ë¶Ħì ¦Ŀ
ĠëĴ¤ìĦŀ ìĿ´
ĠëıĦë¥´íĬ¸ë ¬¸íĬ¸
Ġìľ Īë
Ġë¡ľ íĬ¸
ê¸° ëıĻ
ĠìķĦë °ľë
ĠìĽĲ ì²´
Ġë°ľ ì§Ħ
ë£¨ ìħĺ
ĠM al
ĠíĺĦ íĺ¹
Ġëĵľë ¯¸
ĠR y
ĠëłĪìĿ´ ì½Ķ
Ġê¹¨ ë¬¼
Ġ21 2
ĠëĨĢ ëŀĺ
ĠìĬ¤íħĮ íĮĲ
Ġê³§ ìĿ´ìĸ´
16 0
ĠìĿĦì§Ģ ìĸ¸ìłķ
Ġëį© êµ´
AR K
Ġë¸Ķë¡ľ ìļ°
ĠìħĶ ë¨¼
ĠíĶĦëĿ¼ íķĺ
Ġíķ´ìķĪ ê°Ģ
Ġë²Ħì ¶Ķ
ĠíĮĶëłĪ ìĬ¤íĥĢìĿ¸
Ġë¨¸ìĬ¤ íĤ·
Ġë¸Įëŀľ ëĵł
Ġë©Ķê°Ī ë¦¬ìķĦ
o i
ĠìĪĺ ìĸĳ
ê°Ģ ì¿ł
ĠìĬ¤ ë£¨
Ġê·¸ë ¬¼
Ġë°© ìķĦì
ĠìĦł ìĿĺ
ĠëĤ¨ ëıĦ
Ġìµľ ìĬ¹
Ġì´Ī ìĨĮ
Ġê¹Ģ ìĿĳ
Ġìķł ë²ĮëłĪ
ĠP at
ĠìĨĲ ìĥī
ê·¸ë łĩ
ë²ķ ìĿ¸
ëĤľ íĪ¬
Ġè ı
Ġï¼ į
Ġë¯¿ ê¸°
ĠëĤĻ ëıĻ
Ġì£Ħ ìķħ
çĶ ±
ĠìĬ¤íĥ¯ ìĿĦ
Ġëª¨ëª¨ ì½Ķ
Ġìķ¼ë§Į ìĿ¸
ĠíĶĮëŁ¬ê·¸ ìĿ¸
¦ ¼
° ¤
ç ¬
ĠìĿ´ ê·ľ
ĠëĬĶ êµ°
Ġê°Ģ ì¿ł
ê¸° ê´Ģ
Ġë³´ ëįĶ
Ġë¶Ģ ë¦Ħ
Ġë¶Ģ íĴĢë¦¬
ìľ ħ
Ġê³µ íĳľ
ì¦ Ļ
Ġë°Ķ ëĵľ
Ġêµ¬ ëĤ´
Ġë¹Ħ íĬ¸ë
Ġë¬¸ ê²½
ĠíĮĮ ì¶ľ
ĠìĨį ëĤ´
ĠL M
Ġå §
ĠR a
ê·¸ë Ŀ¼ëĵľ
ĠìĻľ êµ¬
Ġthe ir
Ġê°ľìĿ¸ ì°¨
Ġl ife
Ġê³Ħìķ½ ê¸Ī
ĠCh ap
Ġì½Ķì¹ĺ ì§Ħ
ìĽ¨ìĿ´ ë¸Į
ĠìłķìĪĺ ìķĦ
ĠìķĦì¦Ī ë§Ī
íĥĦë ³ĳ
Ġë¯¸ìķ¼ë ª¨íĨł
Ġê²ĮìŀĦë ³´ìĿ´
Ġìłķëª½ ì£¼
Ġì´Īìĭ¬ ìŀĲ
Ġë°©ìķĦì ĩł
ģ íģ¬
Ĩ Ķ
Ġìĭľ íĶĦ
Ġìĭľ íķ´
ĠìĿ¼ ê°Ħ
ĠìĹ¬ ëł¥
ĠìľĦ ê³Ħ
Ġë¯¸ ìĹŃ
Ġë°ĺ ë¬¸
Ġê°Ĳ ì¶ķ
ãģ ³
ĠìķĦìĿ´ ì¹ĺ
Ġìķł ìĬĲë¦¬
íĬ¸ë ¥¨
Ġë¹Ħì ĺ¤
ĠH and
ĠN R
Ġíķ© ìĬ¤ë¶Ģë¥´íģ¬
Ġíĺ¼ ìĦ±
Ġíĺ¸ë °į
ĠìĽĮ íĤ¹
Ġëĵľëŀĺ ê·¸
ĠìĬĪíį¼ ì£¼ëĭĪìĸ´
ĠìĥĿíĻľ ê´Ģ
Ġë°ľë ģĪ
Ġê³¼ë ĮĢ
Ġë²Ħê·¸ ìĬ¤
Ġê¸°ëħĲ ë¹Ħ
Ġê¹ĢìĦ± íĺĦ
Ġìĩł ëĩĮ
ĠAC T
åº ľ
æ ĭ
ĠìĿ´ ê·¸ëĭĪ
Ġë§Ī íĤ¹
Ġê³µ ìĺĪ
ê°Ħ ëĭ¤
Ġìĭł ë¶Ħëĭ¹ìĦł
Ġìļ° ì¦ĪíĤ¤
ĠìĦľ ê°ķ
Ġíıī ìķĪë
ĠC ra
er y
ĠëĤł ë¡ľ
ĠF T
Ġãģ ³
ĠëĬĲ ìĬ¨
ĠëĤľ ê´Ģ
ĠìĬĪ íĥĢìĿ¸
Ġì¦ī ê²°
ĠV T
Ġé ĺ
ĠëıĻìĭľ ëĮĢ
Ġëģ¼ ìĿ´
Ġë²ĪìĹŃ ë³¸
Ġ43 2000
ĠëĤľë °©
Ġë³´ëĵľ ê²ĮìŀĦ
Ġì¹¨ìŀħ ìŀĲ
ĠFor ce
Ġèģ ĸ
ĠìĨĮìĿ¸ ìĪĺ
ĠìĪĺëĳĲ ë£©
ĠmA h
´ Ĳ
Ġìĸ´ ê°Ĳ
Ġë³ ¼ë¦¬
Ġê¸° ëĵĿ
Ġëĵ¤ ìĹ¬
Ġìĭľ ìłķ
ĠìŀĲ ìĦł
ìĨ Ŀ
Ġë¬´ ì°¸
ëĿ¼ íĬ¸
Ġë§Ĳ ëĭ¨
Ġìĭł ìķ½
ĠëĤ¨ ìĥī
ĠêµŃ íķľ
Ġì§Ħ íĴįê²½
ìĸĳ ìĿ´
ĠìĻķ ë¦½
at es
ë°ķ ë¬¼ê´Ģ
Ġì¿ Ħë
Ġì¹¨ ìĪĺ
ĠìľĦë ĦĪìĬ¤
ĠìĿ¸ìĤ¬ ìĿ´ëĵľ
Ġì¡°ì¢ħ ìĦĿ
Ġì§Ģìļ° ê°ľ
Ġë°°ìĭł ê°Ĳ
ĠìĬ¤íĶĦë Ŀ¼ìĿ´íĬ¸
Ġë¹Ĺ ìŀĲë£¨
Ġê°ĢìĨį ëıĦ
ìļ°ë¦¬ ëĭ¹
Ġê°Ģìĺ¤ ê°ĢìĿ´
Ġse e
æ° ĳ
ê³Ħë ıĻ
ĠAp ple
ĠíĶĦëĿ¼ë ª¨ëį¸
ĠìĿ Įëł¥
Ġíķĺ ëĭĪ
ìĬ¤ ìĻĢ
Ġê³µ ìłĦ
Ġ- -
Ġë°Ķ íĬ¸
Ġë¦¬ ì°¨ëĵľ
Ġíı¬ ìłľ
Ġì¹ĺ íĻĺ
ĠìĬ Ĳ
Ġë©Ķ ë¡±
Ġë³ĳ ìĭ¤
ì¿ł ìĬ¤íĭ±
Ġìĭ¸ êµ¬ëł¤
ë¦° íĬ¸
Ġæ £
ĠíĬ¸ë łī
ĠìĬ¤íĥĢ ëįĶìĬ¤íĬ¸
Ġë²Ķ íį¼
ĠV F
Ġç ¶
íĶĮ ë¦ŃìĬ¤
ĠãĤ ½
ĠìĦ¸ìĿ´ ë¶Ģ
ĠëłĪë ĶĶ
Ġê°ķìĿĺ ìĭ¤
ĠìĤ¬íĨł ë£¨
ĠìĶ¹ íŀĪ
ĠëĳĶ ê°ĳ
åį ĥ
ĠíĬ¸ëł ģíģ¬
Ġì°½ìĦ¸ê¸° ìłĦ
¯¸ëįĶ ë¨¸ëĭĪ
a ult
k s
æ ©ĭ
ĠìĬ¤ ëĤĺ
Ġì°¨ ìĿ¼ëĵľ
ì¹´ ëħ¸
Ġì¹ĺ ìļĶ
ì¡° ìĤ¬
Ġì§Ħ íĻį
ëª¨ ëĵľ
Ġë¹Ħì ¥¬
in y
Ġì»¤ íĬ¼
ĠO T
Ġì§Ī ìĥī
ĠìłĪ íĮĲ
ë§Īë ¡ľ
ut h
ë¹Ħë Ĥĺ
Ġë¯¸ìĬ¤ ë¦´
Ġæľ Ŀ
Ġìµľìłģ íĻĶ
Ġë°ľëªħ íĴĪ
ĠìĬ¤ì»¤ íĬ¸
Ġæ° Ĺ
ĠíĹĪìĺģ ë¬´
ĠJap an
E P
Ġë ®¬
ĠìĿ´ ê°Ģ
Ġìľ¼ë ¥´
Ġê¸° ë¥ĺ
Ġë³´ êµ¬
ĠëĿ¼ ìĭľëĵľ
ĠìĿ¼ ìĭĿ
íĥĢ ìĽĮ
Ġì´Ī ì¡°
Ġë¶Ħ íĮĮ
ĠëłĪ ìłĦëįĶë¦¬
Ġì°½ ë²ķ
Ġìĥ¤ ë¨¼
ĠìĺĪë ¹ĦìĹŃ
ĠìķĮë ²ĦíĬ¸
Ġë¯¸ìĤ¬ íĨł
ĠëĴ· ëª¨ìĬµ
ĠIn v
ĠíĶ¼ìĬ¤ íĨ¨
íĽĦì ľł
Ġne ver
Ġëĭ¨ê¸° ê°Ħ
ìį ©
ëĮ ĵ
ä¿ ¡
ĠìĹłë¸Ķ ëŁ¼
Ġìĭľê²Įë £¨
ĠâĦ ĥ
ĠìĬ¤íĥ¬ íĶĦ
Ġíĺ¸ë¬¸ ì¿¨ë£¨ìĬ¤
ĠìĹ´ë¦° ìļ°ë¦¬ëĭ¹
Ã ³
ĠëıĦ íĥľ
ĠëĮĢ ì£¼
ĠëĮĢ ëįķ
Ġê³µ ë²Ķ
ĠìĦ± ìļķ
íĮ ľ
Ġìŀ¥ ìľ¤
Ġìĭł ì°½
Ġìĭł ë¶Ħì¦Ŀ
ĠìķĪ ëĵľ
Ġìĭ¤ íģ¬
Ġëį° ìĿ¼
ìľł ëĿ¼
ì°¨ ë¦¼
Ġë©Ķ ìĿ´ìĬ¤
ĠëĭĪ ìĬ¤
íĺĦ ìĦĿ
Ġë¬´ê¸° ê³ł
ĠíĹ¤ ìĿ¼ë¡ľ
Ġíıīê°Ģ ìłĦ
Ġì§Ī ìĨĮ
Ġì¹¨ ë²Ķ
ĠíĿĳ íĻĶ
Ġë©ĶìĿ´ ìĬ¨
Ġr p
Ġì¥¬ ëĭ¤ìĿ´
Ġë§ĪëĤĺ ë¯¸
ĠSp e
åĲ Ī
íĥĦë ¶Ī
íĳ¸ë¥´ íĬ¸
Ġëĭ¤ ìļ°
ì§Ģ ë¬¼
Ġê¸° ìĿ¼
ìĬ¤ ì¹´ìĿ´
ĠáĨ«ëĭ¤ ëĭĪ
Ġë¶ ĩ
ìķ ĮëĿ¼
ìļ° ê·¸
Ġìłķ ìĥī
ĠìĹŃ ìĿ´ìļ©
Ġì½Ķ ìķŀ
ë°Ķ ëĿ¼ê¸°
ë¨ ¸ëĵľ
Ġm in
Ġë¸Įë ¡Ŀ
ĠíĹ¤ ì¹´
Ġk n
ë¯¸ë Ŀ¼
Ġë§µ ìĿĺ
ĠíĿĲ íĬ¸ë
Ġë³ĢíĻĶ êµ¬
ë¬ĺ ì§Ģ
ĳ¥ ìĿ´
Ġíļ¡ íı¬
ĠìĿ´ë§Ī ìĿ´
ë£© ìĬ¤
è¡ ĵ
ĠìĻĢì¹´ ë°Ķ
Ġê·¸ëłĪ ê³łë¦¬
Ġì§ľë Ĥ´
æ ŀĹ
Ĥ ³
ĠìĿ´ ê°ķ
Ġê°Ģ ìĥ¤íĬ¸
ë¦¬ ì½Ķ
Ĥĺ ìĿ´
ëĭ¤ íħĮ
Ġ3 11
ĠìĹ° íķĦ
Ġìĺģ ìłķ
ĠìķĪ ì£¼
Ġê´Ģ ëĤ´
Ġê¹Ģ ë³´
Ġëł¤ ëĭĪ
ĠP T
ĠH T
ê¶ Įëł¥
ĠìĤ¼ ì²ľ
Ġê¹¨ ë¶ĢìĪĺ
Ġë°Ģ ìĽĮíĤ¤
Ġíķľë ¬¸
Ġê¼¬ ëĵľê¸°
ĠëĵĿìłĲ ìŀĲ
Ġë³´ì»¬ ë¡ľìĿ´ëĵľ
Ġëŀľëĵľ ë§Īíģ¬
Ġì¿Ħ ìļ°
Ġë°ĶìĿ´ìĺ¤ íķĺìŀĲëĵľ
ë» ¥
å¿ Ĺ
Ġèµ ¤
ĠìĬ¤ë§¥ ëĭ¤ìļ´
ĠëŀĮë ³´
1 20
¬ »
ĠëıĦ ëł¨
Ġê¸° ìķ½
Ġëª¨ ëħĢ
êµ¬ ìĦĿ
Ġìĭł ìĬ¹
ĠìķĪ êµ¬
ìĿ¼ ì²´
Ġíĺķ ë²ķ
ì¸ Ħë¦¬
Ġë³¸ ìĹ°
Ġë¯¸ë ŀĢ
ĠO ld
Ġè ±
Ġè ¾
ĠìĦĿ ë©´
ĠìŀĶ ìĥģ
ĠíĺĦëĮĢ ê±´ìĦ¤
Ġ35 00
Ġin c
Ġê°ľìµľ êµŃ
Ġìĥģê¸ī ìŀĲ
é ĺ
ĠìĿ´ ìĦĿ
ĠìĿ´ ëłĲë¦¬ìķĦ
Ġìĸ´ ìĦł
Ġìĸ´ ì¿łìĬ¤íĭ±
ĠëĤĺ ëį°
Ġìĺ¤ ëĿ¼ë
ĠìķĦë ĥĲ
Ġìłľ íĥĢ
ĠíŀĪ íĤ¤
íĻĶ ê¸°
Ġê°ľ ê´Ģ
Ġìŀ¬ ìĦĿ
Ġì´Ī ìľł
ĠB Y
Ġì¢ħ êµ°
Ġë°ķ íĿ¬
ĠF riend
ĠìĻķ íĽĦ
ĠìĹ´ ìĹ°
Ġå °į
Ġì¦Ŀ ëĮĢ
Ġì·¨ íķŃ
Ġëĭ´ ëĭ´
ĠìĿµ ìĬ¤íĬ¸ë¦¼
Ġì»´ íĮĮ
ĠìĽ¨ ìĬ¤
us s
ĠíĺĪ ì¡±
Ġë¯¸ëĭĪ ë§µ
Ġìŀ¬íĮĲ ë¶Ģ
ĠíħĲ ë§Ī
ĠêµĲíĻ© ì²Ń
ĠìĿ¼ëłī íĬ¸ë¦Ń
ĠìľłëħĦ ê¸°
Ġì¹µ íħĮìĿ¼
Ġë³´ ìĿ¼ëŁ¬
ĠìĻĢ ëĭ¤
Ġìłķ ê°Ģ
Ġìļ° ì¦Ī
ĠìĦľ íĪ¬ë¥´
Ġëĭ¬ ëł¥
ĠìĬ ´
ì½Ķ ë¡ľ
Ġë²ł íĭ°
Ġíļ¨ ìŀĲ
ìĿ´ì§Ģ ë¦¬ìķĦ
ĠíĹĪ ìłĲ
ĠíĴį ìĦ±
ĠíĶ¼ë Ĥ
ĠíŀĪë¡ľ íĤ¤
Ġëħ¼ ìĤ°
ãģª ãĤī
ĠSp ir
ĠëĦ· ì§¸
Ġì½Ķìļ° íĥĢ
Ġê´Ģì¤ĳ ìĦĿ
Ġê¿° ì°¨
åº ¦
Ġì¹´ìŀĲ íĿĲ
ĠìĤ´ìĿ¸ë ²Ķ
ĠëĭĪë ħ¸
Ġìĭ¸ë Ĭĺ
ļ ¤
Ġê³ł êµ¬ë§Ī
Ġìĸ ½
ë¯¸ ìķĪ
ĠìļĶ íģ¬
Ġì½Ķ ëĭĪ
ãĤ ¶
ê´ ŃìĿ´
an y
ĠëĤľ ì§ķ
Ġs y
Ġê´´ ìķħ
Ġìļ¸ íĥĢë¦¬
Ġë£ ¸ë
ĠìķĪë °©
ãĤ¤ ãĥĪ
ĠíĻĶìĤ´ íĳľ
Ġìħ° íį¼ëĵľ
¹Ħì ¸ł
Ġì¤ĳìĪľ ìĸĳíķ¨
Ġë¬´ìļ© ì§Ģë¬¼
ĠìĹĺëįĶ ìĬ¤íģ¬ë¡¤
ĳ ł
Ġê°Ħ íĸī
ê·¸ë łĪìĿ´
ĠìĻĦë ´ī
Ġíĩ´ íķĻ
Ġë§¹ ê³µ
ON G
ĠìºĶ ìŀĲìĬ¤
ìĬ¤íĬ¸ë ¡±
ì¦Īë¯¸ ìķ¼
è¨ ĺ
ê°Ģë©´ ëĿ¼ìĿ´ëįĶ
U D
è ¥¿
ĠìĿĺ ìĿ¸
ĠìĿĺ ë³µ
Ġê³ł ìĺģ
Ġë³´ ë¡ľ
Ġìłķ ë¯¸
Ġì² ¼ë¡ľ
ĠìĬ¤ ë¬´
êµŃ ìłģ
Ġë°ľ ì¡±
ĠìĪ ľë°ľ
ĠìĬ¹ ë§Ī
Ġê± ¸ëłĪ
ĠL PG
he d
re w
ĠìĹĺ ëłĮ
Ġë³¸ë ĮĢ
ĠíĶĦëŀĳ ì½Ķ
Ġë¡ł ëıĦ
ĠíĥĦì ĭĿ
ĠìłľìĿ´ ë¯¸
Ġãģĭ ãĤī
Ġìĸ´ë²¤ ìłĢìĬ¤
Ġë¡ľë¹Ī ìĬ¨
Ġì§ĢìłĢ ë¶Ħ
ĠìķĦë°ľë ¡ł
ç Ł³
Ġíķĺ ìĤ°
ìĿ´ íĶĦ
Ġë³´ ëŀĮ
Ġìľł ëª¨
ê²Į íĭ°
ĠìĿ¸ ìĪł
ĠìĨĮ ìķĦ
ë¶Ģ ì§Ħ
ĠìĽĲ ê¸°
Ġë¶Ī ìĶ¨
Ġ19 07
Ġì¶Ķ ìĥģ
Ġíĺ¸ ìŀ¬
ĠíĮĲ ëĭ¤
Ġë³Ģ ê¸°
Ġì´Ŀ ë¬´
ëĦĪ íĭ°ë¸Į
ĠíĶĦë¡ľ ë¦¬ê·¸
Ġm l
Ġs up
[...]
