{"[PAD]":0,"[UNK]":1,"[CLS]":2,"[SEP]":3,"[MASK]":4,"!":5,"\"":6,"#":7,"$":8,"%":9,"&":10,"'":11,"(":12,")":13,"*":14,"+":15,",":16,"-":17,".":18,"/":19,"0":20,"1":21,"2":22,"3":23,"4":24,"5":25,"6":26,"7":27,"8":28,"9":29,":":30,";":31,"<":32,"=":33,">":34,"?":35,"@":36,"A":37,"B":38,"C":39,"D":40,"E":41,"F":42,"G":43,"H":44,"I":45,"J":46,"K":47,"L":48,"M":49,"N":50,"O":51,"P":52,"Q":53,"R":54,"S":55,"T":56,"U":57,"V":58,"W":59,"X":60,"Y":61,"Z":62,"[":63,"\\":64,"]":65,"^":66,"_":67,"`":68,"a":69,"b":70,"c":71,"d":72,"e":73,"f":74,"g":75,"h":76,"i":77,"j":78,"k":79,"l":80,"m":81,"n":82,"o":83,"p":84,"q":85,"r":86,"s":87,"t":88,"u":89,"v":90,"w":91,"x":92,"y":93,"z":94,"{":95,"|":96,"}":97,"~":98,"¡":99,"¢":100,"£":101,"¤":102,"¥":103,"¦":104,"§":105,"¨":106,"©":107,"ª":108,"«":109,"¬":110,"®":111,"¯":112,"°":113,"±":114,"²":115,"³":116,"´":117,"µ":118,"¶":119,"·":120,"¸":121,"¹":122,"º":123,"»":124,"¼":125,"½":126,"¾":127,"¿":128,"À":129,"Á":130,"Â":131,"Ã":132,"Ä":133,"Å":134,"Æ":135,"Ç":136,"È":137,"É":138,"Ê":139,"Ë":140,"Ì":141,"Í":142,"Î":143,"Ï":144,"Ð":145,"Ñ":146,"Ò":147,"Ó":148,"Ô":149,"Õ":150,"Ö":151,"×":152,"Ø":153,"Ù":154,"Ú":155,"Û":156,"Ü":157,"Ý":158,"Þ":159,"ß":160,"à":161,"á":162,"â":163,"ã":164,"ä":165,"å":166,"æ":167,"ç":168,"è":169,"é":170,"ê":171,"ë":172,"ì":173,"í":174,"î":175,"ï":176,"ð":177,"ñ":178,"ò":179,"ó":180,"ô":181,"õ":182,"ö":183,"÷":184,"ø":185,"ù":186,"ú":187,"û":188,"ü":189,"ý":190,"þ":191,"ÿ":192,"Ā":193,"ā":194,"Ă":195,"ă":196,"Ą":197,"ą":198,"Ć":199,"ć":200,"Ĉ":201,"ĉ":202,"Ċ":203,"ċ":204,"Č":205,"č":206,"Ď":207,"ď":208,"Đ":209,"đ":210,"Ē":211,"ē":212,"Ĕ":213,"ĕ":214,"Ė":215,"ė":216,"Ę":217,"ę":218,"Ě":219,"ě":220,"Ĝ":221,"ĝ":222,"Ğ":223,"ğ":224,"Ġ":225,"ġ":226,"Ģ":227,"ģ":228,"Ĥ":229,"ĥ":230,"Ħ":231,"ħ":232,"Ĩ":233,"ĩ":234,"Ī":235,"ī":236,"Ĭ":237,"ĭ":238,"Į":239,"į":240,"İ":241,"ı":242,"Ĳ":243,"ĳ":244,"Ĵ":245,"ĵ":246,"Ķ":247,"ķ":248,"ĸ":249,"Ĺ":250,"ĺ":251,"Ļ":252,"ļ":253,"Ľ":254,"ľ":255,"Ŀ":256,"ŀ":257,"Ł":258,"ł":259,"Ń":260,"Ġì":261,"Ġë":262,"ĠìĿ":263,"Ġê":264,"Ġí":265,"ĠìĹ":266,"Ġíķ":267,"ĠìĿ´":268,"Ġíķĺ":269,"Ġá":270,"ĠáĨ":271,"ĭ¤":272,"ĠáĨ«":273,"Ġ.":274,"ĸ´":275,"ĬĶ":276,"ĠìĹĲ":277,"Ġìĸ´":278,"ĠëĬĶ":279,"Ġê°":280,"Ġëĭ¤":281,"Ġê³":282,"§Ģ":283,"ìĿ":284,"Ġìŀ":285,"¡ľ":286,"ĠìĿĺ":287,"ìĦ":288,"ĠìĿĦ":289,"¼ë":290,"Ġê°Ģ":291,"Ġìł":292,"ë¦":293,"Ġìľ":294,"¸°":295,"Ġê²":296,"ĠìĹĪ":297,"Ġ,":298,"Ġìķ":299,"ìĦľ":300,"Ġë§":301,"ıĦ":302,"ë¦¬":303,"ìŀ":304,"ìł":305,"ìĿ´":306,"Ġê³ł":307,"Ġë¥":308,"Ĥĺ":309,"Ġì§Ģ":310,"Ġë¥¼":311,"ĠìĿĢ":312,"Ġë°":313,"Ĥ¬":314,"Ġëĵ":315,"ëĭ¤":316,"íķ":317,"Ĭ¤":318,"ĭľ":319,"ĮĢ":320,"Ġìľ¼ë":321,"ê³":322,"ì§Ģ":323,"Ġë³":324,"ê°":325,"ĠìĦ":326,"ĠëıĦ":327,"ìļ":328,"Ġê¸°":329,"¸ë":330,"ĠìŀĪ":331,"Ħë":332,"Īĺ":333,"Ĳĺ":334,"ĠëĲĺ":335,"Ġë¡ľ":336,"Ġê·":337,"ë§":338,"ìĬ¤":339,"ĠáĨ«ëĭ¤":340,"Ġë©":341,"Ġìĺ":342,"ĠìĹĲìĦľ":343,"Ġ1":344,"Ġìľ¼ë¡ľ":345,"Ġëª":346,"ê²":347,"êµ":348,"ê¸°":349,"ĠìĤ¬":350,"ĠáĨ¯":351,"Ŀ¼":352,"Ġë¶":353,"ìķ":354,"Įë":355,"Ġëĵ¤":356,"ĥģ":357,"Ġ2":358,"Ġë³´":359,"íķĺ":360,"ĠëĤĺ":361,"Ħì":362,"Ġìĭľ":363,"Ġ)":364,"Ġëį":365,"Ġ(":366,"ê³ł":367,"ĠëĮĢ":368,"Ġëĭ":369,"ĠìĪĺ":370,"ë¥":371,"ĠìĻ":372,"£¼":373,"ëł":374,"ĠìŀĲ":375,"Ġê²Į":376,"ëĭ":377,"Ġë¬":378,"ëĵ":379,"ì¹":380,"ìĹ":381,"Ġë²":382,"íĬ":383,"ĠëĤ":384,"Ġêµ":385,"Ġê²ĥ":386,"ìĭ":387,"Ġëħ":388,"ìĭľ":389,"ê°Ģ":390,"±°":391,"ľë":392,"Ġê³¼":393,"ëĤĺ":394,"Ġë©´":395,"íĥ":396,"Ġê·¸":397,"Ġìłģ":398,"ëıĦ":399,"ìŀ¥":400,"ìĤ¬":401,"ë¥´":402,"ìĺ":403,"ĠíĻ":404,"Ġìĺ¤":405,"ĠìĽ":406,"ë§Į":407,"ıĻ":408,"ĠìĨ":409,"ìļ°":410,"Īë":411,"ìŀĲ":412,"Ġìļ":413,"Ġì§":414,"¤ĳ":415,"Ġì£¼":416,"Ġìĭ":417,"íĬ¸":418,"Ġì°":419,"Ġë¹":420,"ĠíĮ":421,"ëį":422,"Ġë¶Ģ":423,"Ġíĺ":424,"ĠìĻĢ":425,"Ġì¹":426,"ŀĪ":427,"Ħ°":428,"ìĿ¸":429,"Ġìłķ":430,"Ġìĥģ":431,"Ġëķ":432,"¯¸":433,"ĠëĿ¼":434,"íĻ":435,"Ġì²":436,"ë¡ľ":437,"Ġ'":438,"Ġëª¨":439,"ìľ":440,"ëŀ":441,"ĠìĬ¤":442,"Ġê±°":443,"Ġíĥ":444,"ìłķ":445,"Ġìĸ´ìĦľ":446,"Ġê·¸ë":447,"ë¶":448,"¡°":449,"ëĵľ":450,"íĦ°":451,"ëŁ":452,"ĠìĿ¼":453,"ìĸ´":454,"Ġë§Ī":455,"ìĽ":456,"ĠìķĦë":457,"Ġê³µ":458,"ë°":459,"ìĨ":460,"ì²":461,"ì¹ĺ":462,"Ġê¹":463,"Ŀ¼ë":464,"Ġê²½":465,"ģ¬":466,"ìĪĺ":467,"ĠíĶ":468,"Ġ3":469,"ĠìłĦ":470,"ĠëħĦ":471,"íĺ":472,"ĠìĹĨ":473,"Ġíı":474,"ìłĦ":475,"Ġì¤ĳ":476,"Ġë§Į":477,"ĥĿ":478,"Ĥ¤":479,"Ġ20":480,"íĶ":481,"ìļ©":482,"ìĥģ":483,"ëį°":484,"Ġìľł":485,"Ġì¶":486,"ì§":487,"ê²Į":488,"Ġì§Ģë§Į":489,"Ġ-":490,"Ĭ¹":491,"ìĺ¤":492,"ëĮĢ":493,"êµŃ":494,"ĭĪ":495,"¬¸":496,"ìĭł":497,"Ġíķľ":498,"©´":499,"Ġëĵ±":500,"ĠìĦ±":501,"ë³":502,"ĽĦ":503,"ìłľ":504,"ëª":505,"Ġë¬´":506,"ĠìķĬ":507,"ëĿ¼":508,"ê·":509,"êµ¬":510,"ĠìĿ¸":511,"ĠìĹĲê²Į":512,"Ġëįĺ":513,"ë²":514,"Ĥ´":515,"ìĦ±":516,"ê²©":517,"Ġìĸ":518,"ê¸":519,"íĤ¤":520,"ëł¥":521,"Ġìłľ":522,"´Ģ":523,"ĠëĿ¼ë":524,"ì¦":525,"Ġë©°":526,"Ġì¢":527,"Ġ:":528,"íĨ":529,"ì°":530,"íĮ":531,"ĠìĹ¬":532,"Ġì¡°":533,"Ġëł":534,"ĠëĤ´":535,"Ġ\"":536,"ĠíŀĪ":537,"ĠìľĦ":538,"ĠëĶ":539,"ļĮ":540,"ëĬĶ":541,"ĠëıĻ":542,"íĥĢ":543,"ĠëĦ":544,"Ġë°Ķ":545,"ĸī":546,"ìĽĲ":547,"ĳĲ":548,"Ġìŀ¥":549,"ĠìķĦ":550,"Ġë§Ĳ":551,"£¨":552,"Ĭ¥":553,"Ġ4":554,"Ġë°©":555,"íĻĶ":556,"½Ķ":557,"ĠìĽĶ":558,"ìķ¼":559,"ê°Ħ":560,"¦¬":561,"ĠëķĮ":562,"ĠìĦł":563,"Ġì´":564,"Ġì°¨":565,"Ġì£":566,"ë¯¸":567,"Ġêµ¬":568,"ĠìĥĿ":569,"Ġíİ":570,"ĠìĨĮ":571,"ĠìĹ°":572,"Ġëĭ¹":573,"Ġìĺģ":574,"Ġìĭł":575,"Ġ201":576,"íĭ":577,"ë¶Ģ":578,"Įë¬¸":579,"ĠíĥĢ":580,"ŀĺ":581,"ĠìķĪ":582,"ĠíĻĶ":583,"ìĸ":584,"íģ¬":585,"Ġê¹Į":586,"Ġëı":587,"ë¹":588,"ĠëķĮë¬¸":589,"ĠëĬĶëį°":590,"ĠíĨ":591,"ĠìĦ¸":592,"¬´":593,"ëĭĪ":594,"Ġê¸":595,"ë¡":596,"ìŀĳ":597,"Ġ5":598,"Ġê°ľ":599,"Ġã":600,"íŀĪ":601,"ì£¼":602,"ĠëįĶ":603,"ìĿĺ":604,"ìķĦ":605,"Ġë²Ħ":606,"ë©´":607,"ë§Ī":608,"00":609,"Ġê¹Įì§Ģ":610,"ìĬ":611,"Ł¬":612,"ĠìĽĲ":613,"ĠìķĦëĭĪ":614,"Ġê°ķ":615,"Ġë¯¸":616,"ì²´":617,"ìŀ¬":618,"Ġì¹´":619,"ĠìĿ¼ë":620,"©°":621,"Ġìĭ¤":622,"Ġë°ľ":623,"ĠëĨ":624,"ĠëĿ¼ê³ł":625,"ì¹´":626,"ĠëĿ¼ëĬĶ":627,"ëıĻ":628,"Ġìµ":629,"Ġê°Ļ":630,"Ġë°Ľ":631,"ìĿ¼":632,"Ĥ°":633,"íĽĦ":634,"±´":635,"ìĻ":636,"ĠëĤĺìĺ¤":637,"ê³Ħ":638,"Ġë¦¬":639,"Ġëªħ":640,"ìĨĮ":641,"ĪìĿ´":642,"Ġëį°":643,"ìĭĿ":644,"íħ":645,"Ġíķ´":646,"Ġâ":647,"Ġëĭ¤ê³ł":648,"Ġëĭ¨":649,"Ġë§İ":650,"ê±°":651,"Ġìļ°":652,"Ġë¹Ħ":653,"íı":654,"íĸī":655,"Ġê²°":656,"Ġë¬¸":657,"Ī¬":658,"Ġë²Ī":659,"Ġíģ¬":660,"ì¦Ī":661,"Ġ..":662,"Ġë°ĺ":663,"Ġìĵ":664,"ëĭ¹":665,"ëĬ¥":666,"Ġíı¬":667,"Ġê´Ģ":668,"ëŀĮ":669,"ìŀĦ":670,"ìĭ¤":671,"Ġë³´ìĿ´":672,"¬¼":673,"Ġë¯":674,"ì¶":675,"ëĦ":676,"ìĿĮ":677,"ĠìĦľ":678,"ê³µ":679,"Ġë©´ìĦľ":680,"ĠíĬ¹":681,"Ġìĵ°":682,"Ġìŀĳ":683,"ëŁ¬":684,"Ġ/":685,"êµĲ":686,"ìĦł":687,"íĶĦ":688,"ìľł":689,"íķĻ":690,"Ġê²½ìļ°":691,"Ġì²ĺ":692,"ĠíĮĮ":693,"ĠìĹŃ":694,"ĠìķĮ":695,"Ġë¶Ī":696,"ìĪ":697,"íĭ°":698,"íĨł":699,"ĠëĤ¨":700,"Ġìµľ":701,"Ġë°°":702,"ĵľ":703,"Ġë§Įë":704,"ëħ":705,"Ġì¹ĺ":706,"Ġ6":707,"ìłĲ":708,"Ġ...":709,"Ġìľ¼ë©°":710,"ìľĦ":711,"ĳľ":712,"ê°ģ":713,"Ġëĭ¤ëĬĶ":714,"ìĹŃ":715,"ĠìĤ¬ìļ©":716,"ĠS":717,"ĠíĽĦ":718,"ë¶Ħ":719,"Ġ19":720,"íķľ":721,"ë¹Ħ":722,"ë£¨":723,"ìħ":724,"ëĭ¨":725,"ê³¼":726,"ĠíļĮ":727,"ëªħ":728,"ĠëĳĲ":729,"Ġë¨":730,"ĠìŀĲìĭł":731,"Ġëª»":732,"ĠìļĶ":733,"ì¡°":734,"ìłĢ":735,"Ġì¶Ķ":736,"ĠìĪ":737,"ìļĶ":738,"ĠìķĦì":739,"Ġíİ¸":740,"Ġëģ":741,"Ġëĺ":742,"¤Ģ":743,"ĠìĿ´íĽĦ":744,"ĶĶ":745,"ìĥĿ":746,"ĠìłĲ":747,"ì¤ĳ":748,"Ġëĭ¬":749,"ĠíĽ":750,"Ġìº":751,"ìĹ°":752,"íİ":753,"Ġê·¸ë¦¬":754,"Ġì¢ĭ":755,"ë¸":756,"ì¡":757,"Ġê³µê²©":758,"ĠìłĦì":759,"ĠíĿ":760,"Ġ7":761,"ĠìłķëıĦ":762,"Ġë§¤":763,"ĠìĤ¬ëŀĮ":764,"ĠëĶ°":765,"ìĤ°":766,"Ġì½Ķ":767,"íĥľ":768,"Įëł":769,"Ġìĸ´ë":770,"Ġê¶":771,"Ġ!":772,"ĠìłĢ":773,"ĠíĹ":774,"Ġìĸ´ìķ¼":775,"ê´Ģ":776,"Ġìŀ¬":777,"ĠêµŃ":778,"ĠíĨµ":779,"ĠíķĻ":780,"Ġìĥ":781,"ĠìĬ":782,"Ġ8":783,"Ġì¶ľ":784,"Ġê°Ĳ":785,"ëĤ´":786,"ĠêµĲ":787,"ë¡Ŀ":788,"íļĮ":789,"ĠíĮ¨":790,"Ġì¦":791,"ĠáĨ·":792,"ìķĪ":793,"Ġì±":794,"ê¸ī":795,"íĺ¸":796,"ĠëĺĲ":797,"ê¸Ī":798,"ãģ":799,"ì§Ħ":800,"ì½Ķ":801,"Ġìŀħ":802,"ìĹĲ":803,"ĠA":804,"íķ´":805,"ĠíĶ¼":806,"¸ë¦¬":807,"Ġ10":808,"ìĬµ":809,"ìĦ¸":810,"°ĺ":811,"ĠìľĦíķĺ":812,"Ġê°ĢëĬ¥":813,"ìłģ":814,"ĠíĶĦë":815,"ë¥¸":816,"ĠìłĦë":817,"ì¢":818,"ê²½":819,"Ġíĺķ":820,"ĠM":821,"ìĺģ":822,"Ġì´Ī":823,"ëŀĺ":824,"Ġ0":825,"Ġë¶ĢíĦ°":826,"Ġë¸":827,"ì¸":828,"Ġíķ¨":829,"êµ°":830,"ĠëĪ":831,"Ġêµ°":832,"ë³´":833,"Ġ9":834,"Īë²":835,"ĠìĨį":836,"ĠëĮĢíķĺ":837,"Ġì»":838,"Ġì°¸":839,"Ġì§Ħ":840,"Ġë²Ħë¦¬":841,"Ġê°Ģì§Ģ":842,"ĠìĦ¤":843,"Ġë³´ëĭ¤":844,"ë¦Ħ":845,"Ġê¹Ģ":846,"Ġíıī":847,"ĠíĬ":848,"Ġì£¼ë":849,"ĠìĤ´":850,"ìĨį":851,"ê¹":852,"ĠìĭľíĤ¤":853,"ĠëĬ":854,"ĠìĺĪ":855,"Ġì£½":856,"ĠC":857,"ì°¨":858,"ëĳĲ":859,"¿ł":860,"ì¢ħ":861,"¯¼":862,"íĨµ":863,"ê·¸":864,"íĶ¼":865,"Ġëĵ±ìŀ¥":866,"Ġì¡":867,"Ġìĸ´ëıĦ":868,"Ġíļ":869,"íĴ":870,"Ġ~":871,"ìĹħ":872,"Ġ%":873,"Ġê´":874,"ì¤Ģ":875,"ĠìĿĮ":876,"Ġë©Ķ":877,"¶Ģ":878,"ĠëĭĪ":879,"ë¬¼":880,"ĠìºĲ":881,"ĠëĬĶëĭ¤":882,"ìħĺ":883,"ĠëĴ":884,"ëĤ":885,"íĪ¬":886,"ĸ¥":887,"ĠëıĮ":888,"ê±´":889,"Ġìľ¼ëĤĺ":890,"ĠB":891,"ìĬ¤íĬ¸":892,"ìĸĳ":893,"íı¬":894,"Ġì§ģ":895,"Ġì¢ħ":896,"íĹ":897,"ë¬´":898,"Ġê·¸ë¦¬ê³ł":899,"ĠìĿ´ëĤĺ":900,"ĠT":901,"Ġê²ĮìŀĦ":902,"Ġíĺ¸":903,"Ġìĭ¬":904,"ëı":905,"ãĥ":906,"ĠíĮĲ":907,"ì»":908,"Ġìŀĺ":909,"ĠìĤ¬ìĭ¤":910,"ĠìĬ¹":911,"Ġë§ŀ":912,"ë²Ħ":913,"ĠìķĦìĿ´":914,"ë£":915,"íĮĮ":916,"Ġëŀ":917,"ìŀħ":918,"Ġëĵ¯":919,"Ġëĭ¤ë¥¸":920,"ĠíĮĢ":921,"Ġìļ©":922,"ìĪł":923,"ĠíĺĦ":924,"er":925,"Ġëĵľë":926,"ë¦Ń":927,"ģ´":928,"Ġê¶Į":929,"Ġë³¸":930,"ìĭ¬":931,"ĠíĻķ":932,"Ġì²´":933,"ì´":934,"ĵ¤":935,"Ġë³Ģ":936,"Ġë°ķ":937,"ĠëĴ¤":938,"ª½":939,"íĮĲ":940,"ìĬ¹":941,"Ġê±´":942,"Ġëĭ¤ê°Ģ":943,"ìĥ":944,"Ġíĸī":945,"ĠD":946,"Ġìķł":947,"íĻ©":948,"Ġ+":949,"ëª¨":950,"ë¸Į":951,"Ġëª¨ìĬµ":952,"ê»":953,"ìķ½":954,"ê°ľ":955,"Ġê³Ħ":956,"Ġëĸ":957,"ìļ´":958,"Ġ?":959,"ģ¼":960,"ì¸ł":961,"ĠìĤ":962,"Ġì§ĳ":963,"§Ī":964,"ì¡±":965,"©Ķ":966,"Ł°":967,"Ġê²½ê¸°":968,"Ġëħ¸":969,"Ġê·¸ëŁ¬":970,"Ġê·¸ëł":971,"Ġìķ¼":972,"Ġë¶Ħ":973,"Ġìķ½":974,"íĬ¸ë":975,"¡ł":976,"Ġìļ´":977,"íĳľ":978,"Ġë¹Ħì":979,"ĠëĨĴ":980,"Ġíħ":981,"¼Ģ":982,"ĠíķĺëĤĺ":983,"ì§Ģë§Į":984,"ĠíĨł":985,"ĠìĻ¸":986,"ìĦĿ":987,"Ġê±":988,"Ġëł¤":989,"¸ëĭĪ":990,"ĠP":991,"Ġëª©":992,"ìĦ¤":993,"ê»ĺ":994,"³¸":995,"ë°Ķ":996,"ãĤ":997,"ĠìĿ´ìĥģ":998,"Ġìĸĳ":999,"ĮëłĪìĿ´":1000,"ĠL":1001,"íħĮ":1002,"ëłĪ":1003,"Ġê±°ëĤĺ":1004,"ë¬¸":1005,"ë§¤":1006,"Ġë¬¸ìłľ":1007,"ìĻ¸":1008,"íĴĪ":1009,"ĠìĤ¬ìĿ´":1010,"ĠëłĪ":1011,"in":1012,"Ġìĭľê°Ħ":1013,"ìłĪ":1014,"Ġë¨¹":1015,"ĠëĶ°ë¥´":1016,"ĠëĤł":1017,"Ġìĭľìŀĳ":1018,"ĠìĥģëĮĢ":1019,"ĠíĪ¬":1020,"ëł¹":1021,"Ġìľ¼ë©´":1022,"Ġíķ¨ê»ĺ":1023,"Ġë³ĳ":1024,"ĠâĢ":1025,"Ġ200":1026,"Ġìŀ¡":1027,"íĸ¥":1028,"íĺķ":1029,"Ġê°ģ":1030,"Ġíķĺì§Ģë§Į":1031,"Ġë¬¼ë":1032,"ê´":1033,"Ġì¡´":1034,"ĠF":1035,"ĠìĥĿê°ģ":1036,"ĠãĢ":1037,"ë°©":1038,"ĠìĻķ":1039,"Ġìłľë":1040,"Ġ12":1041,"ĠìĨĲ":1042,"ĠíĤ¤":1043,"Ġíŀĺ":1044,"Ġê·¸ëłĩ":1045,"ĠëĬ¥":1046,"ëł¤":1047,"íķ©":1048,"ë£Į":1049,"ĠìĿ´ë¦Ħ":1050,"Ġê²ł":1051,"ĠíķľêµŃ":1052,"ìĸ¸":1053,"Ġãģ":1054,"ĠìĨĮë":1055,"ĠìĹ´":1056,"ëŁ¼":1057,"ĠìĿ¸ë":1058,"ĠìĦľë":1059,"Ġì¸":1060,"Ġëĭ¤ìĭľ":1061,"ì§ģ":1062,"ĠìĿ¼ë³¸":1063,"ĠëĶĶ":1064,"Ġë§ī":1065,"Ġëĭ¹íķĺ":1066,"Ġå":1067,"¥´":1068,"Ŀ½":1069,"ê²ĥ":1070,"ëĵł":1071,"an":1072,"ĠíĴ":1073,"Ġíĳľ":1074,"ĠëģĿ":1075,"ĠíıŃ":1076,"ĠìĪľ":1077,"Ġëħ¸ë":1078,"ĠI":1079,"ĠìºĲë¦Ń":1080,"ĠìĭĿ":1081,"ëł¨":1082,"ëĶĶ":1083,"Ġëıħ":1084,"Ġë£¨":1085,"ì¦Į":1086,"íĻĺ":1087,"Ġìĺ¬":1088,"Ġì´Ŀ":1089,"ìĬ¤íĦ°":1090,"on":1091,"Ġë²ł":1092,"į¼":1093,"ĠG":1094,"Ġê³Ħì":1095,"ĠëĦ¤":1096,"ĠíĶĮëłĪìĿ´":1097,"ĠìºĲë¦ŃíĦ°":1098,"ë§Ŀ":1099,"Ġíģ´":1100,"Ġì²ĺëŁ¼":1101,"ë°ľ":1102,"ĠáĨ«ì§Ģ":1103,"Ġë³µ":1104,"Ġëĭ¹ìĭľ":1105,"ĠáĨ«ëį°":1106,"Ġë¯¸ë":1107,"íĹĺ":1108,"ë¨":1109,"Ġì¦Ŀ":1110,"ë¯¼":1111,"ĠëĺĲíķľ":1112,"ĠìĥģíĻ©":1113,"Ġë§Įëĵ¤":1114,"ëĦĪ":1115,"Ġ11":1116,"íĿ":1117,"Ġê°Ħ":1118,"Ġê°Ģìŀ¥":1119,"ĠëĬ¥ëł¥":1120,"ëŁ°":1121,"ĠK":1122,"Ġë¬¼":1123,"ĠíĦ°":1124,"ĠE":1125,"ĠìĬ¤í":1126,"ĠíķŃ":1127,"ĠìľĦì":1128,"Ġê²°êµŃ":1129,"Ġìĭľì¦Į":1130,"ì¶ľ":1131,"Ġë¹ł":1132,"ĠR":1133,"ëĵ¤":1134,"ħĢ":1135,"Ġë¿":1136,"Ġëª»íķĺ":1137,"ê°Ĳ":1138,"Ġê²Ģ":1139,"Ġëľ":1140,"·¨":1141,"Ġìĥģíĥľ":1142,"ëįĶ":1143,"íĺĦ":1144,"ĠíĶĦë¡ľ":1145,"Ġíļ¨":1146,"ì¿ł":1147,"ëŁī":1148,"ªħ":1149,"ĠìĶ":1150,"ëħ¸":1151,"Ġëª¨ëĳĲ":1152,"Ġë¹Ħë":1153,"ì¶Ķ":1154,"ìĨ¡":1155,"ĠëĦĺ":1156,"ĠëĬĲ":1157,"Ġëĥ":1158,"ê·¸ë":1159,"Ģë¡ľ":1160,"ĮĢë¡ľ":1161,"ë§ī":1162,"Ġê´ĳ":1163,"Ġì§Ħì":1164,"Ġìĺ¤ë¥´":1165,"Ġì¶©":1166,"ľëıĻ":1167,"Ġëĭ¤ë§Į":1168,"ë³¸":1169,"Ġì²ľ":1170,"ìĿ´íĬ¸":1171,"ª¨":1172,"ëıħ":1173,"ë¦½":1174,"Ġëĭ¤ë¥´":1175,"ĠH":1176,"ìļ¸":1177,"ĠáĨ«ëĭ¤ëĬĶ":1178,"Ġìķŀ":1179,"Ġì¶Ķê°Ģ":1180,"ł¥":1181,"ì²ľ":1182,"Ġë°±":1183,"Ġë¸Ķ":1184,"Ġìĭ¸":1185,"ĠíĽĦë":1186,"ë¥ĺ":1187,"Ġê°ľë":1188,"ê²°":1189,"Ġìĸ¸":1190,"Ġëĭ¬ë¦¬":1191,"ëĿ¼ë":1192,"Ġìķħ":1193,"Ġ15":1194,"Ġëª¨ëĵł":1195,"ĥ¥":1196,"or":1197,"ĠíķĦ":1198,"ĦëĮĢ":1199,"Ġê¸ī":1200,"ê¶":1201,"ìĥī":1202,"ëŁ½":1203,"Ġì½":1204,"ìĹ¬":1205,"Łģ":1206,"ĠìĹħ":1207,"ĠN":1208,"ê·¼":1209,"Ġíİĺ":1210,"íİĺ":1211,"ìķħ":1212,"ar":1213,"ë¦¼":1214,"ĠìłĦíĪ¬":1215,"at":1216,"ĠìĤ¼":1217,"ì´Ī":1218,"ëŀĳ":1219,"Ġì¡´ìŀ¬":1220,"Ġíķ©":1221,"ì²Ń":1222,"Ġì¹ľ":1223,"ìĤ´":1224,"ë¦°":1225,"Ġt":1226,"ìĻĢ":1227,"Ġë¡":1228,"Ġìĭľë¦¬":1229,"Ġê³¡":1230,"Ġæ":1231,"ĠíĺĦìŀ¬":1232,"ĠìĹ¬ê¸°":1233,"Ġíĥľ":1234,"Ġìī":1235,"ëĦ¤":1236,"Ġë§¤ìļ°":1237,"ĠìĦłìĪĺ":1238,"ĠìĦ¸ë":1239,"Ġë¬¼ë¡ł":1240,"Ġê¸¸":1241,"²Ħ":1242,"ë°°":1243,"ĠìĦ¸ê³Ħ":1244,"Ġê·¸ëŁ¬ëĤĺ":1245,"Ġìĥģëĭ¹":1246,"ë³ĳ":1247,"ĠëĨĵ":1248,"ĠíĬ¸ë":1249,"ìłĳ":1250,"Ġì¹´ëĵľ":1251,"Ģë¦¬":1252,"Ħ´":1253,"Ġíĭ":1254,"íĥĿ":1255,"´ī":1256,"ë³µ":1257,"ëĵ±":1258,"Ġê·¸ëŁ°":1259,"Ġì±Ħ":1260,"Ĩį":1261,"ĠíĨµíķĺ":1262,"ĠíĮ¬":1263,"ì»¤":1264,"Ġë°ı":1265,"Ġì»¤":1266,"Ġm":1267,"ê¹Į":1268,"ĠìĻĦ":1269,"¤Ħ":1270,"Ġë²ķ":1271,"ëĭ´":1272,"ìĿĢ":1273,"Ġì·¨":1274,"ĠìĬ¤íĤ¬":1275,"ĠìĤ°":1276,"Ġì°¾":1277,"Ġëĵ£":1278,"ĠìŀĲì²´":1279,"íİ¸":1280,"Īë²ķ":1281,"ì²ĺ":1282,"Ġìĭľë¦¬ì¦Ī":1283,"ë¯¸ì§Ģ":1284,"Ġê¸Ī":1285,"Ġì°½":1286,"Ġìĭ¤ìłľ":1287,"ë²ķ":1288,"ĠìĹĶ":1289,"ì¡´":1290,"íį¼":1291,"ĠìĿ´ìľł":1292,"ë©Ķ":1293,"Ġê·¹":1294,"en":1295,"³´":1296,"Ġìĸ»":1297,"Ġëĭ¤ë©´":1298,"ĠëĿ¼ìĿ´":1299,"Ġë¿Ĳ":1300,"íķ¨":1301,"ĠìĿ´ëŁ°":1302,"Ġê³¨":1303,"ĠëĤĺê°Ģ":1304,"Ġë¶Ģë¥´":1305,"ìª½":1306,"¹Ħ":1307,"Ġëĸ¨":1308,"¹ĺ":1309,"Įë¦¬":1310,"Ġê³³":1311,"ĠëłĪë²":1312,"ê²¬":1313,"Ġë¬´ê¸°":1314,"Ġë§Īë":1315,"íķĻêµĲ":1316,"ĠíĻ©":1317,"ë§Ĳ":1318,"ĠíĻľ":1319,"íĮ¨":1320,"ĠáĨ«ëĭ¤ê³ł":1321,"Ġì²«":1322,"íħľ":1323,"Ġíļ¨ê³¼":1324,"ëĿ½":1325,"Ġìĸ´ëĸ":1326,"ì§Ī":1327,"ê°ķ":1328,"ĠìĿ´ìļ©":1329,"Ġê·¸ëŀĺ":1330,"Ġë§Įëĵľ":1331,"íķŃ":1332,"ĠâĨ":1333,"ĠW":1334,"ĠëŁ¬":1335,"Ġë¶Ģë¶Ħ":1336,"Ġê·¼":1337,"Ġì£¼ìĿ¸":1338,"Ġë¶Ļ":1339,"Ġ#":1340,"ĠìĬµ":1341,"ĠìĹŃìĭľ":1342,"Ġê¸°ìĪł":1343,"ì£":1344,"ê¸Ģ":1345,"Ġë°Ķë¡ľ":1346,"Ġì²Ń":1347,"ĠëłĪë²¨":1348,"Ġëª¨ë¥´":1349,"ŀĢ":1350,"Ġê½":1351,"al":1352,"Ġì²ĺìĿĮ":1353,"Ġê±°ìĿĺ":1354,"Ġëĳ":1355,"Ġë³Ħ":1356,"Ġì§ĢìĹŃ":1357,"Ġë§Īë²ķ":1358,"°ľ":1359,"Ġë¯¼":1360,"ĬĲ":1361,"íĥĦ":1362,"he":1363,"ĠO":1364,"íļ":1365,"ĠìĿ´ë²":1366,"íĭĢ":1367,"Ġì´Īë":1368,"Ġì¤Ħ":1369,"ì¼Ģ":1370,"ìĻķ":1371,"Ġê¸°ë¡Ŀ":1372,"Ġ18":1373,"ĠìĿ´ìķ¼":1374,"ìĿ¼ë":1375,"íĥĪ":1376,"ĠíĬ¹íŀĪ":1377,"ĠíķĦìļĶ":1378,"íģ¼":1379,"Ġì²ł":1380,"ĠìĿ¸íķĺ":1381,"st":1382,"ĭ¨":1383,"ĠìĬ¤íĥĢ":1384,"ëłµ":1385,"Ġìĺ¬ë¦¬":1386,"ĠìĹ¬ëŁ¬":1387,"ĠìķĦë¬´":1388,"ĠëłĪìĿ´":1389,"ĠìĤ¬ê±´":1390,"ĠëĥĲ":1391,"Ġ16":1392,"ìĽĢ":1393,"Ġë²Į":1394,"ìĿ´ìĬ¤":1395,"Ġìŀł":1396,"ĠëĤľ":1397,"ëĶ":1398,"ì§ĳ":1399,"Ġíŀ":1400,"Ġë³¸ìĿ¸":1401,"Ġíķ´ëĭ¹":1402,"Ġë¶Ħë":1403,"ĠëĪĪ":1404,"ëģ":1405,"Ġëĭ¤ìĿĮ":1406,"Ġìª½":1407,"ĠìĿ´ìķ¼ê¸°":1408,"ĠíĻĺ":1409,"ĠëıĻìķĪ":1410,"ë°ĺ":1411,"Ġ30":1412,"ë¯":1413,"ìķĦë":1414,"ĠìĺģíĻĶ":1415,"ĠëĬĶì§Ģ":1416,"Ġê²©":1417,"Ġë¶ģ":1418,"ì±":1419,"ĠìĬĪ":1420,"ìĿ´ì§Ģ":1421,"Ġì¢Ģ":1422,"Ġíľ":1423,"Ġë°©ìĨ¡":1424,"Ġë°ĸ":1425,"Ġë²Ķ":1426,"Ġì§¸":1427,"Ġê·Ģ":1428,"Ġ199":1429,"ĠìĿ¼ë°ĺ":1430,"Ġì¦ī":1431,"ì§Ģë§ī":1432,"Ġê°ĻìĿ´":1433,"ĠëĦĪ":1434,"Ġ2017":1435,"Ġë¯¸êµŃ":1436,"20":1437,"ĠìĿ¸ê°Ħ":1438,"¨ë¦¬":1439,"ê´´":1440,"Ġ100":1441,"ëĵĿ":1442,"Ġê¼":1443,"Ġì§Ħíĸī":1444,"Ġ13":1445,"ĠìŀĲê¸°":1446,"ĠìĥĿê¸°":1447,"ĠìĿ¸ë¬¼":1448,"¾¸":1449,"§ģ":1450,"ì½":1451,"Ġë°Ŀ":1452,"ĠìĿĺíķĺ":1453,"Ġëĭ´":1454,"ëª©":1455,"ħ¸":1456,"ĠëĿ¼ë©´":1457,"Ġëĭ¤ëĭĪ":1458,"ĠV":1459,"Ġê¸°ë³¸":1460,"Ġì¿ł":1461,"ĠáĨ¸ëĭĪ":1462,"ë²Ķ":1463,"Ġê´Ģëł¨":1464,"ìľ¼":1465,"Ġëįķ":1466,"ë¨¸":1467,"Ġì°¸ê³ł":1468,"Ġë§Īì§Ģë§ī":1469,"Ġìŀĩ":1470,"ë¡ł":1471,"ë¦¬ìķĦ":1472,"ĠíĹĪ":1473,"ì°©":1474,"Ġì£¼ìĿ¸ê³µ":1475,"Īë¬´":1476,"Ġìĭ¶":1477,"ì°¬":1478,"ìľ¡":1479,"ĠáĨ«ê°Ģ":1480,"Ġê·¸ëĥ¥":1481,"ĠìŀĳíĴĪ":1482,"Ĭ·":1483,"Ġìľ¼ëĭĪ":1484,"Ľ°":1485,"Ġìħ":1486,"ìĨĮë":1487,"ĠìĪĺì¤Ģ":1488,"Ġìī½":1489,"ĠU":1490,"ĩ´":1491,"ê³¡":1492,"Ġ14":1493,"ĠíĮĶ":1494,"ĠëŀĢ":1495,"ĠáĨ¸ëĭĪëĭ¤":1496,"Ġë¸Įë":1497,"ĠìĿ´ê²ĥ":1498,"ĠëĦ£":1499,"ĠáĨº":1500,"Ġë¹ĦìĬ·":1501,"Ġë§Įíģ¼":1502,"ĠëĤ´ìļ©":1503,"ĠíħĮ":1504,"ëŀĢ":1505,"Ġëĵľ":1506,"Ġëªĩ":1507,"Ġê³ĦìĨį":1508,"ì°°":1509,"Ġs":1510,"Ġë°©ìĸ´":1511,"ĠëŃ":1512,"Ġê¸°ìĹĲ":1513,"ĠìķĶ":1514,"Ġëĳĺ":1515,"Ġì¼Ģ":1516,"ĠìĿ¼ë¶Ģ":1517,"Ġê±¸":1518,"Ġì§ĢëĤĺ":1519,"ê¶Į":1520,"łĪ":1521,"ĠìĥĪë":1522,"ou":1523,"Ġìĸ¼":1524,"re":1525,"íĻľ":1526,"Ħë¦¬":1527,"ë°ķ":1528,"íĿ¬":1529,"Ġìĸ´ëĬĲ":1530,"ĠëĮĢíĳľ":1531,"ĠëĤ´ë¦¬":1532,"ĠìķĮë¦¬":1533,"ìĶ":1534,"ì¼":1535,"ī´":1536,"Ġ17":1537,"ì¹Ń":1538,"ĠíĹ¤":1539,"¼ë§Ī":1540,"ê±°ë¦¬":1541,"Ġë°ĿíŀĪ":1542,"íĺ¼":1543,"Ġëª°":1544,"Ġëª¸":1545,"ĠíĶ¼íķ´":1546,"Ġì¤Ģ":1547,"Ħì²":1548,"it":1549,"Ġë§ĮëĤĺ":1550,"ë¦¬ìĬ¤":1551,"ĠâĨĴ":1552,"le":1553,"ìĪľ":1554,"Łī":1555,"ìĿĦ":1556,"ĠìĹĺ":1557,"Ġë§¡":1558,"ĠëĮĢìĭł":1559,"Ġìłľìŀĳ":1560,"ëģ¼":1561,"Ĥ¨":1562,"ê´ĳ":1563,"íĨłë¦¬":1564,"Ġì£½ìĿ´":1565,"Ġìĸ´ëłµ":1566,"Ġç":1567,"ìĽĮ":1568,"ê·¹":1569,"Ġê·¸ëĮĢë¡ľ":1570,"ë¶Ģë¶Ħ":1571,"ìĿĳ":1572,"ìķł":1573,"Ġê¸°ìĤ¬":1574,"ĠíĺĦì":1575,"ëħĦ":1576,"ĠíĻľëıĻ":1577,"°©":1578,"ĠëĽ°":1579,"ëĭ¬":1580,"ì§ķ":1581,"Ġì§Ģê¸Ī":1582,"Ġë³´ëĤ´":1583,"Ġê¸Ģ":1584,"ëĵľë":1585,"Ġê´Ģê³Ħ":1586,"Ġë¦¬ê·¸":1587,"ĠìĦ±ê³µ":1588,"Ġíıīê°Ģ":1589,"Ġíĭ°":1590,"Ġê¸°ì¤Ģ":1591,"ĠëĤ®":1592,"íĦ´":1593,"ĠëĬĺ":1594,"ĠíĶĮë":1595,"ë¸Ķ":1596,"Ġìłĳ":1597,"ĠìłľìĻ¸":1598,"Ġê±°ë¦¬":1599,"ĠëĮĢë¶Ģë¶Ħ":1600,"ĠíĥĪ":1601,"Ġìµľë":1602,"į°":1603,"Ġì¶ķ":1604,"ìĬ¨":1605,"Ġì§ĵ":1606,"Ġìĸ¸ê¸ī":1607,"ĠìĬ¬":1608,"ŀĳ":1609,"Ġ2018":1610,"ĠìľĦì¹ĺ":1611,"ĠìĨįëıĦ":1612,"ĠëĦĪë¬´":1613,"ĠêµŃê°Ģ":1614,"ĠìłĦì²":1615,"Ġë§Ŀ":1616,"ĠìĿ´ìłĦ":1617,"000":1618,"ĠìĭľìłĪ":1619,"ë³Ħ":1620,"ĠíĥĢìĿ´":1621,"Ġ2016":1622,"ë·":1623,"Ġìĺ¨":1624,"²Ħì§Ģ":1625,"ëłĩ":1626,"Ġë§Īëĭ¤":1627,"Ġë¹łë¥´":1628,"Ġë¯Ģë¡ľ":1629,"ĠíķĻêµĲ":1630,"ĠëĪĦ":1631,"Ġìľłëĭ":1632,"Ġë¦":1633,"íĶĦë":1634,"Ġ25":1635,"Ġê°Ĳëıħ":1636,"Ġìļ°ë¦¬":1637,"ìĽĶ":1638,"Ġê·¸ëħĢ":1639,"Ġë³´ìĬ¤":1640,"Ġì§ģìłĳ":1641,"ĠX":1642,"Ġê´´":1643,"Ĥ¹":1644,"ĠìłĦìŁģ":1645,"Ġë¹Ħíķĺ":1646,"ì°½":1647,"Ŀ¼ìĿ´":1648,"ĠìĿ´ë¯¸":1649,"ĠìŀĲë¦¬":1650,"Ġìĺģìĥģ":1651,"Ġìĭ¸ìļ°":1652,"ĠíĻį":1653,"ê·Ģ":1654,"°Ķ":1655,"Ġë¶Ħì":1656,"Ġê°ķíķĺ":1657,"ĠìĦ¤ìłķ":1658,"Ġì¦Ŀê°Ģ":1659,"Ġë§¨":1660,"ĠáĨ«ëĭ¤ë©´":1661,"Ġì§Ī":1662,"ĠìĽĲëŀĺ":1663,"Ġë¨¸ë¦¬":1664,"ëłĪìĿ´":1665,"ìĬ¬":1666,"ĠÂ":1667,"ĠìĿĺë¯¸":1668,"ì¦Ŀ":1669,"íĽ":1670,"ĠëŃĲ":1671,"Ġë°ĶëŀĮ":1672,"Ġíĺ¼":1673,"ĠJ":1674,"ê°Ģì§Ģ":1675,"ľëĵľ":1676,"Ġì¸¡":1677,"Ġë©¤":1678,"Ġ2019":1679,"ĠìľłìłĢ":1680,"ĠìĿ´ëıĻ":1681,"ëĭ¤ê°Ģ":1682,"ëıĮ":1683,"Ġé":1684,"Ħì²Ń":1685,"Ġc":1686,"ic":1687,"Ġë°Ķë":1688,"ĠëıĦë¡Ŀ":1689,"ĠíĿ¬":1690,"ë©°":1691,"ĠíĶĮëłĪìĿ´ìĸ´":1692,"ĠìĻĦìłĦ":1693,"êµ´":1694,"ĽĲ":1695,"ê¾¸":1696,"Ġëĭµ":1697,"ĠìµľëĮĢ":1698,"Ġìŀ¥ë©´":1699,"Ġëľ¨":1700,"Ġë©¤ë²Ħ":1701,"ĠìľłëĭĽ":1702,"íķł":1703,"ĠíĢ":1704,"Ġëĭĺ":1705,"Ġíĥĳ":1706,"Ġê°Ī":1707,"Ġëª¬":1708,"Ġê·¸ê²ĥ":1709,"ĠíĴĢ":1710,"ĠìĬ¹ë¦¬":1711,"ë²ł":1712,"ĠëĤĺíĥĢ":1713,"Ġëĵł":1714,"Ġì§ĢìĽĲ":1715,"Ġë´ī":1716,"Ġk":1717,"łĪìĿ´":1718,"ĠìĹĦì²Ń":1719,"ģĺ":1720,"Ġê¹¨":1721,"Ġìľ¡":1722,"ĠíĽĦì":1723,"ëĤ¨":1724,"ë¡Ģ":1725,"Ġë°Ģ":1726,"Ġê³¼ê±°":1727,"ëĤľ":1728,"ëĦĲ":1729,"Ġë°°ìļ°":1730,"Ġë¬ĺ":1731,"Ġë¹łì§Ģ":1732,"ķĮ":1733,"ĠìłĦì²´":1734,"ĠìĦłíĥĿ":1735,"ê¹Ŀ":1736,"ĠëĮĢë¡ľ":1737,"ìĺĪ":1738,"ĠìĿ´ë£¨":1739,"Ġíŀĺëĵ¤":1740,"íģ´":1741,"ê·ľ":1742,"ª©":1743,"ĠìĨĮë¦¬":1744,"Ġíĺ¹":1745,"ìĺ¨":1746,"Ġì²´ëł¥":1747,"ĠìĬ¤ëŁ½":1748,"ĠíĥĦ":1749,"Ġê²°ê³¼":1750,"ĠëģĿëĤĺ":1751,"Ġíĺĳ":1752,"ĠâĢ¦":1753,"Ġì¤ĳêµŃ":1754,"ĠëıĪ":1755,"ĠìĿ´ëłĩ":1756,"ë¥ł":1757,"ĢĮ":1758,"Ġëį°ë¯¸ì§Ģ":1759,"ìĿ´ëĵľ":1760,"ëĬ":1761,"ëª¬":1762,"ĠìĶ©":1763,"Ġì¹ľêµ¬":1764,"ë©":1765,"Ġê°ĳ":1766,"Ġìĩ":1767,"Ġê½¤":1768,"ĠìķĦìĺ":1769,"íĮħ":1770,"Ġì°¨ìĿ´":1771,"Ġ50":1772,"ĠÂ·":1773,"Ġë°ĸìĹĲ":1774,"íĶĮ":1775,"Ġë²ĦìĬ¤":1776,"ĠìĦľìļ¸":1777,"ĠëıĦìĭľ":1778,"¼ë¦¬":1779,"ì²ł":1780,"Ġì´Īë°ĺ":1781,"Ħëĵľ":1782,"ë°±":1783,"is":1784,"ĠíĮĮë":1785,"³µ":1786,"Ġíĸ¥":1787,"Ġì±ħ":1788,"Ġë³Ħë":1789,"íļį":1790,"Ġ21":1791,"Ġì¸µ":1792,"Ġì¿":1793,"Ġìľłëªħ":1794,"Ġë°©ë²ķ":1795,"Ġë¡ľìĦľ":1796,"Ġë§ĪìĿĮ":1797,"ĠìķĦë²Ħì§Ģ":1798,"Ġè":1799,"ìļ´ëĵľ":1800,"ìĿ´ìħĺ":1801,"ĠìĹ¬ìŀĲ":1802,"ĠíŀĪë":1803,"Ġì»¨":1804,"Ġëł¤ê³ł":1805,"Ġê°ĸ":1806,"Ġë°ĶëĢĮ":1807,"Ġíĺ¸ë":1808,"Ġ]":1809,"ì¼ĵ":1810,"ë¦¬ìĸ´":1811,"ìļ±":1812,"ĠãĤ":1813,"Ġíķľë":1814,"Ġ2015":1815,"Ġìķķ":1816,"ìģĺ":1817,"ing":1818,"Ġì¹¨":1819,"ĠìĬµëĭĪ":1820,"ë²Į":1821,"ĠìłĪ":1822,"ĠëĨĢ":1823,"ĠìĦ±ìļ°":1824,"ĠíķĻìĥĿ":1825,"¤íĬ¸":1826,"Ġë²ĦìłĦ":1827,"Ġìļ¸":1828,"ì¶ķ":1829,"Ġë³¸ë":1830,"ĠíļĮë":1831,"Ġê°ľë°ľ":1832,"ĠìłľëĮĢë¡ľ":1833,"ìķĻ":1834,"ĠìĦĿ":1835,"Ġì¡°ê¸Ī":1836,"Ġê³µê²©ëł¥":1837,"Ġë¬¸ìĦľ":1838,"Ġì°į":1839,"Ġë¶Īë¦¬":1840,"Ġï":1841,"ì±ħ":1842,"ĠìĦ¤ëªħ":1843,"Ġìı":1844,"ĠìłĦë¶Ģ":1845,"Ġì¶ľìĹ°":1846,"ĠíĬ¸":1847,"ĠìŀĲì£¼":1848,"Ġê±¸ë¦¬":1849,"ĠìĮ":1850,"Ġ&":1851,"ĠìĹ¬ìĦ±":1852,"ĠìķĦìĿ´íħľ":1853,"Ġëĭ¹ìĹ°":1854,"ĠëĤ¨ìŀĲ":1855,"ĠëĪĦêµ¬":1856,"ĠìĹ°êµ¬":1857,"¥ĺ":1858,"Ġëī´":1859,"11":1860,"ĠíĶĦë¦¬":1861,"ìļ°ìĬ¤":1862,"¡Ń":1863,"ë¯¸ë":1864,"Ġíı¬íķ¨":1865,"ĠìĨĮìĨį":1866,"ëĪ":1867,"ĠìĤ¬ìļ©ìŀĲ":1868,"íľ":1869,"Ġëª¨ëĵľ":1870,"ĠìĬµëĭĪëĭ¤":1871,"ë§ģ":1872,"Ġä":1873,"ĠìĤ¬ëĿ¼":1874,"Ġì°¨ëĭ¨":1875,"Ġìĥī":1876,"Ġìłķë³´":1877,"Ġê·¸ëŁ°ëį°":1878,"ìĹĪ":1879,"Ġë½":1880,"ĠëĮĢìĤ¬":1881,"Ġë¬»":1882,"ĠëĿ¼ëıĦ":1883,"Ġd":1884,"Ġ[":1885,"ĠìĬ¤íĨłë¦¬":1886,"ĠìĹĪìĹĪ":1887,"Ġì°©":1888,"ĠëĮĢíķĻ":1889,"ĠíĽĦë°ĺ":1890,"®¤":1891,"ëĤł":1892,"es":1893,"ĠìķĦì§ģ":1894,"Ġëĸł":1895,"ë¶Ī":1896,"ĠìĥĪ":1897,"Ġê³µìĭĿ":1898,"Ġê¶ģ":1899,"ìĽħ":1900,"ëĶ©":1901,"Ġìłķë§Ĳ":1902,"ĠìĿ¸íĦ°":1903,"Ġìµľê³ł":1904,"ìĿ´ëıĦ":1905,"Ġ198":1906,"Ġê°ķíĻĶ":1907,"el":1908,"ì´Ŀ":1909,"íıī":1910,"ìĩ":1911,"Ġì£¼ë¡ľ":1912,"ĠëĤĺíĥĢëĤĺ":1913,"Ġì§ĢíĤ¤":1914,"ĠëĨį":1915,"ìĭľìķĦ":1916,"ĠëıĻìĭľ":1917,"Ġìļ°ìĬ¹":1918,"Ġíĳ":1919,"Ġìĺ¤íŀĪ":1920,"ĠíĮĮê´´":1921,"Ġìĺ¤íŀĪëł¤":1922,"ì°¬ê°Ģì§Ģ":1923,"ĠìĦľë¡ľ":1924,"ì©":1925,"Ġë§Īì°¬ê°Ģì§Ģ":1926,"ìķĦì":1927,"am":1928,"ĠíĮĮìĿ´":1929,"Ġë°ľìĥĿ":1930,"ĠìłĪë":1931,"ĠìĿ´ê±°":1932,"Ġìĵ°ìĿ´":1933,"Ġê²°ìłķ":1934,"ì»¬":1935,"ĠìĦ¼":1936,"ë¶ĢíĦ°":1937,"ĠìĤ¬ëŀĳ":1938,"ĠìĤ¬ë§Ŀ":1939,"ĠìĶ¨":1940,"ĠëĬĲëģ¼":1941,"Ġo":1942,"ģĲ":1943,"Ġìļ´ìĺģ":1944,"ĠìĿ¸ê¸°":1945,"Ġ22":1946,"ĠìĨ¡":1947,"Ġë°ľë§¤":1948,"Ġ24":1949,"ìŀ¡":1950,"Ġì¶ľìĭł":1951,"Ġìµľì¢ħ":1952,"Ġê²Įëĭ¤ê°Ģ":1953,"ìĿ¸ë":1954,"Ġìĸ´ëĸ»":1955,"Ġê°ķëł¥":1956,"ĠìĿ´ë²¤íĬ¸":1957,"į¨":1958,"Ġê°Ģê¹Ŀ":1959,"Ġë°©ìĭĿ":1960,"Ġìĸµ":1961,"Ġìĺģíĸ¥":1962,"Ġìłķìĭł":1963,"Ġëª¬ìĬ¤íĦ°":1964,"Ġê³µê°ľ":1965,"Ġìľłì§Ģ":1966,"íĻķ":1967,"ĠìĪł":1968,"Ġëľ»":1969,"Īë©Ķ":1970,"Ġë°Ķê¾¸":1971,"ĠìĹŃíķł":1972,"ĠìŀĶ":1973,"Ġì£¼ìŀ¥":1974,"Ġë¹ĦêµĲ":1975,"ĠëĤĺìĿ´":1976,"Ġë©Ģ":1977,"Ġê³¼ìłķ":1978,"ĠëĮĢìĥģ":1979,"ê°ĳ":1980,"Ġë°ĺëĮĢ":1981,"ì§Ģìĸ´":1982,"ĠìķĦìĺĪ":1983,"ê³¤":1984,"Ġë§Īë¦¬":1985,"ìī":1986,"ìĹ´":1987,"Ġëħ¸ëŀĺ":1988,"Ġë§ĪìĿ´":1989,"ĠìĦ±ê²©":1990,"Ġë§ģ":1991,"ĠìĿ´ê¸°":1992,"Ġë¨¼":1993,"ĠìŀĦ":1994,"Ġê¸°ì¡´":1995,"Ġë³´íĨµ":1996,"ëĿ¼ëıĦ":1997,"ĠìĤ¬ëĿ¼ì§Ģ":1998,"as":1999,"Ġëª¨ìĸĳ":2000,"ĠíĸīëıĻ":2001,"Ġãĥ":2002,"ĠìĿ¼ëĭ¨":2003,"ĠìĿ´ëŁ¬":2004,"Ġìĭ¬ì§Ģìĸ´":2005,"ĠìĦ±ëĬ¥":2006,"ìĸ¼":2007,"Ġì¤ĳìļĶ":2008,"³Ģ":2009,"Ġë³Ģê²½":2010,"ac":2011,"ìº":2012,"Ġâĺ":2013,"Ġìŀħìŀ¥":2014,"ĠìĨĮíĻĺ":2015,"Ġíĺķíĥľ":2016,"Ġ40":2017,"ĠìĻľ":2018,"ĠíĬ¹ìĦ±":2019,"ro":2020,"Ġêµ¬íķĺ":2021,"Ġ2014":2022,"Ġëįĺì§Ģ":2023,"Ġb":2024,"ĠíĻľìķ½":2025,"ìĸµ":2026,"Ġê·¼ë":2027,"ĠëĶľ":2028,"Ġë¹¼":2029,"Ġíķł":2030,"íķľë":2031,"¸Į":2032,"ĠìĽĮ":2033,"Ġë¥ĺ":2034,"Ġê¿":2035,"ëĿ¼ìĿ´":2036,"ĠíļĮë³µ":2037,"Ġë¶Ģì¡±":2038,"ĠìĦ¬":2039,"ê°Ŀ":2040,"ĠëĪĦë":2041,"ëŀµ":2042,"ĠíĻķìĿ¸":2043,"ëĬĺ":2044,"ĠìľĦë":2045,"ion":2046,"īìŀ¥":2047,"Ġê±°ê¸°":2048,"Ġë£":2049,"Ġíį¼":2050,"ĠìĹŃìĤ¬":2051,"ĮëłĪ":2052,"Ġëĵ¤ìĿ´":2053,"ĭ¹":2054,"ĠíĿĳ":2055,"ëľ":2056,"Ġìĸ´ëĸ¤":2057,"ë¶ģ":2058,"ĠëħĦëĮĢ":2059,"ĠëĿ¼ìĿ¸":2060,"íľĺ":2061,"Ġ23":2062,"íĩ´":2063,"Ġì°¨ëŁī":2064,"ëħĢ":2065,"Ġë½ĳ":2066,"Ġëĵľëŀĺ":2067,"ì¸¡":2068,"ĠìĭľìĬ¤":2069,"il":2070,"Ġì¢Į":2071,"Ġë§ĪìĿĦ":2072,"Ġëħ¸ìĦł":2073,"ĠëĵľëŁ¬":2074,"ĠíıĲ":2075,"Ġìĸ´ë¦¬":2076,"ìľ¨":2077,"ĠìĿ´ë²Ī":2078,"ĠíķĦì":2079,"Ġë¹Ħë¡":2080,"Ġëª¨ëį":2081,"Ġë§ŀì¶Ķ":2082,"ĠìĬ¤íħĮ":2083,"ĠëĤĺëĿ¼":2084,"íĺĢ":2085,"ĠëĿ¼ë©°":2086,"ĠìķĦëŀĺ":2087,"ĠìľłìĿ¼":2088,"Ġìŀ¥ë¹Ħ":2089,"ĠíĴį":2090,"¼ë§":2091,"ĠíĻķë¥ł":2092,"ĠìĪ¨":2093,"ëĦĪì§Ģ":2094,"ħĦ":2095,"ìĹ¼":2096,"Ġìłķë¶Ģ":2097,"ĠìĥĪë¡Ń":2098,"ĠìĻ¸ë":2099,"Ġìŀĳì¤ĳ":2100,"ĠìĽĢ":2101,"Ġë¨¼ìłĢ":2102,"ol":2103,"ĠíĬ¹ìĪĺ":2104,"ĠíĶ¼ë":2105,"ĠëĤľìĿ´ëıĦ":2106,"Ġëįķë¶Ħ":2107,"íĶĦíĬ¸":2108,"Ġìľ¤":2109,"ĠìķĦëĵ¤":2110,"ĠëĮĢíļĮ":2111,"Ġíĺ¹ìĿĢ":2112,"ĠìłĦíĺĢ":2113,"ĠìĤ¬íļĮ":2114,"Ĺ´":2115,"Ġê´Ģë¦¬":2116,"ĠìŀĲìĦ¸":2117,"Ġf":2118,"Ġp":2119,"ĠìĭľëĮĢ":2120,"¼ëŀĢ":2121,"Ġê·¸ëŀĺìĦľ":2122,"ĠíĿĶ":2123,"íĽĪ":2124,"ìĪĻ":2125,"ìĨĮëĵľ":2126,"ĠìĨĶ":2127,"íĴį":2128,"Ġìŀĥ":2129,"Ġíľ´":2130,"Ġ32":2131,"įĶ":2132,"ĠìĿ´ìłľ":2133,"Ġì½ĺ":2134,"ĠêµĲìľ¡":2135,"Ġìĩ¼":2136,"Ĥĺë§Ī":2137,"ĠëĤłë¦¬":2138,"Ġw":2139,"Ġì¡°ì°¨":2140,"Ġêµ¬ìĦ±":2141,"ëĪĦ":2142,"ĠíħĮë":2143,"ed":2144,"ĠëģĮ":2145,"Ġë³¼":2146,"Ġêµīìŀ¥":2147,"ëĵ±íķĻêµĲ":2148,"Ġìĥ¤":2149,"Ġìłķì¹ĺ":2150,"Ġì£¼ë³Ģ":2151,"ĠëıħìĿ¼":2152,"ĠìĿĮìķħ":2153,"ĠëĸłëĤĺ":2154,"et":2155,"¢°":2156,"Ġê·¸ëŀĺëıĦ":2157,"Ġìĭ¤ëł¥":2158,"ë§¨":2159,"ëĭĿ":2160,"Ġì§Ģêµ¬":2161,"Ġìµľì´Ī":2162,"¨¸ëĭĪ":2163,"Ġthe":2164,"ĠíĮ¨ë°°":2165,"Ġìĭ¤íĮ¨":2166,"ĠìĤ¬ì§Ħ":2167,"ìĬ¤íĥĢ":2168,"19":2169,"Ġìĸ´ëĶĶ":2170,"ĠíĶĦëŀĳ":2171,"ìĺ¥":2172,"ĠëįĶëĿ¼ëıĦ":2173,"Ġê²½ì°°":2174,"Ġìĸ¼êµ´":2175,"ĠìĭľìĬ¤íħľ":2176,"ĠìĥĿìĤ°":2177,"Ġì°¨ì§Ģ":2178,"10":2179,"Ġë§ĮíĻĶ":2180,"ĠìĭľìłĲ":2181,"Ġê·¸ëĤĺë§Ī":2182,"ig":2183,"ì¿":2184,"Ġìĸ¼ë§Ī":2185,"Ġì¡°ê±´":2186,"ĠìĽĲìŀĳ":2187,"Ġì£¼ìĿĺ":2188,"ĠìĦ¸íĬ¸":2189,"ĠìĺģìĽħ":2190,"Ġìķ¨":2191,"Ġë°ľê²¬":2192,"BS":2193,"Ġ=":2194,"Ġìŀĳê°Ģ":2195,"ĠìĽĶëĵľ":2196,"Ġë¹Ľ":2197,"Ġ2013":2198,"Ħ¤":2199,"Ġì°¸ì¡°":2200,"ĠíķĺìĿ´":2201,"Ġï¼":2202,"íıŃ":2203,"ìĹĺ":2204,"Ġë§µ":2205,"íĬ¼":2206,"Ġëĭ¤ë©°":2207,"ĠíļĮìĤ¬":2208,"Ġê¸°ëĬ¥":2209,"ĠìłķíĻķ":2210,"Ġë°ľëıĻ":2211,"Ġë°ĺìĿĳ":2212,"Ġë°Ģë¦¬":2213,"íĥģ":2214,"Ġì²ĺë¦¬":2215,"ĠìĹĲíĶ¼":2216,"Ġë¶ĢëĮĢ":2217,"ëĨ":2218,"ĠíĻĪ":2219,"ê³¨":2220,"Ġê°ľìĿ¸":2221,"ìį¨":2222,"ĠëĮĢìłĦ":2223,"Ġìķłëĭ":2224,"ĠìŀĲìľł":2225,"Ġn":2226,"Ġv":2227,"íĤ¹":2228,"ê²Ģ":2229,"§Į":2230,"ĠíĽĪ":2231,"Ġëħ¹":2232,"ì¹¨":2233,"Ġë¶Īë":2234,"Ġë§¥":2235,"ìĬ¤íģ¬":2236,"íķľë¯¼":2237,"Ġìļ°ì£¼":2238,"Ġl":2239,"ĠëıĦìĽĢ":2240,"Ġê³Ħíļį":2241,"om":2242,"ìŁģ":2243,"ad":2244,"Ġëª¨ìľ¼":2245,"íķľë¯¼êµŃ":2246,"ĠìĻĦë":2247,"ìĿ¸íĬ¸":2248,"Ġëĭ¤ìĿ´":2249,"Ġíķĺë£¨":2250,"ĠëıĻìĿ¼":2251,"ĠìĺģêµŃ":2252,"ĠìĿĳ":2253,"´ĩ":2254,"Ġë¬ĺìĤ¬":2255,"Ġìķ¡":2256,"ĠìłľêµŃ":2257,"Ġìłģìļ©":2258,"Ġëł¥":2259,"ĠìĹĲíĶ¼ìĨĮëĵľ":2260,"ĠáĨ¯ì§Ģ":2261,"Ġê²¬":2262,"ĠìĽĢì§ģ":2263,"ľĦ":2264,"ĠíķľíħĮ":2265,"Ġê±´ë¬¼":2266,"Ŀ¼ë§Ī":2267,"ĠìĿ¸ìłķ":2268,"Ġìľ¨":2269,"Ġh":2270,"ìĿµ":2271,"ĠìĪľê°Ħ":2272,"Ġëĭ´ëĭ¹":2273,"ĠíĦ":2274,"Ġìĸ¸ë":2275,"Ġê¸°ìĸµ":2276,"Ġê·ľ":2277,"ĠëĶ±":2278,"ĠìķĦì¹":2279,"Ġë¥ł":2280,"Ġof":2281,"ìĬĪ":2282,"ŀ¨":2283,"Ġê·¸ë¦¼":2284,"ìĶ¨":2285,"ĠìķłëĭĪë©Ķ":2286,"Ġìľ¼ë¯":2287,"ĠY":2288,"ĠëĿ¼ìĦľ":2289,"Ġë©ĶìĿ´":2290,"ĠíĳľíĺĦ":2291,"Ġìľ¼ë¯Ģë¡ľ":2292,"Ġ_":2293,"Ġëª¨ëį¸":2294,"ìī¬":2295,"ĠêµŃëĤ´":2296,"ĠíĺĦëĮĢ":2297,"ĠìĿ´ë":2298,"ĠìĿµ":2299,"ì£¼ìĿĺ":2300,"£¹":2301,"Ġìĭ¸ìĽĢ":2302,"Ġë§Ľ":2303,"Ġìĭľê¸°":2304,"íı°":2305,"Ġì¼":2306,"ĠíĮĲë§¤":2307,"Ġëł¤ëĬĶ":2308,"Ġë°ĶìĿ´":2309,"íĨµëł¹":2310,"Ġíľĺ":2311,"Ġë¡Ń":2312,"ĠìĨįìĦ±":2313,"ëģĶ":2314,"Ġêº":2315,"Ġíĩ´":2316,"ĠëĺĲëĬĶ":2317,"ë¦¬ì¹´":2318,"ĠíĬ¸ë¦¬":2319,"ĠìĪĺë¡Ŀ":2320,"ĠìŀĲëıĻ":2321,"Ġìľ¼ë¡ľìĦľ":2322,"Ġ2012":2323,"Ġëģ¼":2324,"ĠíĿĲ":2325,"ĠìĹ¬ìłĦ":2326,"íħĮë":2327,"ĠTV":2328,"Ġìĺ¤ë¸Į":2329,"ĠíĻķìĭ¤":2330,"ĠìĤ¬ê³ł":2331,"ìĨĲ":2332,"ĠëĵĿ":2333,"ł¤":2334,"ĠíĮ¨íĦ´":2335,"íĶ½":2336,"ëª»":2337,"Ġë»":2338,"§ľ":2339,"ĠëĮ":2340,"Ġë¬¼ë¦¬":2341,"ìķķ":2342,"íħĲ":2343,"Ġê³¤":2344,"ĠíķŃëª©":2345,"ĠëĤ¨ê¸°":2346,"Ġ60":2347,"ĠìĽĥ":2348,"íĺ¹":2349,"Ġì´Īê¸°":2350,"íĶ¼ë":2351,"ĠëĶ¸":2352,"Ġì£¼ìĨĮ":2353,"ĠìłĪëĮĢ":2354,"ë·°":2355,"ëĳ":2356,"ìļķ":2357,"Ġì±Ķ":2358,"Ġëĵľëŀĺê³¤":2359,"Ġê°Ģê²©":2360,"Ġì¶ľìĭľ":2361,"Ġì§Ħì§ľ":2362,"Ġë¶ĻìĿ´":2363,"Ġëķħ":2364,"ĠìĹ°ê¸°":2365,"Ġ26":2366,"Ġìķ¨ë²Ķ":2367,"ĠëĮĢíĨµëł¹":2368,"ë³Ģ":2369,"ĠìķłëĭĪë©ĶìĿ´ìħĺ":2370,"ĠìļĶêµ¬":2371,"Ġ28":2372,"ĠìŀĦë":2373,"Ġìĸ´ë¨¸ëĭĪ":2374,"¶ľ":2375,"ĠëĮĢì²´":2376,"Ġë°©íĸ¥":2377,"ĠìĹ¬ëĭ´":2378,"Ġìĺ¤ëŀĺ":2379,"Ġíķľìłķ":2380,"Ġê¸°ê°Ħ":2381,"į¼ë":2382,"ĠìĪĻ":2383,"ĠìĿ´ëķĮ":2384,"ĠIP":2385,"Ġìĺ¤ë¦¬":2386,"ĠíĶ¼íķĺ":2387,"ĠíĺĦìĭ¤":2388,"Ġëĵ¯ìĿ´":2389,"ì¶©":2390,"Ġëį°ìĿ´":2391,"¸ë§":2392,"íķĦ":2393,"ìĨĮë¦¬":2394,"ĠëŁī":2395,"ì£¼ë":2396,"Ġíĺ¼ìŀĲ":2397,"Ġê°Ħë":2398,"ĠëĵľëĿ¼ë§Ī":2399,"ë£¡":2400,"and":2401,"ĠëĤĺìģĺ":2402,"ãĥ¼":2403,"Ġì§ĢìĨį":2404,"Ġê²¨":2405,"Ġ27":2406,"50":2407,"ĠìĬĪíį¼":2408,"ìĦŃ":2409,"Ġ!!":2410,"un":2411,"Ġì»´":2412,"ĠìĥģìĬ¹":2413,"Ġì¤ĳìĭ¬":2414,"ĠìĥĿíĻľ":2415,"Ġëĭ¨ìĪľ":2416,"Ġë¬´ìĭľ":2417,"ow":2418,"Ġëħ¸ë¦¬":2419,"Ġíļį":2420,"Ġë¯¿":2421,"ĠíĥĲ":2422,"Ġìłľíķľ":2423,"ĠëįĶìļ±":2424,"íĬ¸ë¦¬":2425,"ĠìĦłê±°":2426,"ĠíĹ¬":2427,"Ġê²½íĹĺ":2428,"Ġë¯¸ì¹ĺ":2429,"Ġìľ¼ë©´ìĦľ":2430,"Ġìĭ±":2431,"Ġë¶ĦìľĦ":2432,"ĠíĬ¹ì§ķ":2433,"Ġì¡¸":2434,"Ġ2010":2435,"ê·ł":2436,"ĠëıĮë¦¬":2437,"íĬ¸ëĿ¼":2438,"ĶĶìĺ¤":2439,"Ġìĸĺ":2440,"ëŀĻ":2441,"ê¶ģ":2442,"Ġ}":2443,"Ġë°¤":2444,"ĠìĺĨ":2445,"Ġë¶ĦìľĦê¸°":2446,"ìĶ¬":2447,"²ķ":2448,"Ġíķµ":2449,"Ġìļ´ëıĻ":2450,"ĠíĶĦëŀĳìĬ¤":2451,"Ġì§ľ":2452,"íĥķ":2453,"ì£Ħ":2454,"ĠìĦłë°ľ":2455,"ĠìĽĢì§ģìĿ´":2456,"Ġìĺģìĸ´":2457,"ĠìĦ¸ëĮĢ":2458,"ĠëŀŃ":2459,"Ġê¸°ê´Ģ":2460,"ot":2461,"ê·¸ëŀ¨":2462,"ĠëıĻë£Į":2463,"ì°®":2464,"ĠìĿ´ë¯¸ì§Ģ":2465,"ŀľëĵľ":2466,"Ġìķ½íķĺ":2467,"ĠìĿ¼íĸī":2468,"ìĥĪ":2469,"ĠëĶĶìŀĲ":2470,"Ġíģ´ë¦¬ìĸ´":2471,"Ġìĭľì²Ń":2472,"12":2473,"Ġìĸ´ëĿ¼":2474,"Ġëĭ¤ë£¨":2475,"ĠíĦ´":2476,"Ġa":2477,"ĥĲ":2478,"Ġíı´":2479,"ĠëĿ¼ìļ´ëĵľ":2480,"Ġê³Ħìķ½":2481,"Ġì·¨ê¸ī":2482,"Ġë¶Ģìĥģ":2483,"°Ģ":2484,"ĠìľĦíĹĺ":2485,"ĠìķĦë§Ī":2486,"Ġë¹ĦíĮĲ":2487,"Ġ197":2488,"Ġì¹¼":2489,"Ġì¤ĳìķĻ":2490,"Ġì¥":2491,"ëĭµ":2492,"ĩĮ":2493,"Ġë¶Īêµ¬":2494,"Ġëıķ":2495,"ĠíĻľìļ©":2496,"ĠìķĪíĥĢ":2497,"ë·Ķ":2498,"ë¨¸ì§Ģ":2499,"ĠëĮĢíķľë¯¼êµŃ":2500,"Ġì§ĢëĭĪ":2501,"ĦĲ":2502,"ĠìķĦì£¼":2503,"ĠíĿ¡":2504,"ĠëĤĺë¨¸ì§Ģ":2505,"ĠìķĦêµ°":2506,"Ġìķ½ê°Ħ":2507,"ìĸ´ëĤĺ":2508,"ĠìĦ¤ì¹ĺ":2509,"Ġì°¸ìĹ¬":2510,"ĠìĿ¼ìľ¼":2511,"ìĬ¤ë¡ľ":2512,"ĠëĤĻ":2513,"ĠìĿ¼ìľ¼íĤ¤":2514,"Ġìķ¼êµ¬":2515,"ĠìĬ¤íİĺ":2516,"ay":2517,"Ġê²°íĺ¼":2518,"ìĽ¨":2519,"Ġë¬¸íĻĶ":2520,"Ġì§Ħì¶ľ":2521,"ĠìĬ¤íĥ":2522,"Ġë°ľìĤ¬":2523,"Ġë²ĶìľĦ":2524,"íĺĳ":2525,"Ġìľłë¦¬":2526,"ëħĲ":2527,"Ġë²¨":2528,"Ġë¬´ìŀ¥":2529,"Ġê°Ģì¡±":2530,"Ġê°ĲìĨĮ":2531,"ĠìĹĶëĶ©":2532,"ë¬":2533,"ĠìŀĲë©´":2534,"ëĥ¥":2535,"Ġì¤Ģë¹Ħ":2536,"ê°Ī":2537,"Ġì¡°ìĦł":2538,"ĠìĿ½":2539,"ĠíĽ¨":2540,"Ġì¡±":2541,"Ġëĭ¤ìĸĳ":2542,"ìĦ¼":2543,"ĠíĽĦë³´":2544,"ĠìĹ´ë¦¬":2545,"Ġì¤ĳê°Ħ":2546,"Ġìıĺ":2547,"Ġìĸ´ì©":2548,"Ġê¾":2549,"ë¹Ħì":2550,"ĠíĦ°ì§Ģ":2551,"Ġëį°ë·Ķ":2552,"Ġëĭ¨ê³Ħ":2553,"Ġíı¬ìĿ¸íĬ¸":2554,"Ġë§ĪìĬ¤íĦ°":2555,"íļ¨":2556,"ë¢°":2557,"Ġëĺĳ":2558,"ĠThe":2559,"Įëĵľ":2560,"ĠáĨ¯ë¡ľ":2561,"ĠìĿ´íķ´":2562,"ĠíĢĺ":2563,"Ġê³ĦìĹ´":2564,"ìĤ":2565,"Ġëļ":2566,"ë¡Ń":2567,"Ġë®¤":2568,"Ġíĥĵ":2569,"Ġêµ¬ê°Ħ":2570,"ĠíıŃë°ľ":2571,"ve":2572,"Ġ^":2573,"ĠíĽ¨ìĶ¬":2574,"ĦĪ":2575,"ìĿ´íģ¬":2576,"ĠìĿ´ëģ":2577,"ĠìĦ¸ìļ°":2578,"ĠìĿĺê²¬":2579,"ĠìķĦë¥´":2580,"ë§Īë":2581,"ĠíļįëĵĿ":2582,"Ġìĭ«":2583,"ĠìĬ¤íħĮìĿ´ì§Ģ":2584,"ĠìĿ¼ìłķ":2585,"Ġê³łëł¤":2586,"Ġêµ¬ì¡°":2587,"Ġê·ľë":2588,"ĠíĮĮìĽĮ":2589,"ch":2590,"ĠìĽ¨":2591,"ĠìķĪë":2592,"ĠìĦ±ìŀ¥":2593,"Ġìļķ":2594,"Ġê¸°ëĮĢ":2595,"ĭł":2596,"íħĶ":2597,"Ġë²½":2598,"ĠíŀĪë¡ľ":2599,"Ġê´ľ":2600,"us":2601,"íĺľ":2602,"Ġë°¥":2603,"ĠìŀĦì":2604,"ë´ĩ":2605,"ĠãĢĭ":2606,"Ġì¹¸":2607,"ĠíĥĢìŀħ":2608,"Ġìŀĺëª»":2609,"Ġì§Ħë":2610,"Ġë°ľíĳľ":2611,"Ġëª©ìłģ":2612,"Ġ29":2613,"Ġì¡°íķ©":2614,"id":2615,"Ġë³Ģíķĺ":2616,"Ġë¸ĶëŀĻ":2617,"°¨":2618,"Ġíķ´ê²°":2619,"Ġíģ¬ë¡ľ":2620,"em":2621,"ê³³":2622,"Ġêµ´":2623,"Ġì¸ł":2624,"ĠëıĦë§Ŀ":2625,"ĠìľĦìĽĲ":2626,"ĠíĿ¥":2627,"Ġë¯¸ìħĺ":2628,"ĠëĮĢíĻĶ":2629,"ĠíķĻëħĦ":2630,"Ġê¼¬":2631,"ĠìĦ¸ëł¥":2632,"Ġ2011":2633,"Ġê¿Ī":2634,"ĠìĭľëıĦ":2635,"ĠìĹĳ":2636,"ëłĮ":2637,"Ġë¬¸ë":2638,"ĠãĢĬ":2639,"ĠìĺĪìłķ":2640,"Ġëħ¼ëŀĢ":2641,"Ġëŀĳ":2642,"Ġê°ģê°ģ":2643,"íĭ´":2644,"ëĭĪìķĦ":2645,"Ġì¡°ìĤ¬":2646,"Ġê·¸ê±°":2647,"ĠëĵĢ":2648,"ĠìĿ´ëģĮ":2649,"Ġì«":2650,"ĠíĮ¨ì¹ĺ":2651,"ĠëĤĺì¤ĳ":2652,"Ġì¡°ì§ģ":2653,"Ġë¦°":2654,"Ġëį°ë¦¬":2655,"Ġì§Ģíķĺ":2656,"ĠíĪ¬ìĪĺ":2657,"ĠëģĬ":2658,"Ġë§ĪìłĢ":2659,"łĪìĿ´ëĵľ":2660,"ĠëıĦì¤ĳ":2661,"ĠëĤĺë¬´":2662,"ĠíĶĦë¡ľê·¸ëŀ¨":2663,"ĭĿ":2664,"ëĤĮ":2665,"ĠëĶĶìŀĲìĿ¸":2666,"ë°į":2667,"Ġë²Ĺ":2668,"ĠìĥĿëªħ":2669,"Ġë²ĪìĹŃ":2670,"³ĳ":2671,"im":2672,"ĠìłĦìļ©":2673,"ĠìĨĮëª¨":2674,"Ġì¶Ķìłķ":2675,"Ġì§Ģë°©":2676,"ëŀľ":2677,"íģĲ":2678,"Ġê±°ëĮĢ":2679,"ë§¹":2680,"Ġìĵ°ëŁ¬":2681,"Ġë°°íĭĢ":2682,"©¸":2683,"ëįĺ":2684,"Ľĥ":2685,"ë´ī":2686,"Ġì°¸ê°Ģ":2687,"ĠìĬ¤íı¬":2688,"Ġìĭľìŀ¥":2689,"ĠëĤ«":2690,"Ġì¿¨":2691,"ĠSt":2692,"ra":2693,"Ġë¶ĢìĤ°":2694,"ĠëĬĲëĤĮ":2695,"ê°Ļ":2696,"¤ëŁ¬":2697,"ì§Ŀ":2698,"ĠìĦ¸ìĿ´":2699,"Ġê³¼íķĻ":2700,"Ġê·¸ë£¹":2701,"íĶ¼ìĸ¸":2702,"ĠìĹ°ìĨį":2703,"Ġë¡ł":2704,"ĠìĬ¤ìĬ¤ë¡ľ":2705,"ì°Į":2706,"ëĭ¥":2707,"Ġíı¬ì¼ĵ":2708,"Ġì¦Ĳ":2709,"ìŀĲê¸°":2710,"ĠáĨ¯ê¹Į":2711,"30":2712,"ĠìĪĺìłķ":2713,"Ġì§§":2714,"Ġë²ĮìĿ´":2715,"ĠZ":2716,"ì¹Ļ":2717,"Ġê·ľëª¨":2718,"Ġì¶©ë¶Ħ":2719,"Ġë°ĶëĿ¼":2720,"Ġ2000":2721,"Ġë°´":2722,"Ġêµ³":2723,"ĠìłĢì§Ģ":2724,"Ġì¶ķêµ¬":2725,"ĠìłĦìĤ¬":2726,"ìłĦì":2727,"ĠìĺĪë":2728,"ĠëĶ°ëĿ¼":2729,"ĠíĥĢìŀĦ":2730,"ìºĲ":2731,"ĠëĿ":2732,"ĠìĤŃ":2733,"Ġíģ¬ë¦¬ìĬ¤":2734,"ĠíĢĺìĬ¤íĬ¸":2735,"Ġëªħì¹Ń":2736,"Ġë°©ìĺģ":2737,"Ĳë¡ľ":2738,"Ġë§Īì¹ĺ":2739,"Ġì±ĶíĶ¼ìĸ¸":2740,"ì§¸":2741,"Ġìłķìĥģ":2742,"Ġíĸ¥íķĺ":2743,"Ġì¶ľìłĦ":2744,"íĭ°ë¸Į":2745,"ĠìĨĮìĦ¤":2746,"Ġìĺ¥":2747,"Ġëį¤":2748,"Ġë¶ĢíĻľ":2749,"ĠìķĮë":2750,"ĠìħĪ":2751,"Ġìĸĺê¸°":2752,"Ġê³§":2753,"ĠìŀĲìĹ°":2754,"ĠLv":2755,"15":2756,"Ġìłľê³µ":2757,"Ġì£½ìĿĮ":2758,"Ġìµľê·¼":2759,"Ġì§ķ":2760,"ĠìľĦê¸°":2761,"Ġë¬´ë¦¬":2762,"Ġë¯¸ìĤ¬":2763,"ëĭ¤ë¦¬":2764,"ĠìĦ±ìłģ":2765,"Ġìłķì²´":2766,"ìĹĩ":2767,"Ġë°ľë":2768,"Ġê°Ģë¥´":2769,"¸Ķ":2770,"ĦìĬ¤":2771,"ĠëĦĺê¸°":2772,"ëįķ":2773,"Ġëį±":2774,"íĮĮìĿ´":2775,"BC":2776,"Ġë¹Ħíĸī":2777,"Ġì¶©ê²©":2778,"ent":2779,"ĠìłĦìŀĳ":2780,"ì²Ļ":2781,"Ġ80":2782,"ĠíĴĪ":2783,"íĬľë":2784,"ë²Ī":2785,"Ġì£ł":2786,"ìĪĺë¡Ŀ":2787,"ìĥ¤":2788,"Ġì²Ļ":2789,"Ġê²½ìłľ":2790,"ĠìłĦë¬¸":2791,"18":2792,"ĠíĬ¹ë³Ħ":2793,"íĺģ":2794,"Ġë¡ľë¶ĢíĦ°":2795,"ĠìķĦíĶĦ":2796,"ĠìļĶìĨĮ":2797,"Ġìĸ´ëĳ":2798,"ĠìĭľíĹĺ":2799,"ĠìĤ¼ìĦ±":2800,"Ġe":2801,"Ġê°ĢëģĶ":2802,"Ġë°°ê²½":2803,"Ġë¹Ī":2804,"Ł¼":2805,"Ġê´Ģìĭ¬":2806,"16":2807,"ĠìĦ¸ìĥģ":2808,"Ġìľ¼ëł¤":2809,"ĠìĨĮëħĢ":2810,"íĨ¤":2811,"ĠìķĪìłķ":2812,"ĮëĤ":2813,"ĪëŁ°":2814,"Ġë¹ħ":2815,"¨¸":2816,"Ġëĵ±ê¸ī":2817,"ê²ģ":2818,"Ġìºł":2819,"ĵ¨":2820,"Ġ^^":2821,"Ġì¢ħë£Į":2822,"ĠìĬ¤íĬ¸ë":2823,"ĠìĿ¸íĦ°ë·°":2824,"ĠâĢĻ":2825,"Ġëĺĳê°Ļ":2826,"ĠíĽĪëł¨":2827,"Ġë§Įìķ½":2828,"ë¦¿":2829,"ĠìŀĳìłĦ":2830,"Ġë°ĺë©´":2831,"Ġë³´ìĥģ":2832,"ĠìĥģìľĦ":2833,"ĠíĻĪëŁ°":2834,"ER":2835,"Ġìĭłê²½":2836,"ì°¸":2837,"Ġëª©ìĨĮë¦¬":2838,"ĠëĤĺëĪĦ":2839,"ëĨĵ":2840,"Īł":2841,"ìķ¡":2842,"Ġg":2843,"Ġë¶Ħëħ¸":2844,"ĠìļĶë¦¬":2845,"ë¥Ļ":2846,"Įë¥´":2847,"ħĲ":2848,"ĠíĤ¹":2849,"ĠìĤ¬ìĹħ":2850,"ĠëĨĪ":2851,"Ġìķłì´Ī":2852,"Ġë³ĢíĻĶ":2853,"ĠíĬ¹ìłķ":2854,"Ġê°Ģë¦¬":2855,"¸ëĵľ":2856,"£Į":2857,"ĠìĥĿì¡´":2858,"Ġìĸ´ì©Į":2859,"Ġë¹Ħë¡¯":2860,"ĠëħĢ":2861,"Ġì§ģìĹħ":2862,"Ġíĳľê¸°":2863,"Ġë±":2864,"ĠëįĶë¶Ī":2865,"..":2866,"ir":2867,"ĠìŀĲëŀĳ":2868,"Ġë°°ì¹ĺ":2869,"íĺĪ":2870,"ĠìĿ´ë¥´":2871,"ĠëĤ´ë¶Ģ":2872,"Ġê·¸ë§Į":2873,"ĠëĶ°ëĿ¼ìĦľ":2874,"ĭ¬":2875,"íĢ":2876,"Ġê³µì¤ĳ":2877,"Ġ>":2878,"ë¦¬ìĺ¤":2879,"ĠìĹ°ê²°":2880,"Ġë¯¸ëŀĺ":2881,"ĠìĮį":2882,"ĪëĿ½":2883,"ì½ĺ":2884,"ĠìĹĶì§Ħ":2885,"ĠìľłëŁ½":2886,"Ġìłķìŀĳ":2887,"Ġíķľíİ¸":2888,"ĠíĺĪ":2889,"¼ì¹ĺ":2890,"Ġê·¼ìłĳ":2891,"Ġëĭ¤íģ¬":2892,"ĠíĥĢê²©":2893,"ĠëıĦë¡ľ":2894,"Ġë©ĶìĿ¸":2895,"ĠëĤ¨ìĦ±":2896,"17":2897,"Ġ90":2898,"ĠëĤĺë¦Ħ":2899,"ĠìĺĪìĥģ":2900,"Ġëĭ¬ìĦ±":2901,"ĠìĹĲëĦĪì§Ģ":2902,"ĠìĦ¼íĦ°":2903,"Ġâĺħ":2904,"Ġê¹Ķ":2905,"ëľ¨ë¦¬":2906,"Ġë³´íĺ¸":2907,"Ġì¡¸ìĹħ":2908,"ĠëĥĲê³ł":2909,"Ġëĭ¤ë¦¬":2910,"ĠëĴ·":2911,"íİĻ":2912,"Ġìĺµ":2913,"ĠìłĦìĦ¤":2914,"14":2915,"ĠìķĦì¹´":2916,"Ġíİ¼ì¹ĺ":2917,"Ġì£Ħ":2918,"ur":2919,"ĠëĪĪë":2920,"ĠëĵľëŁ¬ëĤĺ":2921,"ŀµ":2922,"Ġìŀ¥ì°©":2923,"Ġìļ´íĸī":2924,"ëį°ìĿ´íĬ¸":2925,"Ġë¬´ìĹĩ":2926,"Ġê°ĳìŀĲê¸°":2927,"Ġë¶ĢìĹ¬":2928,"ĠíķŃê³µ":2929,"ĠëŁ¬ìĭľìķĦ":2930,"ìµ":2931,"ĠêµŃë¯¼":2932,"Ġ196":2933,"ĠëĶ°ë¡ľ":2934,"ĠëķĮë¦¬":2935,"ĠìłĦíķĺ":2936,"ì§Ģìħĺ":2937,"ĠìĿ´íĥĪ":2938,"ĠìĹħëį°ìĿ´íĬ¸":2939,"ì·¨":2940,"ë¦´":2941,"Ġì¹Ń":2942,"Ġy":2943,"ĠêµĲì²´":2944,"ĠìĪľìľĦ":2945,"Ġê´ľì°®":2946,"Ġì¢ħì¡±":2947,"ĠìķĦìī":2948,"ĦëıĦ":2949,"ĠìĬ¤ì¹´":2950,"ĠëĦĵ":2951,"ìĵ":2952,"ĠíĤ¬":2953,"ĠíĮĲìłķ":2954,"Ġë³Ħë¡ľ":2955,"ĠíķŃìĥģ":2956,"ĠìµľìĨĮ":2957,"ĠìĪĺë¹Ħ":2958,"ĠëĪĦë¥´":2959,"ĠíĮĮíĭ°":2960,"Ġìķħë§Ī":2961,"Ġê±°ëĳĲ":2962,"ĠìĹ°ì¶ľ":2963,"ê±":2964,"ìħī":2965,"Ġê³µìĹ°":2966,"ãĥ³":2967,"ë³´ìĿ´":2968,"ĠíŀĲ":2969,"Ġê°ģì¢ħ":2970,"Ġì§ģìłĦ":2971,"īìĬ¤":2972,"ĠìĹ°íķ©":2973,"ľëıĦ":2974,"ĠìĮĵ":2975,"Ġìĺ·":2976,"²ł":2977,"Ġë³ĳëł¥":2978,"ĠìķĦìĬ¤":2979,"íıĲ":2980,"Ġê¸°íĥĢ":2981,"ì¦ĺ":2982,"Ġ35":2983,"Ġì§Ģíľĺ":2984,"ëłĪë":2985,"Ġê¸°ì²´":2986,"ĠìķĦìī½":2987,"Ġì½¤":2988,"ë¨¼":2989,"ĠìłĲìĪĺ":2990,"Ġì¢ħë¥ĺ":2991,"Ġ70":2992,"Ġê²°ìĬ¹":2993,"Ġê±°ì¹ĺ":2994,"ut":2995,"ĠSK":2996,"ĠìĿ´ëĿ¼":2997,"Ġíĥ±":2998,"Ġãģ®":2999,"Ġì¶ľë":3000,"¯¤":3001,"¼ë§Ĳë¡ľ":3002,"Ġì§ĢëĤ´":3003,"ĠìĨĮê°ľ":3004,"Ġê³¼ë":3005,"ĠëĤ©":3006,"Ġë°©ìĸ´ëł¥":3007,"ĠìĿĺìĽĲ":3008,"ìł¤":3009,"ĠìķłëĭĪ":3010,"ìĸ´ë¡ľ":3011,"Ġíģ´ëŀĺ":3012,"Ġê¸°ìĹħ":3013,"Ġx":3014,"ì§ľ":3015,"Ġì±Ħë":3016,"Ġê½ĥ":3017,"ĠìłĦê¸°":3018,"ĠíĻ©ìłľ":3019,"ìĻĦ":3020,"ìĭ±":3021,"ĠìĿĺìĻ¸":3022,"ĠíĮ©":3023,"Ġì§Ģì§Ģ":3024,"igh":3025,"Ġìŀ¡íŀĪ":3026,"Ġëªħëł¹":3027,"ĠíĻķìłķ":3028,"Ġ__":3029,"Ġë¨¸":3030,"Ġë§ģíģ¬":3031,"od":3032,"ĠíĥĦì":3033,"ĠëĵĿìłĲ":3034,"ĠìĿĢëį°":3035,"ĠìķķëıĦ":3036,"ëĦ·":3037,"íĪ":3038,"Ġëħ¼":3039,"Ġê¾¸":3040,"Ġë¶Ģëª¨":3041,"ĠìłĦë°ĺ":3042,"Ġë³Ģìĭł":3043,"09":3044,"ë¹Ħë":3045,"ĠíĻĶëł¥":3046,"ĹŃ":3047,"íŀ":3048,"ìĹ½":3049,"Ġë¹¨":3050,"ĠìķĦìĿ´ëıĮ":3051,"íĿ¥":3052,"ĠHP":3053,"Ġì£¼ìļĶ":3054,"Ġì°¬":3055,"Ġì¼ĢìĿ´":3056,"ec":3057,"ĠìĤ¬ë¡Ģ":3058,"ĠìĤ¬ëĥ¥":3059,"ĠìĨĮìŀ¬":3060,"ì§ĵ":3061,"ĠìĤ¬ê¸°":3062,"Ġë¬´ëĮĢ":3063,"Ġíı¬ì¼ĵëª¬":3064,"Ġëĭ¨ìłĲ":3065,"Ġë°ľìĸ¸":3066,"Ġ\\":3067,"Ġëĭ¤ìĪĺ":3068,"ĠìĤ´ë¦¬":3069,"ë¹Ī":3070,"Ġì§ĢëıĦ":3071,"ãģĦ":3072,"ĠíĥĪì¶ľ":3073,"Ġë¡¤":3074,"ëħ¸ë":3075,"ĠëįĶëĭĪ":3076,"ëĥĲ":3077,"Ġê°ľëħĲ":3078,"ĠíĮĲëĭ¨":3079,"ëŁŃ":3080,"ĠìłķìĭĿ":3081,"Ġë¹Ħë°Ģ":3082,"ĠëĭĪê¹Į":3083,"Ġê¹Ĭ":3084,"25":3085,"ĠâĢĺ":3086,"¹ĦìĬ¤":3087,"Ġë¬¼ê±´":3088,"um":3089,"Ġ31":3090,"ĠìĤŃìłľ":3091,"ĠìĭŃ":3092,"ĠëıĻìĥĿ":3093,"ëĦĪìĬ¤":3094,"ĠìĤ¬ìłķ":3095,"Ġíĥľìĸ´ëĤĺ":3096,"Ġë°ĳ":3097,"Ġë¬´ìĬ¨":3098,"Ġë²ĦíĶĦ":3099,"Ġ2009":3100,"Ġê´Ģíķĺ":3101,"ì¦Īë":3102,"Ġëĥī":3103,"ĠìĬ¤íĥĢìĿ¼":3104,"Ġìŀ¥ìĨĮ":3105,"ĠìłĲíĶĦ":3106,"ĠëŁ°":3107,"ĠìĹĺë¦¬":3108,"Ġì§Īë":3109,"ĠëĬĲë¦¬":3110,"ag":3111,"Ġvs":3112,"ĠìĪĺì¹ĺ":3113,"ĠìĭľìĦ¤":3114,"ĠìĿ¸ìĭĿ":3115,"Ġëĭ¹ìĭł":3116,"ver":3117,"âĨ":3118,"ĠìĹĦë":3119,"ĠìĿ´íķĺ":3120,"ìľ¤":3121,"Ġë¡Ŀ":3122,"Ġë¡ľë´ĩ":3123,"ĠìĪĺëıĦ":3124,"Ġê²½ìŁģ":3125,"ĠìŀĳìĹħ":3126,"ĠíĹĮ":3127,"ĠìłĦì°¨":3128,"Ġë§¹":3129,"ëł¬":3130,"ŁŃ":3131,"¡¤":3132,"Ġê³µê°Ħ":3133,"Ġmm":3134,"ĠíĦ¸":3135,"Ġëĭ¨ìĸ´":3136,"Ġìĺ¤ë¥¸":3137,"Ġìĥģê´Ģ":3138,"ëį¤":3139,"Ġìµľê°ķ":3140,"ĠìĤ¬ìĿ´íĬ¸":3141,"ĠíĬ¸ëŀ":3142,"Ġìŀłìĭľ":3143,"Ġíģ¬ë¦¬":3144,"ë°Ģ":3145,"¡Ŀ":3146,"Ġê°Ģë¬¸":3147,"ìĬ¤íĭ°":3148,"ìķĮ":3149,"ĠìĤ¬ê²©":3150,"ĠëĤĺìĦľ":3151,"Ġë³´ìľł":3152,"Ġë¹Ħìļ©":3153,"ĠëıĻë¬¼":3154,"Ġëħ¸ëł¥":3155,"ìķĹ":3156,"ĠìĿ´ìłģ":3157,"ĠíĬ¹ìĿ´":3158,"Ġì¹´ìĿ´":3159,"²Ī":3160,"ìłĿ":3161,"ĠíķĺëĬĺ":3162,"Ġkm":3163,"Ġê¸°ëıĻ":3164,"Ġê°Ĳìłķ":3165,"ĠíĸīìľĦ":3166,"Ġê·¼ì²ĺ":3167,"Ġì§ĳì¤ĳ":3168,"ĠãĢį":3169,"ì¹ľ":3170,"ĠìĦłìĥĿ":3171,"Ġë¬´ëł¤":3172,"Ġì½ĶìĬ¤":3173,"ĠìĻ¸êµŃ":3174,"íĭ±":3175,"Ġë¶Ħëªħ":3176,"¬´ë¦¬":3177,"Ġìķ¤":3178,"ìķ¼ë§Ĳë¡ľ":3179,"¹ìĬ¤":3180,"Ġë°ľìłĦ":3181,"Ġíı¬ê¸°":3182,"ìķĶ":3183,"ĠëłĪë":3184,"Ġìłķíķĺ":3185,"ĠìłĦêµŃ":3186,"Ġä¸":3187,"ì»µ":3188,"Ġì°¨ìĽĲ":3189,"Ġê²ª":3190,"ĠëĿĦ":3191,"Ġì¡°ìŀĳ":3192,"Ġê±·":3193,"ĠíĶ½":3194,"Ġë©ĺ":3195,"Ġê±´ìĦ¤":3196,"íĹĪ":3197,"ĠìĿĮë":3198,"Ġë¹Ļ":3199,"Ġì§Ģìĥģ":3200,"íį¼ë":3201,"ĠìľĦëł¥":3202,"Ġê¸°íļĮ":3203,"ìĿ¼ëŁ¬":3204,"Ġth":3205,"13":3206,"ĠìĤ¬ë¬´":3207,"ĠìĿ¸ìĤ¬":3208,"ĠãĢĮ":3209,"Ġê°ķìłľ":3210,"ìµľ":3211,"²½":3212,"Ġìŀ¥ê°ĳ":3213,"Ġê¸°ê³Ħ":3214,"Ġ2008":3215,"Ġëıħë¦½":3216,"ĠìĨįíķĺ":3217,"Ġë¶Ģìłķ":3218,"Ġìłľëª©":3219,"ĠÃ":3220,"ĠëģĿëĤ´":3221,"ĠìĿ´ëĭĿ":3222,"íĳ":3223,"Ġìĺģêµ¬":3224,"Ġëª©íĳľ":3225,"Ġì¹´ìļ´":3226,"ĠìĻ¼":3227,"ĠìĤ¬íķŃ":3228,"ĠìĨĮëł":3229,"ë§ĪìŀĲ":3230,"Ġë§Īìĭľ":3231,"Ġìĭ¤ìłĲ":3232,"ĠíĬĢ":3233,"Ġë¶Ģíķĺ":3234,"Ġìłķë¦¬":3235,"Ġëĭ¨ì²´":3236,"ĠâĺĨ":3237,"Ġê°ģìĦ±":3238,"ĠâĹ":3239,"ĠíıŃíĥĦ":3240,"Ġë²Ħíĭ°":3241,"Ġëĸ¡":3242,"ĠìĿĺìĭĿ":3243,"ĠìĽĲìĿ¸":3244,"ul":3245,"ĠìŀĲìĽĲ":3246,"ĠìĪĺìĥģ":3247,"ĠìłľíĴĪ":3248,"Ġê±´ëĭ´":3249,"ĠìĿ´ìĻ¸":3250,"Ġê°ĢìĪĺ":3251,"Ġë°Ķëĭ¤":3252,"Ġëł¤ë©´":3253,"ĠëĨĴìĿ´":3254,"Ġë¶Ģíĥģ":3255,"Ġë³¸ëŀĺ":3256,"ĠíģĲ":3257,"Ġin":3258,"Ġê³łìĸĳ":3259,"ĭ´":3260,"Ġë¸ĮëĿ¼":3261,"ĠíĺĦìĥģ":3262,"Ġê·¹ìŀ¥":3263,"ĠìĹĲê²ĮìĦľ":3264,"ĠìĻĦìĦ±":3265,"ĠìŀĦë¬´":3266,"ëĤĺëĿ¼":3267,"ĠìķĦíĤ¤":3268,"Ġê²¸":3269,"Ġêµ°ëĮĢ":3270,"ĠíĤ¤ìļ°":3271,"ĠìĦľë¹ĦìĬ¤":3272,"ĠìĺĽ":3273,"Ġíķ´ìĻ¸":3274,"Ġë³µê·Ģ":3275,"ê¸¸":3276,"ìĭľë§Ī":3277,"Ġê°ĸì¶Ķ":3278,"Ġë¶ģíķľ":3279,"ri":3280,"ëī´":3281,"ìĪ¨":3282,"ĠíĻĢ":3283,"Ġì«ĵ":3284,"ĠìĪ¨ê¸°":3285,"ĠìĹ°ìĬµ":3286,"Ġêµ°ìĤ¬":3287,"Ġì²łëıĦ":3288,"Ġíĳľìĭľ":3289,"ĠìĤ´íķ´":3290,"Ġíļ¨ìľ¨":3291,"ĠìĿ¸êµ¬":3292,"Ġì§ģíĽĦ":3293,"ĠíĻĶë©´":3294,"Ĥľ":3295,"Ġì±ħìŀĦ":3296,"ĠìĪĺíĸī":3297,"os":3298,"ĠìķŀìĦľ":3299,"Ġ36":3300,"ĠíķĻìĽĲ":3301,"Ġì£¼ìłľ":3302,"ìłĿíĬ¸":3303,"ĠQ":3304,"ĠíķĦëĵľ":3305,"ìľĦì":3306,"Ġê¸°ëĭ¤ë¦¬":3307,"ĠìłĦê°ľ":3308,"ĠìłĦëł¥":3309,"ak":3310,"ĠíĿĲë¥´":3311,"Ġë¥´":3312,"ì¥":3313,"Ĥł":3314,"ST":3315,"ĠíķĦìĤ´":3316,"ìĩĦ":3317,"ight":3318,"Ġë³ĳìĤ¬":3319,"Ġì£¼ë¯¼":3320,"ìłł":3321,"Ġìľ¼ë¡ľìį¨":3322,"Ġë°Ķë¥´":3323,"Ġì¡°ì¢ħ":3324,"40":3325,"ëłĪìĬ¤":3326,"ĠëħĢìĦĿ":3327,"íĬ¹":3328,"ĠìĹ¼":3329,"ĠêµĲìĪĺ":3330,"Ġê³µíı¬":3331,"ĠìĿĺìĤ¬":3332,"ĠêµŃìłľ":3333,"ĮëĤĻ":3334,"ëĵľë¦¬":3335,"ëĮĢíķĻêµĲ":3336,"Ġë§Īë²ķìĤ¬":3337,"Ġê³Ħë":3338,"Ġë¶Īê°Ģ":3339,"ĠíĻĺê²½":3340,"Ġ,,":3341,"ìłľë":3342,"ĠìĺĪìłĦ":3343,"Ġë§Īë¥´":3344,"Ġíģ¬ê¸°":3345,"ëĳ¥":3346,"ĠëŀŃíģ¬":3347,"³Ĳ":3348,"Ġë¹¨ë¦¬":3349,"Ġìłľê±°":3350,"Ġíı¬ì§Ģìħĺ":3351,"ĠíĥĢì¹´":3352,"Ġê¼Ń":3353,"ĠìĽĮëĤĻ":3354,"íĤ¨":3355,"Ġëª½":3356,"Ġíıīê·ł":3357,"ĠëıĦìłĦ":3358,"íĮĮíĬ¸":3359,"Ġì¶Ķì¸¡":3360,"Ġ45":3361,"ê·¸ëłĪìĿ´ëĵľ":3362,"Ġë§Īë¬´ë¦¬":3363,"Ġì¶Ķì²ľ":3364,"Ġìŀĳê³¡":3365,"Ġë»Ķ":3366,"ĠìĦ¸ê¸°":3367,"ľ¨":3368,"Ġìļ°ìĦł":3369,"ĠìĻĦë²½":3370,"Ġë£¨íĬ¸":3371,"Ġìħĭ":3372,"Ġê·¸ìķ¼ë§Ĳë¡ľ":3373,"ĠìĹħê·¸ëłĪìĿ´ëĵľ":3374,"ĠKBS":3375,"ëĵľìĭľ":3376,"Ġêµ¬ë§¤":3377,"Ġë¶Ħë¥ĺ":3378,"ĠìĥĪë¡ľ":3379,"ĠëĮĢê²°":3380,"Ġìĺ®":3381,"Ġë³Ħëªħ":3382,"Ġë¸Ķë£¨":3383,"Ġíıīë²Ķ":3384,"Ġê°Ħì":3385,"ĠíĨµíķ©":3386,"Ġìĭ¬ê°ģ":3387,"Ġëª¨ìĿ´":3388,"Ġìī¬":3389,"Ġê³łìłķ":3390,"ĠíļĮíĶ¼":3391,"ĠìķĦë¬´ë¦¬":3392,"Ġ48":3393,"ĶĶìĸ´":3394,"ĠìķĦëĤ´":3395,"ĠìľłëĭĪ":3396,"Ġìĭ¤íĹĺ":3397,"Ġìŀ¥ìłĲ":3398,"ĠìĿ´ëĿ¼ê³ł":3399,"Ġë³µìĪĺ":3400,"Ġëĭ¤íĸī":3401,"Ġë¡¯":3402,"ìĭŃ":3403,"Ġë°ĺëĵľìĭľ":3404,"ĠìĬ¹ë¶Ģ":3405,"ĠëıĦì°©":3406,"ë¹Ļ":3407,"Ġìĺ®ê¸°":3408,"Ġê»":3409,"Ġëĭ¨ì§Ģ":3410,"Ġì§ĦíĻĶ":3411,"Ġë¶ī":3412,"Ġëĭ¤ìĨĮ":3413,"Ġëĭ¥":3414,"Ġë³ĳìĽĲ":3415,"ĠáĨ¯ìĪĺë¡Ŀ":3416,"ĠìĿĮìĭĿ":3417,"Ġê°Ģìļ´":3418,"Ġë¶ķ":3419,"ĺģ":3420,"ĠìľłíĬľë":3421,"íĮĶ":3422,"Ġìĭ±ê¸Ģ":3423,"Ġìľ¼":3424,"ä¸":3425,"Ġê¸°ë°ĺ":3426,"ĠìŀĲë§ĪìŀĲ":3427,"Ġë¹Ħì¤ĳ":3428,"ìķ¼ë§Ī":3429,"ĠìķĪìłĦ":3430,"ĠìłĲìłĲ":3431,"Ġì§Ĳ":3432,"Ġìłĳê·¼":3433,"Ġì½ľë":3434,"Ġë²Ķì£Ħ":3435,"Ġíķ©ë¥ĺ":3436,"ĠìĿ¸ëıĦ":3437,"Ġê±±":3438,"ĠëĮĢêµ¬":3439,"Ġìĺ¤ëĬĺ":3440,"ĠíĸīìĦ±":3441,"Ġê±±ìłķ":3442,"ĠìĹ¬íĸī":3443,"ê±¸":3444,"ĠëĥĲëĬĶ":3445,"ĠìķĦìĭľ":3446,"ĠìķĶìĤ´":3447,"ĠìłĢíķŃ":3448,"ĠëĬ¦":3449,"ì±Ħ":3450,"ĠëłĪëĵľ":3451,"Ġå¤":3452,"Ġë´īìĿ¸":3453,"ìĦ¯":3454,"ĠíĥĢìŀĲ":3455,"ĠìĿ¼ëŁ¬":3456,"Ġì§Ģë°°":3457,"ĠìĻķêµŃ":3458,"ìĬ´":3459,"ëŀľëĵľ":3460,"Ġì¹¼ë":3461,"ĠìłĦëŀµ":3462,"ĠìĤ¬ê±°ë¦¬":3463,"ĺë¦¬":3464,"Ġ500":3465,"Ġì¦Ĳê¸°":3466,"Ġê°Ģìļ´ëį°":3467,"ĠíĥĪëĿ½":3468,"Ġíĺģ":3469,"Ġì´¬":3470,"Ġë¯¸ìĤ¬ìĿ¼":3471,"ĠìĻĢì¤ĳ":3472,"ĠíŀĪìĸ´ë¡ľ":3473,"ĠáĨ«ì§ĢëĿ¼":3474,"ĠìķĦíĮĮíĬ¸":3475,"°°":3476,"Ġë²Ħê·¸":3477,"Ġê¸°ì§Ģ":3478,"Ġì¤ĦìĿ´":3479,"Ġì¯¤":3480,"ĠìľłìĤ¬":3481,"ìĤ¼":3482,"ĠíıīìĨĮ":3483,"Ġì´¬ìĺģ":3484,"Ġê³µì£¼":3485,"Ġêµ³ìĿ´":3486,"ĠìĭľìłĦ":3487,"Ġíĸīìłķ":3488,"ĠëĿ¼ìĿ´ë¸Į":3489,"Ġì£¼ë¬¸":3490,"ª¬":3491,"ĠíĥĿ":3492,"ëªĩ":3493,"ê¼":3494,"ĠìĹ°ìŀ¬":3495,"ĠìĦ±íĸ¥":3496,"ĵł":3497,"ĠíĭĢ":3498,"¼ëĤ´":3499,"ĠíĻķìŀ¥":3500,"ĠíĴĢë¦¬":3501,"ĠìŀħíŀĪ":3502,"íķĳ":3503,"Ġìŀ¬ë¯¸":3504,"Ġì¹ł":3505,"Ġëĵ¤ë¦¬":3506,"Ġê°Ģì¹ĺ":3507,"Ġì¹ĺë£Į":3508,"íĻį":3509,"ĠìĦľë²Ħ":3510,"Ġì¢ħì¢ħ":3511,"Ġë³´ë³ĳ":3512,"ìĦ¸ë":3513,"ĠêµŃíļĮ":3514,"ĠìłĦìŀĲ":3515,"íĬ¸ë¡ľ":3516,"ĠìŀŃ":3517,"íķĻìĥĿ":3518,"ìĿ´ì¦Ī":3519,"Ġëª¨ìŀĲ":3520,"Ġíĺķìłľ":3521,"Ġë²Ħë":3522,"ĠìĿ¸ì²ľ":3523,"Ġìį":3524,"Ġëªĩëªĩ":3525,"Ġê³łìŀĲ":3526,"Ġì¹ĺëªħ":3527,"Ġìº¡":3528,"ĠìĬ¤ì½Ķ":3529,"ĠìĬ¤íĶ¼ë":3530,"ĠìĨĮëł¨":3531,"Ġë¦¬ëįĶ":3532,"Ġëĭ¤ê·¸":3533,"22":3534,"ĠâĢĿ":3535,"ce":3536,"ĠìĽĲíķĺ":3537,"Ġ2007":3538,"Ġê±°ë¶Ģ":3539,"Ġìłķê·ľ":3540,"ĠíĬ¹ìľł":3541,"ê¹¨":3542,"Ġê´ĳê³ł":3543,"ëĤĺìĿ´":3544,"Ġê¸Īì§Ģ":3545,"Ġë§Īëł¥":3546,"Ġìĺµìħĺ":3547,"Ġë¹Į":3548,"Ġëĭ¬ëŁ¬":3549,"ê½":3550,"ĠìĬ¤íģ¬":3551,"Ġê°Ģë©´":3552,"¦Ī":3553,"ë§İ":3554,"Ġ194":3555,"ĠCh":3556,"Ġto":3557,"Ġë¨¹ìĿ´":3558,"Ġìĭľì²ŃìŀĲ":3559,"ìħľ":3560,"Ġë³¼ë":3561,"ĠìĿ¸íĦ°ëĦ·":3562,"Ġëª°ë¦¬":3563,"ë²ĦìĬ¤":3564,"ĠìĿĦì§Ģ":3565,"Ġìĸ´ëĳł":3566,"íĶĮë":3567,"Ġë¯¸ëĵľ":3568,"ìļĶìĿ¼":3569,"ĠëıĦìŀħ":3570,"ĠíĶĦëłĪ":3571,"Ġíĳ¸":3572,"ãģ®":3573,"ãģª":3574,"ĠìĤ¬íĥľ":3575,"Ġê³łë¥´":3576,"ĠëĮĢìŀ¥":3577,"ĠìļĶì²Ń":3578,"Ġì±Ħìļ°":3579,"Ġê°ľì¡°":3580,"Ġë¡¯ëį°":3581,"Ġì»¬":3582,"Ġë³¸ê²©":3583,"Ġë©ĭ":3584,"ĠëłĪìĸ´":3585,"ĠìĽ¹":3586,"Ġìĭ¤ìĪĺ":3587,"Ġ300":3588,"ĠëĤĺìĿ´íĬ¸":3589,"Ġìĭľíĭ°":3590,"01":3591,"Ġë²¤":3592,"Ġ33":3593,"ĠíĥĢìĿ´íĭĢ":3594,"Ġìķī":3595,"Ġìŀ¥ì¹ĺ":3596,"ì¿Ħ":3597,"Ġíķĺëĵľ":3598,"íİľ":3599,"ĠìĪ²":3600,"ĠíŀĪíĬ¸":3601,"Ġìŀ¬ë£Į":3602,"Ġê²ĢìĤ¬":3603,"ĠíĶĮëŀĺ":3604,"Ġìŀī":3605,"ìĹĦ":3606,"ĠìĤ¬ìłĦ":3607,"ëĭī":3608,"Ġì¤ĳë°ĺ":3609,"ĠÃĹ":3610,"ĠIn":3611,"Ġíı¬ìĬ¤":3612,"ĠëĵľëŁ¬ëĤ´":3613,"Ġëį©":3614,"ĠLG":3615,"Ł½":3616,"Ġì§Ģìłķ":3617,"Ġë²Īíĺ¸":3618,"ĠâĢľ":3619,"ĠëįĺìłĦ":3620,"íĵ¨":3621,"ĠìĹ°ìŀ¥":3622,"ĠíĪ¬ìŀħ":3623,"ĠìĪĺë§İ":3624,"Ġë°´ëĵľ":3625,"ìĭľìĬ¤":3626,"ë¸Įë":3627,"ĠëĶ°ì§Ģ":3628,"Ġëļ«":3629,"¨¼":3630,"Ġê´´ë¬¼":3631,"Ġê³łëĵ±íķĻêµĲ":3632,"ì´Į":3633,"ĠìłĦíĻĶ":3634,"Ġê³łìĨį":3635,"AR":3636,"ë¹ł":3637,"Ġ2006":3638,"Ġâĸ":3639,"Ġì·¨íķĺ":3640,"oc":3641,"Ġê¾¼":3642,"ĠEX":3643,"Ġë°ķìĤ¬":3644,"ĠëłĪìĿ¸":3645,"ĠìĤ´ìĿ¸":3646,"Ġíķĺê³ł":3647,"Ġê³¨ëĵľ":3648,"ĠìĿ´ìĤ¬":3649,"ëĬĲ":3650,"ia":3651,"ĠëĬĶê°Ģ":3652,"08":3653,"Ġë³´ëĦĪìĬ¤":3654,"ĠìķĦìĽĥ":3655,"Ġë°ľìĿĮ":3656,"Ġë²łìĿ´":3657,"Ġr":3658,"ĠìĨĮìľł":3659,"Ġë¿Įë¦¬":3660,"Ġcm":3661,"ë³¼":3662,"Ġìĸ¼ë§ĪëĤĺ":3663,"ĠëĩĮ":3664,"ìĬ¤ì¼Ģ":3665,"ĠMBC":3666,"ìħĶ":3667,"ĠíĸīìĤ¬":3668,"ĠìĥĿë¬¼":3669,"ĠíĮ¨ëŁ¬":3670,"ap":3671,"ĠìĹĲìĿ´":3672,"Ġíķ´ìłľ":3673,"Ġíķ´êµ°":3674,"Ġì»µ":3675,"ĠíĿ¬ìĥĿ":3676,"ĠìµľíĽĦ":3677,"Ġê°Ĵ":3678,"Ġê°¤ëŁ¬":3679,"Ġãħ":3680,"ĠìĿ´ìĸ´":3681,"ĠìłĢì§Ģë¥´":3682,"ëļ":3683,"ìķ¼ë":3684,"¨¹":3685,"ìĨĶ":3686,"íĹ¤":3687,"ĠìĿĺëıĦ":3688,"Ġíķľê³Ħ":3689,"ìĿ´íĦ°":3690,"ĠìĨĮìĭĿ":3691,"Ġíı°":3692,"ĠìłĬ":3693,"ĠíĪ¬íĳľ":3694,"Ġíİľ":3695,"¾Į":3696,"Ġë¹µ":3697,"ĠìĦŀ":3698,"ĠìĦľìĪł":3699,"Ġìĺ¤ë¦¬ì§Ģ":3700,"ĠìħĢ":3701,"Ġëĵľë¦¬":3702,"Ĥ¥":3703,"Ġìłķì±ħ":3704,"ter":3705,"ĠìĹŃëĮĢ":3706,"§Ħ":3707,"íĺ¸ë":3708,"ĠìĻ¸ëª¨":3709,"Ġëĭ¤ìļ´":3710,"ĠëĬĲëĥĲ":3711,"Ġëī´ìĬ¤":3712,"ìĺ¤ìĬ¤":3713,"Ġê³µëŀµ":3714,"ê¹Ĳ":3715,"Ġìĺģíĺ¼":3716,"íĹĮ":3717,"Ġë¹¼ìķĹ":3718,"Ġìŀ¥ëĤľ":3719,"ì¿łëĿ¼":3720,"Ġê°ľê·¸":3721,"200":3722,"íı´":3723,"Ġyou":3724,"ĠìľĦíĺĳ":3725,"ĠíĿī":3726,"Ġë°ĺë³µ":3727,"ë°Ľ":3728,"ĠêµĲíĨµ":3729,"Ġíĭ°ìĸ´":3730,"ĠìĤ¬ìŀ¥":3731,"Ġìŀ¥êµ°":3732,"ĠëĬĶëĭ¤ëĬĶ":3733,"Ġì¡°ìłķ":3734,"íķĢ":3735,"Ġë¯¸ëĭĪ":3736,"Ġìļ´ìļ©":3737,"Ġëª¨íĹĺ":3738,"Ġë¬´ìĦŃ":3739,"Ġê·¸ìłĢ":3740,"07":3741,"ì¢Į":3742,"Ġë§º":3743,"Ġë³´ì¡°":3744,"ĠìŀĲë£Į":3745,"ĠìĹĳìĬ¤":3746,"ĠìłģìłĪ":3747,"ĠìĽĲìłķ":3748,"Ġì°¨ë¡Ģ":3749,"Ġëª©ìĪ¨":3750,"Ġìĸ¸ë¡ł":3751,"īĺ":3752,"ĠFC":3753,"ì£½":3754,"ëĮĢë¡ľ":3755,"ĠìĿ´íĥĪë¦¬ìķĦ":3756,"ĠëĮĢìĿĳ":3757,"äº":3758,"ĠìĭľëĤĺ":3759,"ĠìĦłìĸ¸":3760,"Ġê¸°ëħĲ":3761,"ĠëĶĶìĬ¤":3762,"Ġì¢ħêµĲ":3763,"Ġê°Ħëĭ¨":3764,"ill":3765,"ë®¤":3766,"ĠìĿĺìĭ¬":3767,"ĠìĿ¸ì§Ģ":3768,"Ġì½ľ":3769,"ë¥¼":3770,"Ġíķ´ìĦĿ":3771,"Ġìĵ°ëŁ¬ì§Ģ":3772,"op":3773,"íĦ":3774,"Ġë¬´ìĤ¬":3775,"ŀį":3776,"ĠëıħìŀĲ":3777,"Ġìĺģìŀħ":3778,"ĠíļĮìŀ¥":3779,"ĠìĤ¬ëł¹":3780,"ĠìĤ¬ìĥģ":3781,"Ġì¹´ë©Ķ":3782,"½íŀĪ":3783,"ĠìĿĺì§Ģ":3784,"Ġê³łìĸĳìĿ´":3785,"ëª½":3786,"Ġì¡°ê°ģ":3787,"ìĭ¸":3788,"ĠìĿ¸ìĥģ":3789,"ĠìĿ¼ëŁ¬ìĬ¤íĬ¸":3790,"ĠìĨĮëħĦ":3791,"Ġì§Īë¬¸":3792,"Ġë°Ķëĭ¥":3793,"Ġê°ľìĽĶ":3794,"Ġìķ½ìłĲ":3795,"Ġê°ĢìĤ¬":3796,"Ġê°Ģìłķ":3797,"Ġê³łëĮĢ":3798,"Ġë¯¸ë¦¬":3799,"ĠëĨĢëĿ¼":3800,"Ġì»¨ìħī":3801,"ĠìĿ´ì¹ĺ":3802,"Ġê²¹":3803,"ĠëĮĢê¸°":3804,"Ġë§Ŀíķĺ":3805,"ĠëĦ¤ìĿ´":3806,"Ġì½Ķëĵľ":3807,"Ġë¸ĮëłĪìĿ´":3808,"ĭ¸":3809,"ì¹ł":3810,"Ġìĺ¤ëŀľ":3811,"ation":3812,"ĠìĽĶëĵľì»µ":3813,"Ĳë¦¬":3814,"Ġíķ©ì¹ĺ":3815,"ĠìłĢê²©":3816,"ĠêµĲíļĮ":3817,"ì¹¸":3818,"Ġê±°ì§ĵ":3819,"ĠìłĦìĽĲ":3820,"Ġë¶ĢìĪĺ":3821,"Ġêµ¬ëĭ¨":3822,"Ġìķ¼ë":3823,"ĠìĹĦ":3824,"Ġì±Ļ":3825,"ĠìłķìĿĺ":3826,"ĠíĶĦë¡ľìłĿíĬ¸":3827,"Ġêµ¬ë¶Ħ":3828,"Ġëħ¸íĬ¸":3829,"ìħĢ":3830,"Ġíģ´ëŀĺìĬ¤":3831,"ĠìŀĬ":3832,"íĵ¨íĦ°":3833,"Ġìŀ¥ê¸°":3834,"ãģŁ":3835,"ĠíĺķìĭĿ":3836,"Ġê¸°ìŀĲ":3837,"Ġìĭľë¯¼":3838,"ãģ¦":3839,"Ġì±ĦëĦĲ":3840,"ĠìłľìĿ¼":3841,"Ġê³µë¶Ģ":3842,"ĠëĮĢëĭ¨":3843,"Ġê·¼ëį°":3844,"Ġìĭłì²´":3845,"Ġê³µëıĻ":3846,"ì¡°ê±´":3847,"Ġê´Ģê´ĳ":3848,"ĠìľĪ":3849,"Ġê°ĲìķĪ":3850,"ëıĻìĥĿ":3851,"Ġê·¸ëłĪìĿ´":3852,"ĠìĽ¬":3853,"Ġê¼´":3854,"ëĭ¤ë¥´":3855,"ĠëłĮ":3856,"ĠìĤ°ìĹħ":3857,"ĠìĿ´ìª½":3858,"Ġê¾¸ì¤Ģ":3859,"ĠíĶĦ":3860,"Ġìĭ¤ìĭľ":3861,"Ġì¥Ĳ":3862,"Ġìĥģì§ķ":3863,"íĢ´":3864,"ĠëĮĢë¹Ħ":3865,"ĠíķĦìĤ´ê¸°":3866,"Ġëĭ¹ìŀ¥":3867,"ĠìĥģëĮĢë°©":3868,"Ġë³´ì»¬":3869,"Ġë¶Īê³¼":3870,"ĠMA":3871,"Ġ2005":3872,"ĠìĬ¤íı¬ì¸ł":3873,"99":3874,"Ġëŀľë":3875,"ĠìĿ¼ì¢ħ":3876,"Ġ38":3877,"ĠíĿ¡ìĪĺ":3878,"Ġì¹´íİĺ":3879,"Ġíĳľìłķ":3880,"Ġìĸ¸ìĸ´":3881,"24":3882,"Ġëĭ®":3883,"Ġêµ°ëĭ¨":3884,"Ġë§ĪìĤ¬":3885,"ĠëĭĮ":3886,"Ġ34":3887,"Ġë°©íķ´":3888,"²Ķ":3889,"23":3890,"ĠìĥĿìĦ±":3891,"ĠëĿ¼ìĿ´íĬ¸":3892,"ĠìľłíĬľë¸Į":3893,"ĵľë":3894,"ĠíĽĦìĨį":3895,"ëĿ¼ìĿ¸":3896,"Ġìĺ¬ë¦¼":3897,"all":3898,"Ġìłģê·¹":3899,"Ġì§Ģìłģ":3900,"ĠíĨ¤":3901,"ĠíĺĲ":3902,"Ġë¹Ħìĭ¸":3903,"Ġìłľìķķ":3904,"Ġìĥ·":3905,"ëĿ¼ë¦¬":3906,"Ġ{":3907,"Ġêµ¬ìĹŃ":3908,"Ġë§Īì¹¨":3909,"Ġê³Ħê¸°":3910,"Ġê¸´":3911,"ë¦¬ê·¸":3912,"Ġ2004":3913,"ĠìĹĲìĿ´ìĬ¤":3914,"Ġì§ĳëĭ¨":3915,"ĠëĪĪë¬¼":3916,"Ġì§Ħìŀħ":3917,"ëĵ¬":3918,"ìĮ":3919,"ĠíĻķë³´":3920,"Ġë¡ľëĵľ":3921,"ĠìĹ´ì°¨":3922,"Ġê°ľë´ī":3923,"Ġìłľë¡ľ":3924,"¸ë§Ŀ":3925,"Ġì½¤ë³´":3926,"ë¨¹":3927,"Ġì£¼ëł¥":3928,"ĠìĿ¸ìĽĲ":3929,"Ġì»´íĵ¨íĦ°":3930,"Ġë°¸ë":3931,"ĠíļĮìĿĺ":3932,"Ġì¹ľíķĺ":3933,"Ġë¶Ģë¦¬":3934,"íĴĢ":3935,"Ġì§Ģìĺ¥":3936,"Ġë¬´ì¡°ê±´":3937,"íħĲì¸ł":3938,"ãĥ«":3939,"Ł°ìĬ¤":3940,"Ġìĺ¤ë¦¬ì§ĢëĦĲ":3941,"ë©ĺ":3942,"ëį´":3943,"ON":3944,"Ġë©¸ë§Ŀ":3945,"Ġë¯¼ì£¼":3946,"Ġand":3947,"ĠíĥľëıĦ":3948,"ĠìłľëıĦ":3949,"ĠìķĻ":3950,"Ġë¡ľë§Ī":3951,"ĠìļĶìĭľ":3952,"ìĵ°":3953,"ĠìĿ¸íĺķ":3954,"ĠìĦłìłķ":3955,"ĠëĮĢì¤ĳ":3956,"art":3957,"ĠìĺĢ":3958,"ĠìĹł":3959,"Ġì°©ìļ©":3960,"ë¶Ļ":3961,"ĠìĹ°ì£¼":3962,"Ġìĺ¤íĶĦë":3963,"Ġíķ¨ìłķ":3964,"ĠëĵľëĿ¼ìĿ´":3965,"Ġ1000":3966,"Ġê²¨ìļ°":3967,"ĠìłĦìĪł":3968,"ĠìĦłë³´ìĿ´":3969,"Ġëį°ìĿ´íĦ°":3970,"ĠìĬµê²©":3971,"Ġì½Ķì¹ĺ":3972,"Ġì§Ģëªħ":3973,"Ġìĸ´ì°Į":3974,"¼ì§Ģ":3975,"ë¥´íĬ¸":3976,"ĠíĨµê³¼":3977,"ëĭ«":3978,"ĠíķĦìĪĺ":3979,"ìľĪ":3980,"Ġì±Ļê¸°":3981,"Ġê°Ģíķĺ":3982,"ĠìłĢì£¼":3983,"Ġë¹ĦëĤľ":3984,"Ġì´ī":3985,"ĠìłĦíĻĺ":3986,"ĠìĹĦë§Ī":3987,"Ġê°Ģë¥´ì¹ĺ":3988,"Ġê´ĳì£¼":3989,"Ġêº¼ëĤ´":3990,"ìĹĶ":3991,"ľł":3992,"ĠìĿ¸ë¥ĺ":3993,"ìĹŃìĭľ":3994,"Ġëª¨íĭ°ë¸Į":3995,"ëłī":3996,"Ġ195":3997,"ëĵľë¡ľ":3998,"ĠëĮĢëĭµ":3999,"Ġë¹Įë":4000,"Ġìłķëĭ¹":4001,"íĨ¨":4002,"ì°į":4003,"ãĤĵ":4004,"íİĺìĿ´ì§Ģ":4005,"Ġìķ¼ë§Ī":4006,"ĠìĦ¸ìļĶ":4007,"ë¯¸ëĦĲ":4008,"Ġ2020":4009,"Ġë¶Ħë¦¬":4010,"ĠëĮĢíĺķ":4011,"Ġê°ľìĦł":4012,"Ġë°©ë¬¸":4013,"Ġ37":4014,"ĠëĶľë":4015,"03":4016,"Ġì§ĢëĤĺì¹ĺ":4017,"Ġìĥģì²ĺ":4018,"ĠìłľìķĪ":4019,"Ġìľłìļ°":4020,"05":4021,"AN":4022,"Ġi":4023,"Ġê²Įìĭľ":4024,"ack":4025,"ĠëıĻë§¹":4026,"Ġë¬´ëł¥":4027,"Ġìľ¼ë¡ľë¶ĢíĦ°":4028,"Ġìķ¡ìħĺ":4029,"ê½ĥ":4030,"Ġë¨¸ë":4031,"Ġë°©íĮ¨":4032,"ĠìľłëıĦ":4033,"ĠëĿ½":4034,"ĠëĪĪì¹ĺ":4035,"ĠëįĶë¸Ķ":4036,"ĠìłĲëł¹":4037,"Ġìŀłê¹Ĳ":4038,"ëĭĪìĬ¤":4039,"ĠìĻĦë£Į":4040,"ë©¸":4041,"Ġì§Ģìļ°":4042,"Ġ*":4043,"ĠìĪĺìĤ¬":4044,"ĠìłĦíĨµ":4045,"ìŀĲë¦¬":4046,"Ġë¶Īëªħ":4047,"Ġíĳ¸ë":4048,"ĠìĤ¬ê³¼":4049,"Ġìĺ¤íĨł":4050,"Ġë²ĦíĬ¼":4051,"Ġëįľ":4052,"ĠëĤ¨íİ¸":4053,"ĠíĺĦìŀ¥":4054,"Ġì§ģìĽĲ":4055,"Ġë¹Įë¦¬":4056,"ĭµ":4057,"ì²©":4058,"ĠíĨµìĭł":4059,"ãĤ¤":4060,"ĠìľĦìĽĲíļĮ":4061,"IN":4062,"Ġë¬¶":4063,"ĠëıĦì¿Ħ":4064,"Ġì§Ħìłķ":4065,"íĮĮë":4066,"ĠìĿĺë¬¸":4067,"ĠìķĦëĤĺ":4068,"ĠìĪĺíĺ¸":4069,"ĠìĥģìŀĲ":4070,"Ġì¥¬":4071,"ìĹĨ":4072,"ë²¤":4073,"íĥĢë¡ľ":4074,"Ġëª©ë¡Ŀ":4075,"ĠíķĺìľĦ":4076,"ë¦Ħë":4077,"Ġë°°ìĭł":4078,"ĠAn":4079,"02":4080,"ì½ľ":4081,"ĠìľłíĤ¤":4082,"Ġíĥľìĸĳ":4083,"Ġíİ¸ì§ĳ":4084,"ì½¤":4085,"Ġëŀĺ":4086,"ì½©":4087,"Ġìµľìķħ":4088,"ĠëĤłê°ľ":4089,"ĠíĶ¼íķ´ìŀĲ":4090,"ĠíĿ¬ë§Ŀ":4091,"ĠìĦ¤ë¦½":4092,"ë¥´íģ¬":4093,"ĠìĿĢíĩ´":4094,"Ġë¬´íķľ":4095,"Ġëĵ±ë¡Ŀ":4096,"ĠëĮĵ":4097,"Ġê°Ģëĵľ":4098,"Ġìĺ¤ë¥¸ìª½":4099,"ĠìĦłë¬¼":4100,"å¤":4101,"ĠìĻ¼ìª½":4102,"ìķĦë¦¬":4103,"ĠìľĦì£¼":4104,"Ġë¡ľìį¨":4105,"ëĵĢ":4106,"ëŀĺíĶĦíĬ¸":4107,"ĠPC":4108,"ĠìĽĲê±°ë¦¬":4109,"Ġ....":4110,"Ġëĸ¼":4111,"Ġì¹ĺë¥´":4112,"Ġê³łíĨµ":4113,"ì£¼ëĭ¹":4114,"Ġêµ¬ì¶ķ":4115,"ĠíĭĪ":4116,"ë¡ľëĵľ":4117,"ĠìĪĺë¦¬":4118,"ĠëĮĢìĽĲ":4119,"ĠíĮ¨ìĬ¤":4120,"Ġ2002":4121,"ĠíĽĦë°ĺë¶Ģ":4122,"ë³į":4123,"Ġìļ©ë³ĳ":4124,"ĠíħĮëŁ¬":4125,"ĠRe":4126,"Ġì¹´ìļ´íĦ°":4127,"Ġê°Ģë³į":4128,"Ġìŀ¬íĮĲ":4129,"ë¡±":4130,"ëŁ¬ìĬ¤":4131,"ì»¨":4132,"Ġë©Ī":4133,"ĠëĮĢëĨĵ":4134,"Ġìļ°ìĪĺ":4135,"Ġíĺ¼ë":4136,"ëŀĺëıĦ":4137,"ĠìĦľë¸Į":4138,"Ħìĭľ":4139,"ĠìĹŃìłĦ":4140,"Ġë§Īíģ¬":4141,"ĠìķĮëł":4142,"ë¯¹":4143,"Ġê²¹ì¹ĺ":4144,"ĠíĪ¬ìŀĲ":4145,"Ġìľ¡êµ°":4146,"ë¬´ìĽĲ":4147,"ìĺ·":4148,"âĺ":4149,"Ġì²´ìłľ":4150,"ĠíħĲ":4151,"ate":4152,"ĠíķľêµŃìĸ´":4153,"ĠëĶĶì§Ģ":4154,"ëĿ¼ìĿ´ëįĶ":4155,"ĠíŀĪë¡ľìĿ¸":4156,"Ġì¼ĢìĿ´ìĬ¤":4157,"Ġì²´ìľ¡":4158,"ìļ¸ë¦¬":4159,"Ġëħ¸ëıĻ":4160,"Ġë¯¸ìĬ¤":4161,"ie":4162,"ast":4163,"Ġëį°ìĬ¤":4164,"Ġë§ĪëĤĺ":4165,"íİł":4166,"Ġì¼Ħ":4167,"Ġê´´ë¡Ń":4168,"Ġê°ľìµľ":4169,"Īë¡ľ":4170,"Ġê°¤ëŁ¬ë¦¬":4171,"ĠìĭľëĤ´":4172,"ìĩ¼":4173,"Ġê¸Īë":4174,"ĠìŀĳìĦ±":4175,"ĠìŀĲìĤ´":4176,"Ġíģ´ëŁ½":4177,"íħĢ":4178,"ìĿ´ì¹ĺ":4179,"ĹĲ":4180,"ĠíļĮìłĦ":4181,"ìĩł":4182,"ĠìķĦë¬´ëŀĺëıĦ":4183,"Ġì½Ķìĸ´":4184,"ë§¥":4185,"Ġì§Ħìĺģ":4186,"ĠíĹĪìļ©":4187,"ãĤĭ":4188,"Ġë©Ģíĭ°":4189,"¯¸ë":4190,"ĠìĹī":4191,"ĠìĬ¤íİĺìĿ¸":4192,"Ġ2003":4193,"Ġì¢Ģë¹Ħ":4194,"ĠëĮĢëĨĵê³ł":4195,"Ġë©Īì¶Ķ":4196,"Ġê²ĮìĿ´":4197,"ì¦ĪíĤ¤":4198,"ì¨":4199,"ĠíĻĪíİĺìĿ´ì§Ģ":4200,"ìļ¸ë":4201,"ĠìĤ¼êµŃ":4202,"ãĤ¹":4203,"ĠëĿ¼ëĶĶìĺ¤":4204,"Įëł¥":4205,"ìŀī":4206,"ĠíĻĶìĹ¼":4207,"Ġì¢ģ":4208,"ĠíĶĮëĿ¼":4209,"Ġê°±":4210,"PC":4211,"Ġìĭľì²´":4212,"ëĭĪíĭ°":4213,"±ħ":4214,"Ġê¹¨ëĭ«":4215,"Ġì±Ħì":4216,"Ġì°¨ë³Ħ":4217,"Ġë´":4218,"ĠìĨĶë¡ľ":4219,"Ġì»¨íĬ¸ë":4220,"Ġìĺ¬ë¦¼íĶ½":4221,"ĠìĨĮìļ¸":4222,"ĠìĿ¼ë³¸ìĸ´":4223,"Ġì¤":4224,"Ġê°Ģê¹Į":4225,"Ġê³µíĻĶ":4226,"ĠíıīíĻĶ":4227,"ĠYou":4228,"ĠíħĮíģ¬":4229,"Ġíķĳ":4230,"íĮ©":4231,"Ġor":4232,"Ġê·¸ë¦¬ìĬ¤":4233,"ĠìµľëĮĢíķľ":4234,"ĠìĿĦê¹Į":4235,"ëħ¼":4236,"¶ģ":4237,"ĠìĬ¤ë§Ī":4238,"Ġë¶Ħìķ¼":4239,"Ġ00":4240,"Ġëª¨ìħĺ":4241,"ĠìĭľëĤĺë¦¬ìĺ¤":4242,"ĠìŀĲê³ł":4243,"íı¼":4244,"Ġíį¼ì§Ģ":4245,"Ġë§ĪìĻķ":4246,"Ġê°ĢìĬ¤":4247,"ëĿ¼ìĬ¤":4248,"Ħ·":4249,"ĠëĬĶëĭ¤ê³ł":4250,"ëĭ¬ë¦¬":4251,"Ġì£¼ëª©":4252,"Ġì§Ħìĭ¤":4253,"AT":4254,"ĠìĪĺëĭ¨":4255,"ĠSh":4256,"Ġë³ĳê¸°":4257,"ĠëłĪìĿ´ìłĢ":4258,"íķĺëĿ¼":4259,"Ġ75":4260,"ĠëĬĺë¦¬":4261,"Ġìĺ¤ìĺ¤":4262,"§¨":4263,"ĠìĤ¬ëĭ¨":4264,"Ġìĸ´ìļ¸ë¦¬":4265,"ĠíĤ¥":4266,"ëª¨ë¦¬":4267,"ĠìĦ¸ê³Ħê´Ģ":4268,"06":4269,"ĠíħĶ":4270,"Ġë³´ê¸ī":4271,"21":4272,"¥Ń":4273,"Ġì¢ħíķ©":4274,"ĠíĻ©ê¸Ī":4275,"Ġì§¤":4276,"ĠìĻ¸ì¹ĺ":4277,"ĠìĬ¤íİĻ":4278,"ë¡¯":4279,"ĠBl":4280,"Ġë¶Ģëĭ´":4281,"Ġë¶Ģì§Ħ":4282,"Ġê²¬ìłľ":4283,"04":4284,"ê¹Ģ":4285,"ìĸ´ë¦¬":4286,"Ġë§īíŀĪ":4287,"Ġê³µìĤ¬":4288,"Ġì½ĶìĬ¤íĬ¸":4289,"Ġëĵľë¬¼":4290,"Ġëģ¼ë¦¬":4291,"Ġ193":4292,"ê´ĳìĹŃìĭľ":4293,"ì¸łíĤ¤":4294,"ĠíĬ¸ìľĦ":4295,"Ġíķ¨ëĮĢ":4296,"íĦ°ë¦¬":4297,"íĺĦì":4298,"ë¬´ëĿ¼":4299,"Ġì»¤ë®¤":4300,"Ġìķ½ìĨį":4301,"Ġìĸ´ëĭ¤":4302,"ĠíĥĢìĿ´ë°į":4303,"ĠìĹħë¬´":4304,"íĦ¸":4305,"Ġê´ĳìĹŃ":4306,"Ġê°ĢìĬ´":4307,"Ġíį¼ë":4308,"Ġëªħì¤ĳ":4309,"ĠìĹ¬ë¦Ħ":4310,"ĠìĬ¤ì¼Ģ":4311,"Ġë¶ĢìĿ¸":4312,"Ġëº":4313,"ĠãĢģ":4314,"Ķ©":4315,"ard":4316,"ì£ł":4317,"ĠëĤĺë":4318,"Ġë°ķìĤ´":4319,"Ġì»·":4320,"ë§ĪìĬ¤":4321,"ê°ĸ":4322,"ĠíķĻê³¼":4323,"ĠìĦ±ìĿ¸":4324,"íĶ¼ìķĦ":4325,"ìłĦë":4326,"ì¶ĺ":4327,"łĪìĬ¤":4328,"Ġì¦Ŀê±°":4329,"Ġíİ¸ìĦ±":4330,"Ġêµ°ìĿ¸":4331,"Ġë©Ģë¦¬":4332,"ĠëĮĢë¯¸ì§Ģ":4333,"ĠII":4334,"Ġê·ĢìĹ½":4335,"Ġì²ľë":4336,"ĠìľĦíĤ¤":4337,"ĠíĮĮìķħ":4338,"Ġëĭ¥íĦ°":4339,"Ġë³´ìĪĺ":4340,"Ġìĺ¨ê°ĸ":4341,"¡Ģ":4342,"ant":4343,"Ġë¸Įëŀľëĵľ":4344,"Ġì²ĺì¹ĺ":4345,"į¤":4346,"ĠìŀĲìĭĿ":4347,"ĠíĮ¨ëŁ¬ëĶĶ":4348,"28":4349,"ĠëĮĵê¸Ģ":4350,"ge":4351,"ĠíĥĳìĬ¹":4352,"ë²½":4353,"ĠìĤ¶":4354,"Ġë³´ê³ł":4355,"Ġ39":4356,"ìĸ´ìĬ¤":4357,"ĠëĤ©ì¹ĺ":4358,"Ġë°Ķíĥķ":4359,"Ġì§ĢìĭĿ":4360,"Ġë³´ëıĦ":4361,"íĿĳ":4362,"Ġì¤ĳëĭ¨":4363,"Ġë¯¹ìĬ¤":4364,"ìĦ¸ìĿ´":4365,"Ġê±°ìłĪ":4366,"Ġëŀ©":4367,"ĠìĹ¬ìĻķ":4368,"Ġì½ĶëĦĪ":4369,"¼ë¡ľ":4370,"Ġê¸°íļį":4371,"ĠìŀĲëĿ¼":4372,"¸ëª¨":4373,"Ġê³µìŀ¥":4374,"Ġìľłëŀĺ":4375,"Ġë§Ĳë¦¬":4376,"ĠâĻ":4377,"ĠíħĮë§Ī":4378,"Ġë±Ģ":4379,"çĶ":4380,"Ġíħį":4381,"Ġë¡ľìĬ¤":4382,"ìĭľë¸Į":4383,"ĠìĹ°ê³Ħ":4384,"ers":4385,"ĠìŀĲë¥´":4386,"ìĤ¬ì¹´":4387,"ë¸Ĳ":4388,"26":4389,"ë¦Ħëĭµ":4390,"ĨĮ":4391,"Ġê°ĢìĿ´":4392,"Ġíĺĳëł¥":4393,"ì³Ĳ":4394,"Ġë§ĪëħĢ":4395,"ct":4396,"Ġì¸¡ë©´":4397,"ys":4398,"Ġìķłë§¤":4399,"Ġê°ľíİ¸":4400,"ĠìĹĨìķł":4401,"Ġìĺ¨ëĿ¼ìĿ¸":4402,"Ġíķľê¸Ģ":4403,"Ġíģ¬ë¡ľìĬ¤":4404,"ĠíĻĶìĤ´":4405,"ıħ":4406,"Ġìłķì§Ģ":4407,"Ġre":4408,"ìŀĶ":4409,"ĠìļĶê´´":4410,"ĠìķĦë¦Ħëĭµ":4411,"ĠëıĮíĮĮ":4412,"Ġkg":4413,"ĠìĿ´ê³³":4414,"ĠëĶ°ìľĦ":4415,"ĠëĶľëŁ¬":4416,"ëª°":4417,"ĠìĿ´ëŀĢ":4418,"ĠíķĺíĬ¸":4419,"Ġê³łê¸ī":4420,"Ġê¹İ":4421,"Ġíİĺë¥´":4422,"ĠìĺĪìĦł":4423,"Ġê·Ģì¡±":4424,"ĠìŀĲëıĻì°¨":4425,"Ġë¶ķê´´":4426,"ĠêµĲíĻĺ":4427,"ue":4428,"ĠSBS":4429,"ìĽĮëĵľ":4430,"Ġì½©":4431,"¨¼íĬ¸":4432,"ĠìĤ½":4433,"Ġìĸ´ìļĶ":4434,"Ġíĥĳìŀ¬":4435,"Ġê²½ê³Ħ":4436,"Ġë²łìĿ´ìĬ¤":4437,"°ķ":4438,"Ġêµ¬ìŀħ":4439,"Ġíĸīë³µ":4440,"ab":4441,"Ġë°ľíľĺ":4442,"Ł¬ìĬ¤":4443,"Ġê³łìľł":4444,"ëĭĺ":4445,"ĠìłĦê³µ":4446,"ĠSP":4447,"ĠëĦ¥":4448,"ĠêµĲìĤ¬":4449,"Ġê´ĢíĨµ":4450,"ìľĦì¹ĺ":4451,"Ġë§¤ì¹ĺ":4452,"Ġê³µíĨµ":4453,"Ġ08":4454,"ĠìķĦíĶĦë¦¬ì¹´":4455,"ê³łëĵ±íķĻêµĲ":4456,"Ġëĭ¹íĻ©":4457,"łĪë":4458,"ìĿ¸ë¬¼":4459,"Ġë¶ĦìĦĿ":4460,"Ġë°©ë©´":4461,"ĠNo":4462,"Ġìłķëł¹":4463,"Ġâħ":4464,"Ġë£Į":4465,"Ġë£°":4466,"Ġìŀ¥ìķł":4467,"Ġ150":4468,"Ġëŀľëį¤":4469,"Ġì§ĢìłĲ":4470,"Ġíı¼":4471,"ĠíķľíĻĶ":4472,"ĠìĬ¤íĶ¼ëĵľ":4473,"th":4474,"ĠAP":4475,"ath":4476,"Ġì¹´ë©ĶëĿ¼":4477,"ĠìĬ¤íĨ¤":4478,"Ġ55":4479,"ãħ":4480,"Ġìľłìļ©":4481,"Ġì§Ģìĭľ":4482,"ĠìĦ¤ê³Ħ":4483,"Ġë§¡ê¸°":4484,"27":4485,"Ġë¹Ķ":4486,"ĠìĦłë°°":4487,"ĠSp":4488,"Ġíĺľ":4489,"ĠìĿĢê·¼":4490,"Ġê±°ëŀĺ":4491,"ell":4492,"Ġìĸ¸ìłľ":4493,"ĠëıĮê²©":4494,"Ġì°¨ìłĦ":4495,"Ġ2001":4496,"Ġìĸ´ë¦°":4497,"ĠíĽĮë":4498,"ĠíĿĺë¦¬":4499,"Ġë¸ĶëłĪìĿ´":4500,"Ġì°Įë¥´":4501,"ì¹´ìĿ´":4502,"Ġê²©íĪ¬":4503,"ĠíĬ¸ìľĦíĦ°":4504,"ĠìºĶ":4505,"Ġë¬¸ëªħ":4506,"Ġìłľìĭľ":4507,"íĪ°":4508,"Ġê²ĮìĿ´ì§Ģ":4509,"up":4510,"Ġìŀ¥ìĪĺ":4511,"Ġë¹Ħë¡Ŀ":4512,"ĠìĦ¤ëĵĿ":4513,"ĠìĻķìŀĲ":4514,"ì°¨íĶ¼":4515,"ĠìĪľìĪĺ":4516,"Ħìĥ":4517,"Ġë°¸ëŁ°ìĬ¤":4518,"Ġëį¸":4519,"Ġê·ľìłķ":4520,"Ġìļ©ëıĦ":4521,"Ġì´ĪëĮĢ":4522,"Ġst":4523,"Ġìĸ´ì°¨íĶ¼":4524,"Ġìłģëĭ¹":4525,"Ġê¸°ìĸ´":4526,"å®":4527,"Ġìħ°":4528,"Ġë¬´ëĦĪì§Ģ":4529,"Ġëĭ¨ëıħ":4530,"Ġë¸Ķë¡ľ":4531,"Ġ43":4532,"ĠìıŁ":4533,"Ġë¯¼ì¡±":4534,"Ġíķµìĭ¬":4535,"Ġíĺ¸ìĦł":4536,"Ġê³ĦìĤ°":4537,"Ġì²´ìĿ¸":4538,"Ġê³łìĦľ":4539,"Ġì¶ľë°ľ":4540,"ĠëĤļ":4541,"ĠíĻĶìŀ¥":4542,"ë¦ĩ":4543,"ëıĦìļ°":4544,"ĠëĮĢë¥Ļ":4545,"ĠíĶĦë¡ľëĵĢ":4546,"Ġë¡ľì¼ĵ":4547,"Ġê·¼ë¬´":4548,"ĠëĤĺëīĺ":4549,"ê°ĢëĿ½":4550,"ĠìĬ¤íĥł":4551,"Ġìŀ¥ë¥´":4552,"if":4553,"ĠìĤ´ì§Ŀ":4554,"ŀľ":4555,"Ġê°Īë¦¬":4556,"Ġê±´ëĦĪ":4557,"ĠìĨĮìĪĺ":4558,"ĠìĿ¸ìĥĿ":4559,"ĠíĬ¹ê¸°":4560,"Ġëĵ±ëĵ±":4561,"ãģĨ":4562,"Ġíĺ¼ëŀĢ":4563,"ĠìŀĲê²©":4564,"Ġì§Ŀ":4565,"íĶ¼ìĬ¤":4566,"Ġìĺ¤íķ´":4567,"ë¹ĦìķĦ":4568,"Ġíķ´ìłģ":4569,"Ġëĵłì§Ģ":4570,"ĠìĬ¤íĮĮìĿ´":4571,"ë¨¸ëĭĪ":4572,"ĠíĻįë³´":4573,"įķ":4574,"Ġíķ´ìĦ¤":4575,"Ġìļ°ëł¤":4576,"ĠìĿ¼ë¶ĢëŁ¬":4577,"Ġë°Ł":4578,"Ġì£¼ìĹ°":4579,"ĠìĬ¤íĥ¯":4580,"ĠìĪľìĦľ":4581,"ĠìĻ¸ë¶Ģ":4582,"ëłĪê¸°":4583,"ĠíĮĮìĿ´ìĸ´":4584,"ĠëĤ´ëĤ´":4585,"Ġì¶©ëıĮ":4586,"ĠëĳĲë¥´":4587,"ĠìĨĮë¬¸":4588,"Ġë¶ģë¯¸":4589,"ë¹Į":4590,"ĠBG":4591,"ëª¨íĨł":4592,"Ġê·¹ìŀ¥íĮĲ":4593,"ĠëĴ¤ì§ĳ":4594,"ëĭ¤ì§Ģ":4595,"ĠìĭłíĻĶ":4596,"Ġì¶¤":4597,"Ġëĭ«":4598,"íĿĲ":4599,"ĠíİĢ":4600,"ĠìĬ¤íĨ":4601,"Ġ47":4602,"ĠëĤĺë£¨":4603,"Ġë¶ĪìķĪ":4604,"Ġì¶Ķìłģ":4605,"ĠìŀħíķĻ":4606,"Ġì»¤ì§Ģ":4607,"IA":4608,"ëŀĦ":4609,"Ġìĸ¸ëĭĪ":4610,"Ġìŀ¬ëĬ¥":4611,"ine":4612,"Ġê±¸ì¹ĺ":4613,"Ġê·¸ëķĮ":4614,"ĠãĢĤ":4615,"Ġê¶¤":4616,"Ġì£¼ëıĦ":4617,"²¨":4618,"Ġìĸ¼ìĿĮ":4619,"ĠíĮĮìĿ¼":4620,"ë©į":4621,"æľ":4622,"Ġë¦´":4623,"ëħķ":4624,"ìĭľìĺ¤":4625,"Ġê°ķì¡°":4626,"ãģĭ":4627,"Ġë¬¸ìŀĲ":4628,"Ĺ°":4629,"ĠíĽĮë¥Ń":4630,"Ġì¦Ī":4631,"Ł¿":4632,"ĠëĤ³":4633,"Ġëĭ¨ìľĦ":4634,"ĠëĿ¼ìĿ´ë²Į":4635,"ĠíĨµìĿ¼":4636,"ëĶĶìħĺ":4637,"íģ¬ë¡ľ":4638,"Ġì§ĳìķĪ":4639,"Ġì±Ħìļ©":4640,"Ġëĵ±ìŀ¥ìĿ¸ë¬¼":4641,"ĠìĹĲìĬ¤":4642,"ĠëıĦêµ¬":4643,"Ġìłľê¸°":4644,"Ġìĵ°ëŁ¬ëľ¨ë¦¬":4645,"Ġìĺ¤íĶĦëĭĿ":4646,"ĠAl":4647,"Ġë³Ģíĺ¸":4648,"Ġê°Ģê¹ĮìĿ´":4649,"Ġê¸°ìłĪ":4650,"ĠìĹ¬ëıĻìĥĿ":4651,"ëłĺ":4652,"Ġë³¸ë¶Ģ":4653,"ĠìĺģìĹŃ":4654,"Ġë¬´ê²Į":4655,"ĠíĦ°ë¯¸ëĦĲ":4656,"ĠìĹ¬ë¶Ģ":4657,"Ġì¹ľë":4658,"ë¬ĺ":4659,"Ġìĭ¤ì§Ī":4660,"Ġ99":4661,"Ġìľµ":4662,"Ġìŀ¬ìĥĿ":4663,"OR":4664,"ĠTh":4665,"Ġëĵ±íĮĲ":4666,"Ġì§Ģë¥´":4667,"Ġíķ´ê¸Ī":4668,"me":4669,"ĠëĵĢìĸ¼":4670,"Ġê³łë¯¼":4671,"ĠìĹĲìĸ´":4672,"ìĮį":4673,"ĠPS":4674,"Ġë¡±":4675,"Ġìļ°ìĹ°":4676,"Ġë°ĺìĺģ":4677,"ĠíİĺìĿ´ìĬ¤":4678,"Ġì»¤ë²Ħ":4679,"Ġë³Ħê°ľ":4680,"ĠìĪĺìĹħ":4681,"ĠëĦ·":4682,"ĠëĤ´ëĨĵ":4683,"ĠDe":4684,"Ġê¶ģê·¹":4685,"ìĿį":4686,"ĠíķľìŀĲ":4687,"ĠìĪĺíķĻ":4688,"Ġê°ĵ":4689,"ĠCD":4690,"ĠíĮĮìĿ´íĦ°":4691,"Ġìŀ¥ê´Ģ":4692,"Ġãİ":4693,"ĠëĿ¼ìĿ´íĶĦ":4694,"ĠìĿ´ìĦ±":4695,"ale":4696,"ë¦ī":4697,"Ġë¹¨ê°":4698,"Ġëĭ¬ëĿ¼":4699,"ë°Ķë¡ľ":4700,"Ġë©Ķê°Ģ":4701,"Ġê¸°ë¶Ħ":4702,"Ġ44":4703,"one":4704,"Ġë°ķìĬ¤":4705,"Ġê³łê¸°":4706,"ĠíĬ¸ëŀĻ":4707,"Ġê³łìĥĿ":4708,"ìłĦìŀĲ":4709,"ĠìŀĲìĿ´":4710,"Ġë®¤ì§ģ":4711,"Ġì»¨íĬ¸ë¡¤":4712,"ist":4713,"Ġê·¸ëĭ¤ì§Ģ":4714,"íģ¬ìĬ¤":4715,"ĠíĺķìĦ±":4716,"íģ¬ëŀĺíĶĦíĬ¸":4717,"Ġìĺ¤ë¥ĺ":4718,"ĠíĺĦì§Ģ":4719,"åŃ":4720,"Ńī":4721,"Ġê·ł":4722,"Ġì¶©ìłĦ":4723,"ĠVS":4724,"Ġë©ĶíĥĪ":4725,"Ġë¶Īë§Į":4726,"ĠëıĻê¸°":4727,"Ġìĺ¤ë¹ł":4728,"ĠíıŃíĴį":4729,"Ġë§ĪìĪł":4730,"Ġì²ĺíķĺ":4731,"ľë¡ľ":4732,"ĠíĹ¤ìĸ´":4733,"Ġê³ĦìĬ¹":4734,"Ġê¸°ê¸°":4735,"Ġìłķê¸Ģ":4736,"ĠìĪĺìĽĲ":4737,"âĢ":4738,"Ġíı¬ë¥´":4739,"Ġë§Įì¡±":4740,"Ġíķ´ë°©":4741,"Ġê·¼ê±°":4742,"ëĵľëĿ¼":4743,"ĠìķĦì¹¨":4744,"ĠíĥĦìĥĿ":4745,"Ġ46":4746,"ĠìķĦë¦¬":4747,"íį¼ìĬ¤":4748,"ĠëªħìĺĪ":4749,"Ġìłķê¶Į":4750,"íĶĪ":4751,"29":4752,"Ġ1990":4753,"Ġë°ĺëŀĢ":4754,"ãĥ¼ãĥ":4755,"Ġìł¤":4756,"Ġ|":4757,"ì¤Ħ":4758,"Ġìĭłë¢°":4759,"ë²Ħë":4760,"PS":4761,"AM":4762,"ĠëĿ¼ìĿ´ëįĶ":4763,"ĠìļĶìĽĲ":4764,"Ġê°Īëĵ±":4765,"ì¥¬":4766,"ë£¨ìĬ¤":4767,"Ġì¦Ŀëªħ":4768,"Ġê²½íĸ¥":4769,"Ġë§īìŀ¥":4770,"Ġì¤ĳê³Ħ":4771,"Ġë¹Ħìľ¨":4772,"Ġìķķë°ķ":4773,"ĠíĮĲíĥĢ":4774,"Ġë¶Ļìŀ¡":4775,"ĠìĬ¤íĬ¸ë¦¬":4776,"Ġì§ľë¦¬":4777,"Ġê°ĲìĤ¬":4778,"Ġì»¤ë®¤ëĭĪíĭ°":4779,"Ġê²©íĮĮ":4780,"ìĦ¸ìļ°":4781,"§Ĳ":4782,"Ġê¶Įëł¥":4783,"oo":4784,"Ġëį®":4785,"Ġìłķë¥ĺ":4786,"ĠíİĺìĿ´":4787,"åħ":4788,"Ġê²½ìĺģ":4789,"Ġíĳľë":4790,"ê¿":4791,"ìłĦëĵľ":4792,"ĠSS":4793,"ĠìĨĮë¹Ħ":4794,"Ġìĭłì²Ń":4795,"Ġíķ¨ìĦł":4796,"ub":4797,"ãģĹ":4798,"Ġë¯¸ëĤĺ":4799,"Ġê³µêµ°":4800,"ìĺ¬":4801,"Ġ.....":4802,"ĠíĿĶëĵ¤":4803,"ĠëĤ´ì£¼":4804,"Ġ09":4805,"ĠìĬ¤ì½Ķìĸ´":4806,"ĠìĪĺìŀħ":4807,"Ġíĺģëªħ":4808,"ëŀĢëĵľ":4809,"Ġãĥ»":4810,"ĠíĽĦì§Ģ":4811,"ĠíĹĮë":4812,"ì´ī":4813,"¼Ī":4814,"ë²Ħì":4815,"ìķĦë²Ħì§Ģ":4816,"Ġë¯¸êµ°":4817,"Ġëŀľ":4818,"íĽĦë":4819,"Ġìĺ¤ìĬ¤":4820,"ĠìłģíŀĪ":4821,"ì§Ħì":4822,"Ġì·¨ìĨĮ":4823,"Ġê²¨ìļ¸":4824,"ì°¾":4825,"Ġë¸Įë¦¬":4826,"²¤":4827,"Ġìŀħêµ¬":4828,"ìĽ¨ìĿ´":4829,"Ġëª¨ë¦¬":4830,"Ġë¬¸ìłľìłĲ":4831,"ë²¨":4832,"Ġëĭ¤ìĭľíĶ¼":4833,"ĠìĬ¤íĤ¨":4834,"Ġì§Ģê¸ī":4835,"íĥĳ":4836,"Ġì¶ľìŀ¥":4837,"ĠìłĦíĪ¬ëł¥":4838,"ëłĪìĿ´ìħĺ":4839,"Ġê°¤":4840,"Īë²½":4841,"°½":4842,"ĠíİĺìĿ´ì§Ģ":4843,"Ġìĺ¤ë²Ħ":4844,"°±":4845,"Ġìĺ¤íĽĦ":4846,"Ġì¶ĶëĿ½":4847,"Ġëª¹":4848,"Ġíķ´ì²´":4849,"Ġìĥĺ":4850,"ĠìĬ¤íĬ¸ëĿ¼ìĿ´":4851,"Ġê·¸ë§Įíģ¼":4852,"ìĺ¤ë¦¬":4853,"Ġíģ´ë¡ľ":4854,"ĠëıĻëĦ¤":4855,"°į":4856,"Ġìĵ°ëłĪê¸°":4857,"ĠëıĮì§Ħ":4858,"ĠNPC":4859,"ĠíĬ¸ëłĪìĿ´":4860,"Ġìļ´ëªħ":4861,"ĠìĬ¤ì¹´ìĿ´":4862,"Ġê±´ê°ķ":4863,"Ġ07":4864,"Ġ$":4865,"Ġë°ĺê²©":4866,"ĭī":4867,"ìĨĮëħĦ":4868,"VP":4869,"ĠMP":4870,"ĠìĹ¬ìĭł":4871,"ĠìĹ¬ë¡ł":4872,"Ġê¹ĢìĦ±":4873,"ĠìĨĮë©¸":4874,"ĠíıŃê²©":4875,"ì§Ģì»¬":4876,"Ġê³µíķŃ":4877,"ip":4878,"ĠìĪľìĭĿ":4879,"ĠìłĦìŀ¥":4880,"ìĤ¬íĤ¤":4881,"ëĳĲë¥´":4882,"Ġìĩł":4883,"ĠíĭĢë¦¬":4884,"ê³łê¸°":4885,"ĠìłĪë°ĺ":4886,"Ġêµ°ì£¼":4887,"ĠìĤ¬ì¿łëĿ¼":4888,"Ġëª°ëŀĺ":4889,"Ġê°Ģìŀħ":4890,"ĠìĦŃ":4891,"ĠìĬ¤íĮĮ":4892,"Ġê°ĳìĺ·":4893,"ĠâĢĵ":4894,"ĠìĿ´ë¡ł":4895,"Ġì£¼ìłĦ":4896,"Ġë³¸ìĦł":4897,"ĠëłĪìłĦëĵľ":4898,"Ġì²´ê³Ħ":4899,"ĠíĮĮíĬ¸":4900,"Ġë²ĶìĿ¸":4901,"Ġë§Īëł¨":4902,"Ġìłľì¡°":4903,"ĠBR":4904,"Ġì´ĪìĽĶ":4905,"ľëŀĢ":4906,"Ġê²ĮìĿ´íĬ¸":4907,"ìĽĥ":4908,"Ġ1998":4909,"ĠíıŃì£¼":4910,"Ġë§Īì£¼":4911,"ĠÐ":4912,"ĠìłĦìĦł":4913,"ĠëĭĮìŀĲ":4914,"Ġì§ĢëĬ¥":4915,"ĠìĺĪìĪł":4916,"ĠAC":4917,"Ġë¦¬ìĬ¤":4918,"Ġì°°":4919,"Ġï¼ģ":4920,"se":4921,"©ìĿ´":4922,"ĠëĦĺì¹ĺ":4923,"Ġì¦īìĭľ":4924,"ëĤĺê°Ģ":4925,"ĠìķĦìĺ¤":4926,"Ġì¹´ì¦Ī":4927,"Ġê³łì¹ĺ":4928,"ĠìĿĳìĽĲ":4929,"Ġê°Ģë©´ëĿ¼ìĿ´ëįĶ":4930,"ĠìłĦíĺķ":4931,"ì¿¨":4932,"AS":4933,"ĠíħĮìĬ¤íĬ¸":4934,"Ġê°Ģë¡ľ":4935,"ĠíĥĢìĽĮ":4936,"ith":4937,"ĠìĭłìĦ¸":4938,"ĠAr":4939,"ĠìĹħì²´":4940,"Ġìĸ´ì¨":4941,"ìŀĲíĤ¤":4942,"Ġì¿łë¡ľ":4943,"ê»ı":4944,"âĺħ":4945,"Ġìŀ¥ìłĦ":4946,"Ġê°ĲìĹ¼":4947,"Ġë¬´ëĤľ":4948,"Ġê¹ĥ":4949,"ĠST":4950,"ĠìķĦìĭľìķĦ":4951,"ĠíĪ":4952,"ĠëłĪìĺ¤":4953,"ŀ«":4954,"¶Ħ":4955,"íĭ¸":4956,"ĠìĦľë¶Ģ":4957,"ìķĦê°Ģ":4958,"ĠíıŃëł¥":4959,"Ġì¡°ì¤Ģ":4960,"ĠìĿ´ìĬ¤":4961,"ĠìĬ¤íĶĦë":4962,"Ġì§ĢëĮĢ":4963,"Ġíħľ":4964,"ĠìĹ°ìĺĪ":4965,"ãģ¨":4966,"ŀĹ":4967,"ĠìķĦë¬´ëŁ°":4968,"ive":4969,"Ġìŀĳìļ©":4970,"Ġìį¨":4971,"Ġì£¼ë¨¹":4972,"Ġëĭ¿":4973,"Ġë²łë¥´":4974,"Ġë³´ìłķ":4975,"Ġë³ĦëıĦ":4976,"ãĤī":4977,"Ġê±°ì£¼":4978,"ĠíĮĮìĿ´ëĦĲ":4979,"íĹ¨":4980,"ĠìŁģ":4981,"Ġë¬µ":4982,"Ġêµ¬ëıĦ":4983,"Ġê¸°ìĽĲ":4984,"Įëĵł":4985,"Ġ1999":4986,"ê°¤":4987,"ĠìĽ¨ìĿ´":4988,"Ġì¶Ķê²©":4989,"Ġìĭľíĸī":4990,"Ġíķľë²Ī":4991,"Ġëĭ¹ìĦł":4992,"ĳ¥":4993,"ĠíĹ¤ëĵľ":4994,"Ġ04":4995,"Ġìĭ¬ìŀ¥":4996,"íĶĦë¦¬":4997,"Ġëĭ¤ë©´ìĦľ":4998,"80":4999,"Ġ64":5000,"nd":5001,"ĠíĻĶëł¤":5002,"ë¡ľìĬ¤":5003,"ë¡¤":5004,"Ġì¹´ëĤĺ":5005,"ĠëĳĲëłµ":5006,"ĠìĭłìĿ¸":5007,"Ġíģ¬ë£¨":5008,"ĠëĮĢë¯¸":5009,"ĠëıĻìĽĲ":5010,"ãģ£":5011,"Ġìłľë²ķ":5012,"AL":5013,"Ġêµ¬íĺĦ":5014,"Ġë¹ĦíĬ¸":5015,"ĠëĵľëĶĶìĸ´":5016,"ĠìĿ´ëłĩê²Į":5017,"Ġê°Ĳìĭľ":5018,"end":5019,"ĠìĺĪìĻ¸":5020,"PG":5021,"ëŀį":5022,"ĠëħĦëıĦ":5023,"Ġìĺ¤íĶĪ":5024,"Ġë°Ķë³´":5025,"Ġì§Ģíķĺì²ł":5026,"Ġê°ĢëĵĿ":5027,"ãĥĥ":5028,"ĠëĤŃ":5029,"ĠëĬĳ":5030,"ĠìļĶìłķ":5031,"Ġê²½ëł¥":5032,"Ġì¡°ìłĪ":5033,"ore":5034,"LC":5035,"Ġë¬´ìĸ´":5036,"Ġë³µìŀ¥":5037,"ĠìĬ¤íİĺìħľ":5038,"íĮ¡":5039,"Ġìıł":5040,"Ġê³Ħê¸ī":5041,"ĠìĹ°ìĤ¬":5042,"ìĿ¼ë¦¬":5043,"íĳ¸":5044,"Ġë©Ķë¦¬":5045,"ĠìĻ¸êµŃìĿ¸":5046,"Ġê³µìĤ°":5047,"ĠíķĻìĤ´":5048,"ë°ĶìĿ´":5049,"Ġ06":5050,"Ġì§Ģíĺķ":5051,"ĠìŀĲëĬĶ":5052,"Ġìĺ¤ë¡ľ":5053,"Ġëł¹":5054,"íĪ¬ìĬ¤":5055,"VE":5056,"Ġìĭľê°ģ":5057,"Ġìŀ¥ìĭĿ":5058,"Ġì¿łíĤ¤":5059,"Ġì»¨íħĲì¸ł":5060,"ĠìĺģìĽĲ":5061,"ĠíĻĶìĿ´íĬ¸":5062,"Ġ03":5063,"Ġê²½ìľł":5064,"íķľêµŃ":5065,"ĠìĹ°ìķł":5066,"ĠìķĶíĿĳ":5067,"ĠíĨµìłľ":5068,"ĠíħĮìĿ´":5069,"Ġ42":5070,"Ġâĳ":5071,"ĠìĪĺìĪł":5072,"ind":5073,"ort":5074,"Ġìĭ¤íĸī":5075,"ãĥ©":5076,"Ġíĥģ":5077,"ĠëĮĦìĬ¤":5078,"ĠCV":5079,"ĠëĲĺì°¾":5080,"Ġìĸ´ê¹¨":5081,"Ġê»ĺ":5082,"Ġì¡°ìļ©":5083,"Ġ01":5084,"Ġêµ¬ì¶ľ":5085,"ìĺģìĥģ":5086,"ĠëģĮë¦¬":5087,"ì©¡":5088,"ĠëĮĢíķĻêµĲ":5089,"ĠìĿ¸ìĪĺ":5090,"ĠìļĶìĥĪ":5091,"Ġìĺ¹":5092,"ĠëĳĲìĤ°":5093,"Ġ!!!":5094,"Ġíķ©ê²©":5095,"Ġëį§":5096,"Ġê³°":5097,"Ġë©ĶìĿ´ìłĢ":5098,"ik":5099,"Ġìĭľìķ¼":5100,"ity":5101,"ĠìĪĺìļĶ":5102,"Ġì¤ĳíķĻêµĲ":5103,"ĠìĹ°ëĮĢ":5104,"Ġì§Ħì§Ģ":5105,"Ġíĸ":5106,"Ġëĵľëŀį":5107,"ĠíķĺìĪĺ":5108,"Ġìĭłê³ł":5109,"ëıĪ":5110,"Ġì²ľìĤ¬":5111,"ģ°":5112,"ëĦĪë":5113,"ĠìŀĦëªħ":5114,"Ġë°ĺì§Ģ":5115,"ĠìĹ°ëĿ½":5116,"ìĨĮëħĢ":5117,"ĠìķĦìĤ¬":5118,"ĠìĺĽëĤł":5119,"ìľłíĤ¤":5120,"Ġì¡°ì¹ĺ":5121,"ĠìłĦë°©":5122,"ĠëĤĺì¹´":5123,"Ġë¬´ë¥´":5124,"ĠìĨĮì´Ŀ":5125,"ĠëĦ¤ìĿ´ë²Ħ":5126,"OS":5127,"ĠíĢ¸":5128,"Ġì°¸ìłĦ":5129,"Ġìŀ¦":5130,"ëł´":5131,"ãĥª":5132,"Ġê±°ì§ĵë§Ĳ":5133,"ĠíĽĶ":5134,"ĠãģĦ":5135,"Ġì£¼ëħĦ":5136,"ĠíķĦë":5137,"Ġë¬¸ìŀ¥":5138,"Ġë¦½":5139,"Ġê²ģ":5140,"Ġë§ŀìĦľ":5141,"Ġìļ¸íĬ¸ëĿ¼":5142,"Ġï½":5143,"ss":5144,"Ġíİ¸ì§Ģ":5145,"Ġê³łìłĦ":5146,"íĮĮìĿ´ìĸ´":5147,"Ġë¶ĢíĴĪ":5148,"Ġë³Ģíĺķ":5149,"ĠìĦľíı¬":5150,"Ġìŀħëł¥":5151,"ìĿ¼ë³¸":5152,"ĠëĨĵì¹ĺ":5153,"Ġë§ŀìĿ´":5154,"Ġê³Ħìłķ":5155,"Ġê³µê¸°":5156,"Ġê·¸ë¦°":5157,"£¡":5158,"ĠìĹ°ìĥģ":5159,"Ġê´Ģê°Ŀ":5160,"ĠìĿ¼ìĥģ":5161,"Ġë¸ĮëĿ¼ì§Ī":5162,"ĠâĹĭ":5163,"Ġê²ī":5164,"ëıĦë¡ľ":5165,"Ġë¸Į":5166,"ĠìŀĳëıĻ":5167,"ìŀĩ":5168,"Ġê²Ģìĥī":5169,"Ġë§¤ëł¥":5170,"ĠìĥĿìĿ¼":5171,"Ġëī´ìļķ":5172,"íĭ°ì»¬":5173,"Ġê³µìľł":5174,"ëħ¸ìĬ¤":5175,"ĠìĿ´ëŀĳ":5176,"ìĿ´ìĸ´":5177,"ê³Ħì":5178,"ĠìĥģíĴĪ":5179,"ĠíĨłìĬ¤":5180,"ĠìķĦë©Ķ":5181,"ĠëģĶ":5182,"Ġë¶Īíİ¸":5183,"Ġ400":5184,"Ġë¯¼ê°Ħ":5185,"ĠëĤĺíĥĢëĤ´":5186,"ĠìłĦëĭ¬":5187,"ĠëĬĳëĮĢ":5188,"Ġëį´":5189,"ĠìĻ¸êµĲ":5190,"ëłĲ":5191,"ëĤĺëĭ¤":5192,"ĠCP":5193,"Ġì°¨ë¦¬":5194,"Ġêº¾":5195,"Ġì¡°ìĭ¬":5196,"ld":5197,"Ġ120":5198,"ħ¸ë":5199,"Ġíķĺìĸ":5200,"ĠìłľìŀĲ":5201,"ĠìķĦëģ¼":5202,"Ġ1997":5203,"ĠëĿĦìļ°":5204,"Ġìłł":5205,"ĠMS":5206,"ĠëĿ¼ë©´ìĦľ":5207,"Ġì¶ľì²ĺ":5208,"Ġêµ¬ë¥´":5209,"ĠáĨ«ëĭ¤ë©°":5210,"Ġë©ĶíĥĢ":5211,"Ġê°Ħë¶Ģ":5212,"íķĦë":5213,"ang":5214,"Ġë³´ë¬¼":5215,"Ġê·¸ëŀĺíĶ½":5216,"ĠíĮĲíĥĢì§Ģ":5217,"íĭ°ìĬ¤":5218,"Ġìĥģê¸ī":5219,"ĠBe":5220,"ms":5221,"Ġê¸ĢìŀĲ":5222,"ĠLe":5223,"ĪëĿ¼":5224,"Ġì£¼ìľĦ":5225,"ĠãĨį":5226,"Ġìłľìŀĳì§Ħ":5227,"Ġë³´ìŀ¥":5228,"ê³łìĨį":5229,"ĠíĿ¥íĸī":5230,"ëłĽ":5231,"ĠíķľêµŃìĿ¸":5232,"Ġëĳ¥":5233,"av":5234,"ĠíĬ¸ëłĪ":5235,"Ġìĭ¬ë¦¬":5236,"Ġì°½ìŀĳ":5237,"Ġê°Ģê²Į":5238,"ìĸ´ëıĦ":5239,"Ġíĺ¸íĻĺ":5240,"ĠíĻįì½©":5241,"ĠìĿ´ëĵĿ":5242,"ĠKT":5243,"Ġê³µì§Ģ":5244,"ĠëĮĢìļ°":5245,"¶Ī":5246,"ĠìķĦì¼Ģ":5247,"ëĦĲíĭ°":5248,"Ġìłķë¥ĺìŀ¥":5249,"ĠìĬ¹ê°ķ":5250,"ĠìŀħìĪĺ":5251,"ëĶ°":5252,"ĠíĻĺìĥģ":5253,"ĠìŀĲë§¤":5254,"ĠëĮĢë§Į":5255,"ain":5256,"Ġê°Ħê²©":5257,"ë¿":5258,"Ġ65":5259,"Ġëħ¸ìĺĪ":5260,"Ġì¶ľíĺĦ":5261,"Ġë¶Īê½ĥ":5262,"ĠíķĢ":5263,"Ġê¸¸ìĿ´":5264,"Ġì¹´ë¥´":5265,"Ġê·¸ì¹ĺ":5266,"ĠìĥģìłĲ":5267,"Ġìŀ¥êµĲ":5268,"Ġìĥģìĥģ":5269,"ĠìĹ°ê´Ģ":5270,"Ġëĭī":5271,"ĠAT":5272,"¹´":5273,"Ġìĭłê·ľ":5274,"ìĦľíĬ¸":5275,"ĦëŁ½":5276,"ĠìĮĵìĿ´":5277,"Ġìį°":5278,"Ġë§¤ìĿ¼":5279,"Ġì¡°ì¡°":5280,"ĠëıĻìĺģìĥģ":5281,"íİĻíĬ¸":5282,"Ġëħ¸ì¶ľ":5283,"ĠìŀĲì¹ĺ":5284,"ĠíĶĮëłĪ":5285,"ĠìķĦìļ°":5286,"ĠìĿĢíĸī":5287,"ĠìĤ¬ìļ´ëĵľ":5288,"ĠíļĮìĪĺ":5289,"Ġìķ¼ë§":5290,"Ġìļ¸ìĤ°":5291,"ĠìĹ°ë°©":5292,"ong":5293,"Ġë©Ķì¹´":5294,"ĠíľĺëĳĲë¥´":5295,"Ġì£Ħì":5296,"ĠíĥĢìłĲ":5297,"íĬ¸ëĦĪ":5298,"ĠíĽĶì¹ĺ":5299,"ĠíĺķìĤ¬":5300,"Ġíĺ¸íħĶ":5301,"Ġê¸į":5302,"Ġê³µìĽĲ":5303,"íĻĢ":5304,"Ġì´Ŀê¸°":5305,"Ġê¹¨ì§Ģ":5306,"IC":5307,"Ġåħ":5308,"ìĿ¼ëŁ¿":5309,"ë¦ŃìĬ¤":5310,"ãĥĪ":5311,"Ġê¶Įì´Ŀ":5312,"ì¸µ":5313,"ĠìĿ¼ëĮĢ":5314,"Ġíĥľìļ°":5315,"ĠëıĦìĦľ":5316,"ĠìĤ¬ëł¹ê´Ģ":5317,"Ġë§Īëĥ¥":5318,"Ġë°ĺë°ľ":5319,"Ġê³łêµĲ":5320,"Ġë³µìŀ¡":5321,"ĠíĽĦì¿ł":5322,"ĠìķĪëĵľë¡ľ":5323,"¹ł":5324,"Ġì²łìłĢ":5325,"ĠìĪľìĭĿê°Ħ":5326,"ĠíıĲì§Ģ":5327,"35":5328,"Ġì°½ì¡°":5329,"ĠëĨįêµ¬":5330,"Ġíĺ¸íıī":5331,"ĠìĦ¸ìĽĶ":5332,"Ġê³¼ëª©":5333,"ë¥ľ":5334,"ĠLo":5335,"ĠíĹĮíĦ°":5336,"Ġìĭ¬íĮĲ":5337,"ĠìĿĺíĺ¹":5338,"¹Ħì":5339,"Ġê·¸ë¦¼ìŀĲ":5340,"Ġ02":5341,"Ġde":5342,"ĠìĬµëĵĿ":5343,"¶Ķ":5344,"Ġë³´ìĦĿ":5345,"ĠìĹĺíĶĦ":5346,"ĠáĨ¸":5347,"ê°Ģë¯¸":5348,"ĠHe":5349,"Ġì¶ľëł¥":5350,"Ġê¸¸ëĵľ":5351,"ãģ¾":5352,"ĠìĿ´ìŀĲ":5353,"Ġ05":5354,"ëª¨ë¡ľ":5355,"¬ĺ":5356,"Ġíı¬íĬ¸":5357,"Ġë©Ķìĭľ":5358,"ĠíĮĮìĿ¼ëŁ¿":5359,"ĠìĤ¬ìĭ¤ìĥģ":5360,"ĠìħĶ":5361,"ì¹´ëĵľ":5362,"ĠëĮĢì²´ë¡ľ":5363,"ëĭ¤ìĿ´":5364,"ĠìĨĮíĻĶ":5365,"Ġãģ«":5366,"Ġê³µíĻĶêµŃ":5367,"ĠìĬ¤ë§ĪíĬ¸":5368,"ĠìŀłìĪĺ":5369,"Ġíĥ±íģ¬":5370,"ĠìĬĽ":5371,"ë§ŀ":5372,"Ġê²½ê³ł":5373,"Ġis":5374,"ĠìłľìĿ´":5375,"Ġbe":5376,"Ġê³µìŀĳ":5377,"Ġëĭ¨ìĿ¼":5378,"ry":5379,"©Ģ":5380,"Ġêµ´ë¦¬":5381,"ĠìĿµìĪĻ":5382,"ĠìĹ®":5383,"Ġê°ĢëŁī":5384,"ĠëĵľëĿ¼":5385,"ĠíķľëķĮ":5386,"Ġì°©ê°ģ":5387,"Ġë¹ĦëĶĶìĺ¤":5388,"Ġê·¹ëĭ¨":5389,"ë¨¸ë¦¬":5390,"ĠëıĮë":5391,"ĠìĿ¸ì¦Ŀ":5392,"ĠìĿ´ìĬ¹":5393,"ĠìĿ´ìŀ¬":5394,"ĠíĮĿ":5395,"ĠìĿ¼ìĸ´":5396,"Ġìĸ´ì§Ģ":5397,"ĠìĸĳìĤ°":5398,"Ġë¸Ķë¡Ŀ":5399,"ë°Ģë¦¬":5400,"Ġê¸°ìĬµ":5401,"ĠëĮĢê³µ":5402,"ĠìĪĺìĨ¡":5403,"ë°ĶìĿ¼":5404,"íĤ¬":5405,"Ġìĭ¤ë¦¬":5406,"Ġê³łíĸ¥":5407,"ë¶ķ":5408,"ĠëĮĢë¦½":5409,"Ġê¼¬ë¦¬":5410,"ly":5411,"ĠëĤ¨ë¶Ģ":5412,"ĠìļĶì¦ĺ":5413,"Ġê²½íĹĺì¹ĺ":5414,"Ġê°ľìĦ±":5415,"ëĳ¥ìĿ´":5416,"ĠìľĦìŀ¥":5417,"Ġìľłëł¹":5418,"Ġë¬´ë£Į":5419,"ĠìĬ¤íĨł":5420,"ĠìłĪë§Ŀ":5421,"īį":5422,"Ġì²´íı¬":5423,"ĠíĻĺìŀĲ":5424,"Ġê°ķìĿĺ":5425,"ĠëĤľë":5426,"Ġë¨¹íŀĪ":5427,"Ġëª©ê²©":5428,"ĠíĻĺìĬ¹":5429,"ĠíĶĦëłĪìŀĦ":5430,"Ġìłģìĸ´ëıĦ":5431,"ê¹Ķ":5432,"Ġë¬»íŀĪ":5433,"Ġíĳľì¤Ģ":5434,"ìĽ¨ìĸ´":5435,"Ġê²°ìĬ¹ìłĦ":5436,"Ġì¹¨ê³µ":5437,"Ġ49":5438,"Ġë³¸ëªħ":5439,"Ġê³µíķĻ":5440,"Ġìłľìĸ´":5441,"Ġ1995":5442,"ıĪ":5443,"Ġì¤ĢìĪĺ":5444,"ĠëıĦë°ľ":5445,"ĠíĮ¨ìĭľë¸Į":5446,"ĠíĻĢë¡ľ":5447,"ĠAI":5448,"ĠíĤ¤ë¦¬":5449,"Ġíģ´ë¦¬":5450,"ĠëĨĢëŀį":5451,"Ġëģ¼ì¹ĺ":5452,"íħį":5453,"Ġíĺĳë°ķ":5454,"Ġë§Īì¸ł":5455,"ĠíİĢì¹ĺ":5456,"ĠUS":5457,"ë¬µ":5458,"Ġìĥģíĸ¥":5459,"ìľµ":5460,"ĠìĽ¬ë§Į":5461,"ĠìĪĺìļ©":5462,"ëĤ©":5463,"ĠëĮĢëĮĢ":5464,"ì°½ê¸°":5465,"Ġë¶ĢìľĦ":5466,"Ġì¶Ķì§Ħ":5467,"Ġíĵ¨":5468,"60":5469,"AC":5470,"Ĥ·":5471,"Ġìĸ´ëĵľë":5472,"Ġìļ©ìĤ¬":5473,"Ġêµ¬ìĨį":5474,"ĠìĿ´ë¦¬":5475,"ĠíĨµìĥģ":5476,"Ġì§Ħìĭ¬":5477,"ĠìºĲìĬ¤":5478,"ìłľëĤĺ":5479,"ĠìľĻ":5480,"Ġë¶ĦëŁī":5481,"Ġì»¤íĶĮ":5482,"Ġìķ±":5483,"Ġì½ĺìĦľíĬ¸":5484,"Ġë§ĪëıĦ":5485,"ED":5486,"Ġë¼Ī":5487,"ĠìĪĺì§ĳ":5488,"ĠìłĦíķ¨":5489,"ĠìķĦë¬´ê²ĥ":5490,"Ġë¦¬ë²Ħ":5491,"ĠSe":5492,"Ġê·Ģìĭł":5493,"ĠëıĦëĭ¬":5494,"ĠíĶĦë¦¬ë¯¸":5495,"ì¹¼":5496,"Ġêµ¬ë©į":5497,"Ġ1996":5498,"Ġíģ¬ë¦¬íĭ°ì»¬":5499,"ĠìĨĮëĵľ":5500,"Ġìĸ´ëĳ¡":5501,"ĠíķĺíķĦ":5502,"ĠëĮĢëŀµ":5503,"ĠíĽĦìĨįìŀĳ":5504,"Ġëı¼ì§Ģ":5505,"Ġë²ķë¥ł":5506,"ĠìĿ¸ì§ĢëıĦ":5507,"Ġìĭłë¬¸":5508,"ĠìĤ¬ìŀĲ":5509,"Ġë¬¼ì§Ī":5510,"ĠíĬ¸ëĿ¼":5511,"ĠëĮĢëŁī":5512,"Ġìĸ´ì¨Įëĵł":5513,"íĨ±":5514,"Ġë§Īêµ¬":5515,"ĠìĦłíĺ¸":5516,"Įë¦°":5517,"ĠíĬ¹íĻĶ":5518,"Ġê·¼ìľ¡":5519,"Ġêµ¬ìĽĲ":5520,"Ġê³łëĵ±":5521,"Ġë§Ŀì¹ĺ":5522,"ĠìłĦíĪ¬ê¸°":5523,"45":5524,"ĠëıĻìŀĳ":5525,"ê±°ëĤĺ":5526,"ĠíļĮìĽĲ":5527,"ĠìķĦë¨¸":5528,"Ġê°ľíĨµ":5529,"Ġê²½ê¸°ëıĦ":5530,"ãĤ¯":5531,"ĠìĬ¤íĨ°":5532,"ĠìĺģíĨł":5533,"ĠBGM":5534,"¸ł":5535,"ìĬ¤íĤ¤":5536,"ĠíĮĮíĬ¸ëĦĪ":5537,"Ġë§¤ëĭĪ":5538,"ĠìłĦìĭľ":5539,"Ġì°¨ëĿ¼ë¦¬":5540,"48":5541,"Ġìĭľê°":5542,"ĠìĬ¤íı¬ìĿ¼ëŁ¬":5543,"ĠìŀĦìĭľ":5544,"EC":5545,"Ġìķµ":5546,"Ġìľ¡ìĦ±":5547,"Ġë²Īê°ľ":5548,"Ġæľ":5549,"Ġìľ¡ì²´":5550,"EN":5551,"ĠìĿ´ëĤ´":5552,"Ġë´Ħ":5553,"ire":5554,"ìłĢìĬ¤":5555,"Ġëŀľëĵľ":5556,"BO":5557,"Ġê°ľì²´":5558,"ĠíĮĢìĽĲ":5559,"âĢ¦":5560,"ust":5561,"ĠíĶĦë¦°":5562,"Ġê³łë¬¸":5563,"ķħ":5564,"ì¹´ìĻĢ":5565,"Ĭĺ":5566,"ìĿĺìĽĲ":5567,"Ġë©ĭì§Ģ":5568,"ĠìĹ¬ì§Ģ":5569,"Ġìļ´ìłĦ":5570,"íĭ°ëĤĺ":5571,"Ġìŀĸ":5572,"Ġê°Ĳìĺ¥":5573,"êµ¬ë¦¬":5574,"Ġëĭ¬íķĺ":5575,"Ġê³łë°±":5576,"ĠâĨĵ":5577,"Ġë³¼íĬ¸":5578,"ĠíķľëıĻ":5579,"ê°ĢìĻĢ":5580,"ĠëĦ¤ìŀĦ":5581,"Ġê¸Ģë¡ľ":5582,"ĠìĬ¬ë¡¯":5583,"ľë°ľ":5584,"Ġìĭľëĵľ":5585,"ĠíĮĮê²¬":5586,"Ġìľ¼ëł¤ê³ł":5587,"íĨ¨ë¦Ń":5588,"Ġê³§ë°Ķë¡ľ":5589,"IT":5590,"Ġë¶Īë²ķ":5591,"Ġìĭ¤ëĵľ":5592,"ĠëĦĲë¦¬":5593,"ìĭľì½Ķ":5594,"Ġë°ĺíķĺ":5595,"ìĪŃ":5596,"Ġê²°ë¡ł":5597,"ĠìĿ¸ê³µ":5598,"ĠìłĦìĹŃ":5599,"ĠëŁ¬ë¸Į":5600,"ĠNe":5601,"Ġë¬´íļ¨":5602,"Ġë°ķê·¼":5603,"íĶĦëłĪ":5604,"ĠëĮĢê°Ģ":5605,"ĠíĤ¤ìĬ¤":5606,"ĠìĿĺë¢°":5607,"Ġíĸ¥ìĥģ":5608,"Ġìĥģíķĺ":5609,"íģĲìĸ´":5610,"Ġìĸ¸ìłľëĤĺ":5611,"ìķĦëħ¸":5612,"ĠNC":5613,"Ġ1980":5614,"Ġë¶Ģë¶Ģ":5615,"Ġë¹¡":5616,"ĠìĺĪê³ł":5617,"Ġíģ´ëŀľ":5618,"Ġëħ¹ìĿĮ":5619,"łĮ":5620,"ĠìĿ¸ê·¼":5621,"Ġì´Īì°½ê¸°":5622,"ĠìĿ¼ë°ĺìĿ¸":5623,"Ġìľłíĸī":5624,"ê¼¬":5625,"ìĦ±ê¸°":5626,"Ġíĳ¸ë¥´":5627,"Ġë§Īë¦¬ìĺ¤":5628,"ĠìĹ¬ìľł":5629,"ĠìķħìĹŃ":5630,"íĮĢ":5631,"ĠìĤ¬íĨł":5632,"ĠìĺĪëĬ¥":5633,"ĠìµľìĨĮíķľ":5634,"Ġì§±":5635,"Ġë³´ìķĪ":5636,"Ġì¡°ì§Ģ":5637,"Ġë¸ĶëŁ¬":5638,"ĠìŀĸìķĦ":5639,"ĠìľłíĿ¬":5640,"ĠìĹ°êµ¬ìĨĮ":5641,"ĠFA":5642,"ìĺ¤ì¹´":5643,"Ġêµ¬ê²½":5644,"ĠìĤ¬ìĸĳ":5645,"Ġê·ľì¹Ļ":5646,"ĠìĹ¼ë":5647,"Ġê²½ìĥģ":5648,"Ġìļ©ìĸ´":5649,"Ġë¨¸ìĭł":5650,"Ġê¹Ģìĺģ":5651,"Ġêµ¬ì²´":5652,"Ġë¦¬ë©Ķ":5653,"ĠìĿ´ëĤł":5654,"Ġ95":5655,"Ġê¸°ìģĺ":5656,"Ġäº":5657,"Ġë¯¸ì¹´":5658,"Ġê²ĮìĬ¤íĬ¸":5659,"ĠìĨĲê°ĢëĿ½":5660,"Ġê¹Įë":5661,"ĠìĦ¸ìĿ´ë¸Į":5662,"Ġë³¼ëĦ·":5663,"įĺ":5664,"ĠëĶ°ìĺ¤":5665,"Ġê°ĩ":5666,"ĠìĤ¬ìĭł":5667,"Ġìłķë³µ":5668,"ëĭ¤ìĪĺ":5669,"ì»¤ìĬ¤":5670,"ĠìĬ¤íħ":5671,"Ġ1994":5672,"ĠíĬ¸ë¡ľ":5673,"ĠãĢı":5674,"Ġê°Ħíĺ¹":5675,"Ġê°ĩíŀĪ":5676,"Ġë£¨ìĭľ":5677,"Ġë¦¬ìĸ¼":5678,"ĠìĿµíŀĪ":5679,"¸Ĳ":5680,"ĠìĪĺìĺģ":5681,"ì§Ĳ":5682,"Ġ41":5683,"Ġê³łìļ©":5684,"Ł¬ì§Ģ":5685,"ĠìĤ¬ìĿ´ëĵľ":5686,"ĠìĨĮëĭī":5687,"ìĺ¤íĶĦ":5688,"ìķĦìĿ´":5689,"ĠíĻľìĦ±":5690,"ĠìłģìĿĳ":5691,"Ġê·¸ëĿ¼":5692,"ĠëģĦ":5693,"ì¥Ĳ":5694,"Ġëª¨ë°ĶìĿ¼":5695,"ãĤĬ":5696,"Ġëª¨ìŀĲëĿ¼":5697,"Ġë°©ìĤ¬":5698,"Ġíķ©ìĦ±":5699,"Ġì§Ģíľĺê´Ģ":5700,"Ġì¼ľ":5701,"Ġê¸°ìłĲ":5702,"Ġë¯¸ì¸ł":5703,"Ġê°ľë°©":5704,"ĠíĨłë¡ł":5705,"ĠíĢĦë¦¬":5706,"Ġì°Į":5707,"ãĥ»":5708,"Ġìĸ´ë¥¸":5709,"Ġìĭľê³Ħ":5710,"ĠëĦĪë¬´ëĤĺ":5711,"Ġë¹Ĺ":5712,"Ġê°ĢìĨį":5713,"ëıĮë¦¬":5714,"ĠìĹ¬ëŁ¬ëª¨ë¡ľ":5715,"Ġë§Īë£¨":5716,"Ġë©ĺíĥĪ":5717,"Ġíĺ¸ê°Ĳ":5718,"ix":5719,"Ġê°Ģìĭľ":5720,"FA":5721,"Ġë¶ĢìĦľ":5722,"ĠìĭĿëĭ¹":5723,"ê·¸ë¦¬":5724,"Ġëª¨ì¡°":5725,"Ġëľ¯":5726,"ĠUn":5727,"ìŀ¬ìĿ¸":5728,"ĠíĶĦëĿ¼":5729,"Ġì»¤ë§¨":5730,"ĠëıĻë¶Ģ":5731,"Ġê°Ŀ":5732,"ĠíļĮìĥģ":5733,"Ġê²Įë":5734,"ĠìĭłëĿ¼":5735,"Ġë°ķê·¼íĺľ":5736,"Ġëºı":5737,"ĠíĬĢìĸ´ëĤĺ":5738,"ê°ĢìĬ¤":5739,"Ġë©Ģì©¡":5740,"Ġê¸°ì´Ī":5741,"ĠìĬ¹ê²©":5742,"Ġld":5743,"Ġìŀħëĭ¨":5744,"Ġë¸ĶëłĪìĿ´ëĵľ":5745,"Ġë°ķìłķ":5746,"Ġìľ¼ëĭĪê¹Į":5747,"Ġê²ĮìĭľíĮĲ":5748,"ass":5749,"Ġë¦¬ë©ĶìĿ´íģ¬":5750,"ì¾Į":5751,"Ġì£¼ë§Ĳ":5752,"Ġëĭ¤ìĦ¯":5753,"ĠìĭĿìĤ¬":5754,"Ġíİ¸ìĿĺ":5755,"ĠíĿł":5756,"Ġë¸ĮëłĪìĿ´íģ¬":5757,"ĠìŀĲìĿ´ìĸ¸":5758,"Ġìľ¼ëŁ¬":5759,"Ġë³Ģíĺ¸ìĤ¬":5760,"Ġìĭľê°ĦëĮĢ":5761,"ĠíĦ¸ë¦¬":5762,"ìļ°ëĵľ":5763,"Ġìĸ´ë¦°ìĿ´":5764,"ĠíĮĮë¦¬":5765,"ĠâĢ¦âĢ¦":5766,"Ġì¹ĺìļ°":5767,"Ġfor":5768,"ĠëĮĢíķľ":5769,"ĠìĿ¸ìĹ°":5770,"ĠíĬĢìĸ´ëĤĺìĺ¤":5771,"ĠìĿ´ìĬ¬":5772,"ĠìĦŀìĿ´":5773,"ĠìĽĥìĿĮ":5774,"ĠìĻ¸ê³Ħ":5775,"Ġì²ĺë²Į":5776,"Ġê¹Ģìłķ":5777,"ĠìĺĪì¸¡":5778,"Ġíķ©ì²´":5779,"ŀĢìĥī":5780,"msys":5781,"Ġldmsys":5782,"Ġëª¨ëª¨":5783,"Ġì¤ĳëĮĢ":5784,"ĠãĢİ":5785,"ĠìĭłìĦ±":5786,"Ġìłĳíķĺ":5787,"OL":5788,"ĠìķĪëĤ´":5789,"ĠëĪĦëĤĺ":5790,"ĠìĹ´ìĭ¬":5791,"ark":5792,"Ġë¹Ħíĸīê¸°":5793,"ud":5794,"ĠìĹ°ìĿ¸":5795,"ĠìĿĺë¬´":5796,"ĠDLC":5797,"ĠìĨĮìĬ¤":5798,"ê³¼ë":5799,"Ġì¹´ìĺ¤ìĬ¤":5800,"ĠíĽ¼":5801,"ĠëŃī":5802,"ĠìķĦê¸°":5803,"Ġê±´ì¶ķ":5804,"ķíĦ°":5805,"Ġë¦¬ìĬ¤íĬ¸":5806,"ĠíĨłëª¨":5807,"ĠëĥĲë©°":5808,"íĬ¸ëĤ¨":5809,"Ġëľ¨ë¦¬":5810,"ĠëŀŃíĤ¹":5811,"ì»·":5812,"ĠíĬ¸ëłĪìĿ´ëĵľ":5813,"Ġë¯¼ë":5814,"Ġìĺģíĸ¥ëł¥":5815,"ĠìºĲëħ¼":5816,"Ġìłķë©´":5817,"ĠìĪĺëł¨":5818,"Ġë§ĺ":5819,"ĠìłĦìłģ":5820,"Ġê²Ĳ":5821,"Ġ85":5822,"ĠíĢĦë¦¬íĭ°":5823,"ĠìłģëĮĢ":5824,"og":5825,"Ġ77":5826,"Ġìľłë¹Ħ":5827,"Ġìĥģëĭ¹ìĪĺ":5828,"Ġê¸¸ë":5829,"ĠìĽ¹íĪ°":5830,"ĠìķĦíĬ¸":5831,"Ġê¸įìłķ":5832,"Ġë°Ķì¹ĺ":5833,"ĠëĮĢì¶©":5834,"ĠëĬĶëĭ¤ë©´":5835,"ĠêµĲìłĦ":5836,"ĠíĽĦê¸°":5837,"ĠìĽħ":5838,"Ġë¬´ë¦":5839,"Ġíķ¸ëĵľ":5840,"ĠëĮĢëĭ¤ìĪĺ":5841,"Ġì¢Įìļ°":5842,"ê¾":5843,"ĠíĮ¬ëį¤":5844,"ĠMVP":5845,"ĠíĪ¬êµ¬":5846,"Ġ66":5847,"åı":5848,"ĠìĺģìĹħ":5849,"ĠìķĮíĮĮ":5850,"ĠìĿ´ì§Ģ":5851,"ìī½":5852,"ĠìĿĺìĥģ":5853,"Ġê°ķëĤ¨":5854,"Ġê²½ê¸°ìŀ¥":5855,"Ġìº¡íĭ´":5856,"Ġëĵľë¦½":5857,"Ġê´´ë¡ŃíŀĪ":5858,"ĠìĬ¤íı°":5859,"ìľĦíĤ¤":5860,"ë¸Įë¦¬":5861,"ĠTH":5862,"Ġë¶Ħê¸°":5863,"Ġê³µë¬´ìĽĲ":5864,"ĠíĥĢì¼Ģ":5865,"ĠìķĦê°Ģ":5866,"ĠìĦĢ":5867,"ìĬ¤íĦ´":5868,"ìł¸":5869,"ĠâĶ":5870,"ĠìĿ¸ê²©":5871,"ure":5872,"ĠíĦ°íĤ¤":5873,"ĠëĦĪíĶĦ":5874,"ĠíĶĦë¦¬íģĲìĸ´":5875,"ĠìķĦíģ¬":5876,"Ġë¸Įë£¨":5877,"Ġì²¨":5878,"ĠFem":5879,"Ġê¸°ë³ĳ":5880,"ë±":5881,"ĠíĶĦë¡Ŀ":5882,"ì¹´ë¦¬":5883,"Ġíļ¡":5884,"ĠíĽĹ":5885,"Ġë²łìĬ¤íĬ¸":5886,"Ġìºłíį¼ìĬ¤":5887,"Ġì¶ĺ":5888,"ĠìĿĮìĦ±":5889,"Ġìĸ´íĥĿ":5890,"Ġê°ĢíĨ¨ë¦Ń":5891,"ĠìĦ±ê³¼":5892,"Ġê³ģ":5893,"ĠìļĶê¸Ī":5894,"Ġì±ķíĦ°":5895,"Ġì¦Ŀìĸ¸":5896,"ĠëĬĲëĿ¼":5897,"Ġë¬´ìłģ":5898,"ne":5899,"ĠëĮĢíıŃ":5900,"Ġê²°ë§Ĳ":5901,"Ġê·¸ëłĩê²Į":5902,"Ġê½Ĥ":5903,"ĠìĦ¸ìĿ´ë²Ħ":5904,"ë²ĦíĶĦ":5905,"Ġë¸Įë¡ľ":5906,"ĠìŀĳìĤ¬":5907,"ock":5908,"Ġê°ģìŀĲ":5909,"Ġë³¸ì²´":5910,"Ġë§ĪìĿ´ëĦĪ":5911,"Ġê³µê¸ī":5912,"ĠìĿ¼ìĽĲ":5913,"ĠëıĻíĻĶ":5914,"ĠìłĦì§ģ":5915,"Ġë©į":5916,"³Ħ":5917,"ĠìĿ´ëŀĺ":5918,"ĠìĿ¼ìĭľ":5919,"Ġë¬¸ìŀ¬ìĿ¸":5920,"ĠìĹĦì":5921,"ĠìłĦìĦ±ê¸°":5922,"Ġë¹ļ":5923,"Ġë¦¬ì¹ĺ":5924,"Ġê²½ê¸°ëł¥":5925,"ĠìŀĲê¸Ī":5926,"Ġ57":5927,"Ġê¼½íŀĪ":5928,"ĠìĻķì¡°":5929,"Ġë¦¼":5930,"ëłģ":5931,"ìľĦëĮĢ":5932,"ìķĦìĭľ":5933,"ìĦľìĬ¤":5934,"ĠìĹĶíĦ°":5935,"ĠíĥĦìķ½":5936,"ĠìĻĦì":5937,"ĠìķĦíĭ°":5938,"ĠìłĢìŀ¥":5939,"Ġíĥ±ì»¤":5940,"Ġê°¤ëŁŃ":5941,"Ġle":5942,"ĠìŀĲì±ħ":5943,"ĠìĶ¬":5944,"ĠìķĪê²½":5945,"Ġ58":5946,"ĠëĨįëĭ´":5947,"ĠíĶ¼ë¶Ģ":5948,"íĭ°ëĵľ":5949,"ìĿ¸ëĵľ":5950,"Ġë°©ì§Ģ":5951,"ĠëĮĢë¦¬":5952,"ĠìķĦë¹ł":5953,"Ġê³łì§Ģ":5954,"Ġë§ĪìĿ¸":5955,"Ġê·¸ëŁ¬ëĭĪ":5956,"ëģĦëŁ½":5957,"Ġì¶ľë§Ī":5958,"Ġìĭłë¶Ħ":5959,"ood":5960,"ìĬ¤ì½Ķ":5961,"ĠíķłìķĦë²Ħì§Ģ":5962,"ĠìłĳìĨį":5963,"Ġë§Īì¹¨ëĤ´":5964,"Ġì£¼ìŀĲ":5965,"atale":5966,"ëįľëŀĢ":5967,"ĠìłĲì°¨":5968,"ëįľëŀĢëĵľ":5969,"ŀŃ":5970,"ĠFemme":5971,"ĠSN":5972,"Ġìį©":5973,"Ġë²ĮëłĪ":5974,"Ġê¸°ìĹ¬":5975,"íĿ¡":5976,"Ġë°ķíŀĪ":5977,"ĠìĹ´ìĩł":5978,"Ġìłľì£¼":5979,"Ġë¶Ģë¬¸":5980,"ĠìłĦë©´":5981,"ect":5982,"ĠíķĺìĪĺìĿ¸":5983,"Fatale":5984,"Ġì²´íģ¬":5985,"ĦìĥĪ":5986,"ĠFemmeFatale":5987,"Ġì£Ħëĭ¤":5988,"ĠëłĪìĿ´ìĬ¤":5989,"ê·¸ë£¹":5990,"Ġì²ŃìĨĮëħĦ":5991,"ĠìĥĿì¡´ìŀĲ":5992,"ĠìĨĮíĺķ":5993,"ë³Ħìĭľ":5994,"ĠíĻĶìłľ":5995,"Ġìľµíķ©":5996,"ĠPro":5997,"ĠëĤĺìķĦê°Ģ":5998,"ĠëĬĶì§ĢëĿ¼":5999,"Ġê°ķëıĦ":6000,"Ġì¢ħìĿ´":6001,"ĠëĮĢíķŃ":6002,"Ġì¶ľíĮĲ":6003,"Ġíķľì°¸":6004,"ì¼Ħ":6005,"Ġan":6006,"ê²Ĳ":6007,"ĠìķĦë°Ķ":6008,"uc":6009,"ĠæĿ":6010,"33":6011,"ìĤ¬ìŀĲ":6012,"Ġìķ¨ë¦¬":6013,"Ġê°ľìŀħ":6014,"ĠPD":6015,"Ġëľ¬":6016,"ãģĻ":6017,"ĠTe":6018,"ĠìĻ¸íĺķ":6019,"ĠëıĻëł¥":6020,"ĠìĭŃìŀĲ":6021,"ìĿ¼ëŀľëĵľ":6022,"ìŀĲëĵľ":6023,"Ġì¹´ìĬ¤":6024,"ĠìĤ´íĶ¼":6025,"Ġê¹¡":6026,"ĠìķĮëłī":6027,"Ġìľłë¡ľ":6028,"Ġë³Ħëĭ¤ë¥´":6029,"ıĻìķĪ":6030,"Ġë§Īë¦¬ìķĦ":6031,"ĠíĪ¬ìĸ´":6032,"ìŀ¡ìĿ´":6033,"Ġì»¬ëŁ¬":6034,"¸Įë":6035,"ìĬ¤íĬ¸ë":6036,"Ġãİ¡":6037,"Ġê¸°ëıħ":6038,"ŀĮ":6039,"ìĺ¹":6040,"Ġìľłíĺķ":6041,"íķĻìŀĲ":6042,"Ġì²ŃëħĦ":6043,"ì¦Īë¯¸":6044,"Ġ88":6045,"ĠWh":6046,"ĠìĤ¬íĺķ":6047,"Ġì¶ķìłľ":6048,"ëĳĳ":6049,"Ġì¡°ìĸ¸":6050,"Ġìŀ¥ìķħ":6051,"Ġì²ľìŀ¬":6052,"ë¹Ľ":6053,"ob":6054,"ĠìĿ¼ê²©":6055,"ĠMAX":6056,"Ġìĸĳìª½":6057,"Ġíİł":6058,"ãģ§":6059,"Ġíķłë¨¸ëĭĪ":6060,"Ġå¤§":6061,"Ġê³Ħëĭ¨":6062,"íİĺìĿ¸":6063,"Ġ98":6064,"Ġê¸°ìĤ¬ëĭ¨":6065,"Ġë§ĪìĿ´íģ´":6066,"Ġê°Ģì§ľ":6067,"ëĶĺ":6068,"ĠìķĪíĥĢê¹Ŀ":6069,"ĠíĮĶë¦¬":6070,"iv":6071,"Ġëĭ´ê¸°":6072,"Ġê¾¸ë":6073,"ĠíķĺëĿ½":6074,"ĠìĹĲìĦľë¶ĢíĦ°":6075,"ĠíĶĦë¡Ŀìĭľ":6076,"ĠìĪĺìĿµ":6077,"ĠíĨ±":6078,"ĠìĺĪìĤ°":6079,"ĠìķŀëĳĲ":6080,"Ġon":6081,"ëĭĪë":6082,"Ġê¹Ģìŀ¬":6083,"Ġë¬´ê²ģ":6084,"ĠëĦ¤ëįľëŀĢëĵľ":6085,"ł¨":6086,"Ġë¹¼ìķĹê¸°":6087,"ĠMC":6088,"ere":6089,"íĬĢ":6090,"ĠíĹĺ":6091,"ĠíĺĲìĿĺ":6092,"Ġê·¸ëıĻìķĪ":6093,"ĠãĤĴ":6094,"íĶĮëłĪìĿ´":6095,"Ġê³łëıĦ":6096,"ĠãĢĳ":6097,"Ġìĸµì§Ģ":6098,"ĠìłĦìĭł":6099,"Ġë°ĶìľĦ":6100,"íĨłìĬ¤":6101,"Ġë©ķ":6102,"ĠëįĶëįĶ":6103,"ĠíĶĦë¡ľëĵĢìĦľ":6104,"ëĵ¤ìĿ´":6105,"Ġë§ĪëĶĶ":6106,"ĠëĦī":6107,"Ġì¹ĺíĤ¨":6108,"ĠìºĲëĤĺëĭ¤":6109,"Ġì¢ħìłĲ":6110,"ĠíĦ°ì¹ĺ":6111,"ê°Ģë¦¬":6112,"Ġãģ¯":6113,"íľ´":6114,"Ġìĭłê¸°":6115,"ĠãģĹ":6116,"ĠëĮĢì²ĺ":6117,"31":6118,"ep":6119,"ĠìĬ¤íĤ¤":6120,"Ġ56":6121,"Ġ59":6122,"Ġì§ĢëıĦìŀĲ":6123,"ff":6124,"Ŀ¼ëĵľ":6125,"Ġë±ħ":6126,"Ġë¶Ģìŀ¥":6127,"Ġë¸ĮëłĪ":6128,"ĠëįĶëįĶìļ±":6129,"Ġë¡ľê·¸":6130,"Ġëħ¸ìĿ¸":6131,"ĠGr":6132,"®¬":6133,"Ġë°ĶíĢ´":6134,"ĠíĶĮëłĪìĿ´ìĺ¤íĶĦ":6135,"íĥĦì":6136,"Ġê¹Įëĭ¤":6137,"Ġìĸ´ì§Ģê°Ħ":6138,"Ġë¬¸íķĻ":6139,"Ĺ¥":6140,"Ġíģ¬ëĿ¼":6141,"êº":6142,"Ġê¹Įëĭ¤ë¡Ń":6143,"ĠëįĶë¹Ļ":6144,"ê·¸ë§Ī":6145,"ES":6146,"ĠìĮįëĳ¥ìĿ´":6147,"ĠíĹĪëĤĺ":6148,"ĠìĨĮì§Ģ":6149,"ĠëªħìĦ±":6150,"ìĦ¸ìĬ¤":6151,"Ġëħ¼ë¦¬":6152,"Ġì¡°ë¦¬":6153,"Ġíķ©ìĿĺ":6154,"Ġë¶ģë¶Ģ":6155,"ë¶ĻìĿ´":6156,"ĠëĭŃ":6157,"ĠìĤ¬ìĿ´ì¦Ī":6158,"ĠíĽĹëĤł":6159,"Ġêµ¬ìĤ¬":6160,"Ġê¸°ëŁī":6161,"ĠKO":6162,"Ġëª¨ì¡°ë¦¬":6163,"ĠCC":6164,"ĠíĺĳíļĮ":6165,"ĠìĨĮìĽĲ":6166,"Ġ54":6167,"ĠìłĦë©¸":6168,"ĠìĬĪíĮħ":6169,"Ġìļ°ìľĦ":6170,"ĠãĢĲ":6171,"ĠëĤĺëĤĺ":6172,"ĠìĽĲë³¸":6173,"ĠìĦľìĸĳ":6174,"Ġë§¥ì£¼":6175,"ĠâĨĲ":6176,"ĠìĿĮë°ĺ":6177,"ĠìĤ¬ë§Ī":6178,"Ġìłĳì´ī":6179,"ĠíķľëıĻìķĪ":6180,"ĠìĭľìĦł":6181,"ĠíĨłëģ¼":6182,"ê·¸ë¡ľ":6183,"Ġì¹©":6184,"Ġê³¼ìĹ°":6185,"Ġêµ¬ëĤĺ":6186,"ĠíĹĪë":6187,"Ġê·¹ë³µ":6188,"íĥĢìĿ´":6189,"ĠìŁ":6190,"ĠìĿĺë£Į":6191,"ĠíķĻë¶Ģ":6192,"Ġë·":6193,"Ġìĸ´ë§Ī":6194,"Ġì»¤ë¦¬ìĸ´":6195,"ìŀĦìĬ¤":6196,"ëŀŃ":6197,"ĠSKT":6198,"Ġ76":6199,"Ġìŀĺë¦¬":6200,"ĠìĬ¤íĶĦë§ģ":6201,"Ġë²ķìĽĲ":6202,"IS":6203,"Ġì°¨íĬ¸":6204,"ĠíĶĮë¡ľ":6205,"íĤ¤ìĬ¤":6206,"Ġìĭ¤ë²Ħ":6207,"ĠìĥĿëªħëł¥":6208,"Ġê±°ìĿ¸":6209,"Ġì°©íķĺ":6210,"Ġì¹Ńì°¬":6211,"ĠìĥĪë²½":6212,"Ġå®":6213,"ĠìĬ¤íĦ´":6214,"ì§Ģë§Ī":6215,"ĠíŀĪëį°":6216,"ĠWe":6217,"ìĽĮíģ¬":6218,"Ġê²Ģì°°":6219,"ìĿĢíĸī":6220,"are":6221,"¹ĦìķĦ":6222,"ĠëłĪìĬ¬":6223,"ĠíķĺìĸĹ":6224,"ĠìĨĲíķ´":6225,"Ġåīį":6226,"ê³łë¦¬":6227,"ĠìĽĲìĪĺ":6228,"Ġì¤ĳíĻĶ":6229,"ĠëıĻë°©":6230,"ĠìĿĮìĽĲ":6231,"ĠSR":6232,"Ġkt":6233,"ĠíĽĦë°©":6234,"Ġê²°ì½Ķ":6235,"íĥ±":6236,"ĠìĭłìĦ¤":6237,"Ġíķ«":6238,"Ġê³½":6239,"íĥĢìĿ¸":6240,"ĠêµŃë°©":6241,"Ġë©Ķëī´":6242,"Ġíĸīìłģ":6243,"Ġë¯¼ì£¼ëĭ¹":6244,"ĠëĤļìĭľ":6245,"ĠìĿ¼ìłľ":6246,"ĠìĨĮì¤ĳ":6247,"ĠìĤ¬ìłľ":6248,"Ġê°ķì²ł":6249,"ìĿ¼ëĵľ":6250,"Ġê°Ģë£¨":6251,"ĠDJ":6252,"ĠìĺĪìĭľ":6253,"ëĿ¼ê¸°":6254,"Ġíĥľê·¸":6255,"Ġë³´ê´Ģ":6256,"Ġìĺģë¬¸":6257,"Ġë§¤ì§ģ":6258,"Ġìŀ¬íĺĦ":6259,"ì»´":6260,"ĠìĹĲëĵľ":6261,"ë¡ľìļ°":6262,"ê²Įë":6263,"Ġê°ķìĽĲ":6264,"ĠìĿ´ëŁ¬íķĺ":6265,"ĠìĤ¼ë":6266,"íĭ°ìķĦ":6267,"ĠìĬ¤ìľ":6268,"ĠìºĲìĬ¤íĮħ":6269,"ĠìķĦëĿ¼":6270,"ĠëĤ¨ìª½":6271,"ĠCl":6272,"Ġë¸Ķë¡ľê·¸":6273,"Ġë¶ģìª½":6274,"ĠìłĦë¬¸ê°Ģ":6275,"Ġê¸°ëıħêµĲ":6276,"ĠíĹĽ":6277,"Ġë¬´ëį¤":6278,"ĠìķĪëĵľë¡ľìĿ´ëĵľ":6279,"ëľ©":6280,"ĠìĿĢíķĺ":6281,"Ġíı¬ìĬ¤íĬ¸":6282,"Ġëħ¸ë©Ģ":6283,"ĠìĭĿë¬¼":6284,"ĠìŀĲíıŃ":6285,"¥¸":6286,"Ġì¹Ńíķĺ":6287,"iz":6288,"Ġë²łíĬ¸ëĤ¨":6289,"ĠìĬ¤íĭ°":6290,"ĠìĤ¼ì§Ħ":6291,"ĠìĿ¼ëªħ":6292,"Ġíı¬ë¡ľ":6293,"Ġëĭ¨ìŀ¥":6294,"ĠAR":6295,"Ġìĭľëĭ¬ë¦¬":6296,"ĠìĿ¼ìŀĲ":6297,"æĿ":6298,"Ġë°©ì¶ľ":6299,"Ġë¯¸ëĿ¼":6300,"Ġì£¼ê¸°":6301,"ì¦Īë§Ī":6302,"ëħģ":6303,"ĠíĽ¼ìĨĲ":6304,"qu":6305,"ĠëĤ´ìĦ¸ìļ°":6306,"ĠìĬ¤ìĬ¹":6307,"ĠíĬ¹ì§ĳ":6308,"Ġì¹´ë¯¸":6309,"Ġíľ´ëĮĢ":6310,"ĠAK":6311,"Ã©":6312,"Ġë©ľ":6313,"ĠíĻĺìĺģ":6314,"Ġë¹Įëĵľ":6315,"ìħ°":6316,"Ġ600":6317,"our":6318,"íķı":6319,"ĠíĪ¬ëªħ":6320,"Ġë¹¨ê°Ľ":6321,"Ġë©¸":6322,"Ġê·¸ê³³":6323,"ĠëĿ¼ê¸°":6324,"Ġë¯¸ëĶĶìĸ´":6325,"ĠëįĶëŁ½":6326,"37":6327,"¡¬":6328,"êµ¬ëł¤":6329,"ĠìłķìĽĲ":6330,"ĠíĨłë¥´":6331,"ĠëĮĢê°ľ":6332,"ĠìĿĺì¡´":6333,"Ġêµ½":6334,"Ġ51":6335,"ĠìłĦì§Ħ":6336,"Ġê°ľìłķ":6337,"OM":6338,"ĠíĥĢìĿ¸":6339,"Ġì¹ĺëªħíĥĢ":6340,"ĠìĨĮíĶĦíĬ¸":6341,"Ġìĸ¼ë":6342,"ëħ¸ìļ°":6343,"Ĭ¬":6344,"Ġìłķì°°":6345,"ĠìĶ¹":6346,"Ġë°ĶìĿ´ëŁ¬ìĬ¤":6347,"ĠìĿ´ìĭĿ":6348,"ĠìĹĲëĭ¤":6349,"ëŁ¬ì§Ģ":6350,"Ġ??":6351,"ĠíĹĪë¦¬":6352,"ĠìķĮë°Ķ":6353,"Ġë§ĪíĤ¤":6354,"ĠìĥĿëŀµ":6355,"Ġíı¬ê²©":6356,"ĠìĬ¬íĶĦ":6357,"Ġê³¼ìłľ":6358,"Ġë¬´ë¦İ":6359,"Ġìļ¸ë":6360,"ĠëĪĦë¦¬":6361,"ĠìłĢëŁ°":6362,"Ġëĳĺì§¸":6363,"ĠìĺĪìĪĺ":6364,"Ġì·¨íĸ¥":6365,"ess":6366,"ĠíĿ¬ê·Ģ":6367,"Ġê°¤ëŁŃìĭľ":6368,"FC":6369,"ĠìĿ´ìĺģ":6370,"EM":6371,"ĠëĤ´ìŀ¥":6372,"ì¤ĳíķĻêµĲ":6373,"ëĦ¬":6374,"ä¹":6375,"Ġë§Īìķ½":6376,"ĠìĹĩ":6377,"Ġê³łìĪĺ":6378,"Ġíı¬íķŃ":6379,"Ġê¶Įíķľ":6380,"ĠáĨ¼":6381,"Ġj":6382,"Ġë³´ëĿ¼":6383,"ĠíĶ¼ê²©":6384,"ĠìŀĲêµŃ":6385,"Ġë¶Ģì§Ģ":6386,"ì©į":6387,"ê³µíķŃ":6388,"Ġê³łìŀĳ":6389,"ĠíĿĲë¦Ħ":6390,"Ġíĺ¸ì£¼":6391,"ĠìĹ°íĮ¨":6392,"Ġê²°ìĦ±":6393,"Ġì¦Ĳê²ģ":6394,"ëŀĹ":6395,"íĮ©íĬ¸":6396,"Ġê³µìĦ¸":6397,"ìŀĦë":6398,"Ġì¡°ìĦ±":6399,"ĠëıĦì£¼":6400,"Ġì¶©ìĦ±":6401,"ë¯¼ë":6402,"ĠìĪĺìĭŃ":6403,"Ġê¹ĶëģĶ":6404,"Ġì½ľëĿ¼":6405,"ĠìĤ¼êµŃì§Ģ":6406,"ìļ°ë§Ī":6407,"ĠìłĢëħģ":6408,"ê±°ì§Ģ":6409,"ĠìĺĪìģĺ":6410,"Ġìĸ´ëĸł":6411,"ĠëĪĦìłģ":6412,"Ġ52":6413,"RA":6414,"ĠëłĪìĿ´ëĵľ":6415,"Ġëĺ¥":6416,"ord":6417,"íĥĢë¦¬":6418,"ìłĦìĤ¬":6419,"ĠSM":6420,"Ġíĺĳìĥģ":6421,"ĠìłĦíĽĦ":6422,"ĠíħĮëŀĢ":6423,"Ġê¸°ìłģ":6424,"55":6425,"ĠëĪķ":6426,"Ġë§ĪìĿ´íģ¬":6427,"age":6428,"ĠìľłíķĻ":6429,"Ġê±°ë¯¸":6430,"ĠìłĦì²ł":6431,"ãĤĮ":6432,"Ġ1992":6433,"ëĭ¤ëŀĹ":6434,"Ġìŀ¬ëĭ¨":6435,"ĠëıħíĬ¹":6436,"Ġëª½ê³¨":6437,"Ġì¹¼ë¦¬":6438,"ĠìĪĺìĪĺ":6439,"ĠíĽĦê³Ħ":6440,"Ġëıĭ":6441,"ĠìºĲë¦¬":6442,"ĠìĥĪëģ¼":6443,"ĠíĹ¤ìĿ´":6444,"36":6445,"Ġhe":6446,"ê¸ĭ":6447,"ĠíĽĦìĪł":6448,"ìķĦìĽĥ":6449,"íĬ¸ë§¨":6450,"ĠíĶĮëŀ«":6451,"ĠìķĦì¿ł":6452,"ì½ĶíĨł":6453,"ĠíĺĦìĹŃ":6454,"Ġìłķì°©":6455,"Ġë¸Ķë¦¬":6456,"Ġìĵ¸":6457,"ĠíĻĶìŀ¥ìĭ¤":6458,"ãģı":6459,"ĠëĵľëĿ¼ìĿ´ë¸Į":6460,"ĠìĻĢìĿ´":6461,"ĠëģĬê¸°":6462,"TV":6463,"Ġìĭłíĺ¸":6464,"Ġíķ´ë¦¬":6465,"Ġê·Ģì°®":6466,"âĹ":6467,"§Ŀ":6468,"Ġìľłì¹ĺ":6469,"Ġì°įíŀĪ":6470,"ĠëıĻìĿĺ":6471,"ë§Ļ":6472,"ë¹ĦìĬ¤":6473,"Ġê·¸ëŁ¼":6474,"ĠìĽĲìĨĮ":6475,"ìļĶìĭľ":6476,"Ġ97":6477,"¢ħ":6478,"ìĤŃ":6479,"ĠìłľìŀĳìŀĲ":6480,"ìĭľìĬ¤íĬ¸":6481,"Ġìĺ¤ë§Ī":6482,"Ġë©Ķëª¨ë¦¬":6483,"ĠëĨĢìĿ´":6484,"ide":6485,"íŀĪë¡ľ":6486,"ĠíĥĢëĿ½":6487,"ĠëłĪìĿ´ëįĶ":6488,"ìľĦë":6489,"ĠìĿ¼ì°į":6490,"ĠìķĪíĭ°":6491,"ĠìĿ¼ë°©":6492,"Ġê°Ģë¦¬íĤ¤":6493,"êµ¬ì¹ĺ":6494,"ĽĮ":6495,"Ġëį§ë¶ĻìĿ´":6496,"ëĵŃ":6497,"ĠìĬ¤íĶ¼":6498,"Ġëª°ëĿ½":6499,"ian":6500,"Ġìŀ¡ì§Ģ":6501,"ĠìĬ¹ê°ķìŀ¥":6502,"BA":6503,"ĠìĹ®ìĿ´":6504,"Ġë¶ĢëĶ":6505,"ĠìĹ°ìĬ¹":6506,"Ġê³łë§Ļ":6507,"ĠìĦľìļ¸ë":6508,"ĠíĮ¨ìħĺ":6509,"Ġì§ĳíĸī":6510,"ëĩĮ":6511,"ķê¸°":6512,"Ġì´Ŀë¦¬":6513,"ĠìĪĺëĬ¥":6514,"Ġë©´ëª¨":6515,"ĠëıĻêµ´":6516,"Ġíķ´ë³ĳ":6517,"Ġíİ¸ìŀħ":6518,"ĠëĨĵìĿ´":6519,"ĠìĿ´ìĭľ":6520,"ë¶Ģë¡ľ":6521,"Ġì²ĺíĺķ":6522,"OP":6523,"ìĬ¤íĨł":6524,"Ġë¯¸ë£¨":6525,"ĠìĬĪíį¼ë":6526,"Ġê¸°ìĪĻ":6527,"ëĨĪ":6528,"47":6529,"åĲ":6530,"ĠìľĮë¦¬":6531,"Ġìį¨ë¨¹":6532,"Ġìłķë¹Ħ":6533,"Ġì°¢":6534,"ĠSC":6535,"åĪ":6536,"Ġìłģíķ©":6537,"Ġì½Ķìļ°":6538,"ł¹":6539,"Ġì¤ĳëıħ":6540,"Ġë¶ĪìĤ¬":6541,"Ġì±Įë¦°":6542,"Ġíĸīë³´":6543,"ĠìłľìŀĦìĬ¤":6544,"ĠëĤ´ìĦ±":6545,"Ġì¹ĺìľł":6546,"Ġìĺ¤ìłĦ":6547,"ĠíĮĲë§¤ëŁī":6548,"ĠìĨĮìľĦ":6549,"ĠìĤ¬ìĤ´":6550,"ëĤĺë¬´":6551,"ĠìĥģìĹħ":6552,"ë§Ľ":6553,"ë§Īë£¨":6554,"Ġíķ´ìĥģ":6555,"Ġë¹ĽëĤĺ":6556,"ĠìķĦìķ¼":6557,"Ġì¿¼":6558,"ĠìºłíİĺìĿ¸":6559,"Ġê°Ħìĭł":6560,"ĠëıĦëģ¼":6561,"ãĤĤ":6562,"ĠåĲ":6563,"ì¹´ìĺ¤":6564,"Ġì»¤ë§¨ëĵľ":6565,"ì¦Ĳ":6566,"Ġë¬´ëłµ":6567,"Ġê¸ĪìĨį":6568,"Ġê¸°ë¥´":6569,"ê²¨":6570,"Ġ1993":6571,"Ġit":6572,"ì§ĳíĬ¸":6573,"Ġìĺ¤ê°Ģ":6574,"ê²ĮìŀĦ":6575,"Ġë¦¬ëĵ¬":6576,"ĠíħĶëłĪ":6577,"Ġê¸°ëıĦ":6578,"Ġìĭľì¦Ī":6579,"ĠìľłëĭĪíı¼":6580,"ĠíĦ°ëľ¨ë¦¬":6581,"ĠìĻł":6582,"Ġìłķì¹ĺìĿ¸":6583,"ĠíĿĶëĵ¤ë¦¬":6584,"ĠìĬ¤ìľĦ":6585,"Ġë§¤ëĭĪìłĢ":6586,"ĠëĳĶ":6587,"Ġìŀ¬ìĤ°":6588,"ĠìĥģìĿ¸":6589,"ĠCom":6590,"ĠíĥĢìĿ´ê±°":6591,"Īë²ĦìĬ¤":6592,"Ġëį°ìĿ´ë¹":6593,"Ġíķĺìķ¼":6594,"Ġê³łìĬ¤íĬ¸":6595,"ê²Ł":6596,"Ġì±ĦíĮħ":6597,"Ġíı´ëŀĢëĵľ":6598,"ĠëĥĦìĥĪ":6599,"Ġë¬ĺì§Ģ":6600,"ĠíĻĶíķĻ":6601,"ĠíĬ¸ëŁŃ":6602,"Ġê¸°êµ¬":6603,"Ġì£¼ìĤ¬":6604,"ĠìĥģìĪł":6605,"Ġì´Į":6606,"ĠìĿ¼ë³¸êµ°":6607,"Ġå°":6608,"Ġëĭ¤ì¹ĺ":6609,"Ġìĺ¤ëŀľë§Į":6610,"ĠìĽĲì¹Ļ":6611,"ĠìĦłíĥĿì§Ģ":6612,"ĠìĦłìłĦ":6613,"Ġì¶ľìŀħ":6614,"ĠTr":6615,"Ġì´Īë³´":6616,"ìĭľíĥĢ":6617,"Ġëĵ¤íĤ¤":6618,"ime":6619,"ĠëıĦìĦľê´Ģ":6620,"ìĸ´ë§Ī":6621,"íĤ·":6622,"Ġë¯¸ìķĪ":6623,"ëĤ¨ëıĦ":6624,"Ġë©´ìĹŃ":6625,"Ġìľłë¬¼":6626,"ĠìĭłìĤ¬":6627,"Ġë¿Ķ":6628,"ä»":6629,"Ġê°ľíĺģ":6630,"²ĦìĬ¤":6631,"Ġìļ©ê¸°":6632,"Ġíİ«":6633,"ĠìķĦìĿ´ìĬ¤":6634,"90":6635,"ìĸĳíķ¨":6636,"Ġêµ¬ìĦĿ":6637,"ë°¥":6638,"íķĺë©´":6639,"Ĩ¡":6640,"ĠíķĻìŀĲ":6641,"Ġì°¸ìĦĿ":6642,"Ġê°ķìļĶ":6643,"Ġë¯¸ë¬ĺ":6644,"ĠìĪĺë¹Ħì":6645,"ĵĿ":6646,"Ġê¹Ģíĥľ":6647,"Ġì§Ģê²½":6648,"Ġíķĺì°¨":6649,"Ġë°°ì°¨":6650,"Ġì«ĵê¸°":6651,"ĠXX":6652,"Ġë¶ĵ":6653,"AD":6654,"ĠíĻľë°ľ":6655,"ĠìĿ¼ì¡±":6656,"ĳĶ":6657,"Ġ86":6658,"ĠCJ":6659,"Ġê¸Īìľµ":6660,"ĠìĿ´ì§ĳíĬ¸":6661,"Ġìķħëĭ¹":6662,"ĠìķĦë§ĪëıĦ":6663,"ĠëĶĶë²ĦíĶĦ":6664,"Ġëħ¸ë¶Ģ":6665,"ĠíĥĪíĩ´":6666,"įĶìĬ¤":6667,"ìļ°ë¦¬":6668,"ìĪłìĤ¬":6669,"Ġë§īëĮĢ":6670,"Ġì¹ĺë£¨":6671,"Ġìĭ¤ë§Ŀ":6672,"ĠíĿĶìłģ":6673,"ĠìĺĪë¹Ħ":6674,"Ġ53":6675,"Ġìļ©ìĦľ":6676,"ĠíĽĦë°°":6677,"íħĮë¥´":6678,"ĠìĿ´ë§Ī":6679,"Ł´":6680,"ĠíĥĦì°½":6681,"ĠìĿ´ìłķ":6682,"ìĵ¸":6683,"ĠìĿ¸ëĶĶ":6684,"Ŀ¼ìĬ¤":6685,"ĠìľłëĮĢ":6686,"íģ¬ë¦¬":6687,"Ġìĭłë¶Ģ":6688,"Ġë¬¸êµ¬":6689,"Ġì¦Ŀìĺ¤":6690,"Ġë¹Ħì¶Ķ":6691,"Ġåı":6692,"ìŀĦì":6693,"æĺ":6694,"ĠìĹ¿":6695,"Ġê¹Ģë¯¼":6696,"ĠìĿ¼ë³¸ìĿ¸":6697,"ĮĢíķĻêµĲ":6698,"Ġê¸°ìļ©":6699,"Ġì¤ĳë¦½":6700,"å·":6701,"ĠìĹħìłģ":6702,"ĠWW":6703,"Ġìĸ´ë§Īìĸ´ë§Ī":6704,"ãĤĪ":6705,"ĠíĿ¥ë¯¸":6706,"Ġ96":6707,"ĠíĬķê¸°":6708,"Ġëľ¬ê¸Ī":6709,"ĠíĬ¸ëŀľ":6710,"Ġì£¼ìĭĿ":6711,"ĠìĭĿëŁī":6712,"ĠìĽĮì»¤":6713,"Ġë´ĩ":6714,"ĠëįĶë¶Īìĸ´":6715,"Ġëĭ´ë°°":6716,"ĠëıĻìª½":6717,"ëĭ¤ìĭľ":6718,"ëĤĺì¹´":6719,"Ġ;":6720,"Ġë¶Ģê°ģ":6721,"ĠìĥģìĭĿ":6722,"ëŁ¿":6723,"Ġì§Ģì§Ħ":6724,"ĠOST":6725,"ìłĢìĶ¨":6726,"ë¥ĺíĥĦ":6727,"Ġìŀłìŀ¬":6728,"ĠMe":6729,"ĠíĺĦë":6730,"Ġëª¨ëŀĺ":6731,"Ġëĭ¹ìĿ¼":6732,"ĠíİĺìĿ´ì¦Ī":6733,"Ġê³¨ëĵł":6734,"ĠìĬ¤ë§ĪíĬ¸íı°":6735,"ëıĦë¥´":6736,"īģ":6737,"ĠìĿ´ìĬĪ":6738,"íķĺë¥´íĬ¸":6739,"ĠêµĲìŀ¥":6740,"ĠìĪĺìŀ¥":6741,"Ġíģ´ëĿ¼":6742,"Ġë§¤ì²´":6743,"ĠFI":6744,"ĠêµŃìĻķ":6745,"ĠëĦ¤ìĺ¤":6746,"Ġìĥīê¹Ķ":6747,"Ġíķĺëĭ¨":6748,"Ġê´´ìĪĺ":6749,"ĠEx":6750,"ĠëĮĢì§Ģ":6751,"Ġê·¸ëŁ¬ëĭĪê¹Į":6752,"Ġìĺ¤íĥĢ":6753,"ê°Ģëĵľ":6754,"ëĶĶìķĦ":6755,"ick":6756,"Ġê¸°ì¢ħ":6757,"ĠëªħíĻķ":6758,"Ġìµľëĭ¤":6759,"ĠìļĶì½Ķ":6760,"ber":6761,"Ġì¾Į":6762,"ĠìĿĺíļĮ":6763,"Ġ250":6764,"ĠëĤ´ì§Ģ":6765,"Ġíĺ¹ìĭľ":6766,"ĠìĿ¼ê¸°":6767,"Ġìľ¼ìĭľ":6768,"Ġ180":6769,"Ġê°ľë§ī":6770,"ĠêµŃë¦½":6771,"Ġëħ¹ìĥī":6772,"Ġê°ĢëıĻ":6773,"Ġë©Ķë¥´":6774,"Ġë¦¬ëĵľ":6775,"Ġë£¨íĶ¼":6776,"ĠêµĲë¥ĺ":6777,"ĠìľĦìĥģ":6778,"ĠíĬ¸ìľĪ":6779,"±±":6780,"ĠìĦ¹":6781,"ëĸ":6782,"Ġì³Ĳ":6783,"ĠìĬ¤íĬľë":6784,"åŃĲ":6785,"Ġíĺ¸ìľĦ":6786,"Ġme":6787,"ĠëıĻìĿ¸":6788,"ëĶĶìĸ¸":6789,"Ġì·¨ë¯¸":6790,"Ġíķĺìļ°ìĬ¤":6791,"¸ë§ģ":6792,"Ġëĵľë¦¼":6793,"per":6794,"ĠìĸĳìĦ±":6795,"Ġê¼½":6796,"Ġë¬´ì²Ļ":6797,"ìĿĢìĥī":6798,"ĠìĬ¤ë¯¸":6799,"Ġíİĳ":6800,"ĠìĤ¬ë§ī":6801,"ĠíĥĢìĦł":6802,"ĠìłķíĻĶ":6803,"Ġê°ľìĭľ":6804,"Ġê°ľëŁī":6805,"Ġìķ¨ë¦¬ìĬ¤":6806,"Ġì°¨ê¸°":6807,"ĠìĦ¸ì¢ħ":6808,"ĠìĦ¸íı¬":6809,"ĠëįĶëĿ¼":6810,"Ġë°Ķë¦¬":6811,"ĠíĹĮë²ķ":6812,"ID":6813,"Ġëļľ":6814,"ãģ¯":6815,"Ġë¶ĪíĥĢ":6816,"ìķĦì¹ĺ":6817,"ĠìĹ°ê¸Ī":6818,"Ġìĭ¬ìĤ¬":6819,"Ġíģ´ëŀĺìĭĿ":6820,"Ġëľ¬ê¸ĪìĹĨ":6821,"Ġíĺ¸ìĪĺ":6822,"ë§Ĳë¦¬":6823,"âĸ":6824,"ĠìłĢëł´":6825,"Ġìĸ´ìĿ´":6826,"íĮĮë¥´":6827,"Ġëĭ¨íİ¸":6828,"Ġì´Īëĵ±íķĻêµĲ":6829,"ãģł":6830,"ĠëĤĺì¹ĺ":6831,"ĠìķĦìĿ´ëĶĶ":6832,"Ġê¶Įë¦¬":6833,"ĠìĬĪíĬ¸":6834,"ĠìĤ¬ê·Ģ":6835,"Ġìĺģì£¼":6836,"ĠëįĶêµ°":6837,"Ġê°ĦìĭłíŀĪ":6838,"ĠíĻĶë¬¼":6839,"¥ŀ":6840,"Ġê³łìľĦ":6841,"ĠìķĦìĿ¼ëŀľëĵľ":6842,"ĠìķĦìłĢìĶ¨":6843,"Ġìĥģìĭ¤":6844,"Ġíı¬ìĪĺ":6845,"ãģĵ":6846,"Ġëĵľë¡ľ":6847,"ĠìĬ¤íĬľëĶĶìĺ¤":6848,"Ġ##":6849,"ĠëģĬìĿ´":6850,"ê¸°ìĤ¬":6851,"ë§ĪëĶĶ":6852,"ĠìłĦëĮĢ":6853,"Ġê¸°ìĪĻìĤ¬":6854,"ĠìĪŃ":6855,"Ġwith":6856,"PM":6857,"Ġì½ĶëĤľ":6858,"Ġì¿Ħ":6859,"ĠìĭłìķĻ":6860,"ĠIS":6861,"ĠëĤĺë¥´":6862,"ĠëĿ¼ëĵł":6863,"ëĺ":6864,"ĠêµĲì°¨":6865,"Ġê¶¤ëıĦ":6866,"ìĬ¤ì¹´":6867,"ĠAM":6868,"ĠGT":6869,"ĠíģĲë¸Į":6870,"ĠíĥĢìĪĺ":6871,"ê¹¥":6872,"Ġì¡´ìŀ¬ê°Ĳ":6873,"ãĥ³ãĥ":6874,"æĸ":6875,"į½":6876,"ĠìĦľìª½":6877,"ìħĭ":6878,"ĠëĭĪì½Ķ":6879,"Ġë£¨ëĤĺ":6880,"ê¸Ģëŀľëĵľ":6881,"ĠìĿ´ìĿµ":6882,"ĠíļĮì°¨":6883,"ĠíĨµì¹ĺ":6884,"Ġìķłìłķ":6885,"íĻĶìłĲ":6886,"ëĭ¤ëĤĺ":6887,"ĠìŀĳíĻĶ":6888,"Ġë°Ķê¹¥":6889,"Ġë¯¸ìķ¼":6890,"ãģ«":6891,"ĠíĥĢìľ¨":6892,"Ġë¶ĢëĶª":6893,"°´":6894,"åľ":6895,"Ġë¦Ń":6896,"Ġê³¤ëŀĢ":6897,"ace":6898,"Ġìļ¸ë¦¬":6899,"Ġì£¼ìĹŃ":6900,"Ġë©ľë¡ľ":6901,"ìĥ·":6902,"ĠìĭĿë¯¼":6903,"Ġê³¼ìŀ¥":6904,"ĠëıĦëĳĳ":6905,"75":6906,"Ġê¸°ìļ¸":6907,"ìĬ¤íĬ¸ë¦¬ìķĦ":6908,"į°ìĬ¤":6909,"Ġì·¨ìŀĦ":6910,"ë²ĦíĬ¸":6911,"Ġë¬¸ëĭ¨":6912,"ĠìĤĲ":6913,"Ġê²©ì¶Ķ":6914,"Ġê·ĢíĻĺ":6915,"Ġë¹ĦìĦľ":6916,"ĠPl":6917,"ĠìŀĦëĮĢ":6918,"Ġìĺ¬íķ´":6919,"Ġch":6920,"ĠìŀĲê·¹":6921,"Ġê´Ģì¤ĳ":6922,"oy":6923,"íķµ":6924,"Ġìĥģëĭ¨":6925,"Ġëĭµë³Ģ":6926,"ĠìĪĺë¥ĺíĥĦ":6927,"ĠìĹ°ë£Į":6928,"Ġë°ľëĭ¬":6929,"ĠíĦ±":6930,"ë¦¬ìĬ¤íĬ¸":6931,"åį":6932,"Ġìį¬":6933,"ìĬ¤íħĮ":6934,"ìķĪë":6935,"UN":6936,"ĠìĤ¬ì¹´":6937,"Ġê¹Ģì¢ħ":6938,"ëļ±":6939,"OT":6940,"Ġê°Ģë§Į":6941,"ĠíĮĲê²°":6942,"İĢ":6943,"Ġì½Ķì½Ķ":6944,"Ġíĺķìĥģ":6945,"ĠíĹ¤ìĸ´ì§Ģ":6946,"ĠìĤ¬ëıĦ":6947,"Ġìłģêµ°":6948,"ĠíŀĪëĤĺ":6949,"Ġê¹ĢëıĻ":6950,"ĠëĦĪíĿ¬":6951,"ĠìĤ¬íĽĦ":6952,"ĠìķĦìĿ¸":6953,"Ġê²°ìłĦ":6954,"Ġ800":6955,"ĠìĬµíķĺ":6956,"ì¼Ī":6957,"ĠëĶĶì§ĢíĦ¸":6958,"ë°Ķë¥´":6959,"íĮ¡ìĿ´":6960,"ĠíĦ°ëĦĲ":6961,"500":6962,"ĠìĤ¬ìľł":6963,"ëŁ´":6964,"ĠìĿ¼ì¹ĺ":6965,"Ġë¬´ìĹŃ":6966,"Ġëĭ¨ëĭ¨":6967,"ĦĪìĬ¤":6968,"íĥĲ":6969,"Ġê±°ëĵŃ":6970,"ĠìķĶìĭľ":6971,"ĠìĬ¤ìĽ¨":6972,"ĠíķŃìĿĺ":6973,"ì±ł":6974,"ĠìĬ¤ëłĪ":6975,"¹Ħë":6976,"Ġ1991":6977,"íĬ¹ë³Ħìĭľ":6978,"mer":6979,"Ġë§ĲíĪ¬":6980,"ĠìłĦì£¼":6981,"ĠíĻĶìĦ±":6982,"34":6983,"Ġìŀħì§Ģ":6984,"ĠíıīìĥĿ":6985,"Ġì£¼ì°¨":6986,"ĠìłķíĻ©":6987,"Ġë°ĺìłĦ":6988,"ĠìĹ°ìĺĪìĿ¸":6989,"Ġìĺ¤ì§ģ":6990,"ĠëĵĿíĳľ":6991,"ĪĦ":6992,"Ġë¬´ì§Ģ":6993,"Ġìŀĳê³¡ê°Ģ":6994,"ĠìķĦì¼ĢìĿ´ëĵľ":6995,"Ġë©Ķìĭľì§Ģ":6996,"Ġíľĺë§Ĳë¦¬":6997,"ĠíĺĲìĺ¤":6998,"ĠIC":6999,"ĠìŀĲë§ī":7000,"ĠHD":7001,"Ġê±´ëĵľë¦¬":7002,"Ġíķ´ëªħ":7003,"ĠëĶĶìĬ¤íģ¬":7004,"Ġìĭłìŀ¥":7005,"Ġë§¤ìŀ¥":7006,"Ġê³³ê³³":7007,"Ġìħĺ":7008,"ĠíĿĳìĿ¸":7009,"Ġ68":7010,"Ġë³´ëĵľ":7011,"ake":7012,"Ġìĥģíĺ¸":7013,"Ġë³µêµ¬":7014,"70":7015,"ĠëĽ°ìĸ´":7016,"ft":7017,"Ġëŀ¨":7018,"Ġë¹Ħìĥģ":7019,"Ġìĺ¤ìĤ¬ì¹´":7020,"ĠìĻĦê²°":7021,"ĠìŀłìĪĺíķ¨":7022,"ë®¬":7023,"ice":7024,"éĻ":7025,"Ġë¯¸ìĬ¤íĦ°":7026,"Ġë°±ìĦ±":7027,"Ġìķħëªħ":7028,"ìĭľì¦Ī":7029,"Ġë¶Ħìĭł":7030,"Ð°":7031,"Ġì¹ĺê³ł":7032,"ĠìĨĮëĮĢ":7033,"Ġíķľë§ĪëĶĶ":7034,"Ġì¶Ķêµ¬":7035,"ĠêµĲìĭ¤":7036,"Ġ72":7037,"ë°ĶëĿ¼":7038,"ĠìĬ¤íİĺìĿ´ìĬ¤":7039,"ĠëĤ´êµ¬":7040,"Ġíĥľë":7041,"Ġìļ©ëŁī":7042,"Ġìľłìłģ":7043,"ĠêµĲëıĦ":7044,"Ġê¸Īë°©":7045,"ĠìĿ´ìĦľ":7046,"38":7047,"Ġì½ĶìĿ¸":7048,"Ġíĸīíķĺ":7049,"Ġíģ¬ë¦¬ìĬ¤ë§ĪìĬ¤":7050,"íĥĢì¹´":7051,"ĠìĬ¤ìº":7052,"ĠìĨĮëĿ¼":7053,"Ġìĭłë¹Ħ":7054,"ë¹¨":7055,"Ġíĳľì§Ģ":7056,"²Į":7057,"Īëª¨":7058,"Ġêµ¬ìĬ¬":7059,"ĠëĤ¨ëħĢ":7060,"ìĿĮë":7061,"Ġë¬´ìĪł":7062,"ĠìĽĲìŀĲ":7063,"ìľĹ":7064,"ĨĲ":7065,"Ġì²ŃìĨĮ":7066,"Ġë¹Ħë¡Ģ":7067,"ĠíĻķëĮĢ":7068,"Ġë°ĺìĤ¬":7069,"ĠìķĦìĿ´ì½ĺ":7070,"Ġì¹¨ìŀħ":7071,"Ġ......":7072,"ave":7073,"Ġíģ´ë¦Ń":7074,"ĠìľĹ":7075,"ĠëıĦë°ķ":7076,"ĠìĭľìľĦ":7077,"Ġë¶ĪêµĲ":7078,"ĠAS":7079,"Ġì°¨ìĿ´ìłĲ":7080,"Ġìĭ¤ìłĦ":7081,"ë¸Ķë¦°":7082,"ìķĦìĬ¤":7083,"Ġê³µê³µ":7084,"Ġ1988":7085,"ĠíĹĪëĿ½":7086,"ĠíĶ¼ìķĦëħ¸":7087,"ãĤ¿":7088,"Ġì»¤ëħķ":7089,"Ġìĭ¬ìĭ¬":7090,"ĠìĪĻëł¨":7091,"ĠíĿ¡íĺĪ":7092,"Ġìĺ³":7093,"Ġìĭľíķ©":7094,"ĠíĨ°":7095,"íģ°":7096,"Ġë¯¸íĦ°":7097,"ĠìŀĶëľ©":7098,"éĥ":7099,"ĠëĮĢìĦł":7100,"ìĿ´ëĦĪ":7101,"Ġê¸°ë¯¹":7102,"Ġëł¤ëįĺ":7103,"Ġì§ľì¦Ŀ":7104,"man":7105,"Ġì²ĺë¶Ħ":7106,"Ġê³ĦíĨµ":7107,"Ġìĵ¸ëª¨":7108,"ĠìĺĪìĸ¸":7109,"Ġíģ´ëłĪ":7110,"Ġê°Ģë°©":7111,"ìĿ¼ë³´":7112,"ĠëĤĺë§Ī":7113,"Ġìĭ£":7114,"Ġê°ķìŀĲ":7115,"ì§±":7116,"Ġë¡ľê³ł":7117,"Ġì¶Ķì¢ħ":7118,"ĠíķŃë³µ":7119,"Ġì»¤íĶ¼":7120,"ĠTHE":7121,"ĠëŁŃ":7122,"Ġíģ¬ë¦¼":7123,"ound":7124,"US":7125,"łī":7126,"ĠìĦłê³ł":7127,"Ġë³µì§Ģ":7128,"ite":7129,"Ġë©ķìĭľì½Ķ":7130,"Ġë±ĢíĮĮìĿ´ìĸ´":7131,"ĠìºĲìĬ¤íĦ°":7132,"ĠìŀĦìĭł":7133,"Ġê³µë£¡":7134,"Ġì§ĳì°©":7135,"¡±":7136,"Ġê³łê°ľ":7137,"ãĤ¢":7138,"Ġê°Ħìłĳ":7139,"ë°ĭ":7140,"Ġì¹¼ëĤł":7141,"Ġë¡ľì¦Ī":7142,"Ġë§¥ìĬ¤":7143,"ì£¼ìĭľ":7144,"ĠëĤľìŀħ":7145,"ìķĦëĤĺ":7146,"Ġê²½íĺ¸":7147,"Ġëį°ëĵľ":7148,"ê°Ģìĭľ":7149,"Ġëį°ëª¬":7150,"ĠìĿ´ì¤ĳ":7151,"ìĭľëĮĢ":7152,"ĠDS":7153,"ê°Īë¦¬":7154,"êµĲíĨµ":7155,"Ġë²ķìĿ¸":7156,"Ġê±°ìłĲ":7157,"ê´Ħ":7158,"ĠEn":7159,"Ġê³łêµ¬ëł¤":7160,"ĠìķĦìĿ´ëŁ¬":7161,"ê°Ĵ":7162,"ëĭĪìĸ´":7163,"ĠêµŃíļĮìĿĺìĽĲ":7164,"ĠìŃī":7165,"Ġìĺ¤ë²Ħì":7166,"ph":7167,"Ġìłľìķ½":7168,"Ġíľ©":7169,"ìłłê°Ģ":7170,"ĠëĦ¤íĬ¸":7171,"Ġíľ´ìĭĿ":7172,"ĠìĨĮìĨįìĤ¬":7173,"ĠëĶĶì§Ģëª¬":7174,"ıĮ":7175,"Ġì§Ģë¢°":7176,"Ġë¸ĮëĿ¼ë":7177,"Ġêµ¬ë¦¬":7178,"Ġì£¼ë¥ĺ":7179,"ĠêµĲê³¼":7180,"ĠâĢ¢":7181,"ĠíĥĢìĿ´ìĸ´":7182,"Ġíķľìª½":7183,"ŀĳìĿ´":7184,"ĠìľłìĿ´":7185,"Ġ?!":7186,"ĠìĨĮìŀ¥":7187,"Ġì¶Ķìĸµ":7188,"ĠëĮĢíķĻìĽĲ":7189,"¬´ë¥´":7190,"Ġë°ĺëıĻ":7191,"ĠìĦ¸ë¥´":7192,"56":7193,"ìĭľíĭ°":7194,"Ġì»¤ëĭ¤ëŀĹ":7195,"Ġì²©":7196,"ĠìĿ¼ìĿ¼":7197,"ĠíĽĦê³ĦìŀĲ":7198,"pe":7199,"ĠìĹĲë¦¬":7200,"ĠÎ":7201,"ĠëĤĺì¸ł":7202,"Ġìľ¼ëĿ¼":7203,"Ġê·¸ëŀľëĵľ":7204,"Ġë¯¸ì§Ģ":7205,"ĠíķĻê¸°":7206,"íĶ¼ëĭĪ":7207,"¼ëĵľ":7208,"ĠáĨ¯ëł¤":7209,"Ġë¶ĢìŀĲ":7210,"ĠëįĶëŁ¬":7211,"Ġì¹´ëĿ¼":7212,"Ġì´ĿìķĮ":7213,"ĠáĨ¨":7214,"ĠëĤĺë¬´ìľĦíĤ¤":7215,"ĠëıĦìłģ":7216,"ìķĦëª¬":7217,"Ġ1970":7218,"Ġìĸ¸ìłłê°Ģ":7219,"ĠìľĦëĮĢ":7220,"Ġì¡°ìĹ°":7221,"ĠìŀħëĮĢ":7222,"Ġìĥģê¸°":7223,"ĠíĹĪê°Ģ":7224,"Ġíı¬ë¥´íĪ¬":7225,"ĠìĬ¹ê°Ŀ":7226,"ĠìĭľëĦĪì§Ģ":7227,"ĠìłķìĪĺ":7228,"Ġëį©ì¹ĺ":7229,"ĠëģĶì°į":7230,"Ġíĭ±":7231,"ë°Į":7232,"Ġê±¸ë§":7233,"ĠíĶĦëĿ¼ìĿ´":7234,"Ġì¶©ì²Ń":7235,"ĠëĿ¼ìĿ¸ìĹħ":7236,"¶ĵ":7237,"Ġë¡ľìĸ":7238,"Ġì¶©ìĭ¤":7239,"Ġì¤į":7240,"ëį°ìĿ´":7241,"ĠìľłíĨµ":7242,"Ġíģ¬ë¦¬ìĬ¤íĥĪ":7243,"Ġê±¸ë§ŀ":7244,"Ġê²°ìĭ¬":7245,"ĠìĬ¤íĮĢ":7246,"59":7247,"ĠìĨĮëĭĪ":7248,"Ġìŀ¬ë°Į":7249,"ĠëıĮìŀħ":7250,"ìŀĺ":7251,"ĠìłĢíĥĿ":7252,"ĠìķĦìĿ´ëŁ¬ëĭĪ":7253,"Ġë¬¼ë¦¬ì¹ĺ":7254,"ĠìĻĪ":7255,"ĠìĬ¤íĭ¸":7256,"Ġ110":7257,"Ġìī´":7258,"Ġì±ĶíĶ¼ìĸ¸ìĬ¤":7259,"ĠíĥĢì¿ł":7260,"ĠìĹ°ëł¹":7261,"ĠìĹ°ê·¹":7262,"¹Ľ":7263,"Ġë³µë¬´":7264,"Ł¼íĶĦ":7265,"Ġê²ĮìĿ´ë¨¸":7266,"æĪ":7267,"ĠëĲĺëıĮë¦¬":7268,"ê³µìĤ¬":7269,"Ġì²ĺì§Ģ":7270,"ĠëĤ¨ë§¤":7271,"Ġìłķì°¨":7272,"ĠìīĲ":7273,"ë¦¬ìĺ¨":7274,"ĠëĶ´":7275,"Ġë°°íĦ°ë¦¬":7276,"Ġë½ĳíŀĪ":7277,"Ġìĸ¸ëįĶ":7278,"ĠìĬ¤íĬ¸ëĿ¼ìĿ´íģ¬":7279,"Ġë¸ĶëŁ¬ëĵľ":7280,"ĠìĿĮëª¨":7281,"Ġìľłëł¥":7282,"âĺħâĺħ":7283,"ĠìĽĥê¸°":7284,"Ġë°°íı¬":7285,"ĠìĦ¼ìĬ¤":7286,"Ġì§Ħë³´":7287,"Įë¡ľ":7288,"ĠëŁ°ëįĺ":7289,"Ġìĸ´ê·¸ë¡ľ":7290,"ĠëĭĪìĭľ":7291,"ĠìķĪê¸°":7292,"Ġíĩ´ìŀ¥":7293,"Ġê³µë°©":7294,"Ġìŀ¬ìłķ":7295,"Ġíĭ°ì¼ĵ":7296,"å¯":7297,"Ķ§":7298,"ĠìĤ¬ìĽĲ":7299,"ĠëĵľëĿ¼ìĿ´ë²Ħ":7300,"Ġë§Īë¹Ħ":7301,"Ġêµ¬ì¶ķíķ¨":7302,"ìĹ£":7303,"ëĮĢíķľë¯¼êµŃ":7304,"Ġì¹´íĬ¸":7305,"ĠìłĦìĬ¹":7306,"Ġì±ĦíĥĿ":7307,"Ġë£¬":7308,"ĠíĮ½":7309,"ĠSD":7310,"Ġë¬´ê´Ģ":7311,"ĠìĨįìĿ´":7312,"å¥":7313,"Ġê¸°ê´Ģì´Ŀ":7314,"Ġê°Ģìĥģ":7315,"ĠìĨĮìĨ¡":7316,"Ġë¯¸ìĨĮ":7317,"Ġê°ķìłĲ":7318,"ĠíĬľ":7319,"íĶĦì":7320,"ĠìĿ´ìĬ¬ëŀĮ":7321,"âĨĴ":7322,"Ġê±°ìļ¸":7323,"ìłĢëŁŃ":7324,"ĠíĥĢê²Ł":7325,"ĠìŀĳìľĦ":7326,"ĠíķŃê³µê¸°":7327,"Ġëĭ¹ê¸°":7328,"Ġìŀīê¸Ģëŀľëĵľ":7329,"ĭĪìĸ´":7330,"Ġì§ĢìľĦ":7331,"Ġë¯¸ìĪł":7332,"ĠCon":7333,"Ġëĭ¤ìĿ´ìķĦëª¬":7334,"Ġìľłëıħ":7335,"ame":7336,"Ġê·¸ëŁŃ":7337,"ĠRPG":7338,"Ġì°½ê³ł":7339,"Ġì¹Ńíĺ¸":7340,"ë¬´ìĭľ":7341,"ĠìĹĲìļĶ":7342,"ĠëĤ®ì¶Ķ":7343,"Ġê¸´ìŀ¥":7344,"Ġì¹¨ëŀµ":7345,"Ġê·¸ëŁŃìłĢëŁŃ":7346,"ĠíĬ¸ëŀľìĬ¤":7347,"Ġë°±ìłľ":7348,"ĽĮì¹ĺ":7349,"Ġê¸°ë¦Ħ":7350,"Ġê°Ĳê°ģ":7351,"ãĥŃ":7352,"ĠìĤ¬ìĿ¸":7353,"Ġë¬´ë°©":7354,"Ġì´ĿìĦł":7355,"ĠíķĦë¦¬":7356,"ĠíĹ¤ë¹Ħ":7357,"Ġ1989":7358,"ĠìĿ¼ëĭ¹":7359,"ĠíĥĦíĻĺ":7360,"Ġê¾¸ë¯¸":7361,"ĠìĶĮ":7362,"Ġë¶ĪëŁī":7363,"Ġë²ķìłķ":7364,"Ġê¸Īìķ¡":7365,"Ġ78":7366,"Ġì·¨ìķ½":7367,"ĠìĹĲë¥´":7368,"ĠíĿ°":7369,"ĠíĨłë²Į":7370,"ìĿ¸ë¨¼íĬ¸":7371,"ah":7372,"44":7373,"íĺĦë":7374,"ĠëįĶêµ°ëĭ¤ëĤĺ":7375,"Ġì£¼íĥĿ":7376,"ĠãģĮ":7377,"Ġåį":7378,"Ġmath":7379,"ĠìĹĶìł¤":7380,"ĠíĶĮëŀĺìĭľ":7381,"Ġìĭ¹":7382,"Ġë»Ĺ":7383,"Ġ@":7384,"Ġíĺ¸íĿ¡":7385,"Ġì²´ìľ¡ê´Ģ":7386,"Ġë°ĺë°ķ":7387,"ì½ľë":7388,"©ĺ":7389,"Ġê¸īê²©":7390,"ĠìĦ±ëĤ¨":7391,"Ġê²°íķ©":7392,"Ġ67":7393,"ĠKIA":7394,"ë¯¸ëĶĶ":7395,"ĠíıĲìĩĦ":7396,"éģ":7397,"Ġê²½ë¹Ħ":7398,"ĠêµŃìłģ":7399,"Ġ101":7400,"ĠëıĻìķĦë¦¬":7401,"ĠìĨĮìľłìŀĲ":7402,"Ġëħ¸ë¥´":7403,"Ġìĥīìĥģ":7404,"ĠíĮĮíģ¬":7405,"íħĮìĿ¸ë¨¼íĬ¸":7406,"Ġíĥľíıī":7407,"ĠìŀĲìłĦ":7408,"Ġìĺ¤ìĬ¤íĬ¸ë¦¬ìķĦ":7409,"Ġìķ¼ìĬ¤":7410,"ë¶ģëıĦ":7411,"ĠíĤ¨":7412,"ĠìĥĿëªħì²´":7413,"ĠëĳĲëĵ¤":7414,"act":7415,"Ġì´Īë¡Ŀ":7416,"ĠëĵľëŀĺíĶĦíĬ¸":7417,"Ġë¦´ë¦¬":7418,"ĠLC":7419,"ì¹ĺê¸°":7420,"ìľ¼ë¡ľ":7421,"Ġë§īíĮĲ":7422,"Ġêµ¬ê¸Ģ":7423,"ĠSc":7424,"ĠæŃ":7425,"ëĦ¤ìĬ¤":7426,"Ġê¸Ģë¡ľë²Į":7427,"Ġë©Ķëĭ¬":7428,"°ĶìĿ´":7429,"Ġê°ľìĪĺ":7430,"Ġë£¸":7431,"ìĺ¤ë£¨":7432,"ĠëıĻê¸ī":7433,"Ġë©ĶìĿ´íĶĮ":7434,"Ġë§Īë¦°":7435,"ì§Ħë":7436,"ë¯¸ëĭĪ":7437,"aw":7438,"ĠìĥĪê¸°":7439,"ê±¸ìĿ´":7440,"ĠíĶĮëŀ«íı¼":7441,"Ġì§ĦíķĻ":7442,"Ġíķ©ë³ĳ":7443,"ĠìĿµìĬ¤":7444,"ĠëłĪìĿ¸ìłĢ":7445,"ĠëĮĢì±ħ":7446,"ĠìĬ¤ìľĦì¹ĺ":7447,"ĠìłĢìŀĳ":7448,"ĠìĬ¤íħĶ":7449,"ãĥ¬":7450,"ĠíĮ¬íħĢ":7451,"ĠëĳĲëĵ¤ê¸°":7452,"¼ë¦":7453,"íķĺëĤĺ":7454,"ĠBL":7455,"ĠëĺĲëĭ¤ìĭľ":7456,"anc":7457,"ĠìĹĳìĬ¤íĬ¸ëĿ¼":7458,"ae":7459,"ãģį":7460,"ĠìŀĲë³¸":7461,"ĠìĿ¸ì¢ħ":7462,"ĠíĨµíĻĶ":7463,"ĠìĿ´ì¦Ī":7464,"íĦ°ìĬ¤":7465,"ĠìłľíĬ¸":7466,"ê·¸ëĤĺ":7467,"Ġä»":7468,"ìķĦìĭľìķĦ":7469,"ĠìŀĳëħĦ":7470,"Ġwh":7471,"íĨłë¥´":7472,"io":7473,"Ġìĭ¤ì¢ħ":7474,"Ġë¶Īíİľ":7475,"ĠìľĮ":7476,"Ġê·¼ë³¸":7477,"Ġì¶ľìĥĿ":7478,"Ġì´Ŀìŀ¥":7479,"Ġê¹Ķë¦¬":7480,"Ġë³´ìĻĦ":7481,"ĠìĹħë¡ľëĵľ":7482,"¸ë§ī":7483,"äºº":7484,"sh":7485,"Ġëĵľë¡Ń":7486,"46":7487,"VD":7488,"ç¾":7489,"Ġë§·":7490,"ĠëĿ¼ìĿ´ìĺ¨":7491,"Ġëį¤ë¹Ħ":7492,"ĠíĥĢìļ´":7493,"Ġì¡´ê²½":7494,"ĠìľĦë°ĺ":7495,"ìļ´ìĦľ":7496,"Ġì²ľíķĺ":7497,"ĠìľĦìĽĲìŀ¥":7498,"ĠìĿ´ë¯¼":7499,"ĠëĤ´ìłĦ":7500,"ĠëĶľë§ģ":7501,"old":7502,"ome":7503,"Ġë§ĪìĬ¤íģ¬":7504,"ĠíħįìĬ¤íĬ¸":7505,"Ġë§Ŀê°Ģì§Ģ":7506,"Ġë°ľíĮĲ":7507,"OW":7508,"Ġíķ´ì¹ĺ":7509,"ĠëıĦë£¨":7510,"ĠìĹĲëĶĶ":7511,"ĠìłĦìłľ":7512,"Ġë§¤ëħĦ":7513,"out":7514,"Ġë¶Ģìŀĳ":7515,"ĠìĿ¼íĻĶ":7516,"ë¶Ģë¥´íģ¬":7517,"Ġë¬´ìĭľë¬´ìĭľ":7518,"ìļ°ì¹ĺ":7519,"Ġë¯¸íĤ¤":7520,"ãĤ·":7521,"Ġê»ĺìĦľ":7522,"ĠêµŃëıĦ":7523,"ĠíĹ¬ê¸°":7524,"Ġìķ½íĥĪ":7525,"ĠìĬ¤íĬ¸ëłĪìĬ¤":7526,"Ġë°ľë¦¬":7527,"Ġíİ¸ê³¡":7528,"Ġì¢ħëª©":7529,"Ġìĺ¤ë²ĦìĽĮì¹ĺ":7530,"ĠìķĦì¦Ī":7531,"ĠêµĲëĭ¨":7532,"ĠìĿ¸ëł¥":7533,"ĠíĽĦìĽĲ":7534,"Ġê°ĢìĿĦ":7535,"íĶĮëł":7536,"ĠìĭľìĽĲ":7537,"ìĤ¬ìĿ´":7538,"Ġì¿¼íĦ°":7539,"Ġë³´ì¡´":7540,"ĠíĽĦìĨĲ":7541,"Ġê´Ģë¦¬ìŀĲ":7542,"32":7543,"Ġì¶ľêµ¬":7544,"Ġæĸ":7545,"Ġê²¬ëĶĶ":7546,"Ġì¢ĮìĦĿ":7547,"Ġì§Ģë¶Ī":7548,"Ġì½Ķë¯¸ëĶĶ":7549,"ĠMy":7550,"ë¯¹ìĬ¤":7551,"Ġìľłíļ¨":7552,"ĠID":7553,"ĠëĮĢì¹ĺ":7554,"Ġë¬´ìĮį":7555,"Ġ61":7556,"Ġë¦¬ë·°":7557,"Ġë©ĶìĿ´ëĵľ":7558,"Ġíĥķ":7559,"ĠìĦ±ë¦½":7560,"Ġíķ´ìķĪ":7561,"ĠGS":7562,"ĠíİĺëĦĲíĭ°":7563,"Ġì¹´íĥĢ":7564,"ĠìĻĢìĿ¼ëĵľ":7565,"Ġì²łìĪĺ":7566,"Ġêµ¿":7567,"ĠíĿ©":7568,"ĠìķĦë©Ķë¦¬ì¹´":7569,"ê¾¸ë":7570,"Ġê²½ë¡ľ":7571,"ĠìĹĺë¦¬íĬ¸":7572,"Ġë·°":7573,"ĠìĭłìłĦ":7574,"39":7575,"ĠëŀĮ":7576,"Ġë¶ĢìĬ¤íĦ°":7577,"Ġì£¼íı¬":7578,"Ġì¹´êµ¬":7579,"Ġê¼¼":7580,"Ġìª":7581,"IG":7582,"ĠìŀĲë¹Ħ":7583,"çĶ°":7584,"ĠìķĮëłīìĤ°":7585,"Ġìĭľë¡ľ":7586,"ëį¸":7587,"ĠëĤ¨ë¶ģ":7588,"Ġëĭ¤ìĬ¤":7589,"²Ħë":7590,"Ġë¿ľ":7591,"ĠìĿĢìĭł":7592,"Ġê¹ľ":7593,"ĠëĮĢê±°":7594,"ëį±":7595,"Ġìłķê¸°":7596,"ĠíıīìĿ¼":7597,"Ġï¼ļ":7598,"Ġë³µìłľ":7599,"Ġë¦¬ìĬ¤íģ¬":7600,"Ġëĭ¨ì¶ķ":7601,"Ġíĺ¸ì¹Ń":7602,"Ġê±´ì¡°":7603,"Ġä¸Ń":7604,"Ġê´Ģê³ĦìŀĲ":7605,"Ġëģ¼ìļ°":7606,"ìłĦì°¨":7607,"ĠìļĶìķ½":7608,"ëįĺê°Ģ":7609,"Ġëĵ±ì§Ģ":7610,"ĠëģĪ":7611,"Ġì²ľë§Į":7612,"ĠìĿ¸ì¹ĺ":7613,"ĠìĿ¸ê¶Į":7614,"ies":7615,"Ġë°ĶìĿ´ìĺ¤":7616,"Ġë²Ļ":7617,"ĠíĨµìĤ°":7618,"Ġë£¨ì¹´":7619,"Ġìĺ¤ëĬĺëĤł":7620,"ãģªãģĦ":7621,"ĠìĦľìļ¸íĬ¹ë³Ħìĭľ":7622,"ĠíĶ¼íĦ°":7623,"íĶĦë¡ľ":7624,"ë¬¼ê´Ģ":7625,"Ġêµ¬ë¯¸":7626,"Ġë°°ìłķ":7627,"Ġê°Ĳì¶Ķ":7628,"Ġê·łíĺķ":7629,"49":7630,"Ġìĥģëĭ´":7631,"ĠìĦ¸ë¸Ĳ":7632,"Ġë¶ĦìĹ´":7633,"ok":7634,"ug":7635,"ĺ¤":7636,"ĠìĿ´íİĻíĬ¸":7637,"ĠìºłíĶĦ":7638,"der":7639,"Ġì°¸ê°ĢìŀĲ":7640,"ĠëªħìĿĺ":7641,"ĠìĽ¨ìĿ´ë¸Į":7642,"ë³´ëĵľ":7643,"Ġê³łì¦Ŀ":7644,"Ġíķĺë£¨ì¹´":7645,"ĠìĿĢì§Ģ":7646,"ëį°ë¯¸":7647,"Ġì°¸ëª¨":7648,"ì½Ķëĵľ":7649,"ĠìĿ´ì£¼":7650,"ìĹĲìĿ´":7651,"ĠEN":7652,"ĠìĤ¬ìłķê±°ë¦¬":7653,"ĠëĦ¥ìĦ¼":7654,"Ġê°Ĳì§Ģ":7655,"Ġê°Ħê°Ħ":7656,"ë¯¼ëĭ¹":7657,"Ġê´ĢìłĲ":7658,"íĥľìļ°":7659,"OD":7660,"Ġê¹ĢëĮĢ":7661,"ë©ĺíĬ¸":7662,"ĠëıĻìĦ±":7663,"ê³½":7664,"Ġë§ĮëĤ¨":7665,"ĠCPU":7666,"Ġë¶Ģìĭ¤":7667,"ĠìŀĦíĮ©íĬ¸":7668,"Ġìĸ¸ëįķ":7669,"ĠâĹı":7670,"MA":7671,"LL":7672,"ĠëĦĪë":7673,"ĠìĤ¬ìĿ´ë²Ħ":7674,"Ġê°Īë":7675,"ax":7676,"ĠìĻłì§Ģ":7677,"VA":7678,"ĳ¤":7679,"Ġê·¸ëłĩì§Ģë§Į":7680,"ĠìĿį":7681,"ê²Ķ":7682,"ĠìĹ¬ìļ°":7683,"Ġìĸ´ë¢°":7684,"Ġìļ¸íĶĦ":7685,"ìĬ¤íĭ±":7686,"Ġë¬¼ëŁī":7687,"ĠìķĦëĤĺìļ´ìĦľ":7688,"ĠìłķíĨµ":7689,"Ġë³¸ì§Ħ":7690,"Ġëħ¸ë²¨":7691,"ower":7692,"ET":7693,"Ġë³ĢíĻĺ":7694,"Ġìķ¼ìĥĿ":7695,"Ġëĭ¤ìĿ´ìķĦëª¬ëĵľ":7696,"pl":7697,"ĠìĬĪë":7698,"ëį©ìĿ´":7699,"Ġë¡ľìļ°":7700,"ĠìĹ°ë§¹":7701,"ĠíĥĲìłķ":7702,"ëĽ°":7703,"Ġìľłë§Ŀ":7704,"ĠíķĻìĬµ":7705,"ĠEP":7706,"ìķ¤":7707,"ĠíĹĿ":7708,"ĠíĶ¼ìĬ¤":7709,"Ġì²´íĹĺ":7710,"íĤ¤ìķĦ":7711,"Ġë¶ĦìŁģ":7712,"Ġì§Ģì¹ĺ":7713,"ĠíĶĮëĿ¼ìĿ´":7714,"ĠìĪĺìĦĿ":7715,"ial":7716,"ĠìłĢê·¸":7717,"Ġë¸ĮëĿ¼ìĿ´":7718,"ë¶Īë":7719,"Ġì¹´ìĻĢ":7720,"ĠìĻľê³¡":7721,"ĠìĿ´íĺ¼":7722,"Ġex":7723,"ĠëıĦìłĢ":7724,"Ġê³µíĹĪ":7725,"ĠìĪĺê¸ī":7726,"ĠìĿ¸ì§Ī":7727,"Ġê°ģë³¸":7728,"Ġì§ĢíĮ¡ìĿ´":7729,"ĠìĤ¬ì¿ł":7730,"Ġë²łíĥĢ":7731,"Ġì¹´ìļ´íĬ¸":7732,"ĠìĹĦìĹ°":7733,"ìľłëŁ½":7734,"ĠíķłìĿ¸":7735,"íħĮëĤĺ":7736,"íĶĮë¦¬":7737,"Ġê°ĳìŀĳ":7738,"ìĭłêµĲ":7739,"ĠìĭłëıĦ":7740,"Ġìŀĳìłķ":7741,"ìĻĢëĮĢ":7742,"Ġë¨¸ë¬´ë¥´":7743,"Ġê²½ëĤ¨":7744,"ĠìłĦíĮĮ":7745,"Ġë¹ĮëĶ©":7746,"ìŀł":7747,"Ġìĭľìĭł":7748,"Ġì¡°ìļ°":7749,"Ġë°Ķìģĺ":7750,"ëłĪìĿ¸":7751,"ĠìĦľë²Ī":7752,"ëļĿ":7753,"Ġë®":7754,"Ġê·¸ëĮĢ":7755,"ĠíĤ¬ëŁ¬":7756,"ë£©":7757,"ì£¼ìĿ¸":7758,"ĠìĬ¹ìłĲ":7759,"ë©ĶìĿ´":7760,"Ġë¹ĦêµĲìłģ":7761,"ĠìĻ¸ê³ĦìĿ¸":7762,"Ġìĺ¤ëĿ¼":7763,"ĠíĶ¼ìļ°":7764,"Ġë¯¸ëĦ¤":7765,"Ġëħ¼ìĿĺ":7766,"Ġëª¨ëĭĪ":7767,"ĠìĹ¬íķĻìĥĿ":7768,"ì¹´ë¡Ń":7769,"Ġë§Įë§Į":7770,"Ġìŀ¬íļĮ":7771,"Ġê°Ĳìĥģ":7772,"ê²½ê¸°":7773,"ance":7774,"ĠìķħíĻĶ":7775,"ĠìĦľë²ĪíĬ¸":7776,"Ġìŀİ":7777,"Ġê³µìļ©":7778,"ĠëĶľëłĪìĿ´":7779,"İĭ":7780,"ĠìĪĺëªħ":7781,"Ġì¤ĳì²©":7782,"Ġì½Ķë¦¬ìķĦ":7783,"ĠêµĲíĻ©":7784,"ì²ľìĭľ":7785,"ach":7786,"ĠíŀĲëŁ¬":7787,"Ġì¸¡ìłķ":7788,"ĠìĨĮìĿĮ":7789,"ĠíĽĦíĩ´":7790,"ĠëĤłì¹´ë¡Ń":7791,"ĠìĪĺì¶ľ":7792,"Ġìĺ¤ëĶĶìħĺ":7793,"ĠíĬ¸ëĿ¼ìĿ´":7794,"Ġêµ¬ë¦Ħ":7795,"Ġë¯¸ì¿ł":7796,"Ġë£¨ìĿ´":7797,"ëĭĲ":7798,"Ġê°ĢìļĶ":7799,"ĠìĥĮë":7800,"å°":7801,"ĠíĮ¡":7802,"Ġìŀ¥ê±°ë¦¬":7803,"ĠìķĦìĦľ":7804,"íħĮìĿ¼":7805,"ĠìĿ¼ë³¸íĮĲ":7806,"ĠëĶĶìł¤":7807,"ĠëĮĢìĻķ":7808,"Ġ69":7809,"ë¯¼ì£¼ëĭ¹":7810,"Ġì£¼ëĳĶ":7811,"ade":7812,"į¸":7813,"ê²¹":7814,"Ġíģ¬ëłĪë":7815,"ìĹŃìĤ¬":7816,"ĠíĶĮëŀĺê·¸":7817,"Ġê·¸ë¦½":7818,"Ġëıħìŀ¬":7819,"ĠíķĻê¸ī":7820,"Ġì¦ĪìĿĮ":7821,"ĠìłķìĺĪ":7822,"ĠìĪĺë©´":7823,"ĠêµŃìłķ":7824,"ĠìĹĶíĦ°íħĮìĿ¸ë¨¼íĬ¸":7825,"Ġìĸµì§Ģë¡ľ":7826,"ëį°ëłĪ":7827,"Ġì¡°ìķ½":7828,"Ġíľĺíķĺ":7829,"ĠíĬ¹ìłĦ":7830,"Ġë£¨íģ¬":7831,"ĠìĦ¸ëĩĮ":7832,"Ġ3000":7833,"íĺ¸ë§ī":7834,"ĠìłĦë¶ģ":7835,"Ġì²ŃìĻĢëĮĢ":7836,"łĪëĤĺ":7837,"ê³łìĨįëıĦë¡ľ":7838,"Ġì£¼ê°Ħ":7839,"ì²ľë":7840,"Ġê²½ìķħ":7841,"Ġì²ĺì°¸":7842,"ĠìĿ´ëªħ":7843,"íŀĪì½Ķ":7844,"ĠìĬ¤íģ¬ë¦°":7845,"OC":7846,"ĠëĨĢë¦¬":7847,"ĠêµŃìĸ´":7848,"Ġê¸°ìŀ¬":7849,"Ġë§Īë²ķìĨĮëħĢ":7850,"Ġë³´íĺ¸ë§ī":7851,"Ġë§¤ë²Ī":7852,"ĠFl":7853,"ll":7854,"ĠëıĻìłĲ":7855,"ëĬ¬":7856,"ĠKBO":7857,"Ġê¸°ëĳ¥":7858,"Ġì¡°ëªħ":7859,"Ġì¡°ì»¤":7860,"ì¡¸":7861,"íĮ¬":7862,"Ġë¹ĦìłĦ":7863,"Ġì´Īë°ĺë¶Ģ":7864,"Ġíı¬ë¥´íĪ¬ê°Ī":7865,"Ġì§ĪíĪ¬":7866,"ĠìĻķìľĦ":7867,"Ġê´ĢëŀĮ":7868,"ĠìłĦëĿ¼ë":7869,"ĠìĹħê³Ħ":7870,"ĠëĿ¼ìĿ´ëĦĪ":7871,"ĠìķĦì¹´ëį°ë¯¸":7872,"ĠìĹ°íķ©êµ°":7873,"ĠìĬ¤íĥĢíģ¬ëŀĺíĶĦíĬ¸":7874,"Ġê¿°":7875,"ĠíĢ´":7876,"ë§Īì¸ł":7877,"Ġ1987":7878,"ĠëĴ¤ì§Ģ":7879,"ĠìķĦíĤ¤ëĿ¼":7880,"Ġê³łìŀ¥":7881,"ëĩ":7882,"ë¯¸ëĦ¤":7883,"ĠìŁģìĿ´":7884,"Ġ130":7885,"ĠìŀĦê¸Ī":7886,"Ġìĸ´íķĦ":7887,"att":7888,"ëłĪìĿ´íĦ°":7889,"ĠíŀĪìĸ´ë¡ľì¦Ī":7890,"íķĦëĵľ":7891,"Ġê³µìłķ":7892,"ëĵľëŁ½":7893,"Ġê·¼ê±°ë¦¬":7894,"æŃ":7895,"Ġëĭ¨ìĽĲ":7896,"ĠëłĻ":7897,"ëĬ¦":7898,"Ġíķ´íĶ¼":7899,"Ġê±´ëĦ¤":7900,"Ġì¡°ìĿ´":7901,"Ġìĭ±íģ¬":7902,"Ġë°°íĬ¸ë§¨":7903,"íķľêµŃëĭ¹":7904,"ê°Īë":7905,"Ġë°©ìľĦ":7906,"ĠìĦľêµ¬":7907,"ä½":7908,"íķŃê³µ":7909,"Ġì¹¨ë¬µ":7910,"Ġìļ°ìłķ":7911,"Ġ89":7912,"Ġì§ģìŀ¥":7913,"ĠìĽĲì¡°":7914,"ĠíĮĮì¸ł":7915,"Ġìĸ´ëĵľë²¤":7916,"ìŀĲëıĻ":7917,"ëĮĢìłĦ":7918,"ĠìĦľìĦľ":7919,"Ġãģ§":7920,"Ġì¤ĳìŀ¥":7921,"ĠìĨĮìļ©":7922,"Ġëĭ¨íĸī":7923,"ëĿ¼ìĿ´ëĤĺ":7924,"ĠíĪ´":7925,"ĠìķĦíĭ°ìĬ¤íĬ¸":7926,"Ġë²ĦìĦ¯":7927,"ĠëĥĲë©´":7928,"57":7929,"Ġê³±":7930,"íļĮë":7931,"Ġê°ľìĦ¤":7932,"ory":7933,"Ġsh":7934,"Ġë¯¼ê°ĦìĿ¸":7935,"ĠìĻĢíĥĢ":7936,"Ġë®¤ì§Ģì»¬":7937,"Ġìĺ¤ìĹ¼":7938,"Ġëħ¸ëıĻìŀĲ":7939,"ĠOr":7940,"ħķ":7941,"Ġìĸ´ì§¸":7942,"ĠìĦłëĳĲ":7943,"Ġê¼¬ìĿ´":7944,"ĠíıŃíĸī":7945,"Ġê°ķìĤ¬":7946,"orld":7947,"ëĦĪë¨¼íĬ¸":7948,"Ġë¶ĢëĵľëŁ½":7949,"Ġìłľì¶ľ":7950,"ĠíİĮ":7951,"ë©§":7952,"Ġë¶ĢìŀĦ":7953,"ĠëĿ¼ìĿ´ìĸ¸":7954,"ë±ħ":7955,"Ġë³¸ìĤ¬":7956,"ĠíĬ¸ë¡¤":7957,"Ġë¹¼ë":7958,"Ġì¶ķíķĺ":7959,"az":7960,"Ġíĺ¸ëŀĳìĿ´":7961,"ĠíĶĦëłĪë":7962,"Ġãģª":7963,"ĮíĬ¸":7964,"Ġëª«":7965,"ĠSH":7966,"Ġê¶ģê¸Ī":7967,"ĠìĥģìĤ¬":7968,"ĠíŀĪì¹´":7969,"Ġìķ½íĻĶ":7970,"Ġëľ¨ê²ģ":7971,"ĠíĨłëĦĪë¨¼íĬ¸":7972,"Ġëª©ìĤ¬":7973,"Ġì»¤ìĬ¤":7974,"ĠWar":7975,"ĠíĥĲíĹĺ":7976,"ĠìĦłíĸī":7977,"ĠëłĪìķĮ":7978,"ĠëŁ¬ìĭľ":7979,"ĠãģĤ":7980,"ĠìľłìĤ°":7981,"ë¨¸ìĬ¤":7982,"ĭīìĬ¤":7983,"Ġíĸīë°©":7984,"Ġì£¼ìĿ¼":7985,"Ġìľłë°ľ":7986,"Ġë°©ì¹ĺ":7987,"Â·":7988,"Ġëħ¼ë":7989,"Ġì¡°ë¡±":7990,"Ġìŀłìŀħ":7991,"íĨ¡":7992,"Ġë§īëĤ´":7993,"ĠìłĪì°¨":7994,"Ġì§Ģì¹Ń":7995,"Ġì¶Ķë¦¬":7996,"Ġìķħëª½":7997,"Ġì¼Ī":7998,"Ġì²łê±°":7999,"Ġì½ľë¡ľ":8000,"Ġìĭłìŀħ":8001,"2018":8002,"ĠìĽĲë¦¬":8003,"ìłĦëĮĢ":8004,"ĠìĪĺìĥī":8005,"Ġìĺ¤íģ¬":8006,"ĠíĮħ":8007,"ĠëıĻìĸĳ":8008,"Ġíķ´ê³¨":8009,"Ġê³µìĹħ":8010,"Ġê°Ĳìĭ¸":8011,"íŀĲ":8012,"Ġì§Ģë¦¬":8013,"Ġë¹Ħì£¼":8014,"Ġì½ĺíħĲì¸ł":8015,"Ġì£¼íĸī":8016,"ĠìĤ°íķĺ":8017,"Ġì±ĶíĶ¼ìĸ¸ìĭŃ":8018,"éĩ":8019,"Ġíķĺíĸ¥":8020,"ìĿĮëĤ":8021,"ëĿ¼ëħ¸":8022,"Ġì¤ĳìĭľ":8023,"ì£¼ë¯¼":8024,"ìĦ¼íĬ¸":8025,"¹Ī":8026,"ĠìľłìĿ¸":8027,"ish":8028,"ĠëĦ¤íĬ¸ìĽĮíģ¬":8029,"Ġ84":8030,"ãģĮ":8031,"Ġì¹ĺì¦Ī":8032,"ĠíĪ¬ì²Ļ":8033,"ĠìĿ´ê¸Ģ":8034,"Ġì¤ĳë³µ":8035,"Ġìł¤ë¦¬":8036,"Ġìĺ¤ì¹´":8037,"ĠìłĦë¬´":8038,"§ĳ":8039,"ë¥¸ë":8040,"Ġìĺ¹íĺ¸":8041,"Ġì³Ĳëĵ¤":8042,"Ġê¹Ģê¸°":8043,"ìĿĮëĤł":8044,"ĠëĮĢìĿ¸":8045,"Ġêµ¬ìŀ¥":8046,"Ġ74":8047,"ĠìĻľë":8048,"Ġë£¨ë¨¸":8049,"ĠíĮĮëĿ¼":8050,"âĨĺ":8051,"íĭĢëŁ¬":8052,"ream":8053,"Ġëª¨íĹĺê°Ģ":8054,"ê³±":8055,"Ġë²łëĦ¤":8056,"ĠìĪĺìĹ¼":8057,"ĠíĮ¨ëĦĲ":8058,"2019":8059,"ĠìĪĺíĺ¸ìŀĲ":8060,"ĠìĤ½ìŀħ":8061,"Ġë°ľëª©":8062,"°¸":8063,"Ġëĭ¤ìĿĮëĤł":8064,"ì¹´ëĿ½":8065,"Ġëį°ìĿ´íĬ¸":8066,"Ġë°ķì§Ģ":8067,"ĠSk":8068,"ĠëĤĻíķĺ":8069,"Ġìĸ´ìĭľìĬ¤íĬ¸":8070,"ĠêµŃêµ°":8071,"ĠíĬ¸ëŁ¼íĶĦ":8072,"ĠçĶ":8073,"ĠìķĶìĤ´ìŀĲ":8074,"ãĤ«":8075,"ĠLove":8076,"ĠìłĢíķĺ":8077,"Ġë¯¼ì²©":8078,"Ġê¸´ê¸ī":8079,"Ġìĸĳìĥģ":8080,"į°ëĵľ":8081,"ĠíķľëĤĺ":8082,"ë§Īíģ¬":8083,"ĠíĶĦë¦¬ë¯¸ìĹĦ":8084,"Ġãģ¨":8085,"Ġì²´ìĿ¸ì§Ģ":8086,"Ġëª¨ìĭľ":8087,"Ġê²°íĪ¬":8088,"ĠëĴ¤ëĬ¦":8089,"Ġê²½ì§ģ":8090,"ĠMar":8091,"ĮëıĦ":8092,"ĠëŀĦ":8093,"Ġê°Ģì£½":8094,"Ġìłľìłķ":8095,"ĠìĦłìłľ":8096,"ĠíĹĲ":8097,"ĠCG":8098,"Ġéĩ":8099,"Ġìĭľê³µ":8100,"ĠFor":8101,"ĠìĬ¤ìĽ¨ëį´":8102,"ĠìĤ¬ìĿ´ì½Ķ":8103,"ĠíĬ¸ë¦¬íĶĮ":8104,"å¸":8105,"Ġìķħê¸°":8106,"Ġê±°ë¶ģ":8107,"ĠìłĢëłĩ":8108,"Ġì¶ľê²©":8109,"ëľ»":8110,"ìĤ¬ëŀĳ":8111,"Ġæĺ":8112,"ëĦ¤ìŀĦ":8113,"ë²łìĬ¤":8114,"íį":8115,"Ġëª¨íķ¨":8116,"Ġê³µìĿ¸":8117,"Ġê°ľìĭłêµĲ":8118,"Ġëªħë°±":8119,"Ġ79":8120,"Ġê²©ì°¨":8121,"Ġìĭ¤ì±ħ":8122,"Ġ62":8123,"ĠìłľëĦ¤":8124,"Ġì¦Ŀìĥģ":8125,"ëĶķ":8126,"ĠëŃīì¹ĺ":8127,"Ġê³µìĪĺ":8128,"ĠìĨĶì§ģ":8129,"íĽĦì":8130,"Ġê³µë°±":8131,"ĠíĽĦìŀĲ":8132,"Ġë°±ìĿ¸":8133,"Ġê¸°ìļ´":8134,"Ġë²Ħì":8135,"Ġë¬ĺíķĺ":8136,"ì§Ģë¥´":8137,"ĠìĤ¬ìļ°":8138,"Ġì²łíķĻ":8139,"Ġìŀ¥ìĿ¸":8140,"ĠDVD":8141,"58":8142,"°ĺëıĦ":8143,"own":8144,"ĵ±":8145,"ê°Ģë¥´":8146,"Ġë°°ëĭ¬":8147,"Ġê°Ħíĺ¸":8148,"Ġë¹Ħì£¼ìĸ¼":8149,"Ġë¶ĢìĤ¬":8150,"ĠìĭłìŀĲ":8151,"ĠíĥĢìĦĿ":8152,"Ġãģĭ":8153,"Ġë¨¸ë¦¬ì¹´ëĿ½":8154,"ĹĦ":8155,"Ġìĺģê´ĳ":8156,"Ġê·¸ëŀĳ":8157,"Ġ700":8158,"Ġê¹Ģê²½":8159,"ĠêµŃê²½":8160,"Ġë¹Ħì¹ĺ":8161,"ìĹ¬ê°Ŀ":8162,"Ġì°¬ìĬ¤":8163,"ĠìĨĲìĥģ":8164,"ĠìĽĲìłĦ":8165,"¸ëĮĢ":8166,"Ġê°ĲëıĻ":8167,"Ġê·¹ëıĦ":8168,"ĠëĿł":8169,"Įë©´":8170,"Ġìŀ¥ìĤ¬":8171,"Ġê³¼ëıĦ":8172,"Ġì±Įë¦°ì§Ģ":8173,"ĠìĻľëĥĲ":8174,"ĠìĪľë":8175,"Ġì¦īìĤ¬":8176,"Ġê¸°ìĥģ":8177,"Ġíķ¨ë¶Ģë¡ľ":8178,"Ġë§ĪíĶ¼ìķĦ":8179,"ìĺ¤ë¥´":8180,"Ġë²Ķì£ĦìŀĲ":8181,"ĠìłĦëĤ¨":8182,"Ġì°¸ìĤ¬":8183,"Ġìµľìĭł":8184,"ê°Ģëĭ¤":8185,"ĠìĿ¸íĶ¼ëĭĪ":8186,"Ġì²´ê°Ĳ":8187,"ann":8188,"ĠìłľìŀĳìĤ¬":8189,"Ġ1986":8190,"Ġê°ķëĵ±":8191,"Ġë§Īê°Ĳ":8192,"ĠìĽĲë¬¸":8193,"ĠíĨłëĭĪ":8194,"Ġê¿Ģ":8195,"Ġê¸°ìķĦ":8196,"Ġì¤ĳëł¥":8197,"Ġìĺ¤ëĭĪ":8198,"Ġìĸ¸ëį°ëĵľ":8199,"ĠìķĦíĭĢ":8200,"Ġë¬´ëĿ¼":8201,"Ġëļ«ë¦¬":8202,"³¼":8203,"íĮ½":8204,"ĠSNS":8205,"ĠìĦ±ì§Ī":8206,"Ġíĸīìļ´":8207,"ĠìħĶíĭĢ":8208,"Ł³":8209,"Ġë¬¼ê³łê¸°":8210,"ê¹¨ë¹Ħ":8211,"Ġë©°ì¹ł":8212,"Ġíķ´íĤ¹":8213,"ĠìķĦë¥´íĹ¨":8214,"Ġìŀłëĵ¤":8215,"ĠìĦĢëıĦìļ°":8216,"ĠìķĪê°ľ":8217,"ĠëĭīëĦ¤ìŀĦ":8218,"ĠìŀĲìłĦê±°":8219,"ë§µ":8220,"Ġìµľìłģ":8221,"ĠìĦłê±°êµ¬":8222,"Ġíı¬ì¼ĵëª¬ìĬ¤íĦ°":8223,"ĠíĨµë¡ľ":8224,"Ġì§Ħê²©":8225,"ĠíĶ¼ëĭīìĬ¤":8226,"Ġìĥģìĺģ":8227,"íĭ°ìĸ´":8228,"Ġì¦īìľĦ":8229,"Ġ82":8230,"ĠíļĮëĭ´":8231,"Ġìľłë§Ŀì£¼":8232,"Ġìĺ¬ìĬ¤íĥĢ":8233,"ê·ľìĸ´":8234,"Ġìĸ´ë²¤":8235,"ãģ¡":8236,"Ġë³¸íĨł":8237,"Ġë°±ìŀĳ":8238,"ìķ¼ìĪĺ":8239,"Ġíı¬ìľĦ":8240,"Ġì±ĶíĶĦ":8241,"Ġì§Ħìķķ":8242,"ìĽĮì¦Ī":8243,"ĠíĬ¸ë¦Ń":8244,"Ġê¸°ìĦ¸":8245,"Ġíĺ¼ëıĪ":8246,"£¨ìĬ¤":8247,"ĠFe":8248,"ile":8249,"ĠìĤ¬ìĤ¬":8250,"íĤ¤ì§Ģ":8251,"Ġìĺģì§Ģ":8252,"ìłĢë¦¬":8253,"Ġíķ©ë¦¬":8254,"Ġë¬´ìĤ°":8255,"Ġìŀħì£¼":8256,"Īë²ł":8257,"Ġìĭ¬ìĿĺ":8258,"Ġë§Īìļ°ìĬ¤":8259,"ĠIt":8260,"Ġë¯¸ë§Į":8261,"ĠìĭĿë¯¼ì§Ģ":8262,"Ġìĺ¤íĤ¤":8263,"ĠìľĦìĦ±":8264,"íĭĢë¦¬":8265,"Ġãģį":8266,"ĠìĬ¬ëĿ¼":8267,"ĠJR":8268,"ĠíıĲê¸°":8269,"Ġëª¨ë¡ľ":8270,"ì´Īëĵ±íķĻêµĲ":8271,"iss":8272,"ĠìľłíĿ¬ìĻķ":8273,"ìĦ¬":8274,"Ġì¤ĳíĺķ":8275,"Ġê²ĢìĪł":8276,"Ġì§Ħì£¼":8277,"Ġë§Īë¸Ķ":8278,"Ġì¶Ķì¢ħìŀĲ":8279,"Ġê¸°ìĥĿ":8280,"ĠíĨµê³Ħ":8281,"ĠìĨĲìĭ¤":8282,"Ġë§īìĥģ":8283,"¯¸ìķ¼":8284,"ĠìĹ°ë´ī":8285,"ĠíĻĶìŀ¬":8286,"Ġì§Īë¦¬":8287,"ĠìĹİ":8288,"ĠëĤłì§ľ":8289,"ĠìĪĺë°±":8290,"ëĤĺë¯¸":8291,"Ġëħ¸ë¬´":8292,"ĠíķľëĳĲ":8293,"ĠìĬ¤ëĤĺìĿ´":8294,"Ġìļ°ìľł":8295,"ĠëıĻëªħ":8296,"ĠLA":8297,"ë²łë¥´":8298,"ĠíĽĪìŀ¥":8299,"Ġë¶Ļìŀ¡íŀĪ":8300,"íı¬ë¥´":8301,"Ġëħ¸ì¡°":8302,"Ġë¬´ìĿ¸":8303,"Ġìļ°ìĦ¸":8304,"ĠìĦľíģ´":8305,"Ġê±´êµŃ":8306,"ìĤ¬ê¸°":8307,"ĠíĨµíĭĢ":8308,"Ġìķ¼ê°Ħ":8309,"Ġìľłê²©":8310,"ëĿ¼ìĿ´íĬ¸":8311,"Ġë§ĮìĿ¼":8312,"Ġë°ľêµ´":8313,"Ġ63":8314,"ĠìĦľë¨¸":8315,"Ġê°ĢëĶĶìĸ¸":8316,"ĠìĤ¼ê°ģ":8317,"ĠìĭľëĤ´ë²ĦìĬ¤":8318,"Ġíı¬ìŀ¥":8319,"ĠëĮĢì¡°":8320,"ĠJT":8321,"Ġë¶ĢìĦľì§Ģ":8322,"Ġê³Ħìĭľ":8323,"ĠìĹ¬ê°Ŀ":8324,"Ġì§Ħìĥģ":8325,"ĠWWE":8326,"Ġë§Īìĺ¤":8327,"ĠìĹ¬ìĿ¸":8328,"ĠìĤ¬ë¬´ìĨĮ":8329,"íĤ¤íį¼":8330,"ĠìĹ¬ëŁ¿":8331,"ĠìĦľìĦľíŀĪ":8332,"ĠìĦ¸íĮħ":8333,"Ġì½Ķë¯¹":8334,"ĠìĹĦë°Ģ":8335,"Ġìľłì¶ľ":8336,"Ġì´Īëĵ±":8337,"Ġì¶ķë³µ":8338,"Ġëĭ¹ìĤ¬ìŀĲ":8339,"MP":8340,"ĠAD":8341,"Ġê³łë¡ľ":8342,"ĠíĥĢë§Ī":8343,"ĠíĥĿíķĺ":8344,"Ġê°ĲìĪĺ":8345,"ĠìĪľíĻĺ":8346,"ous":8347,"Ġìľłìŀ¬":8348,"ĠíĥĿìĭľ":8349,"ĠìĮĢ":8350,"ãĥŀ":8351,"ìķĦì§Ģ":8352,"ĠìļĶìĿ¸":8353,"Ġë²¨íĬ¸":8354,"Ġíį¼ë¶ĵ":8355,"Ħĺ":8356,"ĠìķĦë¥´íĹ¨íĭ°ëĤĺ":8357,"Ġ87":8358,"ĠìĹĶëĵľ":8359,"ĠìĨĮë°©":8360,"Ġì§ĲìĬ¹":8361,"Ġì§Ĳìŀĳ":8362,"ĠìĦłìŀĦ":8363,"ĠíĮ¨ë°Ģë¦¬":8364,"Ġë©ľë¡ľëĶĶ":8365,"íģĺ":8366,"Įëł¤":8367,"Ġë¹Ħìľł":8368,"Ġìľłë§Ī":8369,"ĠìĬ¤íĥłëĵľ":8370,"ĠëĵľëŁ¼":8371,"ĠìĬ¤íħĿ":8372,"íĬ¬":8373,"ì¯¤":8374,"ë¨¼ìĬ¤":8375,"ìķĦíĤ¤":8376,"ĠíĶĮ":8377,"rom":8378,"è¡":8379,"Ġê°ļ":8380,"ìĤ¬ë¥´":8381,"Ġê±°ì¹ł":8382,"Ġì¡°ê¸°":8383,"Ġ94":8384,"íĹ¬":8385,"ĠìĿĺìŀĲ":8386,"Ġëĭ¹ëĭ¹":8387,"Ġíľł":8388,"íĶĦëĿ¼":8389,"ë°©ìĨ¡":8390,"Ġë³´ì¶©":8391,"Ġìĸ»ìĸ´":8392,"ì²¨":8393,"ĠìĶĮìļ°":8394,"Ġë²Īì§¸":8395,"Ġê¹ľì§Ŀ":8396,"Ġê³¼íķĻìŀĲ":8397,"íħĲëıĦ":8398,"ĠìķĦê°ĢìĶ¨":8399,"Ġìĸ»ìĸ´ë§ŀ":8400,"ĠëĮĢíı¬":8401,"iver":8402,"ĠìķĦëıĻ":8403,"ĠìĬ¤ìºĶ":8404,"Ġìª¼":8405,"Ġìĭłë°ľ":8406,"Ġì¹ĺìĹ´":8407,"ĠëĤĺë£¨íĨł":8408,"ĠìĦľë°ĶìĿ´":8409,"Ġë¬´ê³µ":8410,"Ġì¹´ì¹´ìĺ¤":8411,"ĠìĹ¬íĮĮ":8412,"ĠëłĪì§Ģ":8413,"ĠìĿ´ì¢ħ":8414,"TE":8415,"ĠìłĦë§Ŀ":8416,"ë©Ķê°Ģ":8417,"Ġ189":8418,"Ġï½ŀ":8419,"ĠìĹ´ë§¤":8420,"Ġê´ĳìĦł":8421,"íĶĶ":8422,"Ġë¬¼ì²´":8423,"ë¸ĮëĿ¼":8424,"§¤":8425,"Ġë¬¶ìĿ´":8426,"ëŀ¨":8427,"Ġë¶Īíĸī":8428,"Ġë¶ĢëĶªíŀĪ":8429,"Ġê°Ģê³µ":8430,"ê·¸ëŀĺ":8431,"ê²ĮìĿ´":8432,"Ġê°ĢëĳĲ":8433,"ĠëĬĻ":8434,"ich":8435,"ĠìĹ¬ìĦľ":8436,"ĠìĿ¼ë¦¬":8437,"ĠíĮĮìĥĿ":8438,"ìĤ¬ìļ°":8439,"ĠíĶĦëłĪìĿ´":8440,"ë¦´ëĿ¼":8441,"ĠìĬ¤íĬ¸ë¦¬ë¨¸":8442,"ìłĢê¸°":8443,"ĠGB":8444,"ĠíĬ¸ëłĪìĿ¼ëŁ¬":8445,"ĠìĿ´ìĪĺ":8446,"ĠìĹĲë¦Ń":8447,"ĠíĻĶìĤ°":8448,"ĠíĤ¤ëĿ¼":8449,"ree":8450,"ì²łëıĦ":8451,"Ġë©ĶìĿ´ì»¤":8452,"Ġê³łìĨĮ":8453,"ĠìĪĺëıĻ":8454,"ĠìĭłìĦł":8455,"Ġë§Īì½ĶíĨł":8456,"Ġëįĺê°Ģ":8457,"Ġê´Ģì°°":8458,"Ġê³¨íĤ¤íį¼":8459,"ĠíĮĮëŀĢìĥī":8460,"Ġìļ°ìĽĶ":8461,"ìĤ¬ë¦¬":8462,"ĠDE":8463,"ĠìĤ¬ëł¹ë¶Ģ":8464,"ëĵľëłĪ":8465,"ĠAd":8466,"¶Īíĺ¸":8467,"ĠìĥģìĦ±":8468,"ĠìľłìĿĺ":8469,"Ġëł¤ëĭ¤":8470,"Ġíģ¬ëłĪëĶ§":8471,"ost":8472,"ĠìĬĪíį":8473,"Ġêµµ":8474,"ìķ¼ìĬ¤":8475,"Ġíĺ¸ëĤ¨":8476,"Ð¾":8477,"ĠSE":8478,"Ġëħ¼ìŁģ":8479,"ĪĦë¦¬":8480,"ĠíķĻìĥĿíļĮ":8481,"ION":8482,"ĠíĶĦëŀŃ":8483,"ĠëıĮìĹ°":8484,"ĠìĻ¸ìłĦ":8485,"ê·¸ëĭĪ":8486,"ĠìĬ¹ë¬´ìĽĲ":8487,"ĠíĤ¤ë³´ëĵľ":8488,"Ġê´ĳìĤ°":8489,"Ġê³łë¬´":8490,"Ġë¹ĦìĽĥ":8491,"Ġë¹Ħëªħ":8492,"ary":8493,"ĠëĸłëıĮ":8494,"ĠëĵĢìĺ¤":8495,"ĠìĹ¬ê¸°ìłĢê¸°":8496,"54":8497,"íĸ":8498,"Ġëĭ¹ëĮĢ":8499,"Ġíĺ¸ë¶Īíĺ¸":8500,"Ġíķĺíķĺ":8501,"ĠìĬ¤ì¿¨":8502,"ĠëĿ¼ëįĺ":8503,"ĠED":8504,"Ġä½":8505,"ĠìĬ¤íĮĮìĿ´ëįĶ":8506,"Ġë³´ìĿ´ìĬ¤":8507,"2017":8508,"ĠìķĦëŀį":8509,"Ġë°Ķì§Ģ":8510,"ĠíİĺìĿ´ìĬ¤ë¶ģ":8511,"¡ľìĬ¤":8512,"Ġê¶Įìŀ¥":8513,"Ġê°Ģìĺ¤":8514,"ĠìĪĺìĬµ":8515,"Ġë°ĶëĶĶ":8516,"ĠìĿ´ìĽĥ":8517,"Ġë§Īì¼Ģ":8518,"êµ¬ë¯¸":8519,"ë¹Įë¦¬":8520,"Ġëªħëĭ¨":8521,"ĠìķĦì¸ł":8522,"Ġìĺ¤ë¡ľì§Ģ":8523,"te":8524,"Ġë²łíħĮë":8525,"íĪ¼":8526,"Ġìļ°íĺ¸":8527,"ĠìľĦë¡ľ":8528,"ĠëĤĺíı´":8529,"ĠìĽĲìĪŃ":8530,"íļĮìĤ¬":8531,"ash":8532,"ĠìŀĲìĿ´ìĸ¸ì¸ł":8533,"Ġì·¨ìĹħ":8534,"ĠìĿ´ë¸Į":8535,"ãĤ£":8536,"ib":8537,"Ġê³łê°Ŀ":8538,"Ġê¸°ë¬ĺ":8539,"êµ¬ëĤĺ":8540,"íķĦëįĶ":8541,"ov":8542,"Ġì¤ĳëŁī":8543,"ëį°ìĬ¤":8544,"Ġì§ĳê¶Į":8545,"ľ¨ë¦¬":8546,"ĠìĦ¸ê¸Ī":8547,"Ġê¶Įìľł":8548,"Ġìļ°ì£¼ìĦł":8549,"ĠìĽĢì§ģìŀĦ":8550,"Ġê´ĢìĹ¬":8551,"Ġê¹ĢëĳĲ":8552,"ĠíĬ¸ìľĦì¹ĺ":8553,"¡ľë´ĩ":8554,"ĠëĿ¼íĭ´":8555,"Ġë©ĺíĬ¸":8556,"Ġë¯¸ëĵľíķĦëįĶ":8557,"52":8558,"Ġê³łë¸Ķë¦°":8559,"Ġê¸°ê°ĳ":8560,"Ġëģĵ":8561,"ì½Ķìĸ´":8562,"ĠíĥĢì¸ł":8563,"ĠBr":8564,"Ġë°Ķë¡ł":8565,"ĠìķĪìĭ¬":8566,"íĬľ":8567,"Ġìŀ¥ë¯¸":8568,"ĠìĹ½":8569,"Ġë°°ëł¤":8570,"Ġê°ģìĺ¤":8571,"ìļ°íĬ¸":8572,"Ġìľłìĸ¸":8573,"ìĿ¼ì¦Ī":8574,"Ġë²ķì¹Ļ":8575,"Ġìĸµìłľ":8576,"RE":8577,"ĠìĿĺìŀ¥":8578,"ĠìĪĺë¹ĦìĪĺ":8579,"Ġìĺ¤íĶĦ":8580,"ĠëĶĶë°Ķ":8581,"ħìĬ¤":8582,"ãĤ¸":8583,"¯Ķ":8584,"Ġìŀ¥ìĦ±":8585,"Ġê³¨ëłĺ":8586,"ìĸ´ëĵ¤ìĿ´":8587,"Ġê²½ë¶ģ":8588,"ì¸Ħ":8589,"ĠìĤ¬ê´Ģ":8590,"ĠìłĦëıĻ":8591,"Ġì´īìĪĺ":8592,"ĠëĤłëĽ°":8593,"ĠíŀĻ":8594,"ows":8595,"ĠëłĮì¦Ī":8596,"ĠìĿ¸ìļ©":8597,"Ġì½Ķë¥´":8598,"Ġíĳľë©´":8599,"Ġíķĺì¸ł":8600,"Ġì§Ģëª©":8601,"Ġìĺ¤ëĶĶ":8602,"Ġun":8603,"Ġìĺ¤ëįĶ":8604,"Ġì°½ëĭ¨":8605,"ment":8606,"Ġê³¼ìŀĲ":8607,"Ġìĺ¤ëĿ½":8608,"Ġë¶Ģê°Ģ":8609,"íĤ¤ë¦¬":8610,"ĹĲìĸ´":8611,"ĠìĬ¹ì°¨":8612,"Ġíģ´ë¡ł":8613,"Ġë©ľë":8614,"Ġê±°ë¡ł":8615,"Ġê´Ģíķł":8616,"Ġ1985":8617,"ĠíĿ°ìĥī":8618,"Ġë§Įì§Ģ":8619,"ĠìĹĺë¦¬ìŀĲ":8620,"Ġì§ĢìĹ°":8621,"ĠíĮ¨íĤ¤ì§Ģ":8622,"Ġby":8623,"Ġï¼Ł":8624,"ĠíŀĪë©Ķ":8625,"Ġë¶ĢëıĻ":8626,"Ġë£¨ë¹Ħ":8627,"ĠíļĮìĥī":8628,"Ġì°½ìĽĲ":8629,"Ġë²Ĺê¸°":8630,"Ġíķ¸ë":8631,"ĠíĽĦë°ĺê¸°":8632,"å±±":8633,"ĠìĥĿìłĦ":8634,"Ġë°°ì¶ľ":8635,"ì°¨ê¸°":8636,"ĠìĬ¹ìŀĲ":8637,"ĠìĦłìĤ¬":8638,"Ġì£¼ëĭĪìĸ´":8639,"Ġê·¼ìĽĲ":8640,"ĠìľłìĦ±":8641,"ĠìĨĮìļĶ":8642,"Ġë©´ìłģ":8643,"ĻĢ":8644,"ë³¼ë":8645,"ĠìķĮëłīìĬ¤":8646,"Ġìĸ¼íĭ°":8647,"Ðµ":8648,"Ġíį½":8649,"ĠCS":8650,"Ġê°Ħê°ĦíŀĪ":8651,"Ġì²ľìķĪ":8652,"Ġê°ĢëĿ¼":8653,"ìķĦìĸ´":8654,"Ġìĸ´ì©Įë©´":8655,"Ġë¡ľë¦¬":8656,"ĠBB":8657,"ond":8658,"Ġìľ¼ëĿ¼ê³ł":8659,"ĠìĿ´ëĭĪ":8660,"ĠíĮĮíİ¸":8661,"Ġëħ¸ë°Ķ":8662,"ì¶¤":8663,"Ġëª¨ëĵ":8664,"ps":8665,"íŀĪíĨł":8666,"ĠìĥĪëĪĦë¦¬":8667,"Ġ1960":8668,"Ġì¤ĳìłĲ":8669,"Ġ81":8670,"Ġëħ¸ê°Ģëĭ¤":8671,"ĠâĨĶ":8672,"¤Į":8673,"ì¹´ë¥´":8674,"ĠíķŃêµ¬":8675,"ĠëĲĺìĤ´":8676,"íķĺìĭľ":8677,"ĠìĹŃëŁī":8678,"ĠíĬ¼":8679,"Ġì§ĦìĹĲìĸ´":8680,"Ġíĭ´":8681,"ìķĦëĭĪ":8682,"ìĦ¸ëĮĢ":8683,"íĥĦë":8684,"Ġìłģì¤ĳ":8685,"ìĽ°":8686,"Ġëłī":8687,"ĠLP":8688,"Ġíį¼íı¬":8689,"Ġíĥľíģ´":8690,"ĠëıĻëĤ¨":8691,"ĠíĽĦíļĮ":8692,"ĠìĦłìŀ¥":8693,"Ġì´ĪìĿ¸":8694,"Ġìķ¼ë§ĪíĨł":8695,"ìķŀ":8696,"Ġë³Ģìŀ¥":8697,"Ġìĸ´ìķ¼ì§Ģ":8698,"ĠíĥľêµŃ":8699,"Ġë³´ëĿ¼ìĥī":8700,"Ġë¡ľìĸĦ":8701,"Ġì§Ģíĸ¥":8702,"Ġì¹´ì¸ł":8703,"ĠìŀĲëħĢ":8704,"ĠíĮĮëıĻ":8705,"ĠíĮĮë©¸":8706,"ĠíĻķìŀ¥íĮ©":8707,"£©":8708,"Ġê´Ģì¸¡":8709,"Ġíľ´ê°Ģ":8710,"Ġë¨¸ë¬¼":8711,"íĬ¸ë¡ł":8712,"Ġë°±ìĹħ":8713,"Ġë²Įë¦¬":8714,"Ġë°ľíĸī":8715,"ĠìķĦìķ¼ë":8716,"Ġìķ½ë¬¼":8717,"ĠíĨłíģ¬":8718,"ãĤ¤ãĥ":8719,"Ġëª¨íĨł":8720,"ë£¸":8721,"ĠìĿĳìļ©":8722,"oth":8723,"ĠëĿ¼ëĵłê°Ģ":8724,"Ġë§īê°ķ":8725,"Ġë³µíķ©":8726,"Ġë¶Ģì°©":8727,"Ġë¹Ħê·¹":8728,"ĠíĨłë¦¬":8729,"ãĤŃ":8730,"ĠëĶĶìķĦë":8731,"ĠìĬ¤ë¯¸ìĬ¤":8732,"ĠëĲĺëıĮ":8733,"íı¬ìĬ¤":8734,"Ġìķ¡íĭ°ë¸Į":8735,"ìĭ¸ìĿ´":8736,"ĠìķĪëħķ":8737,"Ġì¶ľë£¨":8738,"å¤§":8739,"ë¯¸ìķ¼":8740,"ĠëıħìłĲ":8741,"ĠëģĮìĸ´ëĵ¤ìĿ´":8742,"Ġë²¤ì¹ĺ":8743,"Ġíı¬ëĵľ":8744,"ĠíĶĮëŁ¬ìĬ¤":8745,"Ġì¢ĮìłĪ":8746,"199":8747,"ĠìĬ¤íĥľ":8748,"ĠìĦ±ëĭ¹":8749,"Ġë³´íĹĺ":8750,"ìĬ¤íĨłë¦¬":8751,"ĠìķĦìĬ¤ì¹´":8752,"ĠLI":8753,"ĠìĪľìĸĳíķ¨":8754,"ĠíĿ¡ìĤ¬":8755,"ĠìĬ¤íķĢ":8756,"ĠìłĦìĥĿ":8757,"Ġíķ©ëıĻ":8758,"ĠìĬ¬ëłĪìĿ´":8759,"ĲëŁ¬":8760,"Ġëĭ¤ì§Ģ":8761,"Ġìłľì¹ĺ":8762,"ĠâĢ»":8763,"Ġas":8764,"Ġì¼ĢìĿ´ë¸Ķ":8765,"ĠíĹ¨ë¦¬":8766,"Ġìķ¼ìĪĺ":8767,"ë°Ķëĭ¥":8768,"ĠíıŃíĮĮ":8769,"íĭĢëŀľëĵľ":8770,"Ġê¸°ëł¥":8771,"ĠìĦ±ë³Ħ":8772,"Ġë°ĺê°Ĳ":8773,"ĠìĪĺìĽĶ":8774,"ĠëĮĢëł¹":8775,"ĠìĹ¬ëŁ¬ë¶Ħ":8776,"OU":8777,"Ġìłľë¬¼":8778,"Ġ5000":8779,"Ġ160":8780,"ical":8781,"Ġëª¨ëĵĪ":8782,"ĠëĤĺë¹Ħ":8783,"Ġì½Ķë©ĺíĬ¸":8784,"Ġìĭ¤ìĥģ":8785,"Ġë¡¤ëĵľ":8786,"ëª¹":8787,"Ġë³µìĦł":8788,"ĠæĪ":8789,"88":8790,"Ġë§Įì£¼":8791,"ĠìĦłì¶ľ":8792,"Ġë£©":8793,"ĠìĬ¤ìľĻ":8794,"íĿĶ":8795,"ĠStar":8796,"ë¹µ":8797,"ĠPR":8798,"Ġìĭľë¦¬ìķĦ":8799,"ĠWind":8800,"Ġìĸ´ëĵľë²¤ì²ĺ":8801,"ìŀĲìĻĢ":8802,"Ġë¹ĦìĬ¤":8803,"Ġë°ķë¬¼ê´Ģ":8804,"ĠíĬ¸ëĿ¼ìļ°ë§Ī":8805,"ëĿ":8806,"ŀĻ":8807,"Ġëª¨ì§ĳ":8808,"ĠíħĢ":8809,"Ġëł¤ëĭ¤ê°Ģ":8810,"Ġë°ĺëıĦ":8811,"Ġë¹ĻìĿĺ":8812,"TS":8813,"ĠëıĦê¹¨ë¹Ħ":8814,"Ġì¶ľìĤ°":8815,"Ġìĩ¼íķĳ":8816,"Ġê°Ħì£¼":8817,"ĠíĽĦìŀĦ":8818,"Ġì°½ìĦ¤":8819,"ĠìĤ¬íĪ¬":8820,"íı¬ëĵľ":8821,"Ġíķĳíģ¬":8822,"400":8823,"Ġìłĸ":8824,"ĠìĿ¼ê°Ģ":8825,"ãģķ":8826,"ĠíķľêµŃíĮĲ":8827,"ë¡ľê·¸":8828,"ĠíĻĶíķ´":8829,"ĠìĥĪëĪĦë¦¬ëĭ¹":8830,"ĠëĿ¼ëĭĪ":8831,"ë§ĪìĿ´":8832,"ãģĤ":8833,"éĢ":8834,"éĽ":8835,"Ġìī´ëĵľ":8836,"ìķĦíĶĦ":8837,"ĠUP":8838,"Ġìľłê¸°":8839,"ĠìºĲì¹ĺ":8840,"Ġê»į":8841,"Ġíķ´ë³ĳëĮĢ":8842,"Ġíģ´ë¦°":8843,"Ġíı´ë¦¬":8844,"Ġíĥľíıīìĸĳ":8845,"ìĬ¤íĥĦ":8846,"ĠìĨĮíĨµ":8847,"Ġmy":8848,"##":8849,"ĠëłĽ":8850,"ìĹĲë¥´":8851,"Ġëĭ¥ì¹ĺ":8852,"ĠìĿĦìĪĺë¡Ŀ":8853,"Ġìľłíĺ¹":8854,"ĠíĬ¸ë¦¬ê±°":8855,"ĠìĹĦê²©":8856,"Ġëĭ¤ìļ´ë¡ľëĵľ":8857,"ĠìĿ´íĨł":8858,"Ġìĭľíģ¬":8859,"ĠëıĻê²½":8860,"ĠCF":8861,"Ġë°ľëłĮ":8862,"Ġë³µìĽĲ":8863,"ì¿łìĬ¤":8864,"100":8865,"ĠìĥģìĦ¸":8866,"Ġì´Īì½ľ":8867,"Ġì°¬ìĦ±":8868,"ĠìĤ¬ë¬´ìĭ¤":8869,"Ġë³´ê±´":8870,"ìĺ¤ê³µ":8871,"Ġ83":8872,"ë°ĺëĮĢ":8873,"ĠãĤĬ":8874,"Ķĺ":8875,"ĠìĿ¸ìŀ¬":8876,"ĠíĪ¬ìĤ¬":8877,"Ġëĩ":8878,"íģ¬ëĿ¼ìĿ´ëĤĺ":8879,"Ġìļ°ë¥´":8880,"ĠíĳľìłĪ":8881,"Ġìĭłìļ©":8882,"Ġê°ķë¦¼":8883,"ĤĺëĿ¼":8884,"ĠìĦ¼ìĦľ":8885,"Ġê²°íĺ¼ìĭĿ":8886,"Ġthat":8887,"Ġê³µê°Ĳ":8888,"ĠëıĻíĸī":8889,"ëħ¸ìĬ¤ì¼Ģ":8890,"Ġëį©ìĸ´ë¦¬":8891,"Ġê·¸ëŁ¬ë©´":8892,"ĠíĮĮë¥´":8893,"ĠíĨµì¹Ń":8894,"ĠìłĦëĿ½":8895,"ĠíĿĳìĹŃìĤ¬":8896,"ĠìĪĺë¡Ŀê³¡":8897,"Ġyour":8898,"Ġë¶ĦëĮĢ":8899,"Ġë°°ìłľ":8900,"íİĢ":8901,"Ġìķ¼ì¿ł":8902,"ĠíĺĢ":8903,"Ġìŀ¥íĥĢ":8904,"Ġìĥ¤ìĿ´":8905,"Ġêµ´ìļķ":8906,"41":8907,"íķĺìĿ´":8908,"Ġìĸĳë°ĺ":8909,"ĠíıīíĥĢ":8910,"Ġë¬¼íĴĪ":8911,"Ġë¡ľë²ĦíĬ¸":8912,"Ġëĭ¨ê²Ģ":8913,"Ġë²łë¦¬":8914,"Ġì¤ĳêµŃìĸ´":8915,"ĠìĭĿíĴĪ":8916,"Ġíį¼íı¬ë¨¼ìĬ¤":8917,"Ġì¤ĳìĪľ":8918,"Ġíģ¬ëłĪ":8919,"ĠìĹ°ê³ł":8920,"ì¦Īì¹´":8921,"Ġì¶ľë²Ķ":8922,"Ġê¹ĥë°ľ":8923,"Ġë§ĪíĬ¸":8924,"Ġê¸Īë©Ķ":8925,"Ġìĭ¤ìĭľê°Ħ":8926,"Ġìį¬ëįĶ":8927,"Ġë§Īëĵľë¦¬":8928,"Ġì¤ĳìĦ¸":8929,"ĠìĬ¹ì§Ħ":8930,"Ġ140":8931,"ĠíķĺìĿ´íį¼":8932,"Ġì§ģìĦł":8933,"ĠíĨłë§Ī":8934,"Ġì¹ľìłĪ":8935,"Ġì½ĺìĨĶ":8936,"Ġì§ķê³Ħ":8937,"Ġ1984":8938,"Ġìĺ¤ë¸ĮìłĿíĬ¸":8939,"ĠìłķìĦĿ":8940,"Ġë²łíħĮëŀĳ":8941,"êµĲìľ¡":8942,"ĠNE":8943,"ì§Ģë§īì§Ģ":8944,"ëıĦìĭľ":8945,"ĠìĦ±ìĭ¤":8946,"Ġì¶Ķë°©":8947,"Ġíĺķíİ¸":8948,"Ġì¡°ì¹´":8949,"íİĺìĿ´":8950,"íĺ¸ëıĦ":8951,"ĠíĹĪë¬´":8952,"Ġìŀłìĭ¤":8953,"æµ":8954,"Ġê²ĢìĿĢìĥī":8955,"Ġíį¼ì¦Ĳ":8956,"ĠìĬĪíį¼ë¡ľë´ĩ":8957,"Ġë¬´ì§Ģë§īì§Ģ":8958,"ëģ¼ë¦¬":8959,"Ġê°ľë°ľìŀĲ":8960,"Ġë¶ĢëģĦëŁ½":8961,"Ġíĺ¸ìĿĺ":8962,"ĠPr":8963,"Ġãģĵ":8964,"Ġíķĺê¸ī":8965,"ĠTVA":8966,"ĠìĿ´ìĬ¤ëĿ¼":8967,"ìłĦì²":8968,"Ġì§ĢìĤ¬":8969,"łĪìĿ´íĦ°":8970,"Ġìłľìŀ¬":8971,"åº":8972,"Ġíķľì°½":8973,"Ġì¡°ìĥģ":8974,"ĠJTBC":8975,"ĠìĽ°":8976,"ĠUN":8977,"ëĪĦë":8978,"Ġãģķ":8979,"Ġëĭ¨ì¢ħ":8980,"Ġë»¥":8981,"ĠíıŃê²©ê¸°":8982,"ĠìĹĲê·¸":8983,"íĥĢìŀħ":8984,"ĠìĹ¬ê³ł":8985,"ãĤĥ":8986,"ëģĹ":8987,"ĠìĿ¸ìĬ¤íĥĢ":8988,"Ġìļ°íģ¬ëĿ¼ìĿ´ëĤĺ":8989,"ĠìĹŃìŀĦ":8990,"Ġ73":8991,"ĠìĨĮíĶĦíĬ¸ìĽ¨ìĸ´":8992,"IM":8993,"Ġì¤ĳì§Ģ":8994,"Ġê²ĢìĹ´":8995,"êº¼ë":8996,"Ġëıĭë³´ìĿ´":8997,"Ġ92":8998,"ê·¸ëĿ¼":8999,"âĹĭ":9000,"Ġz":9001,"ĠëıĮë³´":9002,"ìĽĶëĵľ":9003,"íĢĺ":9004,"Ġë¶Ģìŀ¬":9005,"Ġê´ĳìŀ¥":9006,"ìħĢë¡ľ":9007,"ĠìĦ¤ëł¹":9008,"ëª¨ìĬ¤":9009,"Ġë§Īëĵľë¦¬ëĵľ":9010,"IP":9011,"ĠìĽĮë":9012,"Ġëªħëª©":9013,"ĠáĨ¸ìĭľìĺ¤":9014,"Ġë¡ľë¹Ī":9015,"ìĿĺìŀĲ":9016,"Ġì¦ĿíıŃ":9017,"Ġê³µíĨµìłĲ":9018,"ook":9019,"ĠëıĦìŀ¥":9020,"ĠìĭľìĿ¸":9021,"ero":9022,"42":9023,"Ġìĭľì¹´":9024,"ë»":9025,"2016":9026,"Ġì¶ľê°Ħ":9027,"ìłľêµŃ":9028,"ĠíĬ¼íĬ¼":9029,"ì¸łì¹´":9030,"ĠìĻķë³µ":9031,"ĠëıĶ":9032,"Ġë¹ĦíĭĢ":9033,"ĠìĿ¸ë¯¼":9034,"ĠëĤĺëħ¸":9035,"Ġëĵ±ê·¹":9036,"ĠìĨĲìĺ¤ê³µ":9037,"ĠíĦ°íĬ¸ë¦¬":9038,"ĠìķĦìĿ´ìĸ¸":9039,"ĠìŀīìĹ¬":9040,"ĠëĿ¼ìĬ¤":9041,"Ġì¤ĳìľĦ":9042,"ëĭĪì½Ķ":9043,"Ġãģ£":9044,"Ġë§ĪìĪłìĤ¬":9045,"ìļ°ëĿ¼":9046,"Ġê²½ì£¼":9047,"Įë¦¬ìĸ´":9048,"Ġì°¨ì²´":9049,"Ġíĺ¸ìĨĮ":9050,"Ġ125":9051,"ĠíĶĦë¡ľíķĦ":9052,"Ġ1500":9053,"row":9054,"ĠëĮĢìłĳ":9055,"ĠìŀĲê¾¸":9056,"Ġìĥ¬":9057,"ĠìºĲìĭľ":9058,"Ġê´ĳê¸°":9059,"ĳĳ":9060,"Ġìĥģë°ĺ":9061,"ĠíĶ¼ë¡ľ":9062,"Ġê³µìĤ°ëĭ¹":9063,"ĠìľłìłĦìŀĲ":9064,"Ġìŀ¥ë¡ľ":9065,"Ġìļ°ìĿµ":9066,"ĠìĨĲê¼":9067,"amp":9068,"ĠíĹ·":9069,"LE":9070,"ëĥ":9071,"Ġì§ĢìĿ¸":9072,"Ġë©ĭëĮĢë¡ľ":9073,"Ġê°ĢëĤľ":9074,"ĠìĨĲìŀĲ":9075,"Ġê¹İìĿ´":9076,"ĠMB":9077,"ë°ĶëĤĺ":9078,"ĠæĹ¥":9079,"ĠéĽ":9080,"Ġë¶Ģìŀĳìļ©":9081,"Ġê°Ģëĭ´":9082,"ĠìĸĳìŀĲ":9083,"ĠëįĶë¶Īìĸ´ë¯¼ì£¼ëĭ¹":9084,"ĠìĹ°ìĤ°":9085,"ĠíĨłíģ°":9086,"ë°ľë":9087,"Ġ71":9088,"lect":9089,"ĠëĭĮíħĲëıĦ":9090,"ìĬĲ":9091,"ĠPh":9092,"ëĵľë¦½":9093,"ë¶Īëªħ":9094,"Ġì¹´ì§Ģ":9095,"ĠìĤ¬íĩ´":9096,"ĠìĸĳìĨĲ":9097,"åĬ":9098,"ĠíĶĦëŀĢ":9099,"ì²¼":9100,"ëį°íĥĢ":9101,"Ġíİ´":9102,"ëĭĪì¹´":9103,"Ġë³ĢìĪĺ":9104,"Ġì¶ķìĨĮ":9105,"ì£¼ìĿĺìŀĲ":9106,"ron":9107,"Ġë¡ľìĿ´":9108,"ĠìĪĺë¹Ħë":9109,"ìĻ¸ë":9110,"Ġì¶ĶìĦ¸":9111,"ĠìĬ¬ë¡ľ":9112,"Ġíĩ´ê°ģ":9113,"ĠìķłíĶĮ":9114,"Ġíķ´ë¨¸":9115,"ìķī":9116,"ĠìĬ¹ìĿ¸":9117,"çļ":9118,"ĠSF":9119,"Ġìŀ¥ëĤľê°Ĳ":9120,"Ġë°ķìłķíĿ¬":9121,"Ġìĥģë¥Ļ":9122,"Ġì¡°íļĮ":9123,"Ġë¹Ħë¦¬":9124,"Ġì¹¨ëĮĢ":9125,"ĠëıĦëĿ¼":9126,"ĠìľłëĤĺìĿ´":9127,"Ġê¸īìĭĿ":9128,"Ġne":9129,"Ġì½ĶíĬ¸":9130,"Ġê³łë¦¬":9131,"Ġì¹ľë¶Ħ":9132,"ĠêµĲê³¼ìĦľ":9133,"Ġëħ¼ë¬¸":9134,"íĿī":9135,"íĳ¸ë":9136,"ĠìĨĮê¸Ī":9137,"Ġê°ľêµŃ":9138,"ë°Ķì§Ģ":9139,"ink":9140,"Ġì²«ì°¨":9141,"Ġê·ľìłľ":9142,"ĠíĺĪìķ¡":9143,"åĽ":9144,"ĠìĤ¬ìķħ":9145,"Ġë²Īì§Ģ":9146,"ĠíĹ¬ë©§":9147,"Ġì§Ļ":9148,"ĠìĺĪìķ½":9149,"íħĮë¦¬":9150,"ê°ĪëŁī":9151,"ĠìĿ´ìĬ¤ëĿ¼ìĹĺ":9152,"Ġì¹ĺìķĪ":9153,"ĠìłĲê²Ģ":9154,"ĠâĶĢ":9155,"oon":9156,"ĠOVA":9157,"Ġìĺ¤ë©Ķê°Ģ":9158,"Ġê°ľë³Ħ":9159,"Ġê·¸ë¦ĩ":9160,"ĠìķĦë¯¸":9161,"Ġìŀ¬íķĻ":9162,"Ġë¸ĮëĿ¼ìĿ´ìĸ¸":9163,"ĠìľłëĤĺìĿ´íĭ°ëĵľ":9164,"§Īë":9165,"Ġë¶Ģìľł":9166,"ĠíĥĲì§Ģ":9167,"Ġëĭ¨íĸīë³¸":9168,"Ġì§Ģë¶Ģ":9169,"Ġìļ©ìĿ¸":9170,"Ġìķ°":9171,"Ġì¤ĳëıĻ":9172,"ĠAA":9173,"Ġê¹Ģìĥģ":9174,"Ġì²´ê²°":9175,"ans":9176,"ĠìĽĲìĪŃìĿ´":9177,"Ġë¶Ĳ":9178,"Ġìłķë°ĺëĮĢ":9179,"Ġë¦¬ìĺ¤":9180,"¼ë§¨":9181,"Ġëĥīìłķ":9182,"Ġìŀ¥ìĭł":9183,"Ġë¸ĮëĿ¼ìļ´":9184,"ä¸Ģ":9185,"ãħĭ":9186,"ĠíĹĿê°Ģë¦¬":9187,"ë°Ķìķ¼":9188,"ĠFate":9189,"Ġíķľë°ĺëıĦ":9190,"Ġê°ķëł¬":9191,"Ġê·ľê²©":9192,"éĸ":9193,"ìłķë¶Ģ":9194,"ĠìĽĲëįĶ":9195,"Ġê²°ìłľ":9196,"ìĥĿíĻľ":9197,"Ġë³Ģíĥľ":9198,"ĠLV":9199,"ĠãĤ¢":9200,"Ġìľ¼ëł¤ëĬĶ":9201,"53":9202,"ĠíĥĦë":9203,"43":9204,"Ġë§ĪìĬ¤":9205,"orm":9206,"Ġëį°ëª¨":9207,"Ġì¹´ìŀĲ":9208,"Ġê¹Ģìļ©":9209,"Ġë©´íĹĪ":9210,"ĠìĸĢ":9211,"Ġêµ¬ë³Ħ":9212,"ê¶Ĳ":9213,"Ġì¤ĳìĥģ":9214,"Ġë¸Ķëŀĺ":9215,"Ġë¸ĶëŁŃ":9216,"ìķĦëĿ¼":9217,"uck":9218,"AP":9219,"ìĭľë¡ľ":9220,"Ġê¸ģ":9221,"ĠíıŃë¡ľ":9222,"Ġì²Ńì£¼":9223,"ĠáĨ«ëĵ¤":9224,"ĠìĿ¼ìļĶìĿ¼":9225,"ĠáĨ¸ëĭĪê¹Į":9226,"ĠES":9227,"ĠìŀĦê¸°":9228,"ĠìĹĲë¡ľ":9229,"ê¸´":9230,"ĠíİŃ":9231,"Ġì£Ħì±ħ":9232,"Ġì£¼ê´Ģ":9233,"ĠìĿ¼ì»":9234,"Ġíķ´ìĸĳ":9235,"Ġë¶Ħíķ´":9236,"ĠëįķíĽĦ":9237,"ĠìĻ¼ìĨĲ":9238,"ĠíĬ¸ëłĪìĿ´ëĦĪ":9239,"ĠìĤ¬ìķ¼":9240,"Ġì°½ë¬¸":9241,"Ġë¶Īíĥľìļ°":9242,"ĠìĿ¼ì»«":9243,"pt":9244,"ëĵ¤ë¦¬":9245,"ĠëĶ¸ë¦¬":9246,"ëĭ¤ìļ´":9247,"Ġìķ¼êµ¬ìŀ¥":9248,"ĠíĺľíĥĿ":9249,"ĠíĶĦë¦°ìĦ¸ìĬ¤":9250,"Ġëĭ¨ê¸°":9251,"ĠìķĦì²":9252,"Ġìĭ¸ìĿ´":9253,"ĠëĤľìĤ¬":9254,"Ġì¹¨íĪ¬":9255,"Ġì£Ħì±ħê°Ĳ":9256,"ĠìłĦê²©":9257,"ĠOn":9258,"¥¼":9259,"ĠíŀĪíĭĢëŁ¬":9260,"ĠíĻķìĤ°":9261,"Ġëª¸ë":9262,"Ġëª¨ìŀĦ":9263,"ĠìŀĲìľłíķľêµŃëĭ¹":9264,"Ġíı¬ìĬ¤íĦ°":9265,"Ġê³łê°Ģ":9266,"ĠìŀĶìĿ¸":9267,"ĠíĮ¨ëĦĲíĭ°":9268,"Ġì§Ħê¸ī":9269,"Ġì¢ħê²°":9270,"Ġë£¨íĶĦ":9271,"íĶĮëŀĺ":9272,"ĠíĶĦë¦¬ë¯¸ìĸ´":9273,"Ġìĺ¤ìĿ´":9274,"ĠìĿ´ëª¨":9275,"ĠìĤ¬ë¦¬":9276,"ĠìĦ¸ë¦¬":9277,"ìį":9278,"ĠFIFA":9279,"ë¦¬ìķĪ":9280,"ĠìĤ¬ë²ķ":9281,"ank":9282,"Ġëª¨ëĭĪíĦ°":9283,"Ġìľłìŀ¬ìĦĿ":9284,"Ġë¹ĪëıĦ":9285,"ĠìĦľë¦¬":9286,"Ġëĵľë£¨":9287,"ens":9288,"Ġë§Įë£¨":9289,"ĠìĹĲíĶ½":9290,"ĠìĪĺìĭľ":9291,"ì½¥":9292,"Ġì¡´ìĬ¤":9293,"Ġéģ":9294,"ìĦľìļ¸":9295,"Ġìĺ¤ì£½":9296,"Ġìłľê°ĪëŁī":9297,"Ġ93":9298,"Ġë°©ìĨ¡êµŃ":9299,"Ġê·¸ëłĪìĿ´íĬ¸":9300,"ĠìķĦê¹Ŀ":9301,"ĠíĨłíķĺ":9302,"Ġíķłë¦¬":9303,"Ġë¯¼ì£¼ì£¼ìĿĺ":9304,"Ġë²Ļì»¤":9305,"66":9306,"íīģ":9307,"ĠãģĬ":9308,"Ġê°ľì²Ļ":9309,"ĠKR":9310,"ĠíĮĮëŀĹ":9311,"ĠìĪĺë¹Ħëł¥":9312,"Ġë§ŀë¶Ļ":9313,"ĠëĤľë¬´":9314,"ĪĦìĬ¤":9315,"Ġìĭľë®¬":9316,"Ġìľłë£Į":9317,"ĠGO":9318,"ì¹ľêµ¬":9319,"ĠìŁĪ":9320,"ìĦ¼ìĬ¤":9321,"ĠìķĦìĭľìķĪ":9322,"Ġê¹ĢëĳĲíķľ":9323,"Ġìĸ´ìĥī":9324,"Ġìĺ¨ëıĦ":9325,"ìı":9326,"ĠëłĪìĿ¼":9327,"Ġì±Ħë³´":9328,"Ġë¦¬ëĿ¼":9329,"Ġ900":9330,"Ġë©įì²Ń":9331,"Ġë³´ì¢Į":9332,"ĵ¤ìĿ´":9333,"Ġë¯¸êµŃìĿ¸":9334,"ĠëĪĮ":9335,"Ġë§Īìľł":9336,"ĠíŀĪëĵł":9337,"Ġë§Īê³Ħ":9338,"ĠSup":9339,"ĠíĬ¸ëł":9340,"ĠìĹ¬ìĿĺ":9341,"ĠìĻ¸ìļ°":9342,"ì£¼ìĿ¸ê³µ":9343,"ĠìŀĲìłľ":9344,"Ġìķ½ìŀĲ":9345,"Ġì²ľìĹ°":9346,"íİĺë¥´":9347,"Ġì¼Ģë¹Ī":9348,"ĠAnd":9349,"ĠìĹĲìĿ´ì§Ģ":9350,"Ġê±°ëĵł":9351,"Ġì¡°íĻĶ":9352,"ëĶ±":9353,"ëĬĲë¦¬":9354,"MS":9355,"ĠëıĻë°ĺ":9356,"ĠíĮ¨ìłĦ":9357,"ãģ¿":9358,"ĠìĬ¤íĬ¸ë¦¬íĬ¸":9359,"ĠëĤŃë¹Ħ":9360,"ĠëĮĢíĸī":9361,"ëĤľë":9362,"Ġê½ī":9363,"ĠíĥĢìĿ´íĥĦ":9364,"Ġìĭľë¹Ħ":9365,"ĠìĬ¤íİł":9366,"Ġë§¤ëĭĪìķĦ":9367,"ìħĶëĦĲ":9368,"ìĿĺíļĮ":9369,"Ġê²Ģì¦Ŀ":9370,"Ġê°ķìĽĲëıĦ":9371,"!!":9372,"CG":9373,"ĸ¸":9374,"ĭĪìĬ¤":9375,"Ġë³¶":9376,"Ġê°ķê²½":9377,"Ġìļ°ì¸¡":9378,"2015":9379,"Ġêº¼ì§Ģ":9380,"ĠìĥĿì²´":9381,"Ġê°ľìŀ¥":9382,"ĠìĬ¹ë¥ł":9383,"ĠìľĦìĹĦ":9384,"âĨĵ":9385,"Ġëį°ìĿ´ë¹Ħëĵľ":9386,"ĠìĭľëĿ¼":9387,"ĠêµĲë³µ":9388,"ĠìĨĲìī½":9389,"ë©ľ":9390,"ĠìĬ¤íĬ¸ëĿ¼ìĿ´ì»¤":9391,"Ġê³łìĿĺ":9392,"ìĹĲìĦľ":9393,"ĠëłĪìĿ´ëĶĶ":9394,"Ġse":9395,"ĠíĴĪì§Ī":9396,"Ġëīĺ":9397,"ĠíķĺìĹ¬":9398,"Ġê¸°ë¶Ģ":9399,"Ġë°°ìĹŃ":9400,"ĠíĴĭ":9401,"Ġì²«ì§¸":9402,"Ġë¯¸ëĤĺë¯¸":9403,"Ġë¡ľìłľ":9404,"Ġíĺ¸ê¸°":9405,"Ġìłľëıħ":9406,"Ġê¼¬ë§Ī":9407,"ĠìĹ¬íĥĢ":9408,"ĠìĦľíı¬íĦ°":9409,"Ġìķķê¶Į":9410,"Ġíķ´ìĤ°":9411,"51":9412,"Ġì§Ģìĺ¤":9413,"ĠáĨ«ëĭ¤ê±°ëĤĺ":9414,"ĠìĤ¬ë¦½":9415,"Ġëĭ¤íĪ¬":9416,"Ġ91":9417,"Īë²Ī":9418,"ĠDC":9419,"ĠIN":9420,"ĠìĦ¸ìĽĶíĺ¸":9421,"ĠêµĲë¦¬":9422,"Ġë³Ģëªħ":9423,"Ġãģı":9424,"Ġë´īìĩĦ":9425,"ìĿ¸ë³´":9426,"íİĺëĿ¼":9427,"oh":9428,"ĠëĨĶ":9429,"íı¬íĬ¸":9430,"Ġë°Ķëĳĳ":9431,"æ³":9432,"ĠëłĪìĺ¨":9433,"Ġë²ĦìĦľ":9434,"Ġì¶©ëĤ¨":9435,"Ġ1983":9436,"ĠíĹ·ê°Īë¦¬":9437,"Ġë¶ĪìĮį":9438,"ĠåĪ":9439,"ĠìķĦë°ĶíĥĢ":9440,"Ġë¡ľë³´":9441,"Ġë¦¬ì¦Ī":9442,"Ġì½ĶìĬ¤íĬ¬":9443,"ĠìŀĬíŀĪ":9444,"łĻ":9445,"ĠíĻĢë¦¬":9446,"ĠìĻľëĥĲíķĺë©´":9447,"Ġê³łìĤ¬":9448,"Ġìĭľìĥģ":9449,"Ġìľłìŀħ":9450,"íŀĪë©Ķ":9451,"ê¸°ìĹĲ":9452,"Ġë¶Ģê·¼":9453,"ĠìķĦë¬´íĬ¼":9454,"Ġë²Ķìļ©":9455,"ìĭ±íĦ´":9456,"Ġì²łê¶Į":9457,"Ġìĺ¨ì²ľ":9458,"ĠëĤ©ëĵĿ":9459,"ìłĦìĦ¤":9460,"ë¯¸ëĤĺ":9461,"ĠâĻª":9462,"ĠìĿĺíķĻ":9463,"Ġìļ°ìĹĲ":9464,"Ġê¹Ģíķ´":9465,"ĠíĨłìļĶìĿ¼":9466,"Ġê°ĦìĦŃ":9467,"ĠìŀŃìĬ¨":9468,"Ġê¸Īë©Ķëĭ¬":9469,"Ġëĭ¤íģĲ":9470,"Ġìĭ¤íĺĦ":9471,"Ġëªħë¬¸":9472,"ãģ¤":9473,"ĠìķĦì§Ģ":9474,"ĠPK":9475,"Ġë§Īëĭ¹":9476,"ĠíĪ¬ìŁģ":9477,"ĠìĿ¸ë²¤":9478,"Ġ1982":9479,"ë²łìĿ´":9480,"ĠíĻķìĭł":9481,"ĠíŀĻíķ©":9482,"Ġì´Īì½ľë¦¿":9483,"Ġìĭ¤ì²´":9484,"Ġëħ¸ìĬ¤":9485,"ĠíĤ¤íĥĢ":9486,"æ°":9487,"Ġíķ©ìŀĳ":9488,"Ġê·¹íķľ":9489,"Ġì¸łë°Ķ":9490,"ĠìľłëĭĪíģ¬":9491,"II":9492,"Ġê¶Įë":9493,"ĠìĤ¬íĤ¤":9494,"ĠìŀĲì¡´":9495,"Ġêµ¬ì¡°ë¬¼":9496,"ĠGo":9497,"ĠíĺĪíĨµ":9498,"ĠNew":9499,"ë§Īë¥´":9500,"ëłĪëĤĺ":9501,"Ġìļ°ë¦¬ëĤĺëĿ¼":9502,"ĠíĬ¸ìľĹ":9503,"ĠíķĻëĮĢ":9504,"ĠìĦłì¡°":9505,"ĠëĶ°ëľ»":9506,"ĠíķĺëĤĺíķĺëĤĺ":9507,"Ġìŀ¡ê¸°":9508,"Ġíķĺì§Ģ":9509,"ĠëıĦíĬ¸":9510,"Ġê¸°ì°¨":9511,"Ġìĭłìŀĳ":9512,"ĠíĬ¸ë¡ľíĶ¼":9513,"ĠìķĦëłĪëĤĺ":9514,"Īë²Ħ":9515,"¼ìĭľ":9516,"Ġìļ°íļĮ":9517,"íĨłëĭĪ":9518,"ĠMF":9519,"ĠíĥĦíķµ":9520,"Ġë§¤ëĭ¬ë¦¬":9521,"Ġíı¬íĦ°":9522,"å¾":9523,"ĠëĿ¼ê·¸ëĤĺ":9524,"Ġì¶ľíĺĪ":9525,"ĠåŃ":9526,"ĠíĽĦìľł":9527,"Ġíĺĳì¡°":9528,"Ġì£¼ìµľ":9529,"Ħìĥī":9530,"ĠìĿ´ìĪľ":9531,"Ġê°ķë¯¼":9532,"ĠíĶĦë¡ł":9533,"Ġëĭµëĭµ":9534,"Ġìĩ¼íģ¬":9535,"ung":9536,"Ġëªħë¶Ħ":9537,"ĠìĦľë¥ĺ":9538,"Ġ188":9539,"Ġê·ĢêµŃ":9540,"ĠëĬ¥ëł¥ìŀĲ":9541,"Ġê²Ģìłķ":9542,"Ġì¼ĢìĿ´íģ¬":9543,"çĽ":9544,"íĪ´":9545,"«ĺ":9546,"ĠìĻĢì¹´":9547,"Ġê·¸ëĿ¼ë":9548,"Ġsp":9549,"ĠíĿ¡íĺĪê·Ģ":9550,"ier":9551,"ĦĽ":9552,"Ġë¦¬ìĤ¬":9553,"íĨłë¯¸":9554,"ĠíĹ¥":9555,"ë±ĥ":9556,"Ġíķĺë°ĺ":9557,"Ġê´Ģìļ°":9558,"Ġ!?":9559,"ĠON":9560,"ĠíĻĢëĵľ":9561,"ĠìĤ¬ë¡ľ":9562,"ĠìĪĺì§ģ":9563,"ĠìŀĲê°Ģ":9564,"Ġì¹¸ë":9565,"ë²Ħëĵľ":9566,"Ġíı¬ì¦Ī":9567,"Ġ105":9568,"ĠSU":9569,"ĠìĹīë§Ŀ":9570,"Ġë¹Ħê³ł":9571,"Ġìŀħë¬¸":9572,"ĭ¥":9573,"ĠãĤĤ":9574,"ĠíŀĪì¹´ë£¨":9575,"ìħĢë¡ľëĤĺ":9576,"Ġë¯¸ëıĦ":9577,"Ġì«Ĵ":9578,"ìłĦìĨĮ":9579,"ike":9580,"íħĮìĿ´ìħĺ":9581,"Ġêº¼ë¦¬":9582,"íĭ¸ë":9583,"ĠíĢµ":9584,"ë¸Ķë¦¬":9585,"ĠìĥĮ":9586,"Ġëĵľë¡ł":9587,"ĠíĻĺìĥĿ":9588,"ĠìłĪì¹ľ":9589,"ĠíĶĦëĿ¼ìŀĦ":9590,"ĠìŀĲì¹Ń":9591,"ĠBPM":9592,"ĠWi":9593,"Ġì¡°ì¢ħìĤ¬":9594,"Ġë°©ìĤ¬ëĬ¥":9595,"Ġì¤ĳê±°ë¦¬":9596,"ĠIM":9597,"Ġâĸł":9598,"ĠëĭĽ":9599,"ë²łìĿ´íĦ°":9600,"ë¹Ħì¹ĺ":9601,"Ġê³łì§ĳ":9602,"ĠíĴįê¸°":9603,"Ġì§Ħêµ¬":9604,"ĠíĴįë¶Ģ":9605,"Ġì§Ģëł¥":9606,"ĠìĿ¼ëłī":9607,"Ġê³µê²©ìĪĺ":9608,"Ġìĸµìļ¸":9609,"ĠìĬ¤ë§¤":9610,"ë¡¬":9611,"Ġë©ĶìĿ¼":9612,"Ġì§ķìĹŃ":9613,"Ġìŀ¥ìķłë¬¼":9614,"ife":9615,"ĠAll":9616,"ĠëĤłìĶ¨":9617,"ìĭľê°Ħ":9618,"ĠCol":9619,"Ġê´ĳê²½":9620,"ëĿ¼ëĭ¹":9621,"ĠëıĻíķ´":9622,"ĠíĥĢìĿ¼":9623,"Ġë¶ĢíĮ¨":9624,"ence":9625,"ĠìŀĦìĿĺ":9626,"ëłĻ":9627,"ĠëłĪìĿ¸ì§Ģ":9628,"Ġâħ¡":9629,"ĠìĿ´ìĸ´ìĦľ":9630,"Ġ???":9631,"Ĺħ":9632,"ĠìĪĺìľĦ":9633,"ĠìĨĲê¼½íŀĪ":9634,"Ġë§ĪìĤ°":9635,"ìĸĢ":9636,"Ġë°±íĻĶìłĲ":9637,"ĠVer":9638,"ase":9639,"ĠìĽĲíķľ":9640,"ìļĶë¯¸":9641,"Ġíķ¨ëĿ½":9642,"ìĭľê³ł":9643,"ĠíķĻë²Ī":9644,"Ġìº£":9645,"ëĨĢ":9646,"Ġìĺ¤ë¥¸ìĨĲ":9647,"ĠíķĻë¬¸":9648,"ë¹Įë¦¬íĭ°":9649,"Ġíģ°":9650,"Ġìŀ¥ë¡Ģ":9651,"íĬ¸ëłĪ":9652,"Ġ1981":9653,"Ġë°Ķë¥´ìħĢë¡ľëĤĺ":9654,"ìĤ¬ìļ°ë£¨ìĬ¤":9655,"NA":9656,"Ġìľłë¯¸":9657,"ĠìĭłìĨį":9658,"ë§Īê·Ģ":9659,"Ġìĭ¤ìĿĢ":9660,"ĠSw":9661,"ÑĢ":9662,"ì½ĶíĶĦ":9663,"ĠìĿĮë£Į":9664,"Ġìľłìļ°íĤ¤":9665,"Ġëħ¸ë¬´íĺĦ":9666,"å¼":9667,"Ġêµ¬ëıħ":9668,"Ġìĺ¬ëĵľ":9669,"Ġì½ĶìĬ¤íĶĦëłĪ":9670,"ĠKOF":9671,"ĠêµĲëıĦìĨĮ":9672,"ĠíĬ¸ë£¨":9673,"Ġê¸°ìĪĺ":9674,"Ġê·¼ëĮĢ":9675,"Ġìĺģìĸĳ":9676,"ĠëıĻìłķ":9677,"ĠCH":9678,"Ġíĺ¸ìĭľ":9679,"ĠIT":9680,"íķĺë§Ī":9681,"Ġëª¨ìĿĺ":9682,"Ġë¦¬ë²ĦíĴĢ":9683,"Ġê°Ģíķ´":9684,"Ġíı¬íļį":9685,"Ġê²½ì°°ìĦľ":9686,"ĠìľĪëıĦìļ°":9687,"Ġìĭľê°Ģ":9688,"ple":9689,"ĠìĬ¤ëĤĺìĿ´íį¼":9690,"¸µ":9691,"ê³Ħë":9692,"ĠëĨįìŀ¥":9693,"ł´":9694,"ĠìĿ¸ì¡°":9695,"Ġëª¸íĨµ":9696,"ĮëĿ¼":9697,"Ġíģ¬ëĿ¼ìĿ´":9698,"Ġì¹ľì²Ļ":9699,"ĠíĻ©íĽĦ":9700,"ĠëĮĢíĥĢ":9701,"Ġë¯¸ëŁ¬":9702,"Ġêµ¬ìĦ±ìĽĲ":9703,"ĠíıīìłĲ":9704,"ì¶Ķê°Ģ":9705,"Ġë°°êµ¬":9706,"Ġê°ĲìŀĲ":9707,"Ġê¶ĮìľĦ":9708,"ĠëĦ¤íĭ°":9709,"Ġëĸ¨ì¹ĺ":9710,"ĠíİĺìĬ¤íĭ°":9711,"Ġì§ĪìĦľ":9712,"ãģĳ":9713,"ĠëĶĶì¦Ī":9714,"ĠëĵľëłĪ":9715,"Ġì§ĢìĪĺ":9716,"ĠìĤ¬ìĿ´íģ´":9717,"ìĭľì¦Į":9718,"Ġë¯¸ê¶ģ":9719,"Ġë°ľëłĪ":9720,"ê³µìĽĲ":9721,"Ġì§Īì£¼":9722,"ĠíĶ¼ëĭĪ":9723,"ëĮ":9724,"ëłīìħĺ":9725,"ĠëĮĢìī¬":9726,"ĠìľłíĬľë²Ħ":9727,"ĠìĤ¬ì´Į":9728,"Ġìłķë¬¸":9729,"ĠíĺĦê¸Ī":9730,"ĠíĨłëĮĢ":9731,"Ġãģ¾":9732,"Ð½":9733,"ĠìĤ¬ì²ľ":9734,"Ġë°©íķĻ":9735,"Ġë©ĶìĿ´ì§Ģ":9736,"Ġê³łëĬĶ":9737,"ĠíĬ¹ê³µ":9738,"ster":9739,"Ġëª¨ëį¸ë§ģ":9740,"ĠìķĦìĺ¤ìĿ´":9741,"Ġìĸ´ì§¸ìĦľ":9742,"¢¨":9743,"ĠìĿ¼ê´Ģ":9744,"Ġì¡°ë¥´":9745,"ĠëĤ´ë°Ģ":9746,"Ġê°ķê°Ħ":9747,"ĠíĬ¹ê¸ī":9748,"Ġë´īìĤ¬":9749,"Ġëºıê¸°":9750,"ë¥¸ë°Ķ":9751,"ìĨĮì´Ŀ":9752,"íħĮìĿ´":9753,"ĠíĶĦë¡ľíĨł":9754,"Ġë©ĺë¶ķ":9755,"ĠìµľìłĢ":9756,"ë°Ķë£¨":9757,"ë²ĦìĬ¤íĦ°":9758,"ĠOP":9759,"¼ë¥´":9760,"ìĤ¬ìĬ¤":9761,"Ġìĺ¤ì§Ģ":9762,"Ġìĭ¤ìĤ¬":9763,"Ġëĥ¥":9764,"çİĭ":9765,"Ġë§Īê¸°":9766,"Ġå°ı":9767,"AY":9768,"Ġê±´ì§Ģ":9769,"ëĦ¤ìĭľìķĦ":9770,"ĠìĤ¬ë¡ľìŀ¡":9771,"ë½":9772,"ĠìķĦë²ł":9773,"Ġì²´ì¤ĳ":9774,"Ġìĺ¬ë°Ķë¥´":9775,"ĠìĦ¸ëĿ¼":9776,"Ġë¶ĦìĤ°":9777,"ĠìĬĪíį¼ë¡ľë´ĩëĮĢìłĦ":9778,"Ġë°°ìĪĺ":9779,"ì§ģìŀĲ":9780,"ĠëĮĢë³Ģ":9781,"ë³¸ë":9782,"ĠìľĦìķĪ":9783,"ĠML":9784,"Ġëĭ¦":9785,"Ġë§ĪìĹĲ":9786,"ĠDF":9787,"Ġì½¤ë¹Ħ":9788,"Ð¸":9789,"ĠìłĦíĸ¥":9790,"Ġì°¨ê°ĳ":9791,"ĠìķĪìĸĳ":9792,"íħĮìĬ¤":9793,"Ġë¶ĢëŁ¬ì§Ģ":9794,"ĠìľłíĥĦ":9795,"Ġë§ĮëĬ¥":9796,"Ġê²½ìĹ°":9797,"Ġìŀħì¦Ŀ":9798,"Ġal":9799,"Ġë¬´íķľë":9800,"Ġìĸĩ":9801,"Ġëª°ìĤ´":9802,"ox":9803,"ĠìĿ´ëĮĢ":9804,"¦¿":9805,"Ġìĸ´ìĦ¤":9806,"Ġìĭłíĺķ":9807,"ĠíħĮëĿ¼":9808,"ĠìĿ´ë¥¸ë°Ķ":9809,"Ġì§Ģë¡ľ":9810,"Ġë¦¬ë°Ķ":9811,"Ġíģ¬ëłĪìĿ´":9812,"Ġë§¤ì¶ľ":9813,"ĠìĽĮíģ¬ëŀĺíĶĦíĬ¸":9814,"Ġë¶ĪëĬ¥":9815,"Ġë¦¬íĭĢ":9816,"ĠìĿ¸ì¹Ń":9817,"Ġìŀ¬ê°ľ":9818,"Ġíıīìĸĳ":9819,"Ġìĸ´ëĸ»ê²Į":9820,"ë²ĮëłĪ":9821,"ĠìĦłëıĻ":9822,"ĠPP":9823,"ĠEd":9824,"Ġë»ĺ":9825,"Ġìļ´ëıĻìŀ¥":9826,"Ġì¤ĳê³ł":9827,"ĠìļĶíķľ":9828,"ĠíĶ¼ì§Ģì»¬":9829,"ĠìĹĶíĬ¸ë¦¬":9830,"Ġwe":9831,"ĠáĨ«ëĭ¤ëįĺê°Ģ":9832,"Ġë¶ĢìĬ¤":9833,"Ġì£¼ë¨¸ëĭĪ":9834,"Ġëħ¸ëŀĢìĥī":9835,"Ġâĸ·":9836,"Ġê¸°ìĽĲìłĦ":9837,"ĠìłľìĻķ":9838,"íĥĢë§Ī":9839,"Ġê´Ģìŀ¥":9840,"Ġê±¸ê·¸ë£¹":9841,"Ġë³¸ëĬ¥":9842,"ĠìĥģíķĺìĿ´":9843,"77":9844,"Ġìĥģê¸Ī":9845,"ĠëĦĺë²Ħ":9846,"Ġìĭłíķĺ":9847,"ĠíħįìĬ¤":9848,"STER":9849,"Ġê¹ĢìĦ±ê·¼":9850,"ĠëĮĢë©´":9851,"Ġì£¼ìĦĿ":9852,"Ġì§ĳíļĮ":9853,"íĬł":9854,"íĬ¸ë¦Ń":9855,"Ġì²ľìŀ¥":9856,"æī":9857,"Ġìĺģê°Ĳ":9858,"ĠìĿ´ìĸ´ë°Ľ":9859,"ING":9860,"Ġê°Īìĥī":9861,"ĠãģĪ":9862,"ĠìĦ±ê²½":9863,"Ġìĭłì¤ĳ":9864,"Ġë¬¸ìĸĳ":9865,"Ġê·¸ë¦¬íķĢ":9866,"ëł·":9867,"Ġëª¨ìĪľ":9868,"Ġêµ°ìĪĺ":9869,"ĠëĦĪë¨¸":9870,"ĠìĦľìļ¸ìĭľ":9871,"Ġê¸Īê°ķ":9872,"ìķĦë¨¸":9873,"ĠìĿ´ëĿ¼íģ¬":9874,"ĠìĹ¬ìĦ¯":9875,"ĠìłĦëĤł":9876,"ĠëĦ¤íĭ°ì¦Į":9877,"Ġì¸¤":9878,"Hz":9879,"Ġê°ĲíĥĦ":9880,"Ġíıīìĥģ":9881,"ĠëıħìĿ¼êµ°":9882,"ĠëıĦëįķ":9883,"Ġë°©ìĭ¬":9884,"Ġëĥīìŀ¥":9885,"ì¿łë¦¬":9886,"Ġê³łëĵ±íķĻìĥĿ":9887,"ĠìĬĪíį¼ë§¨":9888,"Ġìĸ´ê¸°":9889,"ĠíĥĲìĤ¬":9890,"ĠTeam":9891,"ìł¼":9892,"ĠãĢī":9893,"Ł°íĬ¸":9894,"Ġì·¨ëĵĿ":9895,"Ġì¾":9896,"Ġë°ĺìĦ±":9897,"ĠìķĶíĺ¸":9898,"ĠíİĺìĬ¤íĭ°ë²Į":9899,"ĠìĽĲìĭľ":9900,"ĠãĢĪ":9901,"ìĽĮíĶĦ":9902,"Ġì§Īë³ĳ":9903,"ĠAKB":9904,"Ġìĸ´ë¹Įë¦¬íĭ°":9905,"ĠëıĦìĭ¬":9906,"ĠìĹ´ìłķ":9907,"Ġë¸ĶëĿ¼ë":9908,"ëħĦëıĦ":9909,"Ġì´Īì¤ĳ":9910,"ĠëĪĦì":9911,"ĠíĪ¬ê¸°":9912,"ĠìļķìĦ¤":9913,"ĠìĬ¤íĶ¼ìĸ´":9914,"Ġìĸ´ìĬ¤":9915,"íķĻê³¼":9916,"Ġìŀ¬ìķĻ":9917,"Ġê¹Ģì¹ĺ":9918,"ĠìĤ´ìĿ¸ë":9919,"Ġíİĺìĸ´":9920,"ĠìķĪìª½":9921,"Ġíĺ¸íģ¬":9922,"ĠíıŃìĬ¤":9923,"ë³¸ìĿ¸":9924,"Ġìļ±":9925,"ĠìĸĳìĭĿ":9926,"Ġë¶Īë©¸":9927,"Ġìľ¡ìĥģ":9928,"ĠìĿ´íĭĢ":9929,"ĠëģĶìĤ´":9930,"ĠíķľìĿ¼":9931,"Ġìĭłì§Ģ":9932,"ìŁģìĿ´":9933,"ìļĶìĿ´":9934,"Ġê·¸ëłĪ":9935,"Ġë³´ê³łìĦľ":9936,"Ġë¹¨ê°Ħìĥī":9937,"ç«":9938,"ĠìĿ´ìĻĢ":9939,"ĠìĬ¤ëħ¸ìļ°":9940,"Ġì¹´ëĦ¤":9941,"Ġíıīë¡ł":9942,"Ġìłľì£¼ë":9943,"ĠëĤ´ìĿ¼":9944,"Ġë°ĺì§Ŀ":9945,"Ġëħ¸ëŀĹ":9946,"Ġì¹´ë¦¬ìĬ¤":9947,"ĠìĤ¼íĤ¤":9948,"Ġë¸ĮëłĪìĿ´ì»¤":9949,"ĠìĨĮëĵĿ":9950,"ëĭ¹ì´Ī":9951,"ĠìłĦëĭ´":9952,"ãĥ¥":9953,"oun":9954,"ì²łìĪĺ":9955,"Ġëħ¹íĻĶ":9956,"ĠëĿ¼ìĬ¤íĬ¸":9957,"ë°°ìļ°":9958,"Ģħ":9959,"Ġëĵľë¡ľìļ°":9960,"Ġì²¼ìĭľ":9961,"ĠìķĦëĿ¼ë":9962,"ĠFM":9963,"Ġëį®ì¹ĺ":9964,"Ġíķĺë§Ī":9965,"ëĤĻ":9966,"Ġíŀĺìŀħ":9967,"Ġê¹¨ëģĹ":9968,"ĠáĨ¯ëĿ¼":9969,"ĠGP":9970,"Ġì²ľì²ľ":9971,"ĠíĥĲìĥī":9972,"Ġìĭľìĺ¨":9973,"ĠíĥĢë¥´":9974,"ë°ĶìĿ´íĬ¸":9975,"ĠíĦ°ë³´":9976,"Ġì¼ĢìĿ¸":9977,"Ġìļ´ìĨ¡":9978,"ê»ĺëģ¼":9979,"ëıĮìĿ´":9980,"ì²´ìĬ¤íĦ°":9981,"ĠíĶ¼íĬ¸":9982,"Ġìĸ½íŀĪ":9983,"Ġ1950":9984,"Ķë¦¬":9985,"ì¹´ë¯¸":9986,"ĠíĿĻ":9987,"ĠìĬ¤ì½ĶíĭĢëŀľëĵľ":9988,"Ġíķ´ëĤ´":9989,"Ġíģ¬ëŀĺ":9990,"Ġê²ĢíĨł":9991,"Ġ360":9992,"Ġì²ľì²ľíŀĪ":9993,"Ġìļ°ìļ¸":9994,"Ġê¸°ëıĻìłĦìĤ¬":9995,"Ġíĺģìĭł":9996,"Ġìĸ´ê·¸":9997,"Ġê°Ģëł¹":9998,"Ġë§ĪìĿ¸ëĵľ":9999,"íĮŁ":10000,"Ġë¹ĦìĬ¤íĬ¸":10001,"Ġ106":10002,"ĠëĤĻìĦł":10003,"Ġê¸°ì§Ī":10004,"Ġë§ĲëłĪìĿ´":10005,"Ġì¶©ì¡±":10006,"Ġë¡¬":10007,"ĠìĹ°êµ¬ìĽĲ":10008,"Ġë°ľëªħ":10009,"ëİĢ":10010,"Ġë§Īëķħ":10011,"ì¼ĢìĿ´ìħĺ":10012,"ĠíħĮìĿ´ë¸Ķ":10013,"Ġë²ĦìĦľì»¤":10014,"ì¹´ìĿ´ëıĦ":10015,"Īë²¨":10016,"ise":10017,"ĠìĹ°ìĪĺ":10018,"ĠìĹŃìĬµ":10019,"ĠìĽĮìĭ±íĦ´":10020,"ke":10021,"ë¦¼ë":10022,"ĠìĹ°ìĦ¤":10023,"Ġíķ´ìĨĮ":10024,"ĠíĮĮìļ¸":10025,"ĠìķĦìĪĺ":10026,"ĠìĬ¤íĥľíĶĦ":10027,"ĠíķĺìĬ¤":10028,"Ġê°ĢìĦ±":10029,"Ġê°ľêµ¬ë¦¬":10030,"ĠíĶĦëłĮ":10031,"ĠPart":10032,"ĠìŀĲìĿ´ìĸ¸íĬ¸":10033,"78":10034,"Ġê³łì¶Ķ":10035,"Ġë¶ĢìĽĲ":10036,"ìĤ°ìĹŃ":10037,"ĠìĻķë¹Ħ":10038,"Ġë°ĢëıĦ":10039,"Ġâĳł":10040,"ìŃ":10041,"Ġìķµì»¤":10042,"ıĻìŀĲ":10043,"ĠíĨłíĤ¤":10044,"Ġë²ķë¬´":10045,"ĠíĥĪì·¨":10046,"ĠMan":10047,"Ġíĺĳìłķ":10048,"Ġë²¨ê¸°ìĹĲ":10049,"sp":10050,"łĽ":10051,"Ġêµ¬ìĥģ":10052,"Ġìĭ¤ì¡´":10053,"ãĥ£":10054,"ĠìĹĺë¦¬ë²łìĿ´íĦ°":10055,"ìŁ":10056,"íģ¬ëĿ¼":10057,"ìĬ¬ë¦¬":10058,"ĠìĤ¬ë¬´ëĿ¼ìĿ´":10059,"ì¡°ìĦł":10060,"Ġä¹":10061,"76":10062,"ĠáĨ¯ê²Į":10063,"Ġìŀ¥íĮĲ":10064,"ĠëĤ¨ëıĻìĥĿ":10065,"Ġíİĺë¯¸ëĭĪ":10066,"Ġê°Ģì±ł":10067,"ĠìŀĲìľ¨":10068,"ëĭĮ":10069,"Ġì¡´ì¤ĳ":10070,"Ġê³ĦìĪĺ":10071,"ĠíĹ¤ë¥´":10072,"Ġëª¨ì¢ħ":10073,"Ġë£¨ìĿ´ìĬ¤":10074,"ìĹ¬ìŀĲ":10075,"ĠWorld":10076,"ĠëĵľëłĪìĬ¤":10077,"Ġì¿Ħì":10078,"ĠíĴįìĦł":10079,"Ġ1979":10080,"ĠìĿ´ë¹¨":10081,"ĠëıĦìĥī":10082,"Ġë¹Īë":10083,"ĠìĬ¤íĮĮë¥´":10084,"Ġë°©ìĸ¸":10085,"ĠìłĦëĭ¹":10086,"Ġì¹¨ì°©":10087,"ĠíĥĢêµ¬":10088,"ĠìĽĲíĶ¼ìĬ¤":10089,"ĠOne":10090,"ĠìĻ¸ê³½":10091,"ĠëĨĶëĳĲ":10092,"ĠìĿ¸ìĦ±":10093,"íĨłë¦¬ìķĦ":10094,"ìłĢëŁ°":10095,"Ġê¹ĢìĬ¹":10096,"ĠíĺĦìŀĲ":10097,"ê¸°ë³¸":10098,"Ġë¬´ëĬ¬":10099,"ĠìĪĺìĪĺê»ĺëģ¼":10100,"Ġìĭľë°Ķ":10101,"êµŃìłľ":10102,"ĠMag":10103,"ĠTR":10104,"orn":10105,"ĠíķľëĤĺëĿ¼ëĭ¹":10106,"Ġìķĵ":10107,"aster":10108,"ĠíĨ¡":10109,"ê´Ģê³Ħ":10110,"ĠBS":10111,"ĠìĿĢíıĲ":10112,"ĠìĿ´ìĹĲ":10113,"ĠìµľìĦł":10114,"Ġìĸ¼íĭ°ë°ĭ":10115,"ĠëıĦë°°":10116,"Ġê¹Ģì§Ħ":10117,"ĠDP":10118,"ĠìĻĦìĦ±ëıĦ":10119,"ĠìĬ¤íĶ¼ë¦¿":10120,"Ġë¹Ħë¹Ħ":10121,"ult":10122,"íĭĪ":10123,"Ġì£¼ì¶ķ":10124,"ĠëĶĺ":10125,"Ġìĥµ":10126,"ë¬´ì§Ģ":10127,"Ġê·¹ëĮĢ":10128,"ĠíĻ©ëĭ¹":10129,"Ġë¯¼íıĲ":10130,"Ġíĸ¥íĽĦ":10131,"ĠëĮĢìĦ¸":10132,"ĠíĮģ":10133,"Ġ108":10134,"ĠìĦ¸ë¶Ģ":10135,"ĠìŀĲìĤ¬":10136,"íĥĢìŀĦ":10137,"ĠëªħìĤ¬":10138,"ĠíĨłìĭľ":10139,"ê°ĢìĿ´":10140,"ì«":10141,"Ġë¬´ëıĦ":10142,"Ġìļ©ìĿ´":10143,"Ġëª©ê±¸ìĿ´":10144,"Ġìķķëł¥":10145,"Ġì´Īì²Ń":10146,"Ġë³ĢìĿ´":10147,"ĠìŀĦíķĺ":10148,"ool":10149,"²³":10150,"ĠëĮĢìľĦ":10151,"ì¹¼ë":10152,"Ġëķ¡":10153,"ĠêµŃìŀ¥":10154,"Ġê´ĳë¬¼":10155,"ĠUE":10156,"Ġëħ¸ë¶ĢëĤĺê°Ģ":10157,"96":10158,"ĠìĦ±ë¶Ħ":10159,"Ġêµ¬ëıĻ":10160,"Ġê°ķìľł":10161,"ĠëĶĶìĭľ":10162,"Ġíģ´ëĿ¼ìĿ´":10163,"ë²łë¦¬":10164,"Ġê¹ĢìĪĺ":10165,"Ġìļ°ìĬ¹ìŀĲ":10166,"ª°":10167,"Ġëį°ë¯¸":10168,"ĠíķĻëħĦëıĦ":10169,"ãĤ³":10170,"ëłĲëĿ¼":10171,"êµ¬ëĭĪ":10172,"Ġê¸°íĽĦ":10173,"Ġë¶ĦíĻį":10174,"ĠíķŃíķ´":10175,"ìĻĢëĿ¼":10176,"æľ¬":10177,"ëł¥ìŀĲ":10178,"ĠRA":10179,"ĭĪë":10180,"Ġíıīíĸī":10181,"Ġëĭ¤ìĬ¤ë¦¬":10182,"Ġë§Īì§Ģ":10183,"Ġíı¬íĥĪ":10184,"Ñģ":10185,"ĠìĹ°ìłĦ":10186,"ĠëĮĦ":10187,"Ġê°ķìķĦì§Ģ":10188,"Ġë§ĿíĨł":10189,"Ġìķłì¹Ń":10190,"ë©ĺíĦ°ë¦¬":10191,"ĠìĬ¤íĭ°ë¸Ĳ":10192,"ĠìķĦìĿ´ëĶĶìĸ´":10193,"ai":10194,"ĠìĿ´ëŁ°ìłĢëŁ°":10195,"ĠìŀĶíĺ¹":10196,"ĠëĮĢëĮĢìłģ":10197,"ĠìĬ¤ìľĦìĬ¤":10198,"ĠìĿ´íĥľ":10199,"Ġì£¼ì²´":10200,"íĮį":10201,"¬´ëĿ¼":10202,"ĠìłĳìłĦ":10203,"ëĤĺë¦¬":10204,"ĠìĦ±ìĤ¬":10205,"ĠAN":10206,"Ġëª¨ìļķ":10207,"ĠíĶ¼ì¹´":10208,"Ġëĭ¤ì¹´":10209,"ĠìłľìĿĺ":10210,"ĠìĽĲíĺķ":10211,"ition":10212,"ĠìĦľíı¬íĬ¸":10213,"ĠMG":10214,"ìĶĢ":10215,"Ġì°©ë¥Ļ":10216,"Ġë°ĶëĤĺ":10217,"Ġíĳľìłģ":10218,"ìķĦë¥´":10219,"âĺĨ":10220,"ĠìĿ´ëĮĢë¡ľ":10221,"Ġë³ĢìĨį":10222,"ĠNH":10223,"ĠíħĮì¸ł":10224,"ê¿Ī":10225,"ĠíķĺìĿ¸":10226,"ĠìĻĦê³µ":10227,"ĠíĻĶê¸°":10228,"ĠìĬ¤ì¼ĢìĿ¼":10229,"ĠëĮĢëıĻ":10230,"ĠìĹĶì§Ģ":10231,"Ġìĺ¤ìĬ¤ë§Į":10232,"ĠìĶ»":10233,"Ġêµ°ë¶Ģ":10234,"Ġíĺ¸ëŁ¬":10235,"chor":10236,"Ġê³¨ì¹ĺ":10237,"Ġë½Ģ":10238,"íĤ¥":10239,"ĠëĿ¼ìĿ´ìĺ¨ì¦Ī":10240,"ĠìĿ´ìĺ¨":10241,"Ġì¡°êµŃ":10242,"Ġì¸¡ê·¼":10243,"¸Ķë¡ľ":10244,"ĠìĬ¤ì¦ĪíĤ¤":10245,"ĠìĽĲë¡ľ":10246,"ë§Īì¹ĺ":10247,"Ġë³µìĤ¬":10248,"ork":10249,"ĠJP":10250,"ç¥ŀ":10251,"Ġìĭľê³¨":10252,"Ġë°ĺìĹŃ":10253,"ĠìĹ´íĺĪ":10254,"ĠíķĦë¦Ħ":10255,"Ġä¸Ģ":10256,"ĠìĤ¬ì¹ĺ":10257,"Ġë¬´ëĬ¥":10258,"ĠPV":10259,"Ġê°ģìĿ¸":10260,"Ġë²łìĸ´":10261,"ĠìľĮë¦¬ìĹĦ":10262,"Ġup":10263,"ģĶ":10264,"ì§Īë":10265,"Ġê²©ëł¤":10266,"łĪìĿ´ìħĺ":10267,"Ġìłķìĭłëł¥":10268,"ason":10269,"ĠìłķìĦ±":10270,"Ġëıħë°±":10271,"ìĨĮëĤĺ":10272,"Ġë¸Įëł":10273,"ì¶Ķìĸ´":10274,"ª¨íĨł":10275,"ëĦ¤ë§Ī":10276,"ĠìĻĦíĻĶ":10277,"Ġâĺħâĺħâĺħ":10278,"Ġê³Ħì¸µ":10279,"ĠìĦľìļ¸ëĮĢ":10280,"Ġê³łìĭľ":10281,"ĠìĿ¼ì²´":10282,"ĠëįĶë¯¸":10283,"ĠìķłìĿ¸":10284,"Ġì¿łëį°íĥĢ":10285,"Ġë¡ľë§¨":10286,"ĠìĨľ":10287,"Ġìľłì¹´":10288,"Ġë°°ëĵľ":10289,"Ġìļ©ìķĶ":10290,"ĠíĶĮëŀľ":10291,"Ġê¹ĬìĿ´":10292,"ĠìķĦì²ĺ":10293,"ĠìĤ¬ê°Ģ":10294,"ĠìĦľìĹ´":10295,"Ġë¨¼ì§Ģ":10296,"ĠìĽ¨ìĬ¤íĬ¸":10297,"ĠíĬ¸ëŀ©":10298,"Ġë¸Ķë¦¬ìŀĲëĵľ":10299,"ìĤ°ìĭľ":10300,"Ġë°ķìŀĲ":10301,"Ġë¹Ħìļ°":10302,"Ġëĭ¤ìĿ´ìķĦ":10303,"ĠëĶĶìŀĲìĿ´ëĦĪ":10304,"ë¹ĦëĶĶìĺ¤":10305,"ëĭĪë²ĦìĬ¤":10306,"ĠìĦľìĭĿ":10307,"ìĦ¸ì§Ģ":10308,"Ġë¹Ħê¸°":10309,"ĠãģĿ":10310,"ĠKe":10311,"Ġì´Īë¡Ŀìĥī":10312,"Ġë°Ń":10313,"ĠìĥģìĿĺ":10314,"ĠìĽĲìŀ¥":10315,"Ġê°Ĳëĭ¹":10316,"¸ë§¤":10317,"Ġì¹´ìĿ´ìĤ¬ë¥´":10318,"ĠìĬ¤íĭ°ë¸Į":10319,"Ġë¬´ìļ©":10320,"Ġì½Ķëģ¼ë¦¬":10321,"Ġì·¨ìŀ¬":10322,"ĠëĤĺìĿ´íĶĦ":10323,"Ġíį¼ìĬ¤íĬ¸":10324,"ĠìĹĲëĭ¤ê°Ģ":10325,"ĠìķĪë¬´":10326,"ĠíĥŃ":10327,"Ġê³µìĭł":10328,"ë§Īë¦¬":10329,"ëĦ¨":10330,"Ġê¹ĢíĥĿ":10331,"ĠëĬ¥ê°Ģ":10332,"Ł¼ë":10333,"ĠíĹ¬ë¦¬":10334,"ê¹ĢìĥĪ":10335,"ĠìĻĢìĿ´ë²Ī":10336,"Ġë°ľê°ģ":10337,"ê³µíĻĶ":10338,"Ġë¶Īì°¸":10339,"ìļ´ëıĻ":10340,"Ġëħ¹ìĿ´":10341,"ĠìŀĲì¡´ìĭ¬":10342,"Ġê²©íķĺ":10343,"Ġìł¬":10344,"ĠìľłìĹ°":10345,"ĠíĬ¸ëŀĺ":10346,"ĠëłīìĬ¤":10347,"ĠìĽĲì£¼ë¯¼":10348,"ĠìłĦìĪĺ":10349,"ãĤ¦":10350,"íĥĪë¦¬":10351,"ĠíķĦë¦¬íķĢ":10352,"ĠWindows":10353,"AK":10354,"ê°Ģë£¨":10355,"Ġëª¨íĦ°":10356,"Ġì¹´ìĺ¤ë£¨":10357,"Ġìļķìĭ¬":10358,"ĠìķĦìĪĺëĿ¼":10359,"ĠëĲĺëł¤":10360,"Ġëĳł":10361,"Ġê°ĪìĪĺë¡Ŀ":10362,"ove":10363,"ê¸°ìĬ¤":10364,"Ġë°ķëªħ":10365,"ë©Ķëĭ¬":10366,"ĠìľĪëĵľ":10367,"ãĥģ":10368,"ĠìĬ¤íĭ±":10369,"ĠìĽĮíĶĦ":10370,"Ĭ±":10371,"Ġìŀ¥ëĤ¨":10372,"Ġë§¤ì£¼":10373,"ëĶľ":10374,"Ġìĺ¥ìĥģ":10375,"ĠìĤ¬ìĹ°":10376,"ì¹«":10377,"Ġë³ĢëıĻ":10378,"ĠíĬ¸ìľĪìĬ¤":10379,"Ġëĭ¤ìĭľê¸Ī":10380,"ìĻĢìĿ´":10381,"ëłīíĦ°":10382,"Ġëĥīìŀ¥ê³ł":10383,"ĠëıĦë¦¬":10384,"ĠìĤ¬ëªħ":10385,"ìĸ´íĬ¸":10386,"ãģĬ":10387,"ĠíħĮë¦¬":10388,"ĠìĤ°ë§¥":10389,"2014":10390,"ĠëĤ¨íķľ":10391,"ëħ¸ë¦¬":10392,"Ġíı´ìķĦìĽĥ":10393,"ĠìĬ¤ë°Ķë£¨":10394,"ĠìĥĿê¹ĢìĥĪ":10395,"ĠìķĦìĬ¬":10396,"ëĶĶìĬ¤":10397,"Ġê°ĦíĮĲ":10398,"ĠìłĦìĨ¡":10399,"Ġë§¹ìĦ¸":10400,"Ġê³łë°ľ":10401,"Ġê¸°ìĿ¸":10402,"ĠìĪĺê°Ĳ":10403,"Ġë°ĶíħĢ":10404,"ë²Ħë¦¬":10405,"ĠíļĮê´Ģ":10406,"íı¬ë¨¸":10407,"Ġì¤Ħì":10408,"å½":10409,"Ġíĩ´ì¹ĺ":10410,"ìĪĺë¦¬":10411,"ĠìĦŃì·¨":10412,"ĠìĬ¤íĮĮíģ¬":10413,"Ġìĥģì£¼":10414,"ê³¼íķĻ":10415,"Ġë¶Ħëĭ¹":10416,"ĠìłĪë²½":10417,"ĠìłĦì§Ģ":10418,"ì¤ĳêµŃ":10419,"Ġå¤©":10420,"ĠìĬ¤íĬ¸":10421,"ĠëĮĢíĶ¼":10422,"Ġë§Īì°°":10423,"Ġìķķì¶ķ":10424,"Ġver":10425,"å£":10426,"ĠìĿ´ìĿ¸":10427,"Ġëį°ë¹Į":10428,"ĠíĥľíĴį":10429,"¥¨":10430,"ĠìĭľíĬ¸":10431,"Ġìŀ¥ë³¸ìĿ¸":10432,"Ġìĵ°ë¦¬":10433,"Ġê¹Ģíı¬":10434,"ëĭĽ":10435,"Ġë²¡":10436,"Ġìºĺë¦¬":10437,"ĠìľłëĮĢìĿ¸":10438,"å¿":10439,"Ġìĭľì¢ħ":10440,"íļĮìŀ¥":10441,"Ġì²ľì§Ģ":10442,"Ġë©Ķì¹´ëĭī":10443,"ĠìĿ´ëĵ¬":10444,"ë¥¼ë¡ľ":10445,"ĠìĨĮë§Ī":10446,"Ġê°Ħì§Ģ":10447,"Ġì¹´ë¦¬ìĬ¤ë§Ī":10448,"Ġì§Ģíĺľ":10449,"ê»į":10450,"ĠíĨłì§Ģ":10451,"Ġë§Īë¯¸":10452,"Ġê¸°ê»ı":10453,"ìķĦìķĦ":10454,"ĠGre":10455,"Ġì¢Įì¸¡":10456,"ĵľë°±":10457,"Ġëĭ¤ìĿ´ìĬ¤":10458,"ĠìĤ¬ë°©":10459,"ĠìµľìĪľ":10460,"Ġíĸīì§Ħ":10461,"Ġå¥":10462,"ĠêµĲëĮĢ":10463,"íĮĮíģ¬":10464,"ëłĮì§Ģ":10465,"Ġì¶ĶíĽĦ":10466,"ĠEC":10467,"Ġì²Ńêµ¬":10468,"ĪĪ":10469,"Ġê¸ĭ":10470,"ĠíĿ¥ë¶Ħ":10471,"Ġê¿Īê¾¸":10472,"ĠìŀĲì±ħìłĲ":10473,"æĹ¥":10474,"ĠíķĺìĤ¬":10475,"ĠìĹ¬íĥľ":10476,"Ġë§¤ê°ģ":10477,"ĠêµĲíĨł":10478,"ìĤĲ":10479,"ĠìķĦë¥´ë°ĶìĿ´íĬ¸":10480,"GE":10481,"Ġìĺ¤ëĶĺ":10482,"Ġëķħë³¼":10483,"Ġê°±ìĭł":10484,"ĠíĥĢìĿ´ê±°ì¦Ī":10485,"ìĿ´ëıĻ":10486,"ëĮĢì²´":10487,"Ġìŀ¡ëª¹":10488,"âĨĻ":10489,"Ġìĺ¤ëĭ¤":10490,"æ´":10491,"ìŃī":10492,"ìŀĲì¹´":10493,"Ġê¹Įë§Īê·Ģ":10494,"ĠíĿĳë§ī":10495,"ĠìĹĳìĭľì¦Ī":10496,"ĠLIVE":10497,"Ġì¤ĳìĽĲ":10498,"Ġë§¤ëĵľ":10499,"Ġì¹¨ëª°":10500,"Ġë§ĪëıĦì¹´":10501,"ĠáĨ¯ëł¤ê³ł":10502,"Ġëª¨ìĿĮ":10503,"Ġê¹Ģì¤Ģ":10504,"Ġare":10505,"ĠìĻĢìĿ¸":10506,"ĠìĦ¸ë¡ľ":10507,"ì½ľëĿ¼":10508,"ĠìŀħìĤ¬":10509,"ĠìĻķìĭ¤":10510,"ign":10511,"Ġê³¼ìĸ¸":10512,"ìļ°ì§Ģ":10513,"Ġë°ķìĪĺ":10514,"Ġë§¨ìľł":10515,"Ġì¸łì¿ł":10516,"ë¬´ê¸°":10517,"ĠíĽĦì¿łìĭľë§Ī":10518,"ĠGam":10519,"Ġë©Ķë¦¬íĬ¸":10520,"Ġìĺ´":10521,"Ġëªħìŀ¥":10522,"Ġíķłë¡ľ":10523,"irl":10524,"600":10525,"§¥":10526,"Ġë§ŀíŀĪ":10527,"Ġëħ¸ë¦ĩ":10528,"Ġíį¼íİĻíĬ¸":10529,"ĠìĹĺë¦¬ìŀĲë²łìĬ¤":10530,"Ġë¦¬íĶĦ":10531,"ĠìŀħìŀĲ":10532,"ĠëĵľìĽĮíĶĦ":10533,"ĠìĦľìłģ":10534,"ĠìķĦë¬´ëłĩ":10535,"Ġê¸ĢìĶ¨":10536,"Ġì¤ĳêµŃìĿ¸":10537,"ĠíĮĮëıĦ":10538,"ë³ĢìĿ´":10539,"ãĥ«ãĥ":10540,"Ġanchor":10541,"ĠìĬ¤ì»¬":10542,"Ġì¶ľëıĻ":10543,"ĠíĨłìļĶ":10544,"62":10545,"Ġì§Ģë¶Ħ":10546,"ĠìĭľìĤ¬":10547,"Ġìĭ¤ëĤ´":10548,"Ġë¦¬ìķĦ":10549,"íĶĮëŁ¬":10550,"ĠìĻķì¡±":10551,"ĠíŀĪëĿ¼":10552,"Ġì£¼ìĤ¬ìľĦ":10553,"Ġë¶Ģì±Ħ":10554,"Ŀ¼ìĿ¸":10555,"ĠëĨįìĹħ":10556,"ĠìłķêµĲ":10557,"Ġë°©ìļ¸":10558,"ĠìŀĲìĭłê°Ĳ":10559,"ë¯¸ë¥´":10560,"Ġê³¼ìĭľ":10561,"ëĦ¥":10562,"ĠëłĪì½Ķëĵľ":10563,"Ġå½":10564,"Ġìļķë§Ŀ":10565,"Ġë®¤ì§ģë¹ĦëĶĶìĺ¤":10566,"ĠìĬ¤íħĶìĬ¤":10567,"ĠìłĲë©¸":10568,"ĠêµĲìłķ":10569,"Ġë¬¼ìŀĲ":10570,"ĠìľłëĭĪë²ĦìĬ¤":10571,"ĠíĻĭ":10572,"ĠìĿ¼ì¡°":10573,"êµ¬ìŀ¥":10574,"ĠNBA":10575,"ł¤ë°Ľ":10576,"Ġë¯¿ìĿĮ":10577,"Ġìĥģë¬´":10578,"Ġë¬¼ëł¤ë°Ľ":10579,"ĠìĬ¬ëŁ¬":10580,"ĠëĿ¼ìĿ¸íķĺë¥´íĬ¸":10581,"Ġë§Īì¼ĢíĮħ":10582,"ĠìĿ´ëĵ¬íķ´":10583,"Ġìĭľëł¨":10584,"ê·¸ë§¨":10585,"âĨĲ":10586,"¹Ń":10587,"ëĭ¤ëĵľ":10588,"Ġì¤ĳê²¬":10589,"ĠëıĮìĹ°ë³ĢìĿ´":10590,"ĠìĹĶì§ĢëĭĪìĸ´":10591,"æĽ":10592,"ĠìĹĲì½Ķ":10593,"ĠëķĮëł¤":10594,"Ġë§ĲìĶĢ":10595,"Ġë§īì°¨":10596,"¼ë¦°":10597,"ĠìĤ¬íļĮë":10598,"Ġë¯¸ìĿ¸":10599,"ĠæĻ":10600,"ìĿĢìĿ´":10601,"ĠíĮĮë°į":10602,"Ġë¹ĻíĮĲ":10603,"ĠìĿ´ë³ĳ":10604,"ĠëĤ´ê°ģ":10605,"âĨĺâĨĴ":10606,"ĠìłģìŀĲ":10607,"ĠìĽĮë¦¬ìĸ´":10608,"Ġë¯¸ìķ¼ë":10609,"Ġêµ°ëį°":10610,"ĠCR":10611,"Ġëļ±":10612,"Ġë°Ī":10613,"ĠìłķìĤ¬":10614,"Ġê·¸ë£¨":10615,"Ġíİ¸ë¦¬":10616,"Ġê°ģì§Ģ":10617,"Ġìľ¤ë¦¬":10618,"ĠíĥĢì¹ĺ":10619,"ĠíĻĶìĥģ":10620,"int":10621,"Ġëļľëł·":10622,"Ġë¡ľíĤ¤":10623,"Ġæµ":10624,"íĶĮë¦¿":10625,"ĠëĭĪë":10626,"Ġê·¸ë¥´":10627,"ĠëıĻìłĦ":10628,"ë£¨ê¸°":10629,"ë£¨íĥĢ":10630,"ìŀĲëıĻì°¨":10631,"Ġê°ĦíĮĮ":10632,"ì²ĺëŁ¼":10633,"ìĹ°íķ©":10634,"ë¯Ģë¡ľ":10635,"Ġìĺ¨ìłĦ":10636,"Ġê·¹ìĭ¬":10637,"ì¿¤":10638,"ë¬¼ë¦¬":10639,"ĠìķĦì¹´ëĦ¤":10640,"ëĨį":10641,"ŃĶ":10642,"ĠëıĻê³Ħ":10643,"ë£¬":10644,"íİĺìĿ´ìĬ¤":10645,"ê¿ī":10646,"Ġìļ¸ìĿĮ":10647,"ä¼":10648,"ĠìĹĲëĶĶìħĺ":10649,"ĠëĤĺë¦¬":10650,"Ġìĸ¹":10651,"ë¹ĦìłĦ":10652,"ĠíĽĦë¯¸":10653,"Ġë°ĶìĿ´ìĺ¬":10654,"Ġê²ĮëģĶ":10655,"ĠìĪĺë¦½":10656,"Ġê´ĳëªħ":10657,"Ġìĭľëħ¸ë":10658,"ĠAm":10659,"Ġë©ĶíĬ¸ë¡ľ":10660,"79":10661,"ĠìĦ¸ìĿ¸íĬ¸":10662,"Ġì¢ħìĺģ":10663,"Ġåľ":10664,"str":10665,"ĠìĪĻì²Ń":10666,"ĠìĹ°ìĩĦ":10667,"Ġíı¬ì°©":10668,"Ġë¯¼ê°Ĳ":10669,"Ġê¸°ë³¸ê¸°":10670,"ĠíĨ¨":10671,"Ġìłľì£¼ëıĦ":10672,"Ġì§ĦíĿ¥":10673,"ĠDay":10674,"Ġê°Īêµ¬":10675,"Ĵ¤":10676,"Ġ220":10677,"ĠëĤ´ìĻ¸":10678,"Ġíı¬ë³ĳ":10679,"Ġíı¬íĥĦ":10680,"ear":10681,"Ĳģ":10682,"Ġë¯¸ì¦Ī":10683,"Ġìŀ¬ì§Ī":10684,"ĠBT":10685,"ãĤį":10686,"ĠìĬµëĭĪê¹Į":10687,"ĠíĶĦëŀĳìĬ¤ìĸ´":10688,"ĠëĶĶì¦ĪëĭĪ":10689,"íķĺë£¨":10690,"²ĪìĹĲ":10691,"Ġ1945":10692,"Ġì£¼ìĪłìĤ¬":10693,"Ġíķľêº¼ë":10694,"Ġëªħìĭľ":10695,"ĠCr":10696,"ĠëłĪìĿ´ìĭ±":10697,"Ġíķľêº¼ë²ĪìĹĲ":10698,"ĠìĬ¤ì¿":10699,"ĠDM":10700,"Ġì¶©ê³ł":10701,"ĠìĿ´ìĺģíĺ¸":10702,"Ġëį¥":10703,"ãģŃ":10704,"ĠíĶ¼ìŀĲ":10705,"Ġìľ¼ëł¤ë©´":10706,"ĠíĶĦëŀľ":10707,"ĠDream":10708,"ĠPre":10709,"ãĤª":10710,"Ġì§¬":10711,"ĠìłķìłĲ":10712,"ĠìľłìłĦ":10713,"ĠìĦ±ìłĦ":10714,"Ġê¶ģíķ©":10715,"Ġì»¨ëĶĶìħĺ":10716,"Ġ1978":10717,"ìĭľíĶ¼":10718,"ĠçĻ":10719,"ĠìĶ¨ìķĹ":10720,"ĠìĬ¤íĥŃ":10721,"ĠâĹĭâĹĭ":10722,"ĠìĿ¸íĶ¼ëĭĪíĭ°":10723,"ĠìĨĮì§ĳ":10724,"ĠéĢ":10725,"ĠìŀĲëł¥":10726,"Ġì°¨ë¦¼":10727,"ĠìĨĮê¿ī":10728,"ĠìĹ°ëıĻ":10729,"ĠìłĲìľł":10730,"ĠìĨĮëĤĺ":10731,"¤¼":10732,"ĠìłĲìĭ¬":10733,"ãĥĬ":10734,"Ġìķłìļ©":10735,"ìĦ¤ìĿ´":10736,"ĠëłĪê·":10737,"ëĿ¼ë©´":10738,"Ĳê¸°":10739,"Ġíĵ":10740,"ìĿ´ë¦Ħ":10741,"Ġë§Īìļ´":10742,"Ġíķ´ê³ł":10743,"Ġë°ĺìŀ¥":10744,"ĠëĮĢìĹŃ":10745,"Ġê°ķë¦ī":10746,"Ġê·¸ëŁ¬ë¯Ģë¡ľ":10747,"Ġíģ´ë¦¬ìħ°":10748,"ĠìŀĲìĤ°":10749,"ĠìĦ¸ë¡Ģ":10750,"Ġìĩ¼ë":10751,"ëī´ìĸ¼":10752,"ĠìĿ¸ìłĳ":10753,"Ġë¦¬ë³¸":10754,"Ġëĵ¤ë¥´":10755,"ĠëĮĢìĦ±":10756,"Ġì°¸ë":10757,"Ġê³µëĭ¨":10758,"ëĮĢíķĻ":10759,"Ġë¦¬ëª¨":10760,"Ġì±ł":10761,"ĠíĤ´":10762,"ĠìĹĲë°ĺ":10763,"Ġê±°ìĦ¸":10764,"ĠìĿ¼ê³±":10765,"ìĦ¸ìĦľ":10766,"ĠìĿ´ëªħë°ķ":10767,"ĬĦ":10768,"Ġë¶Ģìĭľ":10769,"Ġë³¸ê´Ģ":10770,"ëĵľëŁ¬ì§Ģ":10771,"ĠíķĦìĤ¬":10772,"68":10773,"ìĬ¤íĭ´":10774,"ĠìĤ¬ìĪĺ":10775,"Ġìĺ¤ë§Į":10776,"Ġ119":10777,"ĠìŀĶë¥ĺ":10778,"Ġê¸°ëıĻëł¥":10779,"ĠìĿ´ìľ¤":10780,"ìĺµ":10781,"ĠìĸĮ":10782,"Ġìŀ¬ë²Į":10783,"ĠIII":10784,"Ġìłķëĭµ":10785,"ĠíĻĶíıĲ":10786,"Ġíİ¸ìĿĺìłĲ":10787,"Ġíĺ¼íĺĪ":10788,"Ġìĥģëĥ¥":10789,"Ġì¤ĳê¸°":10790,"ĠAV":10791,"Ġê°ģëıĦ":10792,"Ġë³´ìĬ¤íĦ´":10793,"ê°ľë":10794,"ĠìĺĪìĿĺ":10795,"Ġíķĺì¿ł":10796,"ĠìĭłëıĻ":10797,"Ġìĺ¤ë²Ħë":10798,"ĠìĹ¬ëĭ¨":10799,"ĠíĮĲìĤ¬":10800,"ĠìĦ¬ê¸°":10801,"Ġê°ĢìĦ±ë¹Ħ":10802,"ĠëłĪìĬ¬ë§ģ":10803,"Ġê°Ģêµ¬":10804,"Ġìĭ¤ìłģ":10805,"ĠæĶ":10806,"Ġì§Ģíģ¬":10807,"ĠìĤ¬ê°ģ":10808,"Ġìĭ¬ìłķ":10809,"ĠíģĲìĸ´":10810,"Ġë°ī":10811,"Ġìĭľë§Ī":10812,"Ġì²ľêµŃ":10813,"les":10814,"åĳ":10815,"íħĮìĺ¤":10816,"Ġìĭ±ê°Ģ":10817,"Ġëª¨ìĬ¤íģ¬":10818,"Ġê·¸ëĤł":10819,"ĠíĶ¼ê·ľìĸ´":10820,"Ġìĺ¤íĨłë°ĶìĿ´":10821,"İĦ":10822,"Ġìĭłê´Ģ":10823,"Ġê¹Ģìľł":10824,"Ġìŀłê¸°":10825,"ìķĦì°":10826,"ĠëıĦìķ½":10827,"Ġëª¨íĺķ":10828,"ĠìŀħìĦ±":10829,"Ġë§ĿìĦ¤ìĿ´":10830,"ĠìĭľìĥģìĭĿ":10831,"Ġì½ĶíĨł":10832,"Ġ170":10833,"Ġì§Ģìŀ¥":10834,"Ġìłķìļ°":10835,"Ġë°©ìķĪ":10836,"ĠëĤ¨íķĻìĥĿ":10837,"Ġå¼":10838,"Ġê°Ģíķ´ìŀĲ":10839,"ĠëĳĲëĩĮ":10840,"ìĹĨìĿ´":10841,"ĠìĹĲìĸ´ë¡ľ":10842,"Ġìĺ¤ìļ°":10843,"Ġíİ¸ë":10844,"Ġê¹Ģì§Ģ":10845,"Ġëŀĺíį¼":10846,"ĠíĪŃ":10847,"Ġê²Įë¥´":10848,"ĠìķĦë¹Ħ":10849,"ìĹĲë¥¸":10850,"ĠãĤĮ":10851,"ĠíĬ¸ë¦´":10852,"Ġéĩĳ":10853,"ĠìĦľë°ĶìĿ´ë²Į":10854,"ë°Ķìķ¼ìĭľ":10855,"ĠìĦłë¡ľ":10856,"ĠBJ":10857,"Ġëª©ìļķ":10858,"ìĭ¸ìĽĢ":10859,"Ġê³łìĿ¸":10860,"ĠìłĦê³¼":10861,"Ġìŀ¥ë²½":10862,"ìłĢëŀĺ":10863,"Ġìŀ¥ìķłìĿ¸":10864,"Ġíľ´ëĮĢíı°":10865,"Ġë¶ĢëıĻìĤ°":10866,"ĠìĬ¤íĥĿ":10867,"Ġì¤ĳìĨĮ":10868,"ëŁ¬ë¸Į":10869,"Ġê°ľëªħ":10870,"ĠëłĪìĿ´ì§Ģ":10871,"Ġëĳ¥ì§Ģ":10872,"Ġë³Ħì":10873,"Ġë³´ê°ķ":10874,"Ġê·¸ëŀ¨":10875,"ĠìĬ¤ì¹´ìĽĥ":10876,"íĹ¤ìĿ´":10877,"Ġë³´ìļ°":10878,"ĠíŀĪëĵľëĿ¼":10879,"íĥĢëĭĪ":10880,"ĠìĨĮìĨĮ":10881,"ĠìłĢìĬ¹":10882,"ĠåĽ":10883,"Ġê²¬íķ´":10884,"ëĿł":10885,"Ġë²¼ë":10886,"ĠíĨµë³´":10887,"Ġë³ĳê³¼":10888,"ĠìĿĳê¸ī":10889,"Ġë²Įìį¨":10890,"ĠìĬ¤íı°ìĦľ":10891,"¡¤ëŁ¬":10892,"urn":10893,"Ġë¡ľê·¸ìĿ¸":10894,"iel":10895,"Ġìĭłìĥģ":10896,"ĠTS":10897,"Ġìĺ¤ì¼Ģ":10898,"Ġë¯¸ëħĢ":10899,"Ġë§·ì§ĳ":10900,"IR":10901,"VER":10902,"Ġì£¼ìłĢ":10903,"Ġìłķë°Ģ":10904,"Ġê·¸ë¡ľ":10905,"Ġêµ¬íĺķ":10906,"Ġìļ°ëĵľ":10907,"Ġì´Ŀíķ©":10908,"Ġìĭľì¹´ê³ł":10909,"Ġìĸ¼ë¦¬":10910,"ĠìĦłì§Ħ":10911,"ĠíĮ¬íĭ°":10912,"Ġíķĳê³Ħ":10913,"Ġì¢ħìłĦ":10914,"ĠìĪľìłķ":10915,"Ġæī":10916,"ĠOG":10917,"ìºł":10918,"Ġì¶ľìĦĿ":10919,"ĠìĤ¬ì§ģ":10920,"Ġìĥģìĭľ":10921,"Ġê±°ìĬ¤":10922,"ì§Ħíĺ¸":10923,"ator":10924,"ëĲĺ":10925,"ĠìĿ¸ê°Ģ":10926,"Ġë¸Įëŀĺ":10927,"Ġï¼Į":10928,"ĠëĤĺìĿ¸":10929,"ĠBE":10930,"ĠìķĦì¿łìķĦ":10931,"Ġê¸°ìļ¸ìĿ´":10932,"Ġì´Īëĵ±íķĻìĥĿ":10933,"ĠíķĺíĶĦ":10934,"ĠUp":10935,"Ġë¯¸ìĺ¤":10936,"ĠëĳĲëĵľëŁ¬ì§Ģ":10937,"ĠíķĻìľĦ":10938,"ë³´ê·¸":10939,"ĠìĦľë°©":10940,"now":10941,"Ġë¦¬íĶĦíĬ¸":10942,"ĠìĿ´ëĤĺë§Ī":10943,"Ġê²½ìĤ¬":10944,"ĠìĿ¸íħĶ":10945,"ĠíĮ¨ìŀĲ":10946,"ĠìĿ´ìļ©ìŀĲ":10947,"rag":10948,"ëĭ¤ì¹´":10949,"Ġë¶ĢìĬ¤íĬ¸":10950,"Ġìĭłëį°":10951,"ĠCM":10952,"Ġìķłìī¬":10953,"ĠìĬ¬íĶĶ":10954,"Ġì§ĦëıĻ":10955,"ĠìĿ´ëŀĺìłĢëŀĺ":10956,"ĠìĿ¸ìĬ¤íĥĢê·¸ëŀ¨":10957,"ëĮĢìĤ¬":10958,"ĠEU":10959,"Ġë¬´ëĭ¨":10960,"Ġì¹´íĶ¼":10961,"ëĦĺ":10962,"ĠìłĢìŀĲ":10963,"Ġë²łìĸ´ìĬ¤":10964,"ĠíĻ©íĺ¼":10965,"ĠìĿ´ê¸ĢìĬ¤":10966,"ĠìĤ¬íĪ¬ë¦¬":10967,"ĠìµľìĪľìĭ¤":10968,"ĠìķĮëłĪ":10969,"ĠìŀĲë£¨":10970,"ĠìĹ¬íı¬":10971,"ĠìĦłë°ķ":10972,"Ġå·":10973,"Ġë¬¼ìķ½":10974,"ĠìķĦë§Īì¶Ķìĸ´":10975,"ĠìķĦíħĮëĤĺ":10976,"Ġì°¬ìĸĳ":10977,"Ġìħ°íĶĦ":10978,"ail":10979,"Ġê²Ł":10980,"ĠëĤĺë¯¸":10981,"ì¹ĺìķĦ":10982,"ĠìľłëıĻ":10983,"Ġë¬´ìĭĿ":10984,"Ġë²ķìĤ¬":10985,"ĠìĬ¤íħŁ":10986,"Ġëĭ¬ìĿ¸":10987,"íĮ¨ìĬ¤":10988,"ĠáĨ«ëĭ¤ë©´ìĦľ":10989,"ull":10990,"ĠëĩĮë":10991,"yn":10992,"ĠDPS":10993,"Ġå¾":10994,"ĠìłĪëĭ¨":10995,"Ġë²łìĿ´ì§ķ":10996,"Ġê¸°ìĨĮ":10997,"Ġì°Ķë¦¬":10998,"Ġë³µëıĦ":10999,"Ġë§ĪìĿ´íģ¬ë¡ľ":11000,"ild":11001,"ĠìĹīëļ±":11002,"Ġìĭľíģ¬ë¦¿":11003,"yle":11004,"Ġat":11005,"Ġëª¨ìĹĲ":11006,"Ġëĭ¹ì´Ī":11007,"ĠëıħìĿ¼ìĸ´":11008,"ĠìĬ¤ì¹´ìļ°íĬ¸":11009,"98":11010,"ĠìĤ¬ëĤĺ":11011,"Ġëĭ¨ë°ľ":11012,"ĠìĦľê¸°":11013,"ĠCL":11014,"ĠFW":11015,"vel":11016,"ĠëĤĺëĿ½":11017,"íŀĪíĬ¸":11018,"Ġtv":11019,"Ġë°ĶìĿ´ìĹĲë¥¸":11020,"Ġë¶ĢìĨį":11021,"ĠãĦ":11022,"ĠìĨĲëª©":11023,"ĸĳ":11024,"Ġë¬´ëħĢ":11025,"Ġë¬´ê¶ģ":11026,"ìĦ±ìĿ´":11027,"ĠìŀħìĽĲ":11028,"Ġì´Īìĥģ":11029,"ĠíĶĮë£¨":11030,"Ġë¯¼ë³ĳ":11031,"Ġê¸°íĺ¸":11032,"ĠìĬ¤íĥĪ":11033,"ĠíĨłë¯¸":11034,"Ġë²łë¥":11035,"ĠíĬ¸ëŁ¬":11036,"ose":11037,"ì±Ī":11038,"Ġëįĺì§ĢëĿ¼":11039,"Ġê»įì§Ī":11040,"ĠMi":11041,"ĠìĽĮíģ¬":11042,"ĠìĿ´ê´ĳ":11043,"ĠìŀĲìķĦ":11044,"ìĬ¤íĭ°ìĬ¤":11045,"Ġíıīìĥģìĭľ":11046,"ìŁĪ":11047,"ë¹¨ë¦¬":11048,"Ġê°ķëĮĢ":11049,"Ġëĭ¨ëł¨":11050,"ĠìļĶê²©":11051,"Ġì§ĢìĦł":11052,"Ġìĺ¤ëłĮì§Ģ":11053,"Ġë§ĪíĥĢ":11054,"Ġê³µìĺģ":11055,"Ġ350":11056,"Ġë°°ê¸ī":11057,"Ġê¹Ģêµ¬":11058,"ĠíĥĪíĻĺ":11059,"Ġì£¼ìĿĺìŀĲ":11060,"ì§ĸ":11061,"Ġëıħë³´":11062,"ĠëĤľë¦¬":11063,"Ġpl":11064,"ìĬ¤íģ¬ë¦¼":11065,"ĠUSB":11066,"ĠìĬ¬ëłĪìĿ´ìĸ´":11067,"ÑĤ":11068,"ëķħ":11069,"ĠìĨĮìĦľ":11070,"ĠêµŃë¬´":11071,"æľĪ":11072,"ĠìĦ±ìĶ¨":11073,"gh":11074,"Ġê³¼ìĿ¼":11075,"Ġëª¨ë¹Į":11076,"Ġê²½ë¶Ģ":11077,"Ġìŀ¬ìĪĺ":11078,"Ġìŀ¬ê±´":11079,"Ġë³ĳíĸī":11080,"Ġê¾Ģ":11081,"ìķĦíĶĦë¦¬ì¹´":11082,"Ħë²Ħ":11083,"ĠìĨŁ":11084,"ĠìĬ¤íĥĢíĬ¸":11085,"íĶĮëłīìĬ¤":11086,"Ġë§Īíĭ´":11087,"Ġì¡°ë³Ħ":11088,"ëĭĪì¦ĺ":11089,"ĠìĤ°íĥĢ":11090,"ë¦¬ëĤĺ":11091,"ĠìĦłë´ī":11092,"oll":11093,"ĠëıĦëĮĢì²´":11094,"ĠëĳĲëª©":11095,"ìĥĿê¸°":11096,"ĠíĬľë":11097,"Ġcon":11098,"Ġì¢ĮìĿµ":11099,"©ĭ":11100,"ĠìĹĲë©Ķ":11101,"ìĤ¬ìĿĺ":11102,"Ġëĭ¨ìĦľ":11103,"ĠìĿ´ìĽĲ":11104,"ĠìĽĲíĮĲ":11105,"ĠëĬ¥íķĺ":11106,"ĠíķĦë¦½":11107,"ĠíĶĮëĿ¼ì¦Īë§Ī":11108,"Ġì£¼ì°¨ìŀ¥":11109,"ĠíĶ¼ìķĦ":11110,"ì½§":11111,"ĩº":11112,"Ġë¶Ģì²ľ":11113,"Ġè¦":11114,"Ġíĸĩ":11115,"ë±ī":11116,"CS":11117,"ĠìĨĲìŀ¡ìĿ´":11118,"è¨":11119,"ĠìĪĺì²ľ":11120,"ìĹ¼ë":11121,"ëıĦëĿ¼":11122,"Ġëª¨ëħ¸":11123,"Ġì²´ì½Ķ":11124,"ĠíĨłë§ĪìĬ¤":11125,"Ġì¹ľëª©":11126,"ĠUEFA":11127,"Ġíķı":11128,"Ġê³łëŀĺ":11129,"Ġìĭ¤ìļ©":11130,"Ġë¶Ħíķł":11131,"ì£¼ë¡ľ":11132,"ĠìĹīëį©ìĿ´":11133,"Ġê¸°ìĺ¨":11134,"Ġìĭľê·¸ë":11135,"Ġë¦¬ì¹´":11136,"Ġíķ´ëıħ":11137,"ĠìłĲíķĺ":11138,"Ġìķħíĸī":11139,"ĠìĪĻìĨĮ":11140,"ĠBlack":11141,"ê³¼ë¬¼":11142,"Ġê°ĢíŀĪ":11143,"ĠëĤ´ë±ī":11144,"ĠíķĺìĿ´ëĿ¼ìĿ´íĬ¸":11145,"ìĳ¤":11146,"ĠìĿ´ëĪĦ":11147,"Ġì§Ģë¶ķ":11148,"Ġëĸ¨êµ¬":11149,"ube":11150,"Ġì§ĳê³Ħ":11151,"ĠíŀĪë¡ľìĭľ":11152,"ĠìĿ¸ëıĦëĦ¤ìĭľìķĦ":11153,"ĠìĤ¬ì¡±":11154,"Ġë§Ĳê¸°":11155,"ë§ĪìĬ¤íĦ°":11156,"ĠìłĳìĪĺ":11157,"Ġ1973":11158,"íĥĢë¥´":11159,"Ġë£¨ë¦¬":11160,"Ġê²©ëł¬":11161,"Ġìķ¼ëĭ¹":11162,"Ġì»¤íĶĮë§ģ":11163,"ĠëĿ¼ëįĺê°Ģ":11164,"ĠìĬ¤ë§¤ìĭľ":11165,"Ġë¦¬ìħĭ":11166,"ĵľëĿ¼":11167,"Ġë³´ê¸°":11168,"Ġì´Īì¤ĳë°ĺ":11169,"éĿ":11170,"ë¶Ħë":11171,"ĠìĦłíı¬":11172,"Ġìļ°ë£¨":11173,"Ġë£¨íĤ¤":11174,"Ġì§ĿìĤ¬ëŀĳ":11175,"Ġìķ½íĺ¼":11176,"Ġpro":11177,"¶ķ":11178,"Ġê´Ģë¬¸":11179,"ëĿ¼ëĿ¼":11180,"Ġìľłê²©ìĪĺ":11181,"ĠìĿ´ë°©":11182,"ĠíĪ¬ê³ł":11183,"ĠíĺĳëıĻ":11184,"Ġeat":11185,"ĠíĿīìķħ":11186,"ĠìĲ":11187,"Ġì£¼ìĪł":11188,"Ġì¤ĳìŀ¬":11189,"ĠTo":11190,"ĠëŁŃíĤ¤":11191,"ê³°":11192,"Ġêµ¶":11193,"ĠìĦ¸ê°Ģ":11194,"Ġì´Īë³´ìŀĲ":11195,"ivers":11196,"Ġìĸ´ìĽĲ":11197,"Ġëĭ¤ì§Ģë§Į":11198,"ĠíķĻëł¥":11199,"ĠãģĨ":11200,"Ġë°ķëªħìĪĺ":11201,"Ġìłľë¦¬":11202,"Ġíķ¨ìĪĺ":11203,"ĠGu":11204,"Ġìłľì§Ģ":11205,"íĥĢìĬ¤":11206,"Ġê¸°ë¦¬":11207,"ĠìķĦëŀ«":11208,"ĠëĬª":11209,"Ġíģ¬ëĿ¼ìļ´":11210,"åĮ":11211,"ĠíĥĦìķķ":11212,"Ġì©":11213,"ê°Ħë":11214,"ĠíĮĮìļ´ëĵľ":11215,"Ġëĭ¤ëĭĪìĹĺ":11216,"Ġç¥ŀ":11217,"Ġë³´ë³µ":11218,"Ġíİĺìĸ´ë¦¬":11219,"ĠíĻ©íĥľ":11220,"ĠìĬ¤íĥĢìĽĮì¦Ī":11221,"Ġdo":11222,"Ġê¹¡íĮ¨":11223,"ĠìłĦëıĻì°¨":11224,"Ġì¿Ħì½Ķ":11225,"Ġê¹ĢíĥĿìļ©":11226,"Ġíķĺìĭľ":11227,"ĠìķĦë§Īë":11228,"ĠíĥľìĥĿ":11229,"ĠíİĮíĶĦ":11230,"ãĤ°":11231,"ĬĪ":11232,"ĠêµŃíĨł":11233,"ĠDD":11234,"Ġìº¡ìĬĲ":11235,"ê¸ĭëĤĺ":11236,"ìĹħìŀĲ":11237,"Ġë°ķìĦ±":11238,"ĠíŀĪë¹Ħ":11239,"ëŀŃíģ¬":11240,"èī":11241,"ĠéĿ":11242,"Ġê³¼ê²©":11243,"Ġë§Īìķ¼":11244,"ĠíĥĢëħ¸ìĬ¤":11245,"ĠFr":11246,"Ġê¸Īë°ľ":11247,"ë§¥ìĬ¤":11248,"ĠìĦ±ë°°":11249,"Ġì¡°ëįĺ":11250,"ĠíĿīëĤ´":11251,"ìŀ¬ê¸°":11252,"Ġì§Ħëĭ¨":11253,"ĠìĨĮëª¨ëŁī":11254,"Ġëº¨":11255,"Ġë°°íĽĦ":11256,"Ġê°Ĳê¸Ī":11257,"ĠCar":11258,"ëĶĶìĽĢ":11259,"ĠéĻ":11260,"eth":11261,"Ġë¹ĹëĤĺê°Ģ":11262,"ĩĦ":11263,"Ġ115":11264,"Ġì¿łë°Ķ":11265,"ĠëĮĢêµŃ":11266,"ĠëĭĲ":11267,"Ġì²ĺëħĢ":11268,"ĠCE":11269,"ng":11270,"Ġë³¸ì§Ī":11271,"Ġë£¨ë§Ī":11272,"ì¿łë¡ľ":11273,"Ġë°±ë§Į":11274,"ìł¸ìĬ¤":11275,"ĠëĮĢê²Ģ":11276,"ĠíķľìłķíĮĲ":11277,"Ġìĭłì¡°":11278,"ĠOS":11279,"Ġì¸łíĤ¤":11280,"è¦":11281,"ĠìĪĺìĿ¸":11282,"Ġë¦¬ëĤĺ":11283,"ĠâĨĳ":11284,"Ġíİĺë¥´ìĨĮëĤĺ":11285,"Ġë¦¬ë°Ķìļ´ëĵľ":11286,"Ġê³µêµĲ":11287,"ĠìĹ°ìĨĮ":11288,"ĠìķĪëĤĺ":11289,"ĠëĳĲê»į":11290,"ê¹ĥ":11291,"ìĸ¸íĬ¸":11292,"Ġâĳ¡":11293,"UM":11294,"ĠìĹ£":11295,"Ġë°©ì¹¨":11296,"ica":11297,"Ġëį´ë§Īíģ¬":11298,"Ġíĺ¸ê°ĲëıĦ":11299,"Ġì°¨ìŀ¥":11300,"ĠAp":11301,"ĠDr":11302,"Ġì¹¼ëĿ¼":11303,"ĠìĹĲëĵľìĽĮëĵľ":11304,"ĠëĦ¤íģ¬ë¡ľ":11305,"ĠíİĺìĿ´íģ¬":11306,"ĠìĿ´ë³Ħ":11307,"Ġì¹´ìĭľ":11308,"Ġê²°ê³¼ë¬¼":11309,"Ġë§ĮëłĻ":11310,"ìĹĲëª½":11311,"Ġë¯¸ëģ":11312,"íĺĦìļ°":11313,"åŁ":11314,"å¹´":11315,"ĠìľłëĬ¥":11316,"ĠìĤ°ìĨĮ":11317,"ĠëĤĺìĿ´íĬ¸ë":11318,"Ġì»´ë±ĥ":11319,"Ġê¼´ì°Į":11320,"ìĤ¬ìĿ´ëĵľ":11321,"Ġìŀ¥íķĻ":11322,"Ġê³¡ëªħ":11323,"Ġì£¼ìŀħ":11324,"Ġìłķë°ľ":11325,"Ġê³µëªħ":11326,"ĠìĦ¬ë©¸":11327,"Ġê³Ħëŀµ":11328,"ĠìĿ´ì¯¤":11329,"íĶĮëłĪ":11330,"ĠëĦĲ":11331,"ĠìĬ¬ëŀĺ":11332,"IX":11333,"ê·¸ëłĪ":11334,"ĠìĿ´ë¦¬ìłĢë¦¬":11335,"ĠêµŃë°©ë¶Ģ":11336,"Ħ¡":11337,"Ġëª¸ë§¤":11338,"ĠíĮĢìŀ¥":11339,"Ġë£¨ìĪĺ":11340,"ĠìĺĲë¡ľ":11341,"ê·Ħ":11342,"ĠìłľìĤ¬":11343,"ĠìĪľì²ľ":11344,"ĠRO":11345,"Ġíķłë¡ľìľĪ":11346,"ĠìĿ´íĸī":11347,"Ġë§Īëª¨":11348,"Ġç¾":11349,"ĠíĻĭì¹´ìĿ´ëıĦ":11350,"ıĦìłĦ":11351,"Ġë§ŀë¨¹":11352,"ĠëĴ¤ìŀĩ":11353,"ĠìĪĺì¤ĳ":11354,"ĠëĿ¼ìŀĦ":11355,"Ġê¹Ģê´ĳ":11356,"ĠìķĦìĿ´ìľł":11357,"ëĿ¼ë§Ī":11358,"ĠOp":11359,"ìĿ¸ë³´ìļ°":11360,"Ġë²ĦìĬ¤íĬ¸":11361,"Ġë¦¬íį¼":11362,"Ġë¯¸ëĤ¨":11363,"Ġë§Ŀëªħ":11364,"Ġì¤ĳë°ĺë¶Ģ":11365,"ĠìĬ¤íĮĮìĿ´ëįĶë§¨":11366,"Ĥµ":11367,"ĠëĮĢë§Ī":11368,"ĠìĹ°ëıĦ":11369,"ĠìķĮìķĦì°":11370,"ĠGl":11371,"ë©ĶëĿ¼":11372,"ĠìłĪìłķ":11373,"Ġì°°ìĬ¤":11374,"Ġíİĳíģ¬":11375,"ĠìķĮìķĦì°¨ë¦¬":11376,"ĠìĿ¸ì±Ī":11377,"Ġë¶Īê¸¸":11378,"Ġ...?":11379,"Ġì¼Ħì":11380,"ì§Ģìĺ¤":11381,"Ġë¹ĦìŀĲ":11382,"ĠëıĻìĦ±ìķł":11383,"ëĭĲëĿ¼":11384,"ĠSuper":11385,"Ġìľ¼ë¦¬":11386,"ë¯¸ëħ¸":11387,"Ġìĺ¤ë¥¸íĮĶ":11388,"ĠìĥĺíĶĮ":11389,"Ġì¶ľíĮĲìĤ¬":11390,"Ġê³łë¦½":11391,"ĠëıĦìĸ´":11392,"ëĤĺìĻĢ":11393,"Ġì¡°íıŃ":11394,"ĠìĬ¬ëĿ¼ìĿ´ëĵľ":11395,"Ġìĺ¤ëħ¸":11396,"Ġë°ľíĤ¤ë¦¬":11397,"ĠìķĦìľł":11398,"Ġëħ¸ê³¨":11399,"ìĤ¼ì§Ħ":11400,"Ġìĭľë²Ķ":11401,"ĠSch":11402,"Ġë¶Ħë°°":11403,"íĴĢìĿ´":11404,"ty":11405,"Ġìĺ¤ì¦Ī":11406,"Ġê³µì§ľ":11407,"Ġì´Īì½Ķ":11408,"Ġì¿µ":11409,"Ġfrom":11410,"íĥĲìłķ":11411,"ĠìĪĻëł¨ëıĦ":11412,"ĠíķĺëıĦ":11413,"ĠìķĦíı¬":11414,"Ġìļ°ìĬ¤":11415,"Ġìķ½ì²´":11416,"ĠLO":11417,"Ġë¯¸ìĨĮëħĢ":11418,"ĠíķŃëª¨":11419,"íĻľìķ½":11420,"ĭĺ":11421,"ĠëĮĢêµ°":11422,"Ġright":11423,"ìķĬ":11424,"Ġì¤ĳë¶Ģ":11425,"ĠìĥĮëĵľ":11426,"ãĤģ":11427,"ĠíĿ¬ìĥĿìŀĲ":11428,"Ġìĭľë®¬ëłĪìĿ´ìħĺ":11429,"800":11430,"ëĴ¤":11431,"Ġìłľë°ľ":11432,"Ġë§¹íĻľìķ½":11433,"ķ·":11434,"Ġê¹Ģìľ¤":11435,"ëĦ¤ìĿ´":11436,"ìĬ¤íĥĢìĿ¼":11437,"ê³łìĬ¤":11438,"ĠíĻĶê°Ģ":11439,"ì£¼êµĲ":11440,"Ġì´ĪìłĲ":11441,"ĠìĿĳìĭľ":11442,"ble":11443,"Ġê³łìĬ¤":11444,"ĠáĨ¯ëŀĺ":11445,"ĠìĪĺìĭł":11446,"ĠâĪ":11447,"Ġ1975":11448,"Ġë¯¸ìĪĻ":11449,"Ġìķ¼ë§Ŀ":11450,"Ġë®Į":11451,"ĠëłĪê·¤ëŁ¬":11452,"ĠìĭłìĪĺ":11453,"ĠSA":11454,"¨¸ë¦¬":11455,"å¹":11456,"Ġì§Ģë£¨":11457,"Ġìĺ¤ìĹŃ":11458,"êµĲìĤ¬":11459,"ĠëŀľìĦľ":11460,"ìĬ¤íĬ¸ëĿ¼":11461,"ĠëıĻìĥģ":11462,"ĠíĹ¨":11463,"ĠíĶĮëŁ¬":11464,"íĶĦëĿ¼ìĿ´":11465,"ĠëĮĢìĭľ":11466,"ìĸ´ì§Ģ":11467,"ĠNight":11468,"Ġë°°ìĭłìŀĲ":11469,"Ġì°°ëĤĺ":11470,"ĠìĺĪê³łíİ¸":11471,"Ġê²°ìĿĺ":11472,"Ġ103":11473,"Ġë¯¼ì¤ĳ":11474,"¡¯":11475,"ĠìłģìĭľíĥĢ":11476,"Ġê²½ë³´":11477,"Ġíĺ¹íıī":11478,"ë¨¼íĬ¸":11479,"ĠìĬ¤íĨłì»¤":11480,"Ġê°ľêµĲ":11481,"ĠíıīíĮĲ":11482,"Ġë¹Ħì°¸":11483,"íģ´ë¦¬":11484,"ĭŃ":11485,"Ġì¡°ë¦½":11486,"Ġëį°ìĿ´ë¹Ĺ":11487,"Ġíıīë¡łê°Ģ":11488,"Ġê°ķíĥĪ":11489,"ê²¸":11490,"ëĭīìĬ¤":11491,"Ġì£¼êµĲ":11492,"ĠíĻĶìĦĿ":11493,"ĠìĦĿìľł":11494,"ĠìĦ¸ì»¨":11495,"Ġë§¤ê·¸ë":11496,"Ġê³¨íĶĦ":11497,"2013":11498,"ĠíĥĪìĤ¼ì§Ħ":11499,"íį¼ëĭĪ":11500,"Ġìĭ±ê°Ģíı¬ë¥´":11501,"PN":11502,"Ġíķ´ìłĦ":11503,"Ġê´Ģë£Į":11504,"Ġë¶ĦìĩĦ":11505,"Ġnot":11506,"67":11507,"ĠìĿ´ëĵľ":11508,"ĠìŀĲëĦ¤":11509,"Ġì¶¥":11510,"ìļ´ìĪĺ":11511,"ĠLa":11512,"Ġëĭ´ìŀĦ":11513,"Ġíľ´ë¨¼":11514,"Ġíķĺì§Ģë©Ķ":11515,"ĵ£":11516,"Ġë§ĪìĿĮë":11517,"Ġê³µíĹĮ":11518,"Ġë°ĺê¸°":11519,"ê»ĳ":11520,"Ġë§ĪìĿĮëĮĢë¡ľ":11521,"Īë£¨":11522,"ĠMon":11523,"ĠëłĪìĿ¸ë³´ìļ°":11524,"Ġì¹´ì¦Īë§Ī":11525,"Ġëŀį":11526,"Ġíİĺë¦¬":11527,"Ġç´":11528,"ĠíĸĦ":11529,"Ġíı¬íħĲ":11530,"ĠìķĮìķĦë":11531,"Ġë°ľìĤ¬ê¸°":11532,"300":11533,"ĠìĿĺìķĦ":11534,"Ġíı¬ìħĺ":11535,"ĠíķĻìĤ¬":11536,"ĠëģĿìŀ¥":11537,"Ġìļ´ìĺģìŀĲ":11538,"ëĪĦìĬ¤":11539,"Ġìĸ´ëĤĺ":11540,"¸ëį°":11541,"Ġë³´íİ¸":11542,"Ġìľłì¹´ë¦¬":11543,"ĠëıĻìĦľ":11544,"ĠMus":11545,"ĠEl":11546,"Ġcom":11547,"Ġë¬´íķľëıĦìłĦ":11548,"ĠìĬ¤ìĻ":11549,"Ġë°ľê¸ī":11550,"Ġë°ĺêµ°":11551,"ĠíĻ©ìĭ¤":11552,"Ġ1976":11553,"Ġì¤ĳíķĻ":11554,"Ġê°ķíĥĢ":11555,"Ġë¦¬ë¯¸":11556,"ĠìĤ¼ìĦ±ìłĦìŀĲ":11557,"Ġë§Īíķĺ":11558,"ĠëĿ¼ëĿ¼":11559,"Ġê°ľíĮĲ":11560,"ĠíĨµìĨĶ":11561,"ĠAt":11562,"Ġê·¹ìļ°":11563,"Ġê¿ĩ":11564,"ĠìĤ¬ê·¹":11565,"ìĽ¬":11566,"Ġìļ°ì¹ĺ":11567,"Ġìļ°ëĳĲ":11568,"ì°¨ìĿ´ì¦Ī":11569,"ĠìĻķê°Ģ":11570,"Ġ128":11571,"Ġãģł":11572,"Ġ112":11573,"ĠëļĿ":11574,"ĠëĪĪëıĻìŀĲ":11575,"Ġìĭłëį°ëłĲëĿ¼":11576,"Ġì§Ģë©´":11577,"ĠìĿ¼ì£¼":11578,"ĠíŀĪê°Ģìĭľ":11579,"ĠìĻ¸ë¡Ń":11580,"ĠìĨĮìĥĿ":11581,"Ġì¶ľìłľ":11582,"Ġãģ¿":11583,"Ĥ¨ëıĦ":11584,"ĠíħĮìĿ´íĶĦ":11585,"Ġìĭľìĸ´":11586,"Ġï¼Ī":11587,"ĠíĮĮìĿ´íĬ¸":11588,"Ġìŀħìĭľ":11589,"Ġë§Ľë³´":11590,"ĠìĿĺìĿĺ":11591,"ĠìĭłìŀĦ":11592,"ĠíĮ¨ëĵľ":11593,"Ġìĺ¤ë¡ľì¹ĺ":11594,"ĠìĪĺíķĺ":11595,"ĠìĬ¤íĶĮëŀĺ":11596,"Ġë¦¬ì²ĺ":11597,"Ġìĥ¤ìĺ¤":11598,"ĠìºĶìĬ¬":11599,"ĠëĤľë¯¼":11600,"Ġë§ĪìĿ¼":11601,"ĠãģŁ":11602,"Ġì»´ë°±":11603,"Ġì§ĦëıĦ":11604,"ĠQu":11605,"ì§ĢìĤ¬":11606,"Ġìĭľëª¨":11607,"Ġì¡°ë¡ľ":11608,"Ġë¶Īì¾Į":11609,"Ġë¯¸ëģ¼":11610,"íħĮëĿ¼":11611,"Ġë¹Īìķ½":11612,"Ġê²Įìĭľë¬¼":11613,"Ġê°Ŀê´Ģ":11614,"ä¹ĭ":11615,"ĠëģĵìĿ´":11616,"ĠìĦ±ìĪĻ":11617,"íĦ´íĬ¸":11618,"ĠìŀĶíķ´":11619,"Ġï¼ī":11620,"Ġì¹´ëłĮ":11621,"íĨ°":11622,"Ġìķħìĸ´":11623,"Ġì¿łë£¨":11624,"Ġìķ¡ì²´":11625,"Ġê²½ìĥģë¶ģëıĦ":11626,"´Ŀ":11627,"Ġìĥģìĸ´":11628,"ĠSo":11629,"ĠìĬ¹ê¸ī":11630,"ĠíĶĦë¡ľëĵĢìĬ¤":11631,"65":11632,"Ġë¶Ģìłģ":11633,"Ġìłķíĺķ":11634,"Ġë©ĶìĦ¸ì§Ģ":11635,"ĠíĮ©íĬ¸":11636,"ìģ":11637,"Ġê°Ģë¸Įë¦¬":11638,"Ġëĭ¬ëŀĺ":11639,"Ġë³µìĿĮ":11640,"ĠìķħìĿĺ":11641,"ĠìłľëĭĪ":11642,"Ġê±¸ì¦Ī":11643,"Ġíĺ¸ëĵľ":11644,"æĻ":11645,"Ġì¡°ìĪĺ":11646,"ange":11647,"ĠìĿĳëĭµ":11648,"Ġen":11649,"ĠìĿ´ëħĲ":11650,"ĠëĤ¨ìĸĳ":11651,"Ġë©Ķëª¨":11652,"Ġë³ĳìĹŃ":11653,"uk":11654,"ĠìĦłìĽĲ":11655,"EL":11656,"ĠëĮĢìĪĺ":11657,"ĠìĪľì°°":11658,"ĠíĶĦëŀŃíģ¬":11659,"ĠëĮĢëªħ":11660,"Ġì´Īê³¼":11661,"Ġì§ģì±ħ":11662,"Ġê·¹ìķħ":11663,"Ġì§¤ë¦¬":11664,"ĠìĹĲë°Ģë¦¬":11665,"Ġëĭ¨ìĹŃ":11666,"Ġ175":11667,"Ġê³¤ì¶©":11668,"Ġall":11669,"ĠìĿ¼ê°ģ":11670,"Ġìĭ¤ë¡ľ":11671,"Ġë¯¸ë¡ľ":11672,"Ġì¤Ħê¸°":11673,"ìĿ¸ê°Ħ":11674,"ĠìłĦíķĻ":11675,"ĠìĹ¬ì£¼ìĿ¸ê³µ":11676,"Ġë¬¸ìĿĺ":11677,"ĠìłĦëıĦ":11678,"Ġë¡ľë¹Ħ":11679,"ĠëłĪëĤĺ":11680,"Ġê¸ĪìļĶìĿ¼":11681,"ĺĪ":11682,"Ġê±°ì§Ģ":11683,"ìĥģê°Ģ":11684,"Ġíģ¬ëŀĺíĶĦíĬ¸":11685,"ĠRo":11686,"ĠëĮĢëĵ±":11687,"íĥĢìļ´":11688,"Ġíĺ¸ìĿĳ":11689,"Ġëħ¸íĬ¸ë":11690,"ĠìĭľëĦ¤ë§Ī":11691,"Ġë¹Ħê¼¬":11692,"Ġì²łê°ĳ":11693,"Ġë§Ŀìĥģ":11694,"Ġê¹¨ìļ°":11695,"Ġìµľì¢ħìłĦ":11696,"69":11697,"Ġì¹´ìĤ¬":11698,"Ġì§ģíĸī":11699,"ĠíħĮëĭĪìĬ¤":11700,"Ġëħ¸ë¥´ìĽ¨ìĿ´":11701,"Ġëĭ¤íģĲë©ĺíĦ°ë¦¬":11702,"Ġë³¸ìĿĺ":11703,"ìķĻìĬ¤":11704,"ĠíĢ´ì¦Ī":11705,"ìĤ¬ìĭ¤":11706,"ĠëĤ´ìłķ":11707,"ĠìĤ¼ê±°ë¦¬":11708,"Ġêµ³íŀĪ":11709,"ĠìĬ¤íĨłìĸ´":11710,"çļĦ":11711,"Ġì²Ńì¶ĺ":11712,"ĠìķĪë³´":11713,"Ġì°½ìŀĳë¬¼":11714,"Ġì¸¤ëį°ëłĪ":11715,"Ġê³łì¢ħ":11716,"ĠíĶĦë¡¤":11717,"Ġë©ĶëĶĶ":11718,"ê°ľìĿ¸":11719,"Ġì§ĦìĪł":11720,"Ġì¿¤":11721,"ĠëĥīëıĻ":11722,"Ġä¸ī":11723,"ŀĦ":11724,"Ġëĵľëŀĺê³¤ë³¼":11725,"ĠìķĪëıĻ":11726,"Ġë©ĶìĿ´ìłĢë¦¬ê·¸":11727,"Ġê°ĢìĦ¤":11728,"ĠëıĻêµ¬":11729,"Ġê¹ĢìĹ°":11730,"Ġê¸īíĸī":11731,"ater":11732,"ĠíĻĺíĺ¸":11733,"ì¨©":11734,"ĠëĤĺëŀĢ":11735,"ics":11736,"ĤłëĳĲ":11737,"ĠíŀĪëĤĺíĥĢ":11738,"ê³µíĻĶêµŃ":11739,"Ġì¤ĳêµ¬":11740,"ĠìķĦìŀĲ":11741,"Ġêµ¬ìłľ":11742,"ĮëįĶ":11743,"Ġë°ľë°ľ":11744,"72":11745,"çī":11746,"ĠáĨ«ëĭ¤ëĵł":11747,"Ġíķ¨ìŀ¥":11748,"ëĳĶ":11749,"Ġì±Ħì°į":11750,"ĠëıĦê°Ĳ":11751,"ĠëĮĢëª©":11752,"Ġë°°íĬ¸":11753,"ĠíĨµì¦Ŀ":11754,"Ġê¸°ìĪłëł¥":11755,"Ġ210":11756,"Ġì¡¸ìĹħìĭĿ":11757,"ĠÉ":11758,"ë¯¸êµŃ":11759,"Ġê°ĲìĦ±":11760,"Ġì§ĪíĻĺ":11761,"ĠìĤ¬ë¬¼":11762,"Ġìĭľê°Ģì§Ģ":11763,"Ġìłķì¤Ģ":11764,"ì¹´ê²Į":11765,"Ġì§Ħë¡ľ":11766,"Ġê·¸ëĿ¼ìļ´ëĵľ":11767,"Ġíķĺê¸°":11768,"ì§ĢìķĬ":11769,"ìĹł":11770,"ëª¸":11771,"Ġë°ľíĥģ":11772,"ĠBo":11773,"ĠíŀĮíĬ¸":11774,"Ġê´´ìĿ¸":11775,"ĠìĸĮìłĦ":11776,"Ġê±°ê¾¸ë":11777,"Ġë§ĪìĪĺ":11778,"ĠìĿ¸ë¬¸":11779,"Ġê²½ì°°ì²Ń":11780,"ĠíĮ©ìħĺ":11781,"ĠíħįìĤ¬ìĬ¤":11782,"íķĦë¡ľ":11783,"Ġìĸ´ëĵľë°´":11784,"åİ":11785,"Ġìĭľì¡°":11786,"Ġìĺ¤íİĺëĿ¼":11787,"ĨĢ":11788,"Ġì£¼ìľł":11789,"ĠêµĲìĹŃ":11790,"inal":11791,"Ġì¼Ģë¦¬":11792,"Ġì°©ì§Ģ":11793,"Ġê°ĢìĿ´ìķĦ":11794,"ê·¼ë":11795,"Ġìľłì¹ĺìĽĲ":11796,"è»":11797,"ĨĪ":11798,"ê³łìĤ¬":11799,"ĠìĭłìĥĿ":11800,"ìĨĮìĪĺ":11801,"Ġë§ŀë¬¼ë¦¬":11802,"Ġíĺ¸ëĤłëĳĲ":11803,"Ġnd":11804,"ãħĭãħĭ":11805,"ìĿĦë":11806,"Ġìĥģê³µ":11807,"ĠRed":11808,"ëĿ¼ëĬĶ":11809,"Ġä¼":11810,"ĠìĽĲë§Ŀ":11811,"ãĤı":11812,"ĠíĹ¤ëĿ¼":11813,"ĠìķĦìĬ¤íĬ¸ëĿ¼":11814,"ĠìĿ´ìĤ¬ìŀ¥":11815,"ĠëıĦì¿ł":11816,"ĠìĤ¬ìĻĢ":11817,"ê³¼ìĿ´":11818,"ìĸ¸ìĬ¤":11819,"ê¶ĮëıĦ":11820,"ĠVol":11821,"ìķĦìĬ¬":11822,"Ġì¿¨íķĺ":11823,"85":11824,"ĠìĪĺìĹ¬":11825,"ĠíĮ°":11826,"Ġê²½ìĥģëĤ¨ëıĦ":11827,"ĠêµĲì°¨ë¡ľ":11828,"64":11829,"ĠëĤ¯":11830,"Ġìĺ¤ê³µ":11831,"ĠëįĶêµ¬ëĤĺ":11832,"Ġå¿":11833,"ĠìľĦìĭľ":11834,"ĠRem":11835,"ĠìłĦë°ĺê¸°":11836,"ĠìĭŃìŀĲê°Ģ":11837,"íĥĦì´Ŀ":11838,"ë²³":11839,"ĠìĽĲíĻĶ":11840,"ĠCo":11841,"ĠëŀĢìĬ¤":11842,"ĠìĿ´ìĪľìĭł":11843,"ĠìĿ´ëĭ¨":11844,"Ġë§ĳ":11845,"Ġìŀ¬ì¦Ī":11846,"ors":11847,"ĠíĥģìĽĶ":11848,"íĤ¤ìĬ¤íĥĦ":11849,"ĠìķĹ":11850,"Ġë¶Ģì²ĺ":11851,"Ġìļ°ëĿ¼":11852,"ãĤĦ":11853,"Ġë¹Ħëĭ¨":11854,"ë°ķìĬ¤":11855,"íĳľë":11856,"ĠìĬ¤ì¼Ģì¤Ħ":11857,"Ġë§Īì§ķ":11858,"ĳĲë¥´":11859,"Ġë¦¬ì½Ķ":11860,"ĠíĽĦëĵľ":11861,"Ġë§ĮíĻĶê°Ģ":11862,"Ġê¸°íĸī":11863,"ĠìĪĺì»·":11864,"Ġìłķì¡°":11865,"Ġê¹ĮìĿ´":11866,"Ġìłľë³´":11867,"Ġì§ĢìĹŃêµ¬":11868,"Ġë¯¼ìĽĲ":11869,"FL":11870,"çľ":11871,"Ġë¸ĶëĿ¼":11872,"Ġê·¼ìĦ±":11873,"Ġì¹¨íķ´":11874,"ëĺĲ":11875,"Ġì§Ģê·¹":11876,"ĠìĭľëģĦëŁ½":11877,"íĭ°ì½ĺ":11878,"ĠìĬ¹íĮ¨":11879,"ìľĦìĽĲ":11880,"Ġë¶Īê°ĢìĤ¬ìĿĺ":11881,"Ġë²łë¥¼ë¦°":11882,"ħĦë":11883,"ĠìĬ¤íĥĢì¦Ī":11884,"ëĬĲëĭĺ":11885,"Ġëĭ¤ì§Ĳ":11886,"Ġë¡ľìĬ¤íĦ°":11887,"ĠìĦ¸ìŀĲ":11888,"Ġë²ĦíĦ°":11889,"ert":11890,"íĬ¸ë£¨":11891,"Ġíĺ¼ìĿ¸":11892,"ĠíķĦëĳĲ":11893,"Ġìºĺë¦¬íı¬":11894,"Ġë©´ìłľ":11895,"ëıĦìĸ´":11896,"ãĥŁ":11897,"app":11898,"ĠìĿ´ì¼Ģ":11899,"ĠìłķìĦľ":11900,"ĠìķĦëĭ´":11901,"ĠíķĻìłĲ":11902,"ĠëĦ¤ìĿ´ìħĺ":11903,"Ġíģ´ëŁ¬":11904,"ĠìķĦìĬ¬ìķĦìĬ¬":11905,"ĠìĻ¸ìķ¼ìĪĺ":11906,"³´ëĵľ":11907,"Ġê²©íĩ´":11908,"Ġê°Īê¸°":11909,"Ġë§Īë¥´ì½Ķ":11910,"Ġê¸°íķľ":11911,"íİĳ":11912,"Ġë§¤íĬ¸":11913,"ĠëĦĪíģ´":11914,"Ġë¶Īë¦¬ìļ°":11915,"²łë¥´":11916,"Ġë®ĮíĹ¨":11917,"ĠìĭłëħĲ":11918,"Ġìµ¸":11919,"Ġì°¸ìľ¼ë¡ľ":11920,"ĠDo":11921,"ĠíĤ¤ìļĶ":11922,"ĠìķŀìĦ¸ìļ°":11923,"Ġì§Ģê°ģ":11924,"ĠíĥĢë¡ľ":11925,"Ġë³¸ê°Ģ":11926,"ë¦¬íĬ¸":11927,"ĠìŀĲì¹«":11928,"ĠìĪĻì£¼":11929,"íĸĦ":11930,"Ŀ¼ë³´":11931,"ìłľìĬ¤":11932,"ĠìłľìĿ¸":11933,"Ġë¦¬ë²ł":11934,"ê¸Ģë§ģ":11935,"ãĥĥãĤ¯":11936,"ĠìķĮìķĦëĵ£":11937,"ĠìĤ¬ëĤ´":11938,"ĠìĦ±íıŃ":11939,"Ġì¡°íķŃ":11940,"Ġì¹´íħĮ":11941,"ìĤ°ëıĻ":11942,"Ġ109":11943,"ĠFire":11944,"ĠìĬ¤íħĮìĿ´":11945,"Ġ1974":11946,"ĠìĿ¸ì²´":11947,"Ġì¶Ķê¶ģ":11948,"ĠGM":11949,"ĠìĤ°íĥĦì´Ŀ":11950,"ĠíĮĮìĿ´íĶĦ":11951,"ĠìĤ¬íļĮì£¼ìĿĺ":11952,"Ġ1972":11953,"ĠìķĦì¹´ìĿ´":11954,"Ġë¬´ì§Ģê°ľ":11955,"Ġãģ£ãģ¦":11956,"æľ¨":11957,"íķĺìĹ¬":11958,"íĬ¸ëĦĺ":11959,"Ġê¸Īê³ł":11960,"Ġçµ":11961,"Ġë¶Īë¬¸":11962,"ĠáĨ¯ì§ĢëĿ¼ëıĦ":11963,"Ġê°ĢëĿ¼ìķī":11964,"DS":11965,"Ð»":11966,"¡ľëĵľ":11967,"Ġê¹½":11968,"Ġì¹´ë¥¼":11969,"ëłĪìĺ¹":11970,"ĠëıĦìĤ¬":11971,"ĠìĬ¤ìĻĢ":11972,"ìĥģìľĦ":11973,"Ġë§¤ê¸°":11974,"ĠìĹ¼ëĳĲ":11975,"å·Ŀ":11976,"let":11977,"ĠìĨĮë¹ĦìŀĲ":11978,"ëİ":11979,"Ġë³´ì§ģ":11980,"Ġìľłì§Ħ":11981,"ĠìĦłíļĮ":11982,"Ġ...!":11983,"ĠíĨµíĸī":11984,"Ġì¦ĿìĿ¸":11985,"Ġì»´íį¼ëĭĪ":11986,"Ġê¼¼ìĪĺ":11987,"éĩİ":11988,"Ġê±°ê¾¸ë¡ľ":11989,"OO":11990,"Ġë¬´ëĦĪë":11991,"Ġíķ´ìļ´":11992,"Ġë§ŀëĮĢ":11993,"ĠëķĮëł¤ìŀ¡":11994,"Ġê²½ì§Ģ":11995,"ĠíĶ¼ì¹ĺ":11996,"ings":11997,"ê³§":11998,"Ġê´Ģê´ĳê°Ŀ":11999,"Ġë°ľìłĦìĨĮ":12000,"ats":12001,"Ġë§ĪëĿ¼":12002,"Ġíķ¸ëĵľíı°":12003,"Ġìĸ´ê¸ĭëĤĺ":12004,"ĠìĤ¬ìļ°ìĬ¤":12005,"ĠíĶĦë¡ľê·¸ëŀĺ":12006,"ĠìĬ¤íĥľë":12007,"ìµ¸":12008,"Ġë¬´ëĦĪëľ¨ë¦¬":12009,"Ġì¹ĺíķĺ":12010,"Ġ121":12011,"ëįĶìĬ¤":12012,"ë°Ń":12013,"ĠëĳĲë£¨":12014,"ĠìĦĿìĥģ":12015,"ĠìĬ¤íĥĪë¦°":12016,"TR":12017,"ĠìĦ±ì§Ģ":12018,"ĠìĹ°ìŀĩ":12019,"Ġë¬¸ìĭł":12020,"ĠìĦ¤ë§Ī":12021,"atch":12022,"Ġwill":12023,"łĪë¸Ĳ":12024,"ma":12025,"way":12026,"ĠìĬĮ":12027,"©º":12028,"Ġ111":12029,"itt":12030,"å¯º":12031,"Ġíķĺì¹ĺ":12032,"Ġê±°íĴĪ":12033,"Ġëĵ±ìŀ¬":12034,"ĠìĹ°ëĭ¬":12035,"Ġìĸ´ëĤĺëįĶ":12036,"Ġì£¼íĻ©":12037,"ĠíĶ¼ìĺ¤":12038,"Ġíķĺë£¨íŀĪ":12039,"Ġì§ĢìĦ±":12040,"Ġë³´ë£¨":12041,"ĠSl":12042,"ĠìłľëĮĢ":12043,"Ġì´Ŀëıħ":12044,"Ġ1977":12045,"Ġíĵ¨ìłĦ":12046,"ĠìłķëıĦìłĦ":12047,"Ġtr":12048,"ĠìĽĮíĦ°":12049,"Ġlv":12050,"ĠìĬ¤ì¿ł":12051,"ĠìĿ¼ë¡Ģ":12052,"ĠìĦ¤íĥķ":12053,"Ġ1200":12054,"ĠëĿ¼ìĿ´íĬ¸ë":12055,"Ġíĥ±íĤ¹":12056,"Ġê°Ģë¸Įë¦¬ìĹĺ":12057,"Ġíĺ¹ìĤ¬":12058,"Ġìłľê°Ī":12059,"ĠíĻķìĹ°":12060,"Ġì²ľìĥģ":12061,"å¤©":12062,"ĠìĬ¤íĮĮë¥´íĥĢ":12063,"ĠìĿ´ë§Į":12064,"ĠìĤ¬ìĨĮ":12065,"ìłĦíĬ¸":12066,"ë²Īíĺ¸":12067,"ĠìĿ´ìļ©ê°Ŀ":12068,"ĠìĬ¤ëª¨":12069,"Ġì¹´ë¥¼ë¡ľ":12070,"Ġë°ķì¢ħ":12071,"ĠëĪĦëªħ":12072,"ëļ«":12073,"ĠìĪĺìĦ±":12074,"Ġìĥģíķľ":12075,"Ġìľłìĭł":12076,"Ġìľłë¨¸":12077,"Ġêµ¬íĺ¸":12078,"Ġíı¬ëıĦ":12079,"Ġì¢ĮíĮĮ":12080,"ë§ĪìĤ¬":12081,"ĠPar":12082,"Ġì´ĪëĬ¥":12083,"ĠìĨĶìłĢ":12084,"ĠíĬ¸ëŀľìĬ¤íı¬ë¨¸":12085,"ĠìĿ´ì¿ł":12086,"ĠìłĦëĳĲ":12087,"ĠME":12088,"Ġìķ½ì¹Ń":12089,"Ġìĸĳìĭ¬":12090,"íį¼ëĵľ":12091,"ëĭĪìĻĢ":12092,"Ġ190":12093,"Ġíıīëĵ±":12094,"ĠíĤ¤ëĵľ":12095,"íħĮëĦ¤":12096,"ìŀĦì¦Ī":12097,"Ġìĥģë¶Ģ":12098,"ĠGG":12099,"ì¼ĢìĿ´":12100,"ê¶ĮìŀĲ":12101,"Ġì£ĦìĪĺ":12102,"Ġë°°ìĥģ":12103,"ĠìķĶì»·":12104,"Ġì±ħìĥģ":12105,"ĠíĿĳë§Ī":12106,"ĠìĤ¬ìķ¼ì¹´":12107,"å³":12108,"Ġì¡´ìĬ¨":12109,"Ġë¯¸ë¯¸":12110,"íİĺë¦¬":12111,"Ġë°ĶìĿ´íģ¬":12112,"Ġë¶ĢìĤ°ê´ĳìĹŃìĭľ":12113,"íķĦë¡ľê·¸":12114,"Ġìĸ´ìłľ":12115,"Ġê³łëł¹":12116,"ĠìĦ±ê¸°":12117,"ĠãĤ¹":12118,"ĠMk":12119,"Ġë¹Ħë¡ľ":12120,"ĠíħĮìĺ¤":12121,"ĠìŀĲíĮĲ":12122,"ĠìĿ¼íĴĪ":12123,"ì²¸":12124,"Ġíģ¬ë¡¬":12125,"ĠíħĮìĿ¼ì¦Ī":12126,"ĠíĿ¬ëĮĢ":12127,"ĠìķĪë©´":12128,"ä¿":12129,"Ġë¶Ģì¹ľ":12130,"ĠìĿ¼ìĤ¼":12131,"Ġê²°ìłķìłĦ":12132,"ĠíħĮíģ¬ëĭī":12133,"ëĩ¨":12134,"°¥":12135,"ĠíķĺëĬĲëĭĺ":12136,"ĠSer":12137,"Ġìļ©ìĿĺìŀĲ":12138,"Ġê°ľë¯¸":12139,"oss":12140,"Ġë°ķì¥Ĳ":12141,"ĠíĪ¬ëĭĪë²ĦìĬ¤":12142,"Ġíķ©ë²ķ":12143,"ĠëłĪìĿ´ë¸Ķ":12144,"ê±Ģ":12145,"ĠëĤĺíı´ëłĪìĺ¹":12146,"ye":12147,"Ġê³łê³ł":12148,"Ġê³µêµŃ":12149,"que":12150,"ë¦¬ê°Ģ":12151,"Ġíķľìĸĳ":12152,"Ġê°ľê·¸ë§¨":12153,"Ġìĭ¬ë¬¸":12154,"ĠëĤĺë£¨íĺ¸ëıĦ":12155,"Ġê¹Ģì£¼":12156,"Ġì·¨ì§Ģ":12157,"ĠëīĺìķĻìĬ¤":12158,"Ġë¶ĢëŁ½":12159,"Ġê°ķìĬµ":12160,"Ġìķ¨ëŁ°":12161,"¯¸ëĤĺ":12162,"ĠìĬ¤íİĺìĿ¸ìĸ´":12163,"Ġë¹ĦíĤ¤":12164,"Ġë¯¸ë¥´":12165,"Ġê¹ĥëĵ¤":12166,"Ġë¦¬íĥĢ":12167,"ĠSte":12168,"íģĺëĿ¼":12169,"ĠìķĪíĨłëĭĪ":12170,"ë¹Ĺ":12171,"ĠTOP":12172,"Ġé»":12173,"Ġìļ°ëĳĲë¨¸ë¦¬":12174,"Ġê³µì²ľ":12175,"ĠìłĢê¸Ģë§ģ":12176,"Ġìŀ¬ë¹¨ë¦¬":12177,"ĠëĬ¥ìĪĻ":12178,"ĠìĦľëªħ":12179,"ë¯¼ì£¼":12180,"ìĹ¬ê¸°":12181,"Ġë°©ìĨ¡ìĤ¬":12182,"Ġëĵľë¦´":12183,"łĪìĿ´íĬ¸":12184,"Ġë©¸ì¢ħ":12185,"Ġëĭ¤íĪ¼":12186,"ëĤĺë¥´":12187,"ë¡ľë¡ľ":12188,"ĠìķĦë¦¬ìķĦ":12189,"ãĥĥãĥ":12190,"¸ëĿ¼":12191,"Ġì£¼ê°Ģ":12192,"ĠíĥĦëıĦ":12193,"Ġë§Īì¹´":12194,"Ġì¤ĳëħĦ":12195,"Ġëªħëªħ":12196,"ĠíĪ¬ìĦ±ìĿ´":12197,"Ġë¯¼ìłķ":12198,"Ġê¶ģìłĦ":12199,"ĠìĪłì§ĳ":12200,"ĠìĻ¸ë©´":12201,"Ġêµ¬ëıħìŀĲ":12202,"ĠìŀĲê°ģ":12203,"Ġì¡°êµĲ":12204,"89":12205,"ãģĽ":12206,"ĠIm":12207,"ì´Īë":12208,"Ġ1971":12209,"±Ģ":12210,"ĨĮë":12211,"ĠìĹĲíķĦë¡ľê·¸":12212,"Ġíķľê°ķ":12213,"Ġì¶Ķëª¨":12214,"Ġê°Ĳê¸°":12215,"Ġãģ¡":12216,"Ġå¹":12217,"Ġë£¨ë§ĪëĭĪìķĦ":12218,"ject":12219,"ë§ĪìĿ´íĬ¸":12220,"Ġthis":12221,"ĠëĶĶìķĦë¸Ķë¡ľ":12222,"ĠíķĺìĹ¬ê¸Ī":12223,"ĠíĬ¸ëŁ¬ë¸Ķ":12224,"Ġê³µê³ł":12225,"ìĦ±ìļ°":12226,"Ġë°ľíĨ±":12227,"Ġê¿°ëļ«":12228,"Ġëħ¸ìĪĻ":12229,"ĠEm":12230,"ĠìĬ¬ìĬ¬":12231,"ĠìĿ´íĥĢ":12232,"ĠìķĦë¦¬ìĬ¤":12233,"ëĤŃ":12234,"ĠëĮĲ":12235,"Ġëļľê»ĳ":12236,"Ġë¯¸ëıĦë¦¬":12237,"ê°Ħì":12238,"Ġë¡ľìĬ¤íĬ¸":12239,"Ġë¹Īë²Ī":12240,"ĠìĿ¼íĻĺ":12241,"ĠíĨłìļ°":12242,"ĠãģĻ":12243,"ì»¤ëħķ":12244,"ĠëĿ¼ìĿ´ìĦ¼ìĬ¤":12245,"ìĬ¬ëĿ¼":12246,"Ġëª¨ìĸĳìĥĪ":12247,"Ġìľłì¦Ī":12248,"Ġìŀ¬ë°°":12249,"ĠçĽ":12250,"very":12251,"ype":12252,"Ġê¸°íĶ¼":12253,"Ġê´ĢìłĪ":12254,"ëĤ´ë¦¬":12255,"Ġìĭ¬íĻĶ":12256,"ĠíŀĪë¹ĦíĤ¤":12257,"ĠìŀĲìľĦëĮĢ":12258,"ĠëıĻìĤ¬":12259,"ĠìķĦíı´":12260,"ĠìĬ¤íĢ":12261,"ĠíĽĪíĽĪ":12262,"ĠìĤ´ìĿ¸ë§Ī":12263,"GA":12264,"ĠìĤ¬íĥĦ":12265,"ë¶ĢíĬ¸":12266,"ê±°ìĬ¤":12267,"Ġê¹ĢìĦł":12268,"Ġëª©ëıĻ":12269,"ĠìĸĳíĮĮ":12270,"ĠìĲĲê¸°":12271,"ĠDR":12272,"Ġë²Ķíĸī":12273,"Ġê¸°ê´Ģíı¬":12274,"Ġê¹ĢëĮĢì¤ĳ":12275,"Ġì¡´ëĮĢ":12276,"ĠëĿ¼ìĿ´íĬ¸ëĭĿ":12277,"Ġone":12278,"Ġê³µìŀĲ":12279,"Ġì»¤ë¹Ħ":12280,"Ġë®¤ì§Ģìħĺ":12281,"Ġì¡°ì§ģìĽĲ":12282,"Ġê³µìĤ°ì£¼ìĿĺ":12283,"ta":12284,"Ġê±°ë¥´":12285,"Ġë¬´ë¹Ħ":12286,"Ġì¹´ìĿ¼":12287,"Ġë²ĪìĭĿ":12288,"Ġë°°ìĨ¡":12289,"ì²ľêµ°":12290,"Ġìĺ¥íĥĢ":12291,"íĤ¨ìĬ¤":12292,"Ġíĺ¼ëıĻ":12293,"Ġíĺ¸ë¦¬":12294,"Ġê³µëª¨":12295,"ĠíĨłíĬ¸ëĦĺ":12296,"Ġíĥľê¶ĮëıĦ":12297,"Ġé«ĺ":12298,"ĠìķĦìĤ¬íŀĪ":12299,"ĠKTX":12300,"ì«ĵ":12301,"ĠëıĻíĺ¸":12302,"Ġë°ĺë¡ł":12303,"Ġì¹ĺë§Ī":12304,"Ġìĭ¬ìķ¼":12305,"ĠëıĦëĿ¼ìĹĲëª½":12306,"ì§Ģë°©":12307,"Ġìĺ¤ë°Ķ":12308,"Ġëĭ¬ê±Ģ":12309,"ĠìĿĺìłķë¶Ģ":12310,"Ġì¤ĳëıĦ":12311,"ĠìłĦë¡Ģ":12312,"ĠåĬ":12313,"ëģĪ":12314,"Ġìĺģëĵ±":12315,"ì¤Ģíĳľ":12316,"ĠíĻķê³ł":12317,"Ġìļ´ìĦĿ":12318,"ough":12319,"Ġê²¸íķĺ":12320,"ë°¤":12321,"ê³µê²©":12322,"able":12323,"Ġë¦¬ì²ĺëĵľ":12324,"Ġëĭ·":12325,"íĨµìĪĺ":12326,"Ġì§ĳíķ©":12327,"Ġë¸ĮëĿ¼ëįĶìĬ¤":12328,"che":12329,"Ġìłľêµ¬":12330,"ĠìĦłìĿ¸":12331,"Ġë¶Ħíı¬":12332,"ĠíĮĮëĿ¼ë":12333,"Ġìµľê°ķìŀĲ":12334,"ìĭľìĬ¤ì½Ķ":12335,"Ġì²ľë¬¸":12336,"Ġì¤ĳê¸ī":12337,"ĠìĿ¼ë²ł":12338,"Ġê·¸ë¦¬ìĬ¤ëıĦ":12339,"Ġë©ĶìĿ´íĶĮìĬ¤íĨłë¦¬":12340,"ĠíĶĦëŀľì°¨ìĿ´ì¦Ī":12341,"ĠìĹĲìĿ¼ë¦¬":12342,"Ġê³łëĵł":12343,"ĠëĤ¨ë¯¸":12344,"Ġíĺ¸êµ¬":12345,"Ġíķľë°©":12346,"ĠìĨĮê¿īì¹ľêµ¬":12347,"Ġíīģ":12348,"Ġê¸°ë³µ":12349,"Ġê³µëĮĢ":12350,"Ġ4000":12351,"Ġíİ¸ê²¬":12352,"ìĬ¤íĦ°ì¦Ī":12353,"íĭ±ìĬ¤":12354,"Ġëª¨ìĬ¤íģ¬ë°Ķ":12355,"ëĭ¤ìĬ¤":12356,"ĠìĹ¬ìºĲ":12357,"ĠëıĻëĵ±":12358,"Ġë²Īê°Ī":12359,"ĠEBS":12360,"ĠìĪŃë°°":12361,"į±":12362,"Ġìĭľëħ¸":12363,"Ġì£¼ê±°":12364,"Ġë°ĺê²½":12365,"Ġìķłìĵ°":12366,"ĠíĹĮë³ĳ":12367,"ĠìĦ±ê¸°ìĤ¬":12368,"Ġì½ĶëĶĶ":12369,"ĠìłĢê±°":12370,"Ġíķ¨ìĦ±":12371,"ĠìĹĳìħĢ":12372,"Ġäºº":12373,"¾į":12374,"ĠìĤ¬ìĬ¬":12375,"Ġë°°ë¦¬ìĸ´":12376,"Ġë§¥ëĿ½":12377,"ë¬¼ë":12378,"Ġì§Ģë°°ìŀĲ":12379,"ĠíĭĢìĸ´":12380,"ĠíİŃê·Ħ":12381,"71":12382,"ķãĤ":12383,"ĠëıĦìļ°":12384,"ëĤĺë²ł":12385,"ĠìĬ¤ì½ľ":12386,"ĠíİĦ":12387,"Ġê°ķíĺ¸":12388,"ë¬´ìĭ¤":12389,"ë¬¸ë":12390,"ĠìĪĺëĿ¼":12391,"ĠìĹ¬ìŀ¥":12392,"ĠMM":12393,"ãĥ§":12394,"Ġë³µìļ©":12395,"ìļ¸ëŁ¬":12396,"Ġì¹ľìķł":12397,"ĠìĻ¸ê´Ģ":12398,"íĪŃ":12399,"ĠìĤ¬ìĹŃ":12400,"Ġë¯¸ìĦ¸":12401,"Ġíı¬íģ¬":12402,"ĠTime":12403,"ĠìĨĲê¶Į":12404,"ç¾İ":12405,"ĠìĿ´ê²½":12406,"Ġìľ¨ë¦¬":12407,"ĠëĮĢìķĪ":12408,"ãģĺ":12409,"ĠëŀľìĬ¤":12410,"ĠìĦ¹ìĭľ":12411,"ĠìĿ´ëħ¸":12412,"ë§Īëĵľ":12413,"Ġì¹´ìĿ´ìłĢ":12414,"Ġãħĭ":12415,"Ġë§ĲëłĪìĿ´ìĭľìķĦ":12416,"ĠìŀĲìŀĳ":12417,"Ġëĭ¨ë§Ĳ":12418,"ĠIs":12419,"ĠìĤ¬ì²ľìĻķ":12420,"ium":12421,"ëŀĦëĵľ":12422,"Ġë§ĪìĬ¤ì½Ķ":12423,"ĠìĦ±ëĮĢ":12424,"ĠìĿ¼ë³´":12425,"Ġìĭ¤ìĬµ":12426,"Ġ211":12427,"ĠíĮĮê´´ëł¥":12428,"ĠëĶĶìĬ¤íĶĮëłĪìĿ´":12429,"ìĮĶ":12430,"Ġë¸ĮëłĪìĬ¤":12431,"Ńĩ":12432,"ĠTO":12433,"ĠëĶĶë¹ĦìłĦ":12434,"ìĻ¸ë²ĦìĬ¤":12435,"ĠìĹ°ë§ī":12436,"Ġë¯¸ëª¨":12437,"Ġíģ¬ë¡ľìļ°":12438,"ï¼":12439,"ĠëĮĢìĻ¸":12440,"ĠìĹ°ê°Ħ":12441,"Ġë³¸ìŀĳ":12442,"Ġì¤ĳìĭ¬ì§Ģ":12443,"Ġë¸ĶëŀĻíĻĢ":12444,"æķ":12445,"Ġì°¨ìļ©":12446,"Ġ116":12447,"ĠìĻ¸êµŃìĸ´":12448,"ĠëĮĢìĬ¹":12449,"ĠíĥĢíĤ¤":12450,"ãģ©":12451,"Ġíģ´ë¦½":12452,"ê·¸ëĿ¼ë":12453,"Ġì°½ìĿĺ":12454,"ĠìĹ°ê¸°ëł¥":12455,"rain":12456,"Ġìŀ¥ë¡ĢìĭĿ":12457,"ient":12458,"Ġê°ľìĹ°":12459,"ĠSou":12460,"Ġì§ĳìĤ¬":12461,"ê°¤ëŁ¬":12462,"ë¯¼êµŃ":12463,"ĠìĬ¤ì¿¼ëĵľ":12464,"ëŀ©":12465,"ĠìłĦìŀĦ":12466,"ìĺ¤ë²Ħ":12467,"íĭ¸ë¦¬":12468,"Ġìĭ¤ìŀ¥":12469,"ĠAL":12470,"Ġìĸ´ëĬĲìĥĪ":12471,"èª":12472,"ë¦¬ì¹¸":12473,"ëĭ¤ëĭĪ":12474,"Ġ123":12475,"ĠíĶĦë¡ľìĬ¤íĬ¸":12476,"Ġë½ĳê¸°":12477,"Ġìĺµíĭ°":12478,"ìŀ¬íĮĲ":12479,"Ġë°ľì°¨ê¸°":12480,"ãĤĴ":12481,"ë¬¸íĻĶ":12482,"Ġãģĳ":12483,"ìĭľìŀ¥":12484,"Ġë¬´ìĪĺ":12485,"ëĦĽ":12486,"ĠìĭĿìĬ¤":12487,"Ġê¾¸ë¦¬":12488,"êµŃìłľê³µíķŃ":12489,"Ġì£¼íĮĮ":12490,"ë¶ĢíĤ¤":12491,"ĠíĮĮê²©":12492,"ĠëłĪìĬ¤íĨł":12493,"Ġì°½ë¦½":12494,"Ġno":12495,"Ġìĺ¤ë¦¬ìĺ¨":12496,"Ġë³´ëĶĶ":12497,"ĠìĪĺì§Ģ":12498,"ĠëĶ¥":12499,"Ġê°ķìĿ¸":12500,"Ġìŀ¬ì§ģ":12501,"ãĥĨ":12502,"ĠíĨłë§ī":12503,"ĠíĮĮëŀĳ":12504,"Ġì¹´êµ¬ìķ¼":12505,"Ġì¹´íħĮê³łë¦¬":12506,"ĠìĤ¬ë²Ķ":12507,"ĠëĮĢëĭĪ":12508,"ĠìĨĮë§¤":12509,"Ġëĭ¨ìĨį":12510,"Ġì²ľê³Ħ":12511,"Ġë²Įê¸Ī":12512,"ĠìĺģíĻĶìłľ":12513,"ĠìĦ¬ê´ĳ":12514,"Ġë¬¸ë²ķ":12515,"Ġê°ķìłĲê¸°":12516,"¹Į":12517,"ĠìĭľìķĦ":12518,"ĠëıĻëĮĢ":12519,"Ġëĭ¨ìŀĲ":12520,"ĠìĪľê°ĦìĿ´ëıĻ":12521,"ë¿ľ":12522,"ĠìĿ´ìĨĮë":12523,"ìĿĺëĭ¹":12524,"ĠíĮĮìĨĲ":12525,"ĠìłĦìĹ´":12526,"ĠìĥĲëŁ¬":12527,"ĠãĤĭ":12528,"Ġìĺ¤ëĿ½ìĭ¤":12529,"ĠìĬ¬ëŁ¬ê·¸":12530,"Ġìŀ¬íĻľ":12531,"Ġê³Ħê³¡":12532,"ĠGen":12533,"Ġìĺ¤ë¦¬ì§Ħ":12534,"ĠSeason":12535,"ê¸°ìĹħ":12536,"Ġì§ģìĨį":12537,"ĠìĬ¤ë§ĪìĿ¼":12538,"Ġíķ´ë³Ģ":12539,"Ġìļ©ìĤ°":12540,"ĠOF":12541,"ìłĦìŁģ":12542,"ìħīíĬ¸":12543,"ĠìľłìĬ¤":12544,"Ġê¹ĢìĿ¼":12545,"ĠëĴ¤ìª½":12546,"ãĤº":12547,"ë°±ê³¼":12548,"Ġìºĺë¦¬íı¬ëĭĪìķĦ":12549,"Ġë¶Ģê´Ģ":12550,"Ġë¦¬ë²ĦìĬ¤":12551,"ëĦī":12552,"ĠFPS":12553,"Ġê°ķìĪĺ":12554,"ì§Ħìĺģ":12555,"¤Įë§Ī":12556,"ĠìĿ¸ì±ĪíĬ¸":12557,"Ġë§ĪìĬ¤ì½ĶíĬ¸":12558,"ĠìĬ¤ê¸°":12559,"Ġë¬´ìĥī":12560,"Ġì§ģìľĦ":12561,"Ġì¢ħë§Ĳ":12562,"Ġìķłëĵľ":12563,"Ġê¸īìĨį":12564,"Ġì²ŃìĤ¬":12565,"ĠìĬ¤íĥĢëĶĶìĽĢ":12566,"ĠìĺĪë°©":12567,"ĠìĨĮëł¹":12568,"ãģ£ãģ¦":12569,"Ġë°ĶëĤĺëĤĺ":12570,"ĠìĿ´ëĿ¼ë":12571,"ìĹī":12572,"Ġë¦¬ë³¼ë":12573,"ĠPer":12574,"ĠíĤ¤ë¥´":12575,"Ġë³´ë¥´":12576,"Ġê³¼ê°Ĳ":12577,"Ġìľłë©Ķ":12578,"ĠëĤ´ë©´":12579,"Ġìĭ¤ë£¨":12580,"ĠSL":12581,"ĶĶìķĦ":12582,"ãĥ¡":12583,"ĠUC":12584,"ìĬ¬ëŁ¬":12585,"ĠìĨĮëł¨êµ°":12586,"ĠìĪĺìļ©ìĨĮ":12587,"TA":12588,"ĠíĴįê²½":12589,"ĠìĪĺê°ķ":12590,"ĠìĿ¸ìĩĦ":12591,"Ġê°ĲíŀĪ":12592,"ë©Ģ":12593,"Ġê·¼ëł¥":12594,"ERO":12595,"Ġíģ´ëłĪìĸ´":12596,"ĠëłĪìĬ¤íĨłëŀĳ":12597,"ĠìĹĲë°Ķ":12598,"ĠRP":12599,"Ġëĥħ":12600,"Ġì²ŃìĤ°":12601,"ìĹĺëĿ¼":12602,"Ġë¹ĪíĭĪ":12603,"ê°ĢíĥĢ":12604,"Ġë²ķìķĪ":12605,"Ġè¡":12606,"Ġëĭ¤ìłĢìĬ¤":12607,"ĠìłĢì¡°":12608,"ĠLTE":12609,"Ġcan":12610,"Ġë°Ģì¹ĺ":12611,"ëľ¨":12612,"Ġë²Īë":12613,"ĠíĻĶìĭł":12614,"íĮĮë¦¬":12615,"ĠìĿ¸ëªħ":12616,"Ġ240":12617,"ĠíıĲíĹĪ":12618,"Ġë±ī":12619,"Ġì½ľëĿ¼ë³´":12620,"ĠëłĪìĬ¬ëŁ¬":12621,"Ġëĵľë£¨ìĿ´ëĵľ":12622,"DX":12623,"Ġë³´ìĤ´":12624,"ĠìĦ±ëªħ":12625,"ĠëıĻì¡°":12626,"ĠìķĦë§Īì¡´":12627,"Ġë°ĺëŀĢêµ°":12628,"Ġì±ĶíĶ¼ìĸ¸ìĬ¤ë¦¬ê·¸":12629,"ĠìłĦìĨį":12630,"ê¸ĢëĿ¼ìĬ¤":12631,"ĠëĵľëĿ¼íģĺëĿ¼":12632,"ì§¤":12633,"ĠBM":12634,"ëª¨ìĸ´":12635,"ĠíĨłëĦ¤":12636,"ĠìĻĦêµ¬":12637,"¶ģëıĦ":12638,"ìļ°ìłĢ":12639,"ĠìķĦëĵľ":12640,"ĠìľłìķĦ":12641,"Ġë¬´ê³ł":12642,"ĠêµĲëĤ´":12643,"ëłĪìĿ´ëĵľ":12644,"Ġâĸ³":12645,"ĠìłģìĦ±":12646,"ĠìłĦìĹ":12647,"ĠëĴ¤íĨµìĪĺ":12648,"ãĤµ":12649,"ĠìĬ¤íĥĢë¦¬ê·¸":12650,"Ġì±ħìłķ":12651,"Ġê·¼ë¡ľ":12652,"Ġìĭ¤ëł¥ìŀĲ":12653,"ĠìłķíĻķëıĦ":12654,"ĠíĶĮëĿ¼ìĬ¤íĭ±":12655,"ĠìłĦëĳĲíĻĺ":12656,"ger":12657,"Ġar":12658,"Ġì§ļ":12659,"ĠíķľíĥĦ":12660,"ĠëĤ´ë¿ľ":12661,"ĠìĹ°ë§Ĳ":12662,"ĠëįĶëĿ¼ë©´":12663,"ãģ°":12664,"Ġ999":12665,"ĠíĬ¸ëłĪìĿ´ëĭĿ":12666,"ĠìĿ´ìłĲ":12667,"ĠëĿ¼ì§Ģë§Į":12668,"íļĮìĿĺ":12669,"Ġíģ´ëłĪìĿ´":12670,"Ġíĳ¹":12671,"ĠìŀĲì§Ī":12672,"ĠíĥĢëĭ¹":12673,"ìłĢìļ°":12674,"Ġ102":12675,"Ġê²¨ë£¨":12676,"ĠìľłëĭĪì½ĺ":12677,"Ġìĺ¤íĶĦëĿ¼ìĿ¸":12678,"Ġê°Ģíĺ¹":12679,"©Ķìĸ´":12680,"Ġëħ¸ëŀĺë°©":12681,"Ġë¬¸íĻĶìŀ¬":12682,"Ġë²Ħë¸Ķ":12683,"ĠíħĮëŁ¬ë¦¬ìĬ¤íĬ¸":12684,"ction":12685,"ĠìķĦì¤Įë§Ī":12686,"Ġì¶©ê²©íĮĮ":12687,"ĠæĿ±":12688,"ĠíŀĪëį°ìļĶìĭľ":12689,"Ġë¹Ħë¡ľìĨĮ":12690,"Ġê°ĢìĿ´ëĵľ":12691,"ìĨĮíĶĦíĬ¸":12692,"¥ľ":12693,"Ġê²½ì§Ī":12694,"Ġë§ĮìłĲ":12695,"ĠSy":12696,"ĠìĺĪìļĶ":12697,"Ġê¸¸ê±°ë¦¬":12698,"ĠëĿ¼ìĿ´ì¦Ī":12699,"ĠBGA":12700,"ĠìĿ¼ì£¼ìĿ¼":12701,"ìĿ´ëĤĺ":12702,"ĠìĽĲíĿī":12703,"Ġì²ĺìłĪ":12704,"Ġê´ĳëĮĢ":12705,"ĠíİĺìĿ¸":12706,"Ġhave":12707,"ĠìĽĶëĵ±":12708,"Ġíķ´íĥľ":12709,"ĠìłĢê¸°":12710,"Ġêµ°ë¦¼":12711,"Ġì§ĳíķĦ":12712,"Ġíĵ¨ë¦¬":12713,"IL":12714,"ĠìĬ¤ì¹¼ë":12715,"ì¤ĳê°Ħ":12716,"ĠëłĪìĬ¤":12717,"ress":12718,"Ġ259":12719,"ĠëıĦë¦¬ìĸ´":12720,"Ġê²½ìĦł":12721,"Ġìłľëĭ¤ìĿ´":12722,"ìĥĿëªħ":12723,"Ġbl":12724,"ĠíĹĪë¸Į":12725,"Ġê¸°ê´´":12726,"Ġìļ°ìĤ°":12727,"Ġëĥīê¸°":12728,"Ġë¸ĮëłĪìĿ´ë¸Į":12729,"éģĵ":12730,"Ġìĳ":12731,"íĥĢìļ°":12732,"ĠìĹ°íĥĢ":12733,"ëłĪìĺ¤":12734,"ĠìĽĲìŀĳìŀĲ":12735,"ı¾":12736,"Ġë²Ħëĵľ":12737,"Ġì²´ê²©":12738,"ĠëĪĪìķŀ":12739,"Ġíģ¬ë¦¬ìĬ¤íĭ°":12740,"ĠëĮĢêµ¬ê´ĳìĹŃìĭľ":12741,"ĠëĦīëĦī":12742,"ĠëĲĺìĤ´ë¦¬":12743,"Ġì¹´ì§Ģëħ¸":12744,"Ġë²Ķíķĺ":12745,"Ġíĩ´ìĹŃ":12746,"Ġìĭľì´Ī":12747,"Ġë°±íķ©":12748,"Ġë¡¤ëŁ¬":12749,"ĠëŁ¬ìī¬":12750,"ĠìĿ´ìĿĺ":12751,"ĠëĮĢì°¨":12752,"ĠíĮľ":12753,"Ġë¦¬ìĹĺ":12754,"ĠëĶ°ëıĮë¦¬":12755,"ĠìĦ¤íĻĶ":12756,"ĠìĹłë¸Ķ":12757,"ìłĦì²´":12758,"ĠíŀĪì¹´ë¦¬":12759,"Ġë°ķíķ´":12760,"Ġë¶Ħìŀ¥":12761,"ĠìĦĿê¶ģ":12762,"ìĿ¸ëıĦ":12763,"Ġì¤Ħì¤Ħ":12764,"Ġê°Ģë§Ī":12765,"ĠìĦ¸íĤ¤":12766,"ìłĢëĵľ":12767,"ĠTw":12768,"ĠìķĦìĿ´íı°":12769,"Ġìļ´ë°ĺ":12770,"2012":12771,"Ġìłľì¡°ìĤ¬":12772,"ıĮë¦¬":12773,"Ķëĭ¤":12774,"Ġìľ¼ëĿ¼ë":12775,"ĠìĤ¬ëĤĺìĿ´":12776,"Ġê³µì¡´":12777,"Ġì°¨ë¶Ħ":12778,"Ġì¹ĺíĬ¸":12779,"ĠíĥľìŀĲ":12780,"ĠìĦ¬ìľł":12781,"Ġë§¹ëıħ":12782,"ĠìĤ¬ì§Ģ":12783,"ĠìĭľìĻ¸ë²ĦìĬ¤":12784,"Ġë°ĶëĭĲëĿ¼":12785,"ĠíĺĳìĿĺ":12786,"Ġ1969":12787,"ĠëĩĮë¬¼":12788,"to":12789,"ĠìŀĲë¶Ģ":12790,"ë£¨ìĪĺ":12791,"ĠëłĪìĭľíĶ¼":12792,"alk":12793,"ĠìłĢê²©ìĪĺ":12794,"ĠìĽĲìŀĲëł¥":12795,"ĠìłķìłĦ":12796,"Ġë§Įíĸī":12797,"Ġìłľëħ¸":12798,"Ġíĥľê·¹":12799,"Ġìŀīíģ¬":12800,"ĠìľĪíĦ°":12801,"çĶŁ":12802,"Ġê¹ĥíĦ¸":12803,"ĠíĨłë§ĪíĨł":12804,"Ġë³ĢìĨįê¸°":12805,"åĭ":12806,"ĦĪë":12807,"Ġì£¼ë¦":12808,"Ġì»¤ë¦¬":12809,"Ġê³¨ëª©":12810,"Ġíĳ¼":12811,"íĽĦë°ĺ":12812,"Ġìĺ¤ë§Īì£¼":12813,"Ġë¡ľìĹ´":12814,"Ġíķľíķĺ":12815,"íĭ°ëħ¸":12816,"ĠSun":12817,"Ġìŀ¬ê¸°":12818,"Ġë©Ķêµ¬ë¯¸":12819,"Ġì¢ħë¡ľ":12820,"ĠìĨĮëıĻ":12821,"ìĿ¼ëĿ¼":12822,"Ġê²©ë³Ģ":12823,"Ġ10000":12824,"Ġì»¤ìĬ¤íħĢ":12825,"ĠìĥĿíĥľ":12826,"ĠíıĲìĦł":12827,"Â·Â·":12828,"86":12829,"Ġìĥģê°Ģ":12830,"ìľĻ":12831,"ĠìķĦìĿ´ìĬ¤íģ¬ë¦¼":12832,"ĠDark":12833,"ãĤĩ":12834,"ins":12835,"Ġì¶ľìĹ°ìŀĲ":12836,"Ġâĸ¡":12837,"land":12838,"ì²ľìĤ¬":12839,"ĠëıĦë¥´":12840,"ì¹´ìĬ¤":12841,"Ġìļ°ê¸°":12842,"Ġì²´íĺķ":12843,"ĠìĦľëĳĲë¥´":12844,"ĠHE":12845,"ì±Ķ":12846,"Ġì¿łë¥´":12847,"ĠíĥĲêµ¬":12848,"ĠìĪĺëł¹":12849,"ĠëĤ´ê¸°":12850,"Ġíľ´ê²Į":12851,"Ġìĸ´ë²¤ìł¸ìĬ¤":12852,"ê¸Īë":12853,"ê³µìĹħ":12854,"ĠDon":12855,"ĠëĮĢíķľíķŃê³µ":12856,"æ²":12857,"Ġìŀ£":12858,"Ġë²ļ":12859,"ĠíļĮê²¬":12860,"ĠìļĶë¯¸":12861,"Ġìŀħìĸĳ":12862,"ĠEZ":12863,"ĠíķĦìĹ°":12864,"íĮĮëĭĪ":12865,"Ġë¦¬ìļ°":12866,"Ġë°ķíĥĪ":12867,"ëª¨ìĬµ":12868,"ĠNM":12869,"Ġì°°ë¦¬":12870,"ë§Įë":12871,"ĠëĤĺëĵ¤":12872,"ĠìĿ¼ìĤ°":12873,"ë²Ħê·¸":12874,"Ġla":12875,"ĠìĹĲë¯¸":12876,"ĠìĤ¬íĥķ":12877,"Ġìµľìłķ":12878,"ĠìĹ´ìĦ¸":12879,"ëŁ°íĬ¸":12880,"ĠëłĪìĿ´ëĦĪ":12881,"ode":12882,"ĠíĹ¤ëĵľìĥ·":12883,"ĠìĿ¼ìĿ¼ìĿ´":12884,"Ġì¯Ķ":12885,"Ġê³µìĬµ":12886,"ĠëªħëĮĢìĤ¬":12887,"ĠMSL":12888,"ëĶ°ë¥´":12889,"íĳ¸ë¥´":12890,"¥¿":12891,"Ġê³µìĿµ":12892,"Ġë³Ģì§Ī":12893,"Ġê±°ìĬ¤ë¥´":12894,"į´":12895,"ĠìĪĺíĻķ":12896,"Ġì¡°ìļ´":12897,"Ġíķ´ìĹŃ":12898,"Ġë°ĶìĿ´íĤ¹":12899,"Ġìŀ¥ê°ĳì°¨":12900,"Ġëį¸íĥĢ":12901,"Ġê·¸ëŀĳíĶĦë¦¬":12902,"Ġìĺģëĵ±íı¬":12903,"©ľ":12904,"ĠìłĦê´ĳ":12905,"ĠëıĻìķĦ":12906,"Ġê°ķëıĻ":12907,"Ġê°ķìĦ¸":12908,"ëĦĮ":12909,"ë¦½íĬ¸":12910,"ĠOf":12911,"ë¸Įë¦¬ëĵľ":12912,"ven":12913,"Ġìĥģìļ©":12914,"ĠìłľìŀĲë¦¬":12915,"ĠëıĻë¶ģ":12916,"ĠìĹ°ë°ľ":12917,"Ġë©ĶëĶķ":12918,"ĠíĬ¸ìĻĢ":12919,"Ġì£łì£ł":12920,"ĠìĿ¼ëŁ¬ìĬ¤íĬ¸ë":12921,"ĠìĹ¬ìĪĺ":12922,"Ġë²Ħë¦ĩ":12923,"ĠëªħëĤĺëĿ¼":12924,"ìĹĲê²Į":12925,"Ġì£¼ë¬´":12926,"ĠìºĲë¦¬ìĸ´":12927,"ĠìľĦìª½":12928,"Ġê¹¨ìķĮ":12929,"Ġ1968":12930,"Ġëĵľë¦¬ë¸Ķ":12931,"ĠíĹĲíģ¬":12932,"âĨĻâĨĲ":12933,"Ġìĸ´ë¯¸":12934,"ì§ĢíĦ°":12935,"ìĹĲìĿ´íĦ°":12936,"Ġë°ķìĺģ":12937,"ĠíĤ¤ì¦Ī":12938,"ì£¼ë¦¬":12939,"ĠìĹĺë¦¬ìĬ¤":12940,"ĠãĤı":12941,"ĠìĥģìĨį":12942,"Ġê³µìķ½":12943,"Ġë°©íĻĶ":12944,"ĠíĮĮë²Į":12945,"Ġê²½ìłľíķĻ":12946,"ĠìĹĲë©ĶëŀĦëĵľ":12947,"ĠëĤĺëĵ¤ëª©":12948,"OA":12949,"ç´":12950,"Ġì°¨ìĦł":12951,"Ġë¯¸ì¦ĪíĤ¤":12952,"ìķĦë©Ķ":12953,"ĠìĦ¼íĭ°":12954,"ĠìĥĿìĤ°ëł¥":12955,"ĠìĹĲìĿ¸":12956,"ĠSm":12957,"ĠAc":12958,"ĠëĦ¤ì½Ķ":12959,"ĠíķĦíĦ°":12960,"Ġgo":12961,"ä¸Ń":12962,"ĠíĶĦëłĪëį°":12963,"ê²ĮìĿ´ë¨¸":12964,"Ġêµ¬íĥĢ":12965,"Ġì¹´ë¦¬":12966,"Ġì¶ľê³ł":12967,"íĬ¸ëŁ´":12968,"ĠìĤ¬ìĿ´íĨł":12969,"Ġì¹ľìłķ":12970,"ìĿ¼ë¡ľ":12971,"ĠìŀĦì§":12972,"ĠíķĺëĵľìĽ¨ìĸ´":12973,"Ġæĸ°":12974,"ĠíĶĦë¡¤ë¡ľê·¸":12975,"Ġë¯¸ìĭĿ":12976,"ĠíĮ¨ëĭī":12977,"Ġê½ģ":12978,"Ġíİĺë¯¸ëĭĪì¦ĺ":12979,"Ġë°°ë¦¬":12980,"ĠCN":12981,"ĠëłĪìĿ´ì²¼":12982,"ì¦Īë£¨":12983,"ĠUnivers":12984,"Ġë¦¬ë³¼ë²Ħ":12985,"Ã¼":12986,"ĠëªħíĥĲìłķ":12987,"Ġìĸĳì£¼":12988,"Ġì²¨ëĭ¨":12989,"74":12990,"84":12991,"ì¹ĺìĺ¤":12992,"ĠìĺģëĤ¨":12993,"Ġëª©ìŀ¬":12994,"Ġìĭľë¦¬ìļ°ìĬ¤":12995,"ĠìľĦíĤ¤ë°±ê³¼":12996,"íľ´ìĿ¼":12997,"Ġìĺ¤íĤ¤ëĤĺìĻĢ":12998,"Ġë¯¸ëģĦë":12999,"ĳĺ":13000,"Ġìĭľì§ĳ":13001,"Ġë¶Ģë¥ĺ":13002,"Ġ6048":13003,"Ġë»Ķíķĺ":13004,"ĠíĹĺíķĺ":13005,"Ġìĸ´ìĦ¤íĶĦ":13006,"Ġê·łìĹ´":13007,"Ġíķľìĭł":13008,"Ġëĭ¨ìĭĿ":13009,"Ġë¸ĮëłĪìĿ¸":13010,"ëĺĳ":13011,"ĠìĬ¤ì¦Ī":13012,"Ġë¬´ìĭł":13013,"Ġì¹´ë¬´":13014,"Ġê³ĦìłĪ":13015,"Ġë³ĳìĭł":13016,"ĠGe":13017,"Ġì¶ĶìłģìŀĲ":13018,"ĠíĶĦëłĪëĶĶ":13019,"æĥ":13020,"Ġë¬´ìĥģ":13021,"ìĬĪë":13022,"Ġíı¬ìĽĮëĵľ":13023,"ĠRes":13024,"Ġì²ŃëĤĺëĿ¼":13025,"Ġìĥ¤ë¥¼":13026,"ĠëķĢ":13027,"Ġíķľì¸µ":13028,"ĠìķĪëĵľëłĪ":13029,"íĭ°ëĦĺ":13030,"ĠAB":13031,"ĠìķŀëĴ¤":13032,"ĠìĨĮìŀ¬ì§Ģ":13033,"ĠìĬ¤íĬ¸ë¦¬ë°į":13034,"Ġëª¹ìĭľ":13035,"Ġë©ľë¡ł":13036,"Ġìĭ¤ë£¨ìĹ£":13037,"83":13038,"Ġë©´ìłĳ":13039,"Ġê³µíľ´ìĿ¼":13040,"Ġê°ķìĦľ":13041,"ĠëŃĶ":13042,"ĠíķľëıĦ":13043,"Ġíĵ¨ì²ĺ":13044,"ĠæĿİ":13045,"ë¦¬ëĵľ":13046,"Ġê³łìļ°":13047,"ĠëĦµ":13048,"ĠìĿ´ìĦ±ê³Ħ":13049,"Ġ604800":13050,"ĠìĿ´ì¦Īë¯¸":13051,"ĠìĤ¬ìľ¡":13052,"ĠëĤĺëłĪìĿ´ìħĺ":13053,"Ġë¹Ħìŀ¥":13054,"Ġì²Ńë£¡":13055,"ict":13056,"ĠìĨ¡ë³ĳ":13057,"ë¹ĦëĮĢ":13058,"Ġì¹ĺë°Ķ":13059,"íĺ¸ìĦł":13060,"Ġì§Ħíķĺ":13061,"Ġìļ´ìĪĺ":13062,"Ġê¸¸ê°Ģ":13063,"Ġìļ´ëıĻê°Ģ":13064,"Ġìħĭì§¸":13065,"ĠíķĢëŀĢëĵľ":13066,"Ġê°ľë§īìłĦ":13067,"Ġë¶Īíıī":13068,"ĠTP":13069,"Ġìĭ¬ìĹ°":13070,"ĠìĹ¼ìĥī":13071,"ĠìķĮëłīìĤ°ëįĶ":13072,"Ġê°Ħíĺ¸ìĤ¬":13073,"ĠìĿ´ë¡Ģ":13074,"Ġë¶Ģëĭ¹":13075,"ĠìĽĲì£¼":13076,"ĠëĭĪì½ĶëĭĪì½Ķ":13077,"ĠìĿĢíĺľ":13078,"Ġê¹ľë":13079,"Ġë¬´ìĬ¤":13080,"ĠëıĻì¡±":13081,"Ġìĭłë³ĳ":13082,"ĠìķĦì¹´ê¸°":13083,"Ġì¶©ì²ŃëĤ¨ëıĦ":13084,"Ġìĺ¤ëĶĶìĺ¤":13085,"ĠëĤĺìĿ´íĬ¸ë©Ķìĸ´":13086,"port":13087,"ëķ":13088,"ìĿ´ìĦ¼":13089,"Ġë¶ĢíĿ¥":13090,"ĠåĮ":13091,"Ġì¤Ħë¦¬":13092,"ĠíĮĶëłĪ":13093,"ould":13094,"íĶĦëŀĢ":13095,"Ġë¸ĶëĿ¼ëĶĶ":13096,"95":13097,"ĠíĮĮë¬¸":13098,"ì¤ĳìķĻ":13099,"ãģĪ":13100,"ĠèĪ":13101,"ĠíĤ¹ëį¤":13102,"ĠíĶĦëłĪìĬ¤":13103,"¶Ļ":13104,"ĠíķĺìĻĢìĿ´":13105,"ĠìłĢìĬ¤íĭ°ìĬ¤":13106,"ĠíıīíĥĿ":13107,"Ġëª©íı¬":13108,"Ġë¯¸ëĵ¤":13109,"Ġê´ĳë³µ":13110,"Ġíĥľì¢ħ":13111,"ĠìłĳìłĲ":13112,"ĠêµĲìľ¡ë¶Ģ":13113,"ĠëĦĵíŀĪ":13114,"Ġì¤ĳíĻĶë¯¼êµŃ":13115,"ĠëĤ¡":13116,"ìĪĺìĬ¤":13117,"ìłĢê²ĥ":13118,"ìĹĲìĿ´ìħĺ":13119,"ëĳĲìĤ¬":13120,"ĠíĶĦë¡ľê²ĮìĿ´ë¨¸":13121,"ĠìĿĳíķĺ":13122,"Ġãħ£":13123,"ĠiOS":13124,"ĠìĭŃìŀĲêµ°":13125,"Ġìª¼ê°ľ":13126,"ĠìĿ´ì²ľ":13127,"Ġíķĺìļ°":13128,"ĠìĤ¬ìķĪ":13129,"Ġíķ©ê³Ħ":13130,"Ġíĺ¸ë°ķ":13131,"Ġë£¡":13132,"ĠíİĺìĿ´ì»¤":13133,"Ġíķ´ìĥģëıĦ":13134,"cl":13135,"ê¸°ìķ¼":13136,"Ġë¯¹":13137,"ĠìłĢíĿ¬":13138,"ĠêµĲìĸĳ":13139,"ĠWAR":13140,"ĠìĬĪê°Ģ":13141,"Ġíĺ¼ëĭ¤":13142,"Ġê°ģêµŃ":13143,"ĠíļĮë¡ľ":13144,"ì½¤ë³´":13145,"Ġíľ©ìĭ¸ìĿ´":13146,"ĠìĪĺíĹĺ":13147,"Ġë°Ķì¿ł":13148,"ì¹´ì¿ł":13149,"ĠìĹ°ê¸ĪìĪłìĤ¬":13150,"ë§ĪìĿĦ":13151,"ë§Īì¹¨":13152,"ĠìĦłìĪĺëĭ¨":13153,"Ġë¶ģêµ¬":13154,"ëĵľëŀĺ":13155,"ìĭľëĭ¤":13156,"Ġíĺ¸ì¶ľ":13157,"ĠíĨłìĺ¤":13158,"Ġëª¨ëįĺ":13159,"Ġìĭľíĺ¸":13160,"ëĮĢê¸°":13161,"ĠPower":13162,"ĠìĿ´ê²ĥìłĢê²ĥ":13163,"Ġëĵłê°Ģ":13164,"ĠìļĶë¦¬ìĤ¬":13165,"Īëª¨íĨł":13166,"Ġì¹Ļ":13167,"Ġë¬´ì£Ħ":13168,"Ġë³¸ê±°ì§Ģ":13169,"ĠìĤ¬ìĿ´ë³´ê·¸":13170,"Ġëĳ¥ê¸Ģ":13171,"ì§Īëŀľëĵľ":13172,"Ġëħ¸íĬ¸ë¶ģ":13173,"ĠìľłëĤľ":13174,"ĠìķĦíĥĢ":13175,"ĠìĨĲíĨ±":13176,"ĠëĶĶíİľ":13177,"Ġê´´ëł¥":13178,"ëłĪë¯¸":13179,"ĠìŀĲê²©ì¦Ŀ":13180,"Ġê¹ĮëĭŃ":13181,"Ġë¬´ê¶ģíĻĶ":13182,"Ġìĺµíĭ°ë¨¸ìĬ¤":13183,"à¤":13184,"çĲ":13185,"ľë¯¼":13186,"Ġìĺ¤íĥĢì¿ł":13187,"ãĤ¬":13188,"Ġë¡ľíħĮìĿ´ìħĺ":13189,"Ġë³´íĬ¸":13190,"ĠíĽħ":13191,"ĠêµŃë¯¼ëĭ¹":13192,"ĠíĽĦëĮĢ":13193,"ĠìĤ¼ì´Į":13194,"ìĬĪíĬ¸":13195,"ĠíĶĮëłĪìŀĦ":13196,"ĠìĨľìĶ¨":13197,"ìĥģê°Ģìĥģ":13198,"Ġëĭ¤ì¤ĳ":13199,"Ġìĸĳë³´":13200,"ìĦľë¦°":13201,"ĠìĦ¹ìĬ¤":13202,"ĠìĤ¬ìĬ´":13203,"ìĤ¬ê´Ģ":13204,"ìľ½":13205,"Ġìļ°ë¬¼":13206,"ĠìĦ¤ìĥģê°Ģìĥģ":13207,"Ġë³µë©´":13208,"Ġë¯¸ëħ¸":13209,"ĠìĬµê´Ģ":13210,"ĠëĮĢìĤ¬ê´Ģ":13211,"ĠíķĺìĿ´ë¸Įë¦¬ëĵľ":13212,"ĠArm":13213,"Ġìĭľêµ¬":13214,"ĠíĮŁ":13215,"Ġìłķìłķ":13216,"Ġêµ¬ìłĪ":13217,"Ġì¹´ëłĪ":13218,"Ġë¨¹íĬĢ":13219,"Ġì¦Ŀê¸°":13220,"ĠìĹĺëįĶ":13221,"Ġì£¼ìŀĳ":13222,"Ġìļ°íĮĮ":13223,"ĠìĻķê´Ģ":13224,"ĠRE":13225,"Ġ1963":13226,"ĠëıĻìĿ¸ì§Ģ":13227,"Ġìŀ¥íĴį":13228,"ĠêµĲìŀ¬":13229,"Ġ107":13230,"êº¼":13231,"ĠëĿ¼íĭ´ìĸ´":13232,"Ġëĭ¤ê¸°":13233,"Ġìľłê³ł":13234,"ìķ¼ìĥ¤":13235,"ìĸ¼ë":13236,"ina":13237,"ìĬ¤íĭ°ëĭĪ":13238,"Ġë¹¼ëĤ´":13239,"Ġìłķíģ¬":13240,"ê±´ìĦ¤":13241,"Ġì´ĿíĥĦ":13242,"ĠìĪĺìĺģë³µ":13243,"Ġëª¨ë²Ķ":13244,"ìĿ¼ê¸°":13245,"Ġë¦¬ë¶ĢíĬ¸":13246,"ĠíĻįì¤Ģíĳľ":13247,"ìģ¨":13248,"Ġì¸łì¹´":13249,"Ġê¶¤ìłģ":13250,"Ġê³µìĨĲ":13251,"íĭ°ì§Ģ":13252,"ĠìĬ¹ëł¤":13253,"ĠìĿ¸ë§¥":13254,"ĠìķĶìļ¸":13255,"ĠìłľìĿ´ìĬ¨":13256,"gr":13257,"Ġì§Ģë¯¸":13258,"ĠìĬ¤ì¼Ī":13259,"ĠíĨµìĪĺ":13260,"íĦ±":13261,"æĸĩ":13262,"Ġìĭ¤íĻ©":13263,"ĠíĶ¼ê³ł":13264,"íħĮì¸ł":13265,"ane":13266,"ìķłëĤĺ":13267,"ĠëĽ°ì¹ĺ":13268,"íģ´ëŁ½":13269,"Ġì½ĺìĬ¤íĥĦ":13270,"Ġì»¬ëłīìħĺ":13271,"Ġë³´ë¦¬":13272,"Ġìľłê°Ģ":13273,"ĠìĦ±ë²½":13274,"ĠìĹ¬ë°°ìļ°":13275,"Ġê·¸ë¦¬ëĵľ":13276,"Ġë°ķì°¬":13277,"ìĨĮëĭĪ":13278,"ĠìĥģìĩĦ":13279,"ìłķì¹ĺ":13280,"ĠìĿ¼ìłĪ":13281,"ĠìĺģíĻĶê´Ģ":13282,"ì½ķ":13283,"Ġcl":13284,"ĠìĥĪìļ°":13285,"åįģ":13286,"Ġìĺ¤ì¼ĢìĬ¤íĬ¸ëĿ¼":13287,"Ġì°¨ê´Ģ":13288,"ĠìķĪìł¤":13289,"ĠìĺĪì§Ģ":13290,"Ġì²ľíĻ©":13291,"2011":13292,"ĠJoh":13293,"Ġíľ´ìĬ¤íĦ´":13294,"Ġíħľíı¬":13295,"Ġleft":13296,"ĠìĹ°ê¸ĪìĪł":13297,"ĠìĿ´íĺ¸":13298,"Ġë§ĲëħĦ":13299,"Ġì¼Ħì§Ģ":13300,"ĠìĤ¬ëĭ¹":13301,"êµ¬ìĹŃ":13302,"Ġê°Ĳíĸī":13303,"Ġ104":13304,"Ġë¶ĦìŀĲ":13305,"ĠëıħìĪĺë¦¬":13306,"ĠëįĶìļ±ìĿ´":13307,"Ġ1967":13308,"ä¸Ĭ":13309,"Ġìľłì½Ķ":13310,"Ġì¡°ëł¥ìŀĲ":13311,"Ġë¯¸ìĪĺ":13312,"ê³µì£¼":13313,"Ġå¯":13314,"ê°Ģë¥´ëĵľ":13315,"87":13316,"Ġê¸°ìģ¨":13317,"ĠìĤ¬ëª¨":13318,"ĠìĬ¤ëĦ¤":13319,"ĠìľłíĥĢ":13320,"ĠìĨĮê°Ĳ":13321,"ĠìĤ¿":13322,"ĠìĦĿìĤ¬":13323,"ĠìĪłíĥĦ":13324,"Ġìĥ¤ìĽĮ":13325,"ê°±":13326,"ëĭĪíģ´":13327,"ĠíļĮê³Ħ":13328,"ĠëĨįëĿ½":13329,"ĠSSR":13330,"íĬ¸ë¦¬ìĬ¤":13331,"Ġìľłë°©":13332,"ëįĶëĿ¼":13333,"Ġìķ¼ë§Īëª¨íĨł":13334,"Ġ`":13335,"ĭĲ":13336,"Ġë¡ľì»¬":13337,"ĠìŀĲë¬¸":13338,"ĠìĬ¤ëĭĺ":13339,"Ġìļ°ìĬµ":13340,"Ġíı¬íĨł":13341,"Ġë§¤ëĭ¬":13342,"íĿĺ":13343,"ĠKing":13344,"Ġë§ĪëĬĺ":13345,"ëĦĲëĵľ":13346,"Ġíķ¸ëĵ¤":13347,"ë¨¸ë":13348,"Ġì¶ķìłģ":13349,"ĠìķĦìĿ¸ì¦Ī":13350,"Ħ¬":13351,"ĠìĹĲëıĦ":13352,"ĠìķĪìĦ±":13353,"ëŀĢíĬ¸":13354,"Ġë½Ĳ":13355,"ĠìķĦë©Ķë¦¬ì¹¸":13356,"ĠìłĲê±°":13357,"ë³´ê¸°":13358,"ĠChe":13359,"Ġê·¸ëŁ¬ëĭ¤ê°Ģ":13360,"Ġíķĺëĵľì½Ķìĸ´":13361,"ĠëĦ¥ìĦľìĬ¤":13362,"ĠìĿ´ì¤Ģ":13363,"ĦëĿ¼":13364,"ĠíĥĪë":13365,"Ġìĭ¤ëªħ":13366,"ĠìĦľë¯¼":13367,"Ġì¦Ŀë°ľ":13368,"Ġdis":13369,"Ġíĳ¸ë¥¸":13370,"ë¿Ķ":13371,"°ľë":13372,"Ġê³µë¡ľ":13373,"Ġë¬´ìĦł":13374,"Ġì°¨ë¡ľ":13375,"ĠìķĪì²łìĪĺ":13376,"Ġë¶Īë¥ľ":13377,"Ġìķłìĭľ":13378,"ĠãĤ·":13379,"ĠìĿ¸ì²ľê´ĳìĹŃìĭľ":13380,"Ġìķ¼ë§Į":13381,"92":13382,"ë¶Ģì§Ģ":13383,"ĠBC":13384,"ĠVPN":13385,"ions":13386,"Ġë°ĺíķŃ":13387,"Ġíĥľì¡°":13388,"ĠëĵĢíģ¬":13389,"Ġíķĺë°ĺê¸°":13390,"Ġìĺ¤ìĭľ":13391,"ë¡ľëĤĺ":13392,"ë¡ľë§Ī":13393,"Ġìŀ¬ëĤľ":13394,"ĠìºĲë¡¤":13395,"Ġçľ":13396,"ĠíĥĦíĥĦ":13397,"ĠíĥĢì¹´íķĺìĭľ":13398,"ĠìĬ¤íģ¬ë¡¤":13399,"ĠëıĻê°ĳ":13400,"Ġë¦¬ìķ¡":13401,"Ġë°ĺê°ĳ":13402,"ĠëĤ¨ë°ľ":13403,"ĠDX":13404,"Ġì¤Ģìļ°":13405,"íĶĮë¡ľ":13406,"Ġìķ¼ì¿łìŀĲ":13407,"°Ģë¦¬":13408,"ĠìĭłíķĻ":13409,"Ġìłľìŀĳë¹Ħ":13410,"Ġì½ľë¡¬":13411,"ĠëĪķíŀĪ":13412,"82":13413,"Ġìĭ¤ìĹħ":13414,"Ġë°Ľì¹ĺ":13415,"ë¹ĦíĬ¸":13416,"ĠíĶ¼ìĸ´":13417,"ĠìºĲìĦľë¦°":13418,"ë¬´ëĦ¤":13419,"ĠíķŃê³µìĤ¬":13420,"Ġìłķê·ľì§ģ":13421,"Ġíķ´ì¹ĺìļ°":13422,"Ġë¹łëľ¨ë¦¬":13423,"ĠíĹĪìĦ¸":13424,"Ġè¨":13425,"Ġä¿":13426,"Ġê²½ìŁģìŀĲ":13427,"Ðº":13428,"ĠìĦ¼ë":13429,"ĠMa":13430,"Ġë©ĶìĿ´íĬ¸":13431,"ĠìĻķì¢Į":13432,"ì§ķìĸ´":13433,"ĠìŀĲì¿ł":13434,"ĠìĬ¤ì»¤":13435,"ìĦ¸ê¸°":13436,"íĶ¼ìĸ´":13437,"ĠDis":13438,"tern":13439,"łģ":13440,"Ġìłľëĭ¨":13441,"Ġêµ¬ì²Ń":13442,"Ġë¶ĪíĻĶ":13443,"ĠDNA":13444,"ĠKS":13445,"ĠìĬ¤íĥĢíĮħ":13446,"less":13447,"ĠëĨįë¯¼":13448,"íĶĮëŁ¬ìĬ¤":13449,"Ġëµ":13450,"ë³¶":13451,"ĠëķĮë§Īì¹¨":13452,"Ġê·¸ë¦¬íķĺìĹ¬":13453,"Ġë©Ķìļ°":13454,"Ġê±´ìĿĺ":13455,"ĠëŁ°ëĭĿ":13456,"ìıł":13457,"Ġë¡ľìłĢ":13458,"ë§·":13459,"Ġë²Įë":13460,"Ġëª»ì§ĢìķĬ":13461,"ĠíĬĢê¸°":13462,"Ġê°ĲìĭľìŀĲ":13463,"ìķĪë¶Ģ":13464,"íĶĦëĿ¼ìĿ´ì¦Ī":13465,"Ŀ¼ë¯":13466,"ĠìĭłíĿ¥":13467,"Ġê°ľê°ľìĿ¸":13468,"ĠìĦľì¹ĺ":13469,"ĠBA":13470,"Ġê±¸ìĿĮ":13471,"ì¶ķêµ¬":13472,"ì§ĢëĮĢ":13473,"ìŀĲìŀ¬":13474,"Ġëĭ¹êµŃ":13475,"ĠìłĦë²ķ":13476,"Ġë°ĢëłĪ":13477,"Ġì«Ħ":13478,"Ġë°Ķëŀĺ":13479,"ĠíĻĶìķ½":13480,"íİ«":13481,"ìĭ¬ìŀ¥":13482,"ĠGirl":13483,"Ħì²ł":13484,"ĠëłĪëª¬":13485,"Ġì±Ħì·¨":13486,"ê¸į":13487,"Ġë°ĺëĭ¬":13488,"Ġê±´ìŀ¬":13489,"ë°Ķìĭľ":13490,"§ĭ":13491,"ìķµ":13492,"ĠìŀĲì¼ĵ":13493,"Ġì¤ĳíĽĦë°ĺ":13494,"Ġìĭ¤ìłķ":13495,"ĠëĤ¨ìŀĳ":13496,"Ġìľłì§Ģë¹Ħ":13497,"Ġãĥŀ":13498,"ĠìŀĦìĽĲ":13499,"å¥³":13500,"Ġì£¼ê³µ":13501,"Ġë¬´ìłĦ":13502,"ĠìĹ¬ê´Ģ":13503,"ĠSCP":13504,"Ġu":13505,"Ġê¸°ë²ķ":13506,"ĠëĮĢì¶ľ":13507,"Ġê´Ģì§ģ":13508,"íĶĦìĬ¤":13509,"ì½ĶìĬ¤":13510,"ĠBar":13511,"ĠIV":13512,"ĠíĽĦë£¨":13513,"¹Ļ":13514,"èı":13515,"Ġë¦¬ë¯¹ìĬ¤":13516,"ĠBD":13517,"ĠìĦľëĤ¨":13518,"ons":13519,"ĠNO":13520,"Ġëī´ì§Īëŀľëĵľ":13521,"ĠìĿ¼ëŁ¬ìĬ¤íĬ¸ëłĪìĿ´íĦ°":13522,"2000":13523,"£¼ë":13524,"Ġìľłëª©":13525,"ĠìĿ¸ìŀĲ":13526,"ĠíĶ¼ëĤľ":13527,"Ġë¶ĢìĤ¬ê´Ģ":13528,"air":13529,"Ġìĭľìĺ¤":13530,"ĠìĽĶê¸ī":13531,"Ġëĭ¨ìłķ":13532,"ëłĪìĬ¤íĬ¸":13533,"Ġë³ĳìĤ´":13534,"Ġë°ľëĿ¼ëĵľ":13535,"ĠìĦľìļ¸ëĮĢíķĻêµĲ":13536,"Ġë¶ĦíĻįìĥī":13537,"est":13538,"ĠìĿ¸ê³¼":13539,"ĠíĮĮìĬ¤":13540,"Ġì§ģë¬´":13541,"Ġìķ¼ìĭ¬":13542,"Ġë³µìĭ±":13543,"Ġë¹ħíĨłë¦¬ìķĦ":13544,"ĠìĦ¸íĥģ":13545,"Ġê²°ìŀ¥":13546,"Ġíĩ´ìĤ¬":13547,"ĠíŀĪë¡ľìĭľë§Ī":13548,"ĠìŀĦìĥģ":13549,"ARD":13550,"Ġìĳ¤":13551,"ê´Ģì´Ŀ":13552,"ĠAs":13553,"ĠìĿĮìĥī":13554,"Ġíĭ°ìłĢ":13555,"Ġíį¼ìĦ¼íĬ¸":13556,"ĠìłĢíķŃëł¥":13557,"Ġì¢ģíŀĪ":13558,"Ġì¶ĺì²ľ":13559,"63":13560,"íĻī":13561,"ĠëıĻìķĦìĭľìķĦ":13562,"ĠíļĮìĺ¤ë¦¬":13563,"Ġê±¸ìŀĳ":13564,"Ġwas":13565,"Ġëĺĳëĺĳ":13566,"¥µ":13567,"ìŀŃ":13568,"Ġìĺ¤ìĿ¼":13569,"ĠìĬ¤ìĿ´":13570,"ĠìłĪê·ľ":13571,"Ġì©Ķ":13572,"ĠëĤĺìĹ´":13573,"ĠìŀĲì§Ħ":13574,"íħĮìĿ´ëĦĪ":13575,"ĠëĦ¤ëª¨":13576,"ret":13577,"Ġë§Īì¼ĵ":13578,"ìĸ¼ë¦¬":13579,"ĠíĮĮìĤ°":13580,"ĠìłĦìĤ°":13581,"Ġê°Ħìŀ¥":13582,"ëįĶìĬ¨":13583,"Ġë¹¼ëıĮë¦¬":13584,"ĠëıĦê²Ģ":13585,"ĠìĬ¤íĮħ":13586,"Ġìĭ¤ë¬´":13587,"Ġë°ľíķĺ":13588,"Ġë§ĮëħĦ":13589,"ĠíĽĦíĥĢ":13590,"Ġì¶ľê·¼":13591,"ë©ĶìĬ¤":13592,"Ġê·¸ëŀĺíĶĦ":13593,"Ġíĩ´ì¶ľ":13594,"Ġë¶īìĿĢìĥī":13595,"Ġë³Ħì¹Ń":13596,"ĠìĿ´ëĪĦìķ¼ìĥ¤":13597,"ĠìĦ¸ì»¨ëĵľ":13598,"ĠìĽĮëĵľ":13599,"£¨ìħĺ":13600,"Ġíı¬íļ¨":13601,"Ġë§¤ìĪĺ":13602,"Ġì¶ľì¤ĳ":13603,"ĠíĻķë¦½":13604,"ëª¨ëħ¸":13605,"ĠRock":13606,"ĠUF":13607,"ĠíĻĢëĶ©":13608,"ĠATK":13609,"ĠåĲĽ":13610,"Łĵ":13611,"Ġìŀ¼":13612,"ĠíĮį":13613,"Ġì°¨íĽĦ":13614,"Ġê´´ìĥģ":13615,"na":13616,"¸ë¹Ħ":13617,"Ġë¡ľíĶĦ":13618,"ĠìĦłìļ°":13619,"ĠìĹ°ë£¨":13620,"ãĥł":13621,"ek":13622,"Ġëª¨ì¹ľ":13623,"ĠëıĻì²´":13624,"Ġìŀ¥ìĽĲ":13625,"Ġë¦¬ì¿ł":13626,"Ġë°°ìľ¨":13627,"Ġì½ĶíĥĢ":13628,"ĠìłĢëŁ¬":13629,"ĠìĽĮì¹ĺ":13630,"Ġìķ¤ëĶĶ":13631,"Ġê³ĦëŀĢ":13632,"ĠíĶĮëłĪìĸ´":13633,"Ġê¹½íĮĲ":13634,"EX":13635,"ĠíĮ¨ê¸°":13636,"Ġì§Ħë¦¬":13637,"ë¬´ìĬ¤":13638,"ĠPVP":13639,"Ġë²ķíķĻ":13640,"Ġê¸°ìĪłìŀĲ":13641,"Ġë§¨ì²´ìĬ¤íĦ°":13642,"åĥ":13643,"Ġìŀ¥ìĿ´":13644,"ĠæĢ":13645,"çµ":13646,"êµŃìĸ´":13647,"Ġìłľìļ°ìĬ¤":13648,"Ġë°©ê³µ":13649,"ĠSec":13650,"Ġìŀ¬ë¦¼":13651,"Ġíİĺë¥´ìĭľìķĦ":13652,"Ġam":13653,"Ġëł¨":13654,"Ġìĥ¹":13655,"Ġì½ķ":13656,"ĠGSL":13657,"tr":13658,"Ġë©´íķĺ":13659,"Ġìłģì§Ħ":13660,"ì¹´ëĿ¼":13661,"ìĦ¸íĬ¸":13662,"Ġêµ°ê¸°":13663,"Ġê¸īê¸°ìķ¼":13664,"ĠOver":13665,"Ġì§ķíģ¬ìĬ¤":13666,"ë¡ľíĶĦ":13667,"ĠìĽĶìļĶìĿ¼":13668,"Ġìĭłíķľ":13669,"ĠëĶĶëłīíĦ°":13670,"ĠERA":13671,"Ġì½ľëĵľ":13672,"ĠìĹ¿ë³´":13673,"¦Ŀ":13674,"åĴ":13675,"Ġê°Ģì¶ķ":13676,"ĠìŀĲì²ĺ":13677,"Ġê°ķìłĦ":13678,"ĠíĨµì§¸":13679,"ĠìĨįë°ķ":13680,"Ġë³µì¢ħ":13681,"ìĿ¼ëĭ´":13682,"Ġìłķë²Į":13683,"Ġë¬´ëªħ":13684,"Ġë¦¬íĦ´":13685,"Ġë¹Ħíıī":13686,"Ġíı¬ìĭĿ":13687,"Ġìŀ¬ìŀĦ":13688,"ĠìĤ°ì±ħ":13689,"Ġéĸ":13690,"ĠãĤģ":13691,"Ġë°ĺëĮĢíİ¸":13692,"ĠìłĦë°ĺìłĦ":13693,"§£":13694,"reak":13695,"ĠíĶĦë¦¬ì¦ĺ":13696,"Ġì¡°ìĦłìĿ¸":13697,"Ġë¨¸ìĬ¤":13698,"Ġì£ĦìĨ¡":13699,"èĪ":13700,"Ġíĺ¸ë¬´ëĿ¼":13701,"ĠìĤ¬ë§ĿìŀĲ":13702,"ĠYour":13703,"ĠíĶ¼ì¹´ì¸Ħ":13704,"Ġë§Īì°¨":13705,"Ġíĳľì°½":13706,"Ġçı¾":13707,"ĠíĥĪëĭ¹":13708,"ĠíĻįì§Ħíĺ¸":13709,"íģ´ë¦°":13710,"íģ´ëłĪìĬ¤":13711,"Ġë±ħê°Ģëĵľ":13712,"åŁİ":13713,"Ġê·¸ëŀľ":13714,"Ġìĭłì¶ķ":13715,"ĠìĸĳëĮĢ":13716,"Ġãģ¤":13717,"ìĻķíĽĦ":13718,"ĠUFC":13719,"Ġíķľë¯¸":13720,"ĠëĨįìĤ¬":13721,"íĺĦìĪĺ":13722,"ĠìķĦëŀĳ":13723,"ĠìľłìĦł":13724,"ëĭĪìĭľ":13725,"Ġë°ķìĥģ":13726,"ĠìĹ´ëĵ±":13727,"Ġì½ĺìħīíĬ¸":13728,"Ġìķ¤ëĵľ":13729,"ëī´ìĬ¤":13730,"ĠíĬľëĭĿ":13731,"61":13732,"çĻ":13733,"Ġë³´ìŀī":13734,"ì¹´ìłľ":13735,"ĠíĽĦìĿ¼ëĭ´":13736,"ĠìŀħêµŃ":13737,"ĠMax":13738,"ĠHigh":13739,"ãĥ¼ãĥ«":13740,"ìłĵ":13741,"Ġëĭ¹ëĤĺëĿ¼":13742,"ĠìļĶë¥´":13743,"ĠAF":13744,"Ġëħ¸ìķĦ":13745,"ĠPv":13746,"ĠëŁ¬ëĦĪ":13747,"Ġìĸ´ë¦¬ìĦĿ":13748,"Ġìį¸":13749,"ĠíĺľìĦ±":13750,"Ġëĭ«íŀĪ":13751,"Ġíģ¬ë£¨ì¦Ī":13752,"ĠëĤ´ìĹŃ":13753,"Ġë°ľìķħ":13754,"ĠíļĮê·Ģ":13755,"Ġì²ľì£¼êµĲ":13756,"ĠíĽĦë¬¸":13757,"ĠëĤľê°Ĳ":13758,"Ġêº¼":13759,"ĠìĿ´ì¹ĺë¡ľ":13760,"ĠìĻĢìĿ´ë²ĪìĬ¤":13761,"¡´":13762,"ĠìłķìĦ¸":13763,"ĠìĬ¤íħĮë":13764,"ĠìĿ¼ëłĪë¸Ĳ":13765,"Ġìļ´ìļ´":13766,"ĠKB":13767,"ìĿ¼ë°ĺ":13768,"íĺĦì§Ħ":13769,"Ġus":13770,"ĠìĦ±íĺķ":13771,"ĠìĦłë°©":13772,"ĠìĥĿìĤ¬":13773,"ĠíĻĶìŀĲ":13774,"ĠíĤ¤ëħ¸":13775,"Ġë¯¸ìĤ¬íĤ¤":13776,"ACK":13777,"Ġë¶Ħê¸°ìłĲ":13778,"73":13779,"¾°":13780,"Ġìľłë¬´":13781,"ĠìĦ±ìĦľ":13782,"ĠíĥĢëĤĺì¹´":13783,"Ġë¶Īìĭł":13784,"Ġë³¸ìĦ±":13785,"ë²ķìĽĲ":13786,"ĠíĻĪì¦Ī":13787,"Ġê³ĦìĹ´ìĤ¬":13788,"Ġ1966":13789,"Ġê³łíĨł":13790,"Ġê¸°íķ¨":13791,"ĦìĻ":13792,"Ġì§Ģì§ĢìŀĲ":13793,"ĠêµŃìłľê³µíķŃ":13794,"Ġìĭľê¶ģ":13795,"Ġë¯¸ìľłíĤ¤":13796,"Ġë¦¬ë¦¬":13797,"ĠMin":13798,"ĠBO":13799,"Ġë²łìĿ¼":13800,"Ġì§ĦìĪĺ":13801,"Ġêº¾ìĿ´":13802,"ĠGTA":13803,"Ġë¯¸ìĬ¤íĦ°ë¦¬":13804,"Ł¼ë¸Ķ":13805,"CE":13806,"ĠíĻĶìĹ¼ë":13807,"Ġíı¬íĥĳ":13808,"Ġê°ĲìłĦ":13809,"ĠìĸĳëħĲ":13810,"Ġìķħìļ©":13811,"ĠëĵĿìĭ¤":13812,"ĠìĬ¤ì¼ĢìĿ´":13813,"ĠìĿ´ìĬ¤íĬ¸":13814,"Ġê°Ģì°½":13815,"ĠëĶ©":13816,"Ġë§Ĳë¯¸":13817,"Ġê²°ìĤ¬":13818,"ì°¨ë¡Ģ":13819,"Ġë°ķì¹ĺê¸°":13820,"ĠLight":13821,"ĠâĢł":13822,"ĠíķŃìķĦë¦¬":13823,"ë²łíĬ¸":13824,"ĠìĪĺë¹Ħì§Ħ":13825,"Ĺ¤":13826,"Ĺĺ":13827,"Ġê±°ëĬĲë¦¬":13828,"Ġëªħê³¡":13829,"Ġíı¬ëĭĪ":13830,"Ġë°°ê¸°":13831,"ĠíĤ¤ë¯¸":13832,"ĠíĶĦë¡ľìĿ´ìĦ¼":13833,"Ġä¸Ĭ":13834,"ëĥħ":13835,"£¬":13836,"¬µ":13837,"Ġìĺ¤ì¿ł":13838,"ìĸ´ë¶Ļ":13839,"ë¹¡":13840,"ĠSu":13841,"ĠëĶ°ëĤ´":13842,"Ġëª©ì°¨":13843,"Ġë£¨ìĬ¤":13844,"Ġrd":13845,"ĠêµŃìłķìĽĲ":13846,"Ġê°Ģëªħ":13847,"Ġëĭ¨ìĪ¨":13848,"ĠíħľíĶĮ":13849,"Ġë§ĮíļĮ":13850,"Ġë¯¸ìķĦ":13851,"ĠAFC":13852,"ĠåĨ":13853,"Ġìķħëł¹":13854,"ĠìĨĮìĦ¤ê°Ģ":13855,"Ġëį©íģ¬":13856,"ëłīíĬ¸":13857,"ANI":13858,"Ġëĭ¨ìĪ¨ìĹĲ":13859,"LA":13860,"Ġíķĺíĸī":13861,"Ġìĭľìĭľ":13862,"Ġìĸķ":13863,"Ġë¦¬ì¸ł":13864,"Ġì½Ķë¯¹ìĬ¤":13865,"ĠêµĲê´Ģ":13866,"Ġíĺ¸ê¸°ìĭ¬":13867,"Ġê³łìķĦ":13868,"ĠìĪĺë³µ":13869,"ĠìĥģíļĮ":13870,"ĠìĹ¬ëĭ¹":13871,"ĠëıĻì°½":13872,"ĠìĦłëĮĢ":13873,"ãĥĭ":13874,"ĠGN":13875,"ĠìĦĿë°©":13876,"ĠìķĦë¥´ì¹´":13877,"Ġë¸Įë¦¿":13878,"íĶĮëłī":13879,"Ġë°ľëłĮíĥĢìĿ¸":13880,"Ġì¹¸ëĤĺ":13881,"Ġìĸ´ì²ĺ":13882,"ĠìĿĺìļķ":13883,"Ġê¸°ìŀ¥":13884,"ĠìĤ¬ê³¼ë":13885,"Ġìĺ¤íį¼ë":13886,"Ġì£¼ê³ł":13887,"ìĨĮë¬¸":13888,"Ġê²½ìĿĺ":13889,"Ġë§¤ì§Ħ":13890,"Ġë©Ķêµ¬":13891,"Ġ113":13892,"íĺĦìŀ¬":13893,"ìłĦëł¥":13894,"ĠíĻ©íĥľìŀĲ":13895,"Ġë½ĲëĤ´":13896,"ĠìĬ¤íĬľ":13897,"ĠëĿ¼ëĤĺ":13898,"ĠìĹ¬ìłķ":13899,"Ġëħ¸ë¸Ķ":13900,"Ġëª©ìłģì§Ģ":13901,"ĠìĬ¤íĮĮìĿ´íģ¬":13902,"Ġì¹´ë¥´ë§Ī":13903,"åİŁ":13904,"Ġìŀ¥ìłľìĬ¤":13905,"ĠìĽĶê°Ħ":13906,"Ġë°ľíĺĦ":13907,"Ġë¦¬ëī´ìĸ¼":13908,"ĠíĶĦë¡ľëª¨":13909,"ë³ĳìĽĲ":13910,"ëłĪìĿ¸ìłĢ":13911,"ê¿Īì¹ĺ":13912,"ĠìĿ´ìĺ¤":13913,"Ġê°Ģê¸ī":13914,"ê¸°ë¦¬":13915,"ĠëķĮë¡ľ":13916,"ĠNP":13917,"ĠìĦŃìĻ¸":13918,"Ġì¡°ëĭ¬":13919,"Ġì°¸íĮ¨":13920,"ĠìĺĪë¦¬":13921,"Ġ118":13922,"ĠíĶĮëŀĺíĭ°ëĦĺ":13923,"Ġì¶¤ì¶Ķ":13924,"ıĮíĶĦ":13925,"Ġì§ĢëĤľ":13926,"ĠìĪĺêµ°":13927,"ĠìĨĲëħĢ":13928,"Ġëĸłëĵ¤":13929,"ĠìĬ¤íħĮìĿ´ìħĺ":13930,"©ìĿ´ëĤĺ":13931,"Ġê¹ĢìĺģìĤ¼":13932,"ì½¥íĦ°":13933,"ê³łëŀĺ":13934,"ìĤ¬ê³ł":13935,"ĠìĬ¤ì¹ĺ":13936,"Ġ450":13937,"ĠHy":13938,"Ġíģ¬ë¦¬ìĬ¤íĨł":13939,"ĠëĪĪë¹Ľ":13940,"íĹ¤ëĵľ":13941,"Ġê¹Ģìŀ¬ê·ľ":13942,"Ġìĸ´ìĮĶ":13943,"ë§Īë¬´":13944,"ĠëĤĺê³ł":13945,"Ġìĭľë¶Ģ":13946,"ĠìĦ±ì§ģìŀĲ":13947,"ĠíŀĪìĬ¤":13948,"íķ´ëĭ¹":13949,"ê²½ì°°":13950,"ĠìĬ¤íģ¬ë¦½íĬ¸":13951,"ë§¡":13952,"Ġæ°":13953,"ĠíĹĪêµ¬":13954,"ëħĦìŀĲ":13955,"Ġì¹łëłĪ":13956,"Ġê½ĤíŀĪ":13957,"ĠíĽĦìľłì¦Ŀ":13958,"Ġê°Ģê¸īìłģ":13959,"ľëįĶ":13960,"Ġê²½ëŁī":13961,"ìłĦìĦł":13962,"ĠìĨĮìĭ¤":13963,"Ġë¦¬ìĸ´":13964,"ĮëłĮ":13965,"Ġê¹Ģë³ĳ":13966,"ĠìĿĮì£¼":13967,"ëľ©ìĿ´ëĤĺ":13968,"Ġìŀłìŀ¬ëł¥":13969,"âĸł":13970,"Ġro":13971,"ĠìłĿ":13972,"ìł¯":13973,"Ġê¸°íķĺ":13974,"ìĿ¸ìłĢ":13975,"Ġê·¸ëĭ¥":13976,"Ġëĵ±êµĲ":13977,"Ġìĭłê³¡":13978,"ĠìĽĲíĻľ":13979,"ì¹´íĥĢ":13980,"íĪ¬ë¥´":13981,"ĠìĤ¬ë¡ľìŀ¡íŀĪ":13982,"Ġìłģìŀ¬":13983,"Ġê°ķíĸī":13984,"ĠíļĮìĭ¬":13985,"Ġëĭ¬ì½¤":13986,"ĠíĪ¬ìĭł":13987,"ĠìĬĪíĦ°":13988,"ĠìĹĲìĿ¼ë¦¬ìĸ¸":13989,"Ġìĳ¥":13990,"Ġë°Ķë°Ķ":13991,"Ġë°Ģì§ĳ":13992,"ì´Ŀë¦¬":13993,"ìīĲ":13994,"Ġê³µíĻĶëĭ¹":13995,"HT":13996,"Ġê°Ģëľ©ìĿ´ëĤĺ":13997,"ìłľëıĻ":13998,"Ġê³łíĶĦ":13999,"Ġì§Ģë¬¸":14000,"ĠëıĦìļĶ":14001,"Ġë¡ľëłĮ":14002,"Ġìłľë¥´":14003,"ĠìĿ¼ëł¨":14004,"Ġíķ©ëĭ¹":14005,"Ġì§ĪíĴį":14006,"Ġë¡Ŀë§¨":14007,"ĠâĨĵâĨĺâĨĴ":14008,"ģ«":14009,"ë¯¸íĦ°":14010,"ĠêµĲìĭľ":14011,"ĠìĦ¤ë¹Ħ":14012,"Ġíĺ¸íĪ¬":14013,"Ġìĭ¬íķ´":14014,"ìĸ¸ìłķ":14015,"ĠíĹĪê³µ":14016,"ĠëĳĺëŁ¬":14017,"ĠíĹ¤ë§¤":14018,"ĠFeat":14019,"ky":14020,"ĺ¥":14021,"íĶ¼ë¦¬":14022,"Ġë°ľì¹¸":14023,"Ġë°ĺì¹Ļ":14024,"ern":14025,"Ġë¸Įë¡ł":14026,"Ġê¸ĢëŁ¬ë¸Į":14027,"ĠëĶ°ëĿ¼ìŀ¡":14028,"Ġìł¤ëĭ¤":14029,"Ġìĸ´ì²ĺêµ¬ëĭĪ":14030,"oj":14031,"Ġë°ĶìĬ¤":14032,"Ġ1940":14033,"ĠìĹ´ìķħ":14034,"Ġë°±ê³¼":14035,"ĠEXP":14036,"åħ¬":14037,"ECT":14038,"Ġì´Ŀê´Ħ":14039,"ĠãĤī":14040,"ĠíĤ¬ë¡ľ":14041,"Ġê¸°íļįìĤ¬":14042,"au":14043,"ĠëĤĺìĤ¬":14044,"ĠëıĻìļĶ":14045,"Ġëĭ¨ê³¨":14046,"Ġê²°íķ¨":14047,"ĠAb":14048,"ĠìŀĲì£¼íı¬":14049,"¦Ļ":14050,"ĺìĸ´":14051,"Ġíĺ¸ìłĦ":14052,"ĠíħĮëłĪ":14053,"ëĶ¸":14054,"Ġì¢Įíĳľ":14055,"Ġëĥīê°ģ":14056,"ĠìĹĦíıĲ":14057,"ĠíĬ¸ë¡ľìĿ´":14058,"ĦìĻľëŀĢ":14059,"ĠëĮĢë³¸":14060,"Ġìłģë¦½":14061,"Ġìľłíķ´":14062,"Ġë°©íĺ¸":14063,"ĠíĶĦëł":14064,"Ġì°½ìĹħ":14065,"ĠìĺĪë°°":14066,"Ġë©§":14067,"ĠìĪĺëħĢ":14068,"Ġë§Īì´Ī":14069,"ìĻĦë":14070,"Ġíķłëĭ¹":14071,"ĠIIDX":14072,"Ġ000":14073,"ëįľ":14074,"ãĤ¨":14075,"Ġíĺ¸ë¥´":14076,"íį¼ëŁ°ìĬ¤":14077,"Ġíĸīë°©ë¶Īëªħ":14078,"íĶĦëŀĢìĭľìĬ¤ì½Ķ":14079,
[...]
